<unk>	0
<s>	0
</s>	0
.	-3.25994
▁	-3.69965
,	-3.71683
▁der	-3.75852
s	-3.93577
en	-4.03266
▁die	-4.06711
▁und	-4.10984
n	-4.16078
▁in	-4.22307
e	-4.35545
-	-4.51956
▁von	-4.73849
▁im	-4.84742
er	-4.99013
▁den	-5.01567
▁er	-5.07264
▁mit	-5.16127
▁"	-5.1649
▁des	-5.22379
▁das	-5.24739
t	-5.31468
▁wurde	-5.33263
▁ein	-5.33574
"	-5.34391
▁an	-5.36546
▁##	-5.42198
▁auf	-5.42602
▁(	-5.42735
r	-5.4532
▁dem	-5.46
▁ist	-5.48347
▁für	-5.51517
▁als	-5.51821
)	-5.53788
▁war	-5.60484
▁zu	-5.61407
▁eine	-5.63618
▁sie	-5.75701
▁am	-5.77182
▁sich	-5.77194
▁nach	-5.79098
▁aus	-5.81327
▁bei	-5.86768
▁bis	-6.02425
es	-6.11533
:	-6.17883
m	-6.1832
▁auch	-6.20932
d	-6.2295
a	-6.22976
▁zum	-6.23754
in	-6.2423
▁es	-6.35058
k	-6.35954
te	-6.36645
▁einer	-6.36806
▁über	-6.38794
▁ab	-6.41895
▁um	-6.46236
▁„	-6.46377
o	-6.48401
;	-6.49481
▁vor	-6.52384
▁durch	-6.52611
▁unter	-6.53029
g	-6.53424
ung	-6.55961
z	-6.56905
▁einem	-6.57336
i	-6.57794
l	-6.57931
▁seine	-6.58634
y	-6.6004
▁sind	-6.66296
“	-6.66974
▁ver	-6.69404
c	-6.69602
▁nicht	-6.70658
▁zur	-6.71571
▁be	-6.72156
b	-6.75568
h	-6.76358
▁jahr	-6.7688
▁werden	-6.79025
f	-6.79669
▁einen	-6.81636
▁wird	-6.83872
▁m	-6.89509
▁a	-6.90736
▁wurden	-6.92429
▁zwei	-6.93946
▁sein	-6.97586
▁de	-6.97682
le	-6.97982
ten	-6.98115
▁oder	-6.99086
▁so	-7.01253
▁wie	-7.02096
▁hatte	-7.02931
▁vom	-7.0371
▁dass	-7.07504
de	-7.08313
ge	-7.13169
).	-7.13245
▁sowie	-7.14114
p	-7.14485
an	-7.15144
▁ge	-7.1549
/	-7.15633
w	-7.15896
us	-7.16257
al	-7.1702
),	-7.17097
▁seit	-7.1826
ä	-7.21175
▁of	-7.22596
u	-7.24164
▁seiner	-7.25168
▁teil	-7.2524
▁drei	-7.25755
▁b	-7.25876
▁wo	-7.26581
",	-7.26731
sch	-7.27065
▁2019	-7.27226
der	-7.27229
be	-7.27964
▁gegen	-7.30427
v	-7.3159
▁–	-7.31964
ch	-7.3266
st	-7.33102
▁k	-7.33229
ur	-7.33822
▁diese	-7.34746
▁nur	-7.35077
▁dieser	-7.35245
▁s	-7.35311
▁zwischen	-7.35369
▁17	-7.3571
▁leben	-7.35856
▁(*	-7.37362
el	-7.37445
▁waren	-7.37645
▁noch	-7.3771
▁hat	-7.37945
▁gemeinde	-7.37946
ig	-7.38312
▁ersten	-7.38625
▁etwa	-7.39101
ar	-7.40052
▁re	-7.40251
▁c	-7.40792
▁jahre	-7.41353
▁aber	-7.41877
ra	-7.42151
▁stadt	-7.42283
▁zeit	-7.43171
is	-7.44203
▁später	-7.46104
ü	-7.46736
▁st	-7.46839
um	-7.47349
ta	-7.47689
▁da	-7.47978
▁la	-7.48115
na	-7.49838
la	-7.50009
▁während	-7.51673
ro	-7.5373
ter	-7.53794
ver	-7.5381
den	-7.54337
▁g	-7.54441
▁vier	-7.54836
▁dort	-7.55776
gt	-7.56531
▁d	-7.56669
▁u	-7.56712
re	-7.57773
ne	-7.57792
or	-7.57863
on	-7.579
▁wieder	-7.58259
ma	-7.58644
▁ihre	-7.58962
▁beim	-7.5912
▁jahren	-7.59546
▁april	-7.60123
land	-7.60247
▁man	-7.60808
ischen	-7.60946
li	-7.61214
▁liegt	-7.62312
▁h	-7.62471
é	-7.62859
et	-7.63619
lt	-7.64095
▁w	-7.64401
2	-7.64503
▁mai	-7.64813
▁geschichte	-7.64991
il	-7.65392
▁erste	-7.66154
".	-7.66827
▁le	-7.67012
▁kam	-7.67366
▁the	-7.6771
▁15	-7.69175
▁p	-7.69544
j	-7.696
it	-7.71833
▁ihr	-7.72325
’	-7.72389
▁eines	-7.73359
▁film	-7.74665
ia	-7.74777
▁f	-7.75057
▁16	-7.75118
ka	-7.76783
▁2018	-7.77412
▁jedoch	-7.77788
&	-7.78635
▁frauen	-7.79515
ler	-7.79709
▁august	-7.79964
▁zurück	-7.80831
▁mehr	-7.81039
au	-7.81201
▁sch	-7.81621
▁%	-7.81647
▁platz	-7.82057
▁bereits	-7.82142
4	-7.82511
▁januar	-7.82889
the	-7.82948
▁märz	-7.8299
▁oktober	-7.83293
x	-7.83379
ner	-7.83548
em	-7.84137
▁ca	-7.84167
ische	-7.84231
ab	-7.8445
▁zusammen	-7.84539
▁alle	-7.84742
lich	-7.8513
ing	-7.86042
bau	-7.86071
straße	-7.86085
di	-7.86245
os	-7.86253
zeit	-7.86274
iert	-7.86504
▁erhielt	-7.87024
ul	-7.87415
ca	-7.87609
▁juli	-7.87681
3	-7.87961
ko	-7.89602
▁pro	-7.89641
▁ende	-7.89904
stand	-7.9038
▁1.	-7.90443
–	-7.90977
▁september	-7.91066
▁distrikt	-7.91123
▁bau	-7.91134
ri	-7.91298
▁ha	-7.91801
man	-7.9189
▁universität	-7.91929
▁liste	-7.92622
")	-7.92746
▁konnte	-7.93507
▁2	-7.93719
th	-7.93919
▁damit	-7.94193
at	-7.94308
▁l	-7.95184
▁t	-7.95364
mann	-7.95627
▁gab	-7.96369
▁saison	-7.96555
▁v	-7.96714
ö	-7.96724
▁co	-7.96972
▁neu	-7.9723
▁ma	-7.97247
▁km	-7.97324
▁juni	-7.97566
he	-7.97868
to	-7.99213
▁weitere	-7.99449
isch	-7.99503
ut	-7.99826
▁kirche	-8.00169
▁1	-8.00333
ie	-8.00558
ke	-8.0095
▁neben	-8.0142
0	-8.01634
▁februar	-8.01656
▁&	-8.01678
id	-8.01789
▁fünf	-8.02769
▁un	-8.02771
▁deutschen	-8.0286
son	-8.04098
▁ihrer	-8.04357
▁ober	-8.0487
▁keine	-8.04881
▁18	-8.04954
▁i	-8.05013
ation	-8.05357
▁november	-8.05493
†	-8.05682
bi	-8.06117
meisterschaften	-8.06128
▁2017	-8.06265
▁j	-8.06794
▁hier	-8.07143
ti	-8.07217
▁us	-8.07424
▁vi	-8.07492
▁dann	-8.08031
▁dezember	-8.08049
ierte	-8.0844
berg	-8.08465
ton	-8.08535
▁haben	-8.08585
ce	-8.08848
▁national	-8.0895
bo	-8.09111
▁(19	-8.0922
▁bekannt	-8.09527
▁statt	-8.09613
as	-8.09632
da	-8.10377
im	-8.10514
▁begann	-8.10806
igen	-8.10932
me	-8.10944
amp	-8.11489
▁dabei	-8.11643
no	-8.11888
▁werk	-8.11997
sa	-8.12442
▁kann	-8.12541
ungen	-8.12553
▁name	-8.12566
▁zweiten	-8.12593
▁2016	-8.13101
ein	-8.1315
sten	-8.13927
ion	-8.14042
▁gewann	-8.14052
▁zunächst	-8.14465
seinem	-8.14601
ja	-8.14767
▁personen	-8.14805
ige	-8.15444
vi	-8.15868
▁anderen	-8.15974
ik	-8.16264
▁land	-8.16449
zu	-8.16644
co	-8.16669
▁o	-8.17257
▁("	-8.17841
gen	-8.17925
▁2011	-8.18127
7	-8.18169
se	-8.18284
▁and	-8.18342
▁gehört	-8.18687
▁10	-8.18818
▁ihn	-8.19076
▁sa	-8.19126
▁mitglied	-8.19261
rat	-8.19391
▁beiden	-8.19482
go	-8.19579
ina	-8.19977
▁ra	-8.20178
lo	-8.20442
6	-8.20487
ry	-8.20493
▁2015	-8.2059
tor	-8.20952
▁familie	-8.2099
▁jahrhundert	-8.21048
▁diesem	-8.21122
▁nord	-8.21489
▁je	-8.2187
▁3	-8.22199
9	-8.22393
ste	-8.2271
▁welt	-8.22847
▁sei	-8.22935
▁na	-8.23239
ga	-8.23465
grund	-8.23511
▁deutscher	-8.23607
▁berlin	-8.23665
feld	-8.23742
▁2020	-8.2388
▁haupt	-8.2399
ic	-8.24056
ha	-8.24086
▁sohn	-8.24191
▁ihm	-8.24626
1	-8.24927
bach	-8.25421
▁5	-8.25682
ir	-8.25764
▁bevölkerung	-8.25971
▁maschine	-8.2642
▁johann	-8.26532
▁dessen	-8.26668
▁di	-8.26987
▁nachdem	-8.27085
▁erstmals	-8.27105
liche	-8.27184
▁ihren	-8.27464
▁new	-8.27878
haus	-8.27921
▁heute	-8.28033
▁ort	-8.28098
ow	-8.28281
▁14	-8.28286
lichen	-8.28482
▁he	-8.285
▁mehrere	-8.28505
▁z	-8.28643
▁mal	-8.28664
ff	-8.28752
▁deutsche	-8.29148
▁gebiet	-8.29538
▁saint	-8.30928
▁art	-8.31021
–19	-8.31095
▁ka	-8.31583
ieren	-8.31748
▁ro	-8.32109
▁musik	-8.32207
▁rund	-8.32208
ba	-8.32573
un	-8.32803
▁hoch	-8.32919
ad	-8.33235
▁ebenfalls	-8.33404
▁norden	-8.3342
▁r	-8.33426
mo	-8.33526
'	-8.34073
▁nahm	-8.34306
ol	-8.34457
▁deutschland	-8.34473
▁titel	-8.35081
▁einige	-8.35134
▁ko	-8.352
▁worden	-8.35427
▁steht	-8.35767
stein	-8.35916
gang	-8.36364
5	-8.3642
▁ent	-8.37413
und	-8.3771
▁erst	-8.38146
▁befindet	-8.38186
▁region	-8.38603
▁2.	-8.38866
▁anschließend	-8.39065
ist	-8.39192
ard	-8.39268
▁arbeitete	-8.39272
die	-8.39357
ed	-8.39504
bel	-8.39555
▁ging	-8.39596
▁13	-8.39717
▁gibt	-8.40016
▁selbst	-8.40038
▁fand	-8.4017
▁se	-8.402
▁west	-8.40314
▁süden	-8.4044
▁welche	-8.40494
▁al	-8.40541
▁spiel	-8.40825
▁mo	-8.40936
▁westen	-8.40949
00	-8.41018
ze	-8.41276
chen	-8.41746
▁kilometer	-8.42278
ierung	-8.42476
ger	-8.42488
ve	-8.42597
▁weiter	-8.4291
▁sechs	-8.42926
▁po	-8.43446
▁kurz	-8.43624
pp	-8.43641
cht	-8.43786
▁studierte	-8.43949
am	-8.4415
ho	-8.44488
▁große	-8.44551
▁osten	-8.44696
ster	-8.44903
ac	-8.45177
▁was	-8.45216
▁bi	-8.45469
▁lag	-8.45583
▁trat	-8.45628
▁sehr	-8.45674
▁ob	-8.45784
ich	-8.45882
är	-8.46053
ek	-8.46088
pf	-8.46098
▁hin	-8.46226
ft	-8.46816
▁spielen	-8.46891
ag	-8.46898
ken	-8.46967
▁6	-8.47018
▁großen	-8.47424
ien	-8.47459
▁(18	-8.47514
ling	-8.4779
▁schul	-8.48092
▁el	-8.48376
▁20	-8.48405
▁ar	-8.4842
▁landes	-8.48432
▁2001	-8.4852
▁hinter	-8.49043
▁können	-8.49488
po	-8.49683
▁namen	-8.49784
▁su	-8.50091
fi	-8.50622
▁meter	-8.5079
zi	-8.508
ier	-8.50975
▁flug	-8.5099
ly	-8.51047
▁12	-8.51226
so	-8.51252
▁spielte	-8.51369
▁4	-8.51414
▁pa	-8.5147
va	-8.51509
mm	-8.51718
▁motor	-8.51801
▁her	-8.52017
▁to	-8.5212
wohl	-8.52255
spiel	-8.52311
tt	-8.52344
▁gehörte	-8.52652
20	-8.52694
▁neuen	-8.53108
▁dieses	-8.5315
▁ho	-8.5316
auf	-8.53189
▁university	-8.53271
▁gut	-8.53345
▁li	-8.53378
▁fa	-8.53469
▁anderem	-8.53647
▁olympische	-8.53674
▁neue	-8.53717
▁pi	-8.53718
si	-8.53728
men	-8.53729
ine	-8.53755
fer	-8.53785
▁ost	-8.53946
▁san	-8.53946
werk	-8.53988
▁19.	-8.54042
▁mar	-8.54135
▁wasser	-8.5417
▁wiener	-8.5417
▁kunst	-8.54483
▁ohne	-8.54531
▁dorf	-8.54828
ki	-8.54939
▁ta	-8.54997
▁historiques	-8.55029
▁berg	-8.55226
▁8	-8.55267
▁führt	-8.55272
mi	-8.55342
“.	-8.55447
▁3.	-8.55686
▁insgesamt	-8.55738
á	-8.55776
▁frei	-8.56174
▁ba	-8.56199
▁9	-8.56275
pa	-8.56474
zahl	-8.56637
8	-8.56643
▁start	-8.5666
ant	-8.5671
▁stand	-8.56803
per	-8.5693
ben	-8.56988
tal	-8.57033
▁tätig	-8.57196
▁2014	-8.57217
▁europa	-8.57442
enden	-8.5753
do	-8.57548
aus	-8.57633
ven	-8.57762
mannschaft	-8.57769
▁du	-8.57812
▁buch	-8.58011
gel	-8.58161
▁bo	-8.58246
iz	-8.58444
▁wien	-8.58596
▁gebäude	-8.58602
schaft	-8.58678
ou	-8.58811
▁südlich	-8.5883
bar	-8.58846
hl	-8.59028
innen	-8.59124
▁zudem	-8.5915
ber	-8.59172
▁gruppe	-8.59186
bei	-8.59352
▁mannschaft	-8.59361
op	-8.59388
che	-8.59953
▁haus	-8.59968
ni	-8.59969
▁7	-8.6018
▁international	-8.60185
▁karl	-8.60311
▁bar	-8.60327
ph	-8.6048
mp	-8.60555
ll	-8.60668
▁danach	-8.60904
▁car	-8.61547
recht	-8.61557
▁übernahm	-8.61573
ert	-8.61728
▁for	-8.61762
▁hatten	-8.61764
▁30	-8.61993
▁ja	-8.62064
▁groß	-8.62082
▁menschen	-8.62219
▁fest	-8.6275
lauf	-8.62827
▁sitz	-8.6348
▁ihrem	-8.63778
▁band	-8.63916
schule	-8.64146
▁führte	-8.64265
▁min	-8.64287
▁verein	-8.64402
▁karriere	-8.6469
▁per	-8.64695
▁bezeichnet	-8.64702
▁no	-8.64763
▁lang	-8.64818
17	-8.64876
▁sport	-8.65241
schen	-8.65267
▁außerdem	-8.65369
▁11	-8.6541
pe	-8.65491
mar	-8.65538
ian	-8.65617
les	-8.65988
▁männer	-8.66075
▁jahrhunderts	-8.66092
ok	-8.66203
▁gu	-8.66375
▁stein	-8.66377
▁bestand	-8.66512
▁acht	-8.66944
wa	-8.67165
ski	-8.67364
▁2021	-8.67461
▁do	-8.67512
▁frau	-8.67519
▁schloss	-8.67537
▁me	-8.67623
▁soll	-8.67632
▁wegen	-8.67728
chi	-8.67859
lu	-8.67954
▁dr	-8.68042
geschichte	-8.68314
om	-8.6868
▁wechselte	-8.68777
▁andere	-8.68897
▁dazu	-8.68985
▁produktion	-8.69054
▁ri	-8.69134
▁john	-8.69278
ei	-8.69306
▁2013	-8.69356
tion	-8.69605
▁grund	-8.69783
▁company	-8.69824
mal	-8.70391
▁genannt	-8.70507
ende	-8.7072
▁bereich	-8.7076
▁wahl	-8.71102
vor	-8.71466
▁sollte	-8.71603
▁20.	-8.71737
stadt	-8.72027
flug	-8.72041
platz	-8.72101
▁veröffentlicht	-8.72264
br	-8.72392
ell	-8.72431
▁schon	-8.7247
▁we	-8.72578
gi	-8.72645
ny	-8.73233
ci	-8.73415
nd	-8.73483
sp	-8.73499
ron	-8.73713
du	-8.73779
tra	-8.74111
▁einwohnern	-8.74278
her	-8.74397
▁allem	-8.74401
▁2008	-8.74511
ak	-8.74696
ck	-8.74997
▁erfolgte	-8.7502
▁professor	-8.75163
▁einwohner	-8.75449
▁blieb	-8.75525
▁ru	-8.75666
art	-8.7567
ru	-8.75714
▁allerdings	-8.75759
end	-8.75786
10	-8.75794
▁folgenden	-8.75796
hör	-8.75802
sche	-8.75944
▁gemeinsam	-8.75984
▁provinz	-8.76042
▁nördlich	-8.7627
▁2010	-8.76291
▁()	-8.76454
gruppe	-8.76476
▁2012	-8.76542
▁vater	-8.76721
▁2009	-8.76727
bzw	-8.76765
▁ngc	-8.77052
▁kon	-8.77124
▁18.	-8.77596
▁kinder	-8.78306
▁tod	-8.78324
ischer	-8.78616
▁erhalten	-8.78721
gebiet	-8.78757
▁jeweils	-8.78864
▁darauf	-8.78875
welt	-8.78928
hof	-8.78932
▁16.	-8.78969
ug	-8.79067
▁unternehmen	-8.79068
▁lu	-8.79242
meister	-8.7926
▁dar	-8.793
▁einsatz	-8.79354
▁mittel	-8.797
▁anfang	-8.79705
ium	-8.79849
▁erneut	-8.79927
▁staaten	-8.79948
ker	-8.79978
▁letzten	-8.80316
▁schließlich	-8.80601
▁gattung	-8.80721
▁erreichte	-8.80971
▁form	-8.81011
eck	-8.81079
▁weiteren	-8.81247
▁ex	-8.81262
▁runde	-8.81306
▁zweite	-8.81523
▁arbeit	-8.81524
burg	-8.81558
tag	-8.81575
▁viele	-8.82153
▁belegte	-8.82491
sel	-8.82515
▁süd	-8.82654
wissenschaftlich	-8.82812
▁york	-8.82886
▁kanton	-8.82903
▁lo	-8.82964
▁zehn	-8.83355
▁2000	-8.83443
▁hof	-8.83451
ica	-8.83543
▁gegründet	-8.83601
heim	-8.8387
tum	-8.84052
hu	-8.84206
▁vereinigten	-8.84348
▁französischen	-8.84352
del	-8.84525
io	-8.84577
▁starb	-8.84626
seite	-8.84672
▁tu	-8.84725
▁paris	-8.84773
▁15.	-8.85011
▁fort	-8.85057
za	-8.85162
▁sieben	-8.8559
▁kreis	-8.85779
▁rechts	-8.85852
tin	-8.86053
▁con	-8.86155
▁14.	-8.86334
▁go	-8.86372
▁jugend	-8.86424
satz	-8.86457
▁ii	-8.86501
up	-8.8665
dorf	-8.86654
▁maria	-8.86752
▁gewählt	-8.86952
fe	-8.87192
ach	-8.87198
mer	-8.87253
▁friedrich	-8.87649
▁immer	-8.87956
▁verwendet	-8.88168
▁bu	-8.88282
weg	-8.88293
▁staats	-8.88349
▁alt	-8.88404
▁darunter	-8.88523
fa	-8.88755
▁1990	-8.88807
preis	-8.88827
ill	-8.89023
▁besteht	-8.89094
ang	-8.89168
itz	-8.89239
▁finale	-8.89265
zen	-8.89358
▁internationale	-8.89448
▁höhe	-8.89501
▁partei	-8.89528
▁erschien	-8.89638
tz	-8.89712
▁viel	-8.8979
▁wilhelm	-8.89917
wi	-8.8995
▁diesen	-8.90257
kl	-8.90339
▁stark	-8.90394
▁münchen	-8.90467
▁studium	-8.90562
▁bundes	-8.90607
▁beginn	-8.9062
▁französische	-8.90648
▁em	-8.90654
▁6.	-8.90693
lang	-8.90772
▁ließ	-8.90774
▁musste	-8.90865
form	-8.90967
▁rahmen	-8.91153
▁1999	-8.91157
los	-8.91175
kirche	-8.9122
geb	-8.91323
▁mark	-8.91383
▁fl	-8.91433
▁ernannt	-8.91451
han	-8.91477
heit	-8.91617
▁pe	-8.91629
▁einzel	-8.9167
iger	-8.91735
▁département	-8.91749
▁betrieb	-8.91775
ett	-8.9179
▁bedeutung	-8.92048
▁westlich	-8.92329
▁jahres	-8.92467
▁sta	-8.9253
▁monuments	-8.92605
iv	-8.92789
▁best	-8.92827
▁2007	-8.92975
▁preis	-8.92979
keit	-8.93196
▁befinden	-8.93255
pi	-8.93532
vo	-8.93532
system	-8.93563
▁wenn	-8.93701
.000	-8.93748
▁stellte	-8.9382
▁br	-8.93922
▁tauben	-8.93968
eh	-8.93994
if	-8.93998
▁flugzeug	-8.94107
tu	-8.9424
ub	-8.94266
bl	-8.94278
▁folgte	-8.94291
▁ku	-8.94294
▁sondern	-8.94312
film	-8.94463
▁doch	-8.94586
▁künstler	-8.94653
▁schw	-8.94697
▁geboren	-8.9476
▁fc	-8.94787
▁geographie	-8.94806
▁album	-8.94809
▁franz	-8.95099
ß	-8.95214
wo	-8.95409
dr	-8.95469
selben	-8.95526
ör	-8.95531
stellung	-8.9565
▁17.	-8.95688
▁knapp	-8.95716
▁lage	-8.95743
▁mitte	-8.9588
sur	-8.95881
▁millionen	-8.96338
▁1945	-8.96341
▁straße	-8.96603
▁direkt	-8.96627
▁beide	-8.96693
▁uhr	-8.96765
dy	-8.96814
▁sommer	-8.96873
▁zog	-8.96938
mit	-8.96985
▁ne	-8.97046
ib	-8.97117
meisterschaft	-8.97168
▁kirchen	-8.97192
▁video	-8.97269
▁jo	-8.97281
▁georg	-8.97288
bahn	-8.97372
▁unfall	-8.97405
▁tochter	-8.97435
▁13.	-8.97616
30	-8.97633
▁general	-8.97636
ius	-8.97727
▁veröffentlichte	-8.97993
and	-8.98001
▁tag	-8.98024
▁cm	-8.98308
▁denen	-8.9832
▁einzige	-8.98346
cher	-8.98368
▁tor	-8.98551
tel	-8.98621
▁12.	-8.98639
ud	-8.98741
▁liga	-8.98816
▁fluss	-8.98862
od	-8.9898
▁alter	-8.99003
dienst	-8.99092
mon	-8.99106
fl	-8.99291
▁team	-8.99371
▁absolvierte	-8.99388
▁ehe	-8.99438
▁habe	-8.99529
▁wald	-8.9961
▁spieler	-8.99648
▁militär	-8.99819
▁hans	-9.0003
▁at	-9.0006
▁polen	-9.00093
teil	-9.00143
▁tr	-9.00243
▁aktiv	-9.00282
▁mi	-9.0038
stelle	-9.00435
▁2005	-9.00548
▁1998	-9.00822
▁entstand	-9.01061
▁london	-9.01146
)"	-9.01174
je	-9.01264
▁mannschaften	-9.01391
ku	-9.01406
▁benannt	-9.01475
▁beteiligt	-9.01476
▁nieder	-9.01624
▁mu	-9.01647
ai	-9.01739
▁entfernt	-9.01805
▁100	-9.01897
▁kultur	-9.01917
▁pu	-9.02144
▁zuvor	-9.02305
trag	-9.02326
wald	-9.02608
▁arbeiten	-9.02706
18	-9.02965
▁ag	-9.03052
steig	-9.03053
▁sp	-9.03075
▁formula	-9.03146
▁möglich	-9.03173
▁50	-9.032
gesetzt	-9.03237
ität	-9.03298
ice	-9.03331
ierten	-9.0339
▁michael	-9.03471
▁rang	-9.03611
▁fußball	-9.03712
▁insbesondere	-9.03808
▁gegenüber	-9.03855
▁qualifikation	-9.03885
zug	-9.03989
amerikanische	-9.04021
12	-9.04098
tier	-9.04131
▁ziel	-9.04457
▁nun	-9.0461
tre	-9.0477
ty	-9.04772
▁24.	-9.04806
▁prozent	-9.0482
ip	-9.04845
▁21.	-9.0497
▁25	-9.05093
veröffentlichung	-9.05166
▁damals	-9.05192
▁zeigt	-9.05193
▁2004	-9.05208
kon	-9.05393
hi	-9.05408
▁van	-9.0553
▁davon	-9.05537
▁22.	-9.05791
ort	-9.05817
ot	-9.05888
sicht	-9.05949
wand	-9.05997
▁ausbildung	-9.06018
▁halb	-9.06041
▁gesellschaft	-9.06111
▁9.	-9.06139
▁österreichische	-9.06171
▁folge	-9.06202
▁26.	-9.06208
▁burg	-9.06299
19	-9.06504
▁klein	-9.06543
▁österreich	-9.06568
ment	-9.06768
▁5.	-9.0696
▁4.	-9.06996
▁hu	-9.07012
leg	-9.07182
dem	-9.07226
▁weibliche	-9.07239
,5	-9.07368
▁dienst	-9.07727
▁see	-9.07754
▁ehemalige	-9.07781
iden	-9.07925
▁entdeckt	-9.0794
▁frankreich	-9.07945
cker	-9.07967
buch	-9.08077
mat	-9.08125
▁chor	-9.0817
▁errichtet	-9.08325
ham	-9.08373
▁fu	-9.08439
▁wohn	-9.08451
hr	-9.08465
erhalb	-9.0857
▁schrieb	-9.08579
▁regierung	-9.08622
ay	-9.08648
▁offen	-9.08693
nie	-9.0874
▁gi	-9.0878
▁eingesetzt	-9.08795
log	-9.08824
▁schule	-9.08848
▁zahlreiche	-9.08859
▁inter	-9.08871
▁konnten	-9.08979
▁gründete	-9.09
auch	-9.09016
▁richtung	-9.09033
▁10.	-9.09121
we	-9.09174
▁fahrzeuge	-9.09207
▁theater	-9.09208
etz	-9.0923
tan	-9.09302
▁gesamt	-9.09474
ologie	-9.09498
min	-9.0953
▁fast	-9.09622
▁ki	-9.0968
▁privat	-9.09712
pu	-9.09719
▁natur	-9.09813
▁ange	-9.10219
▁serie	-9.10249
ov	-9.10352
▁herkunft	-9.10434
mb	-9.10442
gesellschaft	-9.10442
▁amt	-9.10659
▁nordosten	-9.10678
con	-9.10952
▁meister	-9.1115
▁post	-9.11159
▁cha	-9.11286
▁südwesten	-9.11483
spieler	-9.11514
▁volks	-9.11579
▁gleich	-9.1167
fall	-9.11714
▁7.	-9.11807
pro	-9.11811
▁league	-9.11832
plan	-9.11849
▁straßen	-9.11857
▁werke	-9.11972
–18	-9.12054
ale	-9.1209
▁walzer	-9.1214
▁23.	-9.12234
▁gleichen	-9.12306
▁besuchte	-9.12422
af	-9.12481
▁mutter	-9.12511
▁deutlich	-9.1262
▁1997	-9.12621
▁1960	-9.12621
qui	-9.12645
ide	-9.12677
▁mor	-9.12687
▁schiff	-9.12705
▁wa	-9.12714
▁roman	-9.12763
q	-9.12763
▁rolle	-9.12777
ley	-9.12879
▁arbeits	-9.12909
▁2002	-9.1306
▁"(	-9.1307
▁lebens	-9.13112
universität	-9.13138
▁spiele	-9.13225
▁bruder	-9.1324
▁8.	-9.13277
▁weg	-9.13348
▁carl	-9.13376
▁2003	-9.13405
▁1994	-9.13507
▁1995	-9.13733
lie	-9.13748
▁=	-9.13873
gl	-9.13951
▁1980	-9.14106
▁könig	-9.14114
▁früh	-9.14227
▁eigene	-9.14346
sta	-9.14405
▁paul	-9.14461
▁erwähnt	-9.14475
▁verläuft	-9.14876
halt	-9.15049
▁literatur	-9.1511
raum	-9.15123
▁heutigen	-9.1513
gu	-9.15207
▁nordwesten	-9.15229
▁or	-9.1528
tri	-9.15709
▁25.	-9.15732
liga	-9.1574
bild	-9.15911
▁gehören	-9.15995
▁2006	-9.16019
ini	-9.16049
▁ad	-9.16103
▁verschiedenen	-9.16166
ong	-9.16196
ord	-9.1623
nt	-9.16256
▁recht	-9.16273
▁heinrich	-9.16369
rie	-9.16448
str	-9.16517
isten	-9.16709
▁kleine	-9.16798
ismus	-9.16829
▁folgender	-9.16838
*	-9.16929
▁betrug	-9.17137
▁usa	-9.17243
▁cor	-9.17293
▁arten	-9.17317
▁entstanden	-9.17319
▁reihe	-9.17354
oli	-9.17362
▁bas	-9.17365
kan	-9.17369
í	-9.17721
▁folgende	-9.1773
▁auto	-9.17778
com	-9.17788
old	-9.1794
nis	-9.17976
kom	-9.17998
▁reich	-9.18004
▁institut	-9.18037
▁rück	-9.18128
kreis	-9.18172
▁kehrte	-9.18306
verein	-9.18331
tsch	-9.18382
yl	-9.18389
ana	-9.18402
sk	-9.1865
▁weil	-9.18806
▁28.	-9.18867
▁grand	-9.18881
bereich	-9.18923
▁südosten	-9.18951
▁lehr	-9.19009
lin	-9.19046
nde	-9.19306
▁kar	-9.19355
▁liegen	-9.19359
▁kamen	-9.19439
ju	-9.19447
▁gewesen	-9.19528
▁entwicklung	-9.19641
all	-9.19732
▁will	-9.19867
▁ir	-9.19919
fr	-9.20093
sieg	-9.20142
▁paar	-9.20197
▁gründung	-9.20303
▁spielzeit	-9.20355
halb	-9.20371
ges	-9.20387
▁verschiedene	-9.20429
▁christian	-9.20435
▁end	-9.20461
sweise	-9.20467
▁as	-9.20596
▁minuten	-9.20633
▁dafür	-9.20703
▁bundesstaat	-9.20766
ec	-9.20975
des	-9.21114
▁sekunden	-9.21156
schlag	-9.21254
▁au	-9.21319
▁lange	-9.214
40	-9.21412
▁11.	-9.21444
aktion	-9.21515
▁gilt	-9.21528
ros	-9.21532
inger	-9.2155
dia	-9.21576
▁machte	-9.21726
▁weber	-9.21729
▁setzte	-9.21741
see	-9.21746
▁beispiel	-9.2188
▁si	-9.21901
typ	-9.21936
▁22	-9.22034
50	-9.22129
schiff	-9.22194
▁21	-9.22229
▁strecke	-9.22279
▁1950	-9.22284
arbeit	-9.22293
▁ganz	-9.22517
▁nr	-9.22527
▁robert	-9.22531
▁schwer	-9.22603
▁zusätzlich	-9.22683
▁ger	-9.22719
schw	-9.2273
ów	-9.22756
weise	-9.22763
ji	-9.22937
▁letzte	-9.23011
▁museum	-9.23022
▁fe	-9.23081
▁bra	-9.23082
▁beträgt	-9.23091
▁landwirtschaft	-9.23115
▁bevor	-9.23221
ick	-9.23293
▁projekt	-9.23416
dauer	-9.23462
lan	-9.23503
▁staffel	-9.23576
▁sozial	-9.23589
nes	-9.23635
▁kreuz	-9.23691
▁klasse	-9.23732
serie	-9.23766
▁ti	-9.23854
▁wal	-9.23973
▁darüber	-9.24339
▁ju	-9.2438
▁ausgetragen	-9.24427
kel	-9.24566
igkeit	-9.24708
nachbargemeinden	-9.24743
▁außen	-9.24803
▁bal	-9.25007
▁40	-9.25055
▁zi	-9.25073
▁dritten	-9.25283
▁weit	-9.25287
▁gruppen	-9.254
11	-9.25435
jo	-9.25482
▁häufig	-9.25576
▁vertrag	-9.25591
national	-9.25644
▁kleinen	-9.25681
▁fach	-9.25694
gg	-9.25827
▁aufgenommen	-9.25836
16	-9.25906
▁1970	-9.26001
▁nahe	-9.26017
▁30.	-9.26147
▁abge	-9.26151
bu	-9.26208
▁armee	-9.26252
▁24	-9.26314
▁har	-9.26315
▁fr	-9.26521
stoff	-9.26585
▁forschungs	-9.26676
val	-9.2668
▁fo	-9.26762
▁ursprünglich	-9.26762
▁seite	-9.26918
▁x	-9.26943
▁stehen	-9.2699
▁ke	-9.27067
enberg	-9.27098
gar	-9.27245
ville	-9.27306
ya	-9.27486
ille	-9.27566
ct	-9.27602
rad	-9.27631
▁flughafen	-9.27702
▁weiß	-9.27772
▁27.	-9.27778
▁laut	-9.27804
oni	-9.27937
▁deutsch	-9.27959
▁mitarbeiter	-9.27968
▁my	-9.28037
▁ortsteil	-9.28162
▁seiten	-9.28275
▁lied	-9.28301
▁arrondissement	-9.28555
▁genutzt	-9.28555
▁strauss	-9.28555
▁1996	-9.28561
ordnung	-9.28573
▁früher	-9.2858
amt	-9.28616
▁heraus	-9.28642
▁peter	-9.28856
▁1972	-9.28991
▁fi	-9.29018
▁ni	-9.29026
▁pat	-9.29149
äh	-9.29176
▁republik	-9.29267
har	-9.29296
ast	-9.29352
len	-9.29361
wei	-9.29443
▁kein	-9.29452
▁hamburg	-9.29607
gebäude	-9.29624
▁verbindung	-9.29823
▁mann	-9.29857
uk	-9.29865
▁29.	-9.2997
▁grün	-9.30001
ucht	-9.30436
▁nähe	-9.30462
▁erster	-9.30568
13	-9.30613
25	-9.30778
▁lehrer	-9.30784
▁fall	-9.30843
▁somit	-9.30869
▁ehemaligen	-9.30937
mittel	-9.31037
▁alten	-9.3104
▁befand	-9.31161
ür	-9.31167
▁polizei	-9.31197
lass	-9.3127
sitz	-9.31273
▁allen	-9.31308
▁gast	-9.31319
ete	-9.31381
haft	-9.31411
▁ausge	-9.31476
š	-9.31625
pel	-9.3166
reihe	-9.31934
▁eng	-9.32021
▁text	-9.32036
▁woiwodschaft	-9.32071
▁position	-9.32166
istisch	-9.32353
halten	-9.32361
▁gelang	-9.32374
▁sc	-9.32452
▁not	-9.32469
▁1975	-9.32525
▁1992	-9.32525
▁umgeben	-9.32529
“)	-9.32567
ano	-9.32617
▁ch	-9.32663
▁schüler	-9.32728
▁prä	-9.3273
24	-9.32779
▁ga	-9.32784
▁)	-9.32803
▁school	-9.32882
▁anton	-9.32934
ō	-9.3297
▁raum	-9.32977
age	-9.33174
▁bildet	-9.33266
bro	-9.33318
▁luft	-9.33392
▁östlich	-9.33441
sy	-9.33459
▁größte	-9.33517
▁te	-9.336
pur	-9.3363
95	-9.33702
institut	-9.33708
▁ben	-9.33783
▁präsident	-9.33804
▁reichs	-9.33821
▁josef	-9.33878
.“	-9.34022
▁pass	-9.34054
stände	-9.3427
musik	-9.3428
meter	-9.34306
unter	-9.34314
▁leicht	-9.34323
ring	-9.34341
▁tra	-9.34434
▁tümmler	-9.34637
ting	-9.34659
zy	-9.3488
▁ic	-9.34883
ó	-9.34931
reich	-9.34942
ost	-9.35023
▁0	-9.35106
▁erzielte	-9.35167
▁1991	-9.35259
▁oft	-9.35309
kommen	-9.35355
▁weltkrieg	-9.35392
sport	-9.35407
▁herrschaft	-9.35418
▁wi	-9.35427
▁all	-9.35434
nach	-9.35485
▁1954	-9.35722
ara	-9.3573
ika	-9.3577
▁siehe	-9.35789
▁organisation	-9.35824
▁tri	-9.35941
▁britischen	-9.3598
spielen	-9.3599
nahme	-9.36007
tet	-9.36068
erin	-9.36242
▁bro	-9.36348
▁kaiser	-9.36395
96	-9.36496
lle	-9.36608
▁besatzung	-9.36649
▁city	-9.367
sz	-9.36749
▁artikel	-9.36889
▁song	-9.36928
fahrt	-9.37076
▁bronze	-9.37116
▁hinaus	-9.37164
▁mitglieder	-9.37292
▁río	-9.37407
europa	-9.37521
▁river	-9.3774
▁körper	-9.37749
▁ludwig	-9.37762
rich	-9.37864
ellen	-9.37977
▁außer	-9.38066
▁1993	-9.38069
▁mont	-9.381
▁nie	-9.38195
▁einge	-9.38197
▁kriegs	-9.38235
ix	-9.38256
▁kloster	-9.38286
▁kampf	-9.38324
▁tage	-9.38355
(	-9.38385
▁schweizer	-9.38418
▁ve	-9.3844
▁stammt	-9.38527
ex	-9.38531
uch	-9.3858
▁zeitpunkt	-9.38594
▁entsprechend	-9.387
▁geb	-9.38763
▁plan	-9.38824
fried	-9.38878
▁akademie	-9.38883
lage	-9.38993
hausen	-9.39012
▁ausgezeichnet	-9.39023
nden	-9.39084
▁los	-9.39091
▁boden	-9.39158
▁unternehmens	-9.39341
88	-9.3937
▁bahn	-9.39377
▁pan	-9.39395
gehen	-9.39469
▁finden	-9.39534
▁studien	-9.39651
▁bezirk	-9.39737
▁teilnehmer	-9.3983
▁macht	-9.39876
▁politik	-9.39908
15	-9.39925
nummer	-9.39991
wer	-9.40011
▁meist	-9.40032
▁funktion	-9.40054
▁ernst	-9.40201
▁halbfinale	-9.40292
▁zahl	-9.40316
ef	-9.40352
leben	-9.40354
reg	-9.40401
über	-9.40405
familie	-9.40467
▁verheiratet	-9.40468
west	-9.40471
▁1989	-9.40474
▁schnell	-9.40628
ey	-9.40637
ng	-9.40649
ah	-9.40708
▁bern	-9.40726
▁heiratete	-9.40961
▁schied	-9.40979
▁y	-9.41042
runde	-9.41149
gemeinde	-9.41415
80	-9.41417
charts	-9.41483
▁chr	-9.41483
ministerium	-9.4168
▁regional	-9.41712
mor	-9.41819
▁damalige	-9.41941
▁zuge	-9.41981
▁eu	-9.42017
▁feld	-9.42052
▁del	-9.42053
▁kur	-9.42071
lot	-9.42108
▁mon	-9.42113
▁voll	-9.42173
hin	-9.42252
▁erfolgreich	-9.42297
isierung	-9.4234
▁1930	-9.42445
▁tief	-9.42449
▁daraufhin	-9.42464
kin	-9.42472
forschung	-9.42478
▁druck	-9.42534
▁(20	-9.42554
▁politiker	-9.42559
nah	-9.42645
cz	-9.42647
▁erfolg	-9.42653
su	-9.42727
san	-9.42755
▁distrikts	-9.42778
▁rom	-9.4285
56	-9.42993
45	-9.43068
wagen	-9.43068
führung	-9.43136
▁ak	-9.43155
85	-9.43192
▁thomas	-9.43248
my	-9.43274
cal	-9.43286
▁meisten	-9.43336
▁besonders	-9.43431
▁besondere	-9.43431
▁college	-9.43432
lei	-9.43479
▁handelt	-9.43572
lon	-9.43695
▁tour	-9.43917
legen	-9.43953
▁zwar	-9.43961
▁hal	-9.43999
eb	-9.44015
ssen	-9.44027
ständig	-9.44032
▁23	-9.44136
turm	-9.44161
rum	-9.44226
▁bild	-9.44414
cha	-9.44479
▁besitz	-9.44518
res	-9.44531
▁26	-9.44554
▁cr	-9.44749
ria	-9.44789
▁ps	-9.44798
▁wirtschaft	-9.4489
▁joseph	-9.44946
▁1961	-9.4495
▁fanden	-9.4498
▁heimat	-9.45022
wissenschaft	-9.45024
betrieb	-9.45033
▁park	-9.45055
▁ihnen	-9.45132
▁wind	-9.45207
▁geht	-9.45261
▁1973	-9.45462
▁holz	-9.45472
▁weiterhin	-9.45481
▁sehen	-9.45493
reif	-9.45649
by	-9.45667
▁handlung	-9.45677
bis	-9.45757
ologe	-9.45773
▁max	-9.4583
▁spielt	-9.4585
ob	-9.45859
▁cup	-9.45861
05	-9.45959
kar	-9.46017
21	-9.46069
▁leitung	-9.4609
▁stil	-9.46109
▁festival	-9.46117
▁schwarz	-9.4615
gabe	-9.46187
ala	-9.46346
zo	-9.4644
▁aufge	-9.46443
▁31.	-9.46457
▁aller	-9.46476
rekord	-9.46489
▁königreich	-9.465
licher	-9.46546
anz	-9.46623
▁division	-9.4668
▁bahnhof	-9.46688
▁stelle	-9.46711
▁oper	-9.46827
hor	-9.46983
gie	-9.46997
teilung	-9.47047
▁familien	-9.47078
schluss	-9.47083
▁cu	-9.47087
▁daher	-9.4713
▁wettbewerb	-9.47143
▁besten	-9.47275
▁krieg	-9.47447
▁köln	-9.47527
▁1982	-9.47528
51	-9.47535
▁weniger	-9.47536
stätte	-9.47542
▁hintergrund	-9.47595
▁sin	-9.47663
▁award	-9.47697
▁leiter	-9.47811
av	-9.47858
▁ski	-9.47901
▁objekt	-9.47923
wie	-9.48013
küste	-9.48042
frei	-9.48044
▁mag	-9.4807
band	-9.48133
treten	-9.48172
▁dom	-9.48197
60	-9.48244
liste	-9.48311
ban	-9.48359
only	-9.48402
▁frankfurt	-9.48412
90	-9.4843
▁bur	-9.48444
69	-9.48558
▁eltern	-9.48576
ita	-9.48614
▁hervor	-9.48619
herr	-9.48658
▁kol	-9.48702
▁grab	-9.48728
▁trans	-9.48764
pol	-9.48923
ari	-9.48979
▁liebe	-9.48989
▁mm	-9.49039
▁wenig	-9.49046
▁tätigkeit	-9.491
träger	-9.49114
▁1920	-9.49124
▁markt	-9.49146
▁verlag	-9.49166
motor	-9.49271
hab	-9.4932
▁fernseh	-9.49322
ologi	-9.49437
ette	-9.49455
▁schön	-9.49553
▁zentrum	-9.49613
41	-9.49738
elle	-9.49798
▁aufgeführt	-9.49819
schl	-9.49864
schließlich	-9.49874
▁gold	-9.49917
leiter	-9.49948
▁direktor	-9.4999
▁grenze	-9.50035
▁hielt	-9.50149
yo	-9.50164
▁portugal	-9.50169
▁1988	-9.50177
▁ton	-9.50223
▁stieg	-9.50233
▁schweiz	-9.50341
dig	-9.50418
▁turnier	-9.50467
for	-9.50481
ate	-9.50531
▁japan	-9.50563
▁gal	-9.50652
▁erreicht	-9.50666
fälle	-9.50708
▁punkte	-9.50709
▁technische	-9.50801
akt	-9.50811
▁air	-9.5083
sort	-9.5091
23	-9.51006
▁politische	-9.51097
▁kn	-9.51103
includ	-9.51248
▁wirken	-9.5127
▁euro	-9.51305
fahren	-9.51521
schrift	-9.51531
▁top	-9.51557
tische	-9.51563
▁kor	-9.5161
▁kapitän	-9.51621
▁etwas	-9.51665
gon	-9.51721
port	-9.51786
gezogen	-9.51811
▁ihres	-9.51836
70	-9.51954
▁wohl	-9.52006
dra	-9.52026
▁römisch	-9.52105
höhe	-9.52108
▁hannover	-9.52114
fo	-9.52114
▁vorname	-9.52141
98	-9.52149
▁pre	-9.5216
▁va	-9.52167
don	-9.52237
ew	-9.52269
▁ur	-9.52276
64	-9.52325
wissenschaften	-9.52328
▁wuchs	-9.52339
▁winter	-9.524
punkt	-9.52497
▁stück	-9.52529
tisch	-9.52551
▁erschienen	-9.52573
▁jungen	-9.52645
wertung	-9.52674
▁johannes	-9.52746
que	-9.52753
▁sieg	-9.52862
▁lediglich	-9.52887
▁unterstützt	-9.52887
▁1952	-9.52891
▁ehren	-9.52926
▁tal	-9.52958
tritt	-9.53027
35	-9.53036
▁wirtschafts	-9.53182
voll	-9.5335
ran	-9.53369
▁bor	-9.53376
weit	-9.53423
▁par	-9.53426
▁zürich	-9.5344
▁eigenen	-9.53489
▁teilweise	-9.53537
▁sk	-9.5361
▁200	-9.53673
▁größten	-9.53693
▁heiligen	-9.53714
pan	-9.53743
▁bald	-9.53773
▁otto	-9.53803
chel	-9.53811
99	-9.53906
▁rennen	-9.53955
ii	-9.54034
▁landkreis	-9.54038
isiert	-9.5408
ive	-9.5415
▁siedlung	-9.54236
igung	-9.54258
▁stadtteil	-9.54295
▁vorder	-9.54356
▁bank	-9.54395
▁rot	-9.54432
dan	-9.54518
▁wesentlich	-9.54554
▁1964	-9.54561
▁ebenso	-9.54565
▁silber	-9.54571
linie	-9.54596
▁play	-9.5464
▁startete	-9.54721
rit	-9.54792
▁russische	-9.54878
▁heim	-9.55028
▁ol	-9.55068
▁darstellung	-9.55144
wä	-9.55153
▁autor	-9.55228
▁regel	-9.55265
68	-9.55296
▁namens	-9.55303
58	-9.55354
▁rat	-9.55356
stellen	-9.55372
▁nachfolger	-9.55396
wirtschaft	-9.55499
wasser	-9.55507
▁vierte	-9.55508
▁parlament	-9.55522
▁muss	-9.55541
verhältnis	-9.55594
one	-9.55602
pri	-9.55646
▁sogenannte	-9.55693
97	-9.5572
verband	-9.55816
neu	-9.55824
▁sand	-9.55826
▁fahr	-9.5584
▁japanische	-9.55853
schnitt	-9.55859
92	-9.55866
met	-9.55903
29	-9.55917
xi	-9.55949
▁reg	-9.55992
eu	-9.56088
▁verkehr	-9.56107
pt	-9.56217
▁orgel	-9.56242
▁truppen	-9.56268
▁35	-9.56277
▁durchgeführt	-9.56313
pl	-9.56329
fest	-9.56357
▁martin	-9.56401
rang	-9.56548
▁hohen	-9.56568
▁neun	-9.56575
lieb	-9.56587
führer	-9.56696
ska	-9.56705
bruch	-9.56859
▁kommen	-9.56868
▁sh	-9.56936
kunde	-9.56939
war	-9.56966
54	-9.57041
▁lassen	-9.57284
gericht	-9.57317
91	-9.57351
▁einigen	-9.57362
]	-9.57395
▁1956	-9.57403
alen	-9.57451
▁radio	-9.57483
28	-9.57528
▁wort	-9.5776
▁bezeichnung	-9.57826
▁kommt	-9.57973
druck	-9.58152
▁abschluss	-9.58158
▁frank	-9.58241
las	-9.58243
▁entwickelte	-9.58367
▁°	-9.58401
acht	-9.58403
ure	-9.58426
▁real	-9.58561
▁kr	-9.58607
▁england	-9.58633
sh	-9.58651
77	-9.58683
ober	-9.5873
22	-9.58781
mont	-9.5884
lé	-9.58883
▁val	-9.58885
▁trug	-9.58897
ali	-9.58899
▁stellt	-9.58914
▁lokal	-9.59061
▁metern	-9.59117
▁hauptsächlich	-9.59139
▁schlacht	-9.5914
▁1986	-9.59146
▁fuß	-9.59196
▁neuer	-9.59222
▁brand	-9.59232
ade	-9.59246
▁1000	-9.59281
14	-9.5947
wert	-9.59473
▁laufbahn	-9.59614
ish	-9.59724
öl	-9.59736
▁wenige	-9.59781
▁endete	-9.59805
▁ste	-9.59847
ino	-9.60051
bra	-9.60065
jahr	-9.60092
▁hälfte	-9.60104
hol	-9.60105
▁zeitschrift	-9.60182
onne	-9.60259
▁zwölf	-9.60319
▁breit	-9.60322
38	-9.60409
▁19	-9.60434
nik	-9.60452
jährige	-9.60484
stufe	-9.60554
win	-9.60601
ux	-9.60684
▁dis	-9.60698
nia	-9.60753
fabrik	-9.6076
ré	-9.60791
32	-9.60792
ap	-9.60816
▁junge	-9.60816
leistung	-9.6088
▁gebildet	-9.60914
▁könnte	-9.60914
▁1958	-9.60922
ziehen	-9.60925
ative	-9.60927
▁gar	-9.61024
▁ddr	-9.61033
tischen	-9.61109
▁william	-9.61122
▁insel	-9.61125
▁leitete	-9.61133
▁fenster	-9.61209
ight	-9.6123
▁wirkte	-9.61231
▁vereins	-9.61378
▁lebte	-9.6151
▁geplant	-9.6152
89	-9.61584
76	-9.61602
▁modell	-9.61618
▁george	-9.61644
▁anti	-9.61702
75	-9.61732
▁jede	-9.61757
lau	-9.61851
▁beginnt	-9.61899
▁70	-9.61922
▁sal	-9.61992
▁wild	-9.6211
cy	-9.62121
▁1968	-9.62123
▁sternbild	-9.62127
ingen	-9.62137
tik	-9.62144
staat	-9.62221
rand	-9.62286
▁red	-9.62299
▁gebaut	-9.62375
87	-9.62409
▁aufstieg	-9.62452
ath	-9.62504
stück	-9.62607
ada	-9.6268
▁system	-9.62714
▁schwester	-9.62725
hy	-9.62732
▁bad	-9.62799
▁besitzt	-9.62828
rus	-9.62841
▁trainer	-9.62928
86	-9.62965
▁hart	-9.63037
▁betriebs	-9.63097
▁britische	-9.63112
ep	-9.63224
▁zer	-9.63234
▁düsseldorf	-9.63331
▁daneben	-9.63332
▁verbunden	-9.63333
▁1933	-9.63337
▁überwiegend	-9.63392
▁ergebnisse	-9.63438
▁hafen	-9.63464
▁kre	-9.63478
▁45	-9.63494
;*	-9.63573
▁eigen	-9.6361
▁nu	-9.63639
tar	-9.63644
▁berufs	-9.63651
▁bord	-9.63661
▁union	-9.63673
▁zentral	-9.63754
▁brachte	-9.63769
▁lauf	-9.63791
▁klima	-9.63922
zentrum	-9.6393
▁zuschauer	-9.63947
▁1944	-9.63951
▁lichtjahre	-9.63992
▁38	-9.64095
27	-9.6418
▁32	-9.64219
▁durchschnitt	-9.64244
▁also	-9.64309
▁konzert	-9.6434
▁american	-9.6456
▁1962	-9.64562
▁kopf	-9.64573
häuser	-9.64622
ona	-9.64641
▁hand	-9.64734
▁kan	-9.64797
0.000	-9.64856
sdorf	-9.6486
▁fahrzeug	-9.64945
▁turm	-9.64948
▁unterschiedlich	-9.65023
fach	-9.65061
mel	-9.65087
▁1938	-9.6519
▁umfasst	-9.65191
▁wahlkreis	-9.6521
▁diente	-9.65277
wachs	-9.65309
▁verlor	-9.65342
tell	-9.65381
hand	-9.65473
benz	-9.65519
▁medien	-9.65557
▁verlauf	-9.65618
rin	-9.65685
minister	-9.65772
▁trotz	-9.65803
▁1976	-9.65816
▁lief	-9.6589
rate	-9.65931
ial	-9.65973
bre	-9.65974
ref	-9.66039
van	-9.66168
aria	-9.66173
mut	-9.66242
▁unabhängig	-9.66438
▁erwarb	-9.66439
▁1965	-9.66444
▁1987	-9.66445
▁david	-9.66459
▁einwohnerzahl	-9.66485
arten	-9.6652
▁folgen	-9.66531
▁main	-9.66552
mie	-9.66621
▁stadion	-9.66666
78	-9.66703
▁ly	-9.66706
▁world	-9.66761
für	-9.6679
▁angegeben	-9.66815
wahl	-9.6688
▁aufbau	-9.67045
▁1946	-9.67075
▁1974	-9.67077
▁1981	-9.67077
▁schauspieler	-9.6708
car	-9.67087
▁vo	-9.67088
▁unterlag	-9.67117
▁ortschaft	-9.67146
off	-9.67175
▁gestellt	-9.67231
▁qua	-9.67275
▁offizier	-9.673
▁hersteller	-9.67301
▁europäischen	-9.67389
klasse	-9.67513
wesen	-9.67556
seitig	-9.67598
leute	-9.67644
geschwindigkeit	-9.67707
č	-9.67707
▁1948	-9.67713
▁1985	-9.67716
▁beispielsweise	-9.67723
ł	-9.67732
▁einmal	-9.67738
▁dadurch	-9.67746
▁lau	-9.67763
▁28	-9.678
▁legte	-9.6781
▁maler	-9.67823
04	-9.67855
▁amerikanischen	-9.6786
produktion	-9.67861
ahn	-9.67915
▁medizin	-9.67976
way	-9.68099
▁wechsel	-9.68104
▁historischen	-9.68125
37	-9.68139
▁breite	-9.68169
▁1959	-9.68353
▁1978	-9.68355
▁charles	-9.68362
▁pflanzen	-9.68371
ford	-9.68394
spiele	-9.68397
▁wäre	-9.68427
▁rad	-9.68458
züge	-9.68466
lager	-9.68477
▁steuer	-9.68479
lis	-9.68482
▁produziert	-9.6849
krieg	-9.68506
bert	-9.68553
bezirk	-9.68589
▁eingeführt	-9.68591
▁solche	-9.68627
▁dritte	-9.68652
08	-9.6869
ffer	-9.68738
▁wahrscheinlich	-9.68775
▁ring	-9.68782
▁hell	-9.68946
▁hohe	-9.68975
▁jazz	-9.68994
▁katholische	-9.69052
cor	-9.69063
folge	-9.69102
projekt	-9.69128
qu	-9.69155
chem	-9.6917
misch	-9.69174
awa	-9.69186
▁genau	-9.69249
of	-9.69276
▁punkt	-9.69293
84	-9.69347
▁dach	-9.69377
▁chi	-9.69424
regiment	-9.69466
das	-9.69554
▁unbe	-9.69589
▁beschrieben	-9.69629
▁1971	-9.69649
▁1977	-9.6965
ator	-9.69777
gy	-9.69814
▁sam	-9.69844
ech	-9.69888
▁ausstellung	-9.70016
zer	-9.70024
▁nahmen	-9.70102
93	-9.70219
01	-9.70249
200	-9.70281
mäßig	-9.70283
▁leipzig	-9.70296
▁beste	-9.70298
▁1979	-9.70303
▁1984	-9.70303
▁vollständig	-9.70307
sorg	-9.70311
▁piloten	-9.70324
▁thema	-9.70326
rö	-9.70345
▁betrieben	-9.70351
rick	-9.70418
73	-9.70512
hel	-9.70543
▁sprach	-9.70602
").	-9.70683
bri	-9.70749
▁lebten	-9.70879
est	-9.70929
ves	-9.70929
▁science	-9.70954
▁moskau	-9.70954
▁findet	-9.70954
▁bronzemedaille	-9.70958
▁1919	-9.70968
▁architektur	-9.70978
kow	-9.70997
lk	-9.71012
▁gr	-9.71012
▁villa	-9.71026
▁zeitraum	-9.7106
bus	-9.71158
ua	-9.71244
amerikanischen	-9.713
▁phil	-9.71369
gleich	-9.71394
▁pr	-9.71425
▁gesamte	-9.71429
pre	-9.71505
▁single	-9.71547
▁italien	-9.71575
▁united	-9.71616
▁reaktion	-9.7172
55	-9.71775
▁you	-9.71814
monuments	-9.71846
34	-9.71966
▁verliehen	-9.71999
saal	-9.72024
mark	-9.72057
sam	-9.72057
▁sche	-9.72081
74	-9.72098
▁ber	-9.72158
▁münster	-9.72208
26	-9.72217
kur	-9.72267
ebene	-9.7228
▁gefunden	-9.72284
▁1949	-9.72289
▁verwaltungs	-9.72306
▁jung	-9.72315
▁sah	-9.72379
▁walter	-9.72425
81	-9.72439
▁monate	-9.72449
▁schwedische	-9.7251
dt	-9.72596
tes	-9.72624
▁einfluss	-9.72647
grün	-9.72652
79	-9.7266
67	-9.72744
▁tier	-9.72777
▁ed	-9.72793
▁beschreibung	-9.72819
▁bisher	-9.72824
▁bürger	-9.72833
wehr	-9.72932
▁tar	-9.7295
▁minister	-9.72997
schein	-9.73132
netz	-9.7323
▁pl	-9.73291
▁rand	-9.73406
▁vertreter	-9.73435
ät	-9.73466
▁mur	-9.73497
vier	-9.7354
scher	-9.73579
ora	-9.73614
▁richard	-9.73631
▁stunden	-9.73634
▁geschlechter	-9.73635
vis	-9.73704
zeug	-9.73771
71	-9.73802
▁wichtige	-9.73839
▁basis	-9.73899
verkehr	-9.73917
theater	-9.73917
▁alexander	-9.73964
team	-9.73986
▁fußballspieler	-9.73995
▁struktur	-9.7408
▁les	-9.74162
▁vielen	-9.74197
▁tv	-9.74218
▁erbaut	-9.74251
sing	-9.74294
▁80	-9.74294
komitee	-9.74297
▁auftritt	-9.743
haltung	-9.74308
▁1947	-9.74317
▁flach	-9.74319
uß	-9.74367
▁(„	-9.74405
let	-9.74474
bb	-9.74506
▁gra	-9.74527
▁ass	-9.7457
▁zahlreichen	-9.74594
spur	-9.74663
▁erreichen	-9.74719
▁friedhof	-9.7478
▁traf	-9.74839
-1	-9.74866
▁ungarische	-9.74894
alter	-9.74915
44	-9.74917
▁stellvertretend	-9.74995
▁wollte	-9.74999
▁1963	-9.75002
fläche	-9.75139
▁folgten	-9.75151
▁jeder	-9.75166
▁sitzen	-9.75172
▁abteilung	-9.75176
brücke	-9.75206
graph	-9.75267
06	-9.75323
ira	-9.75342
▁farb	-9.75357
▁hinzu	-9.75385
▁iii	-9.75386
mauer	-9.75454
▁jean	-9.75459
ani	-9.75495
▁orte	-9.75524
▁führung	-9.75527
bildung	-9.7557
ity	-9.75597
▁schrift	-9.7562
▁geführt	-9.75647
▁gespielt	-9.75689
▁1983	-9.75691
▁1955	-9.75692
▁1910	-9.75704
arbeiten	-9.7571
▁gelände	-9.75731
▁sportliche	-9.7576
▁offiziell	-9.75887
grenze	-9.75894
▁automobilen	-9.75953
ander	-9.75963
▁städte	-9.75994
▁pol	-9.76074
▁schiffe	-9.7613
▁hätte	-9.76206
65	-9.76263
▁36	-9.76313
tho	-9.76332
enburg	-9.76359
å	-9.76379
▁geprägt	-9.76379
▁version	-9.7638
▁schätzung	-9.76383
▁1934	-9.76387
▁1969	-9.76389
▁unabhängigkeit	-9.76394
▁verwendung	-9.76405
▁standort	-9.76428
owski	-9.76505
▁bre	-9.76564
▁90	-9.76585
ack	-9.76602
genommen	-9.76606
out	-9.76682
bewegung	-9.76738
direktor	-9.76741
▁gering	-9.76816
▁sollen	-9.76833
deck	-9.76859
▁wert	-9.76891
ray	-9.76901
dar	-9.7701
ühl	-9.77029
▁jährlich	-9.77078
▁nordöstlich	-9.77078
▁society	-9.77078
▁vorhanden	-9.77082
▁regelmäßig	-9.77086
36	-9.771
▁milch	-9.77132
cu	-9.77133
▁tom	-9.7715
▁orts	-9.77151
2.	-9.77159
▁studie	-9.77169
ise	-9.77207
▁wochen	-9.77227
▁länge	-9.77286
ez	-9.77412
▁innen	-9.7747
park	-9.77529
wir	-9.77589
▁bonn	-9.77605
▁dörfer	-9.77783
▁tokio	-9.77783
▁1957	-9.77789
▁1937	-9.7779
ata	-9.77811
▁profi	-9.77911
▁datum	-9.77934
▁gro	-9.78031
▁nationalen	-9.78062
▁großer	-9.78062
arm	-9.78101
cia	-9.78164
▁pfarrer	-9.78255
▁kap	-9.78281
▁interesse	-9.78352
▁stern	-9.78444
▁gleichzeitig	-9.78492
▁1914	-9.785
mindestens	-9.78508
▁bot	-9.78514
42	-9.78559
▁kern	-9.78597
fassung	-9.78644
▁jan	-9.78656
▁29	-9.78693
000	-9.78772
▁hauptstadt	-9.78809
▁berliner	-9.78875
▁führen	-9.78948
wettbewerb	-9.79004
jan	-9.79059
handel	-9.79068
▁russischen	-9.791
▁rechte	-9.7912
ps	-9.79148
jährigen	-9.79176
▁north	-9.79181
▁häkkinen	-9.79206
▁inkhundla	-9.79206
▁zerstört	-9.7922
▁sammlung	-9.79289
▁südwestlich	-9.79344
▁ersetzt	-9.79347
▁1900	-9.79361
fred	-9.79479
mus	-9.79535
nau	-9.79541
▁galaxien	-9.79567
▁dresden	-9.79568
▁finanz	-9.79654
rk	-9.79702
turnier	-9.79704
▁60	-9.7977
sie	-9.79793
ance	-9.79794
ı	-9.79902
▁enthält	-9.79941
mä	-9.79965
▁verband	-9.80073
▁route	-9.80096
▁auftrag	-9.80169
▁würde	-9.80172
▁spieltag	-9.80172
▁hagen	-9.80193
▁gelb	-9.80214
stern	-9.8025
▁schi	-9.80265
▁anna	-9.80266
sc	-9.80282
ida	-9.80424
▁zuständig	-9.80451
titel	-9.80468
▁lässt	-9.80496
▁rhein	-9.80529
▁vereine	-9.80539
berger	-9.80584
ā	-9.8065
▁bedeutet	-9.8065
▁highway	-9.80656
▁1967	-9.80658
ute	-9.80661
▁bekam	-9.80743
▁wissenschaftler	-9.80754
▁anteil	-9.80784
▁gre	-9.80792
▁wil	-9.80818
▁fläche	-9.80881
▁super	-9.8089
▁31	-9.80911
haupt	-9.80947
▁ker	-9.80962
ky	-9.80967
griff	-9.81032
53	-9.81045
▁ä	-9.81104
schutz	-9.81201
▁einfach	-9.81232
areal	-9.81336
▁opfer	-9.81341
ž	-9.8138
▁1953	-9.81387
▁licht	-9.81444
bor	-9.81448
▁kommende	-9.81468
▁party	-9.81469
reise	-9.815
von	-9.81506
▁kind	-9.81613
▁meer	-9.81624
▁ö	-9.81647
ary	-9.81658
utz	-9.81859
kultur	-9.81889
unternehmen	-9.81894
vers	-9.81912
▁daten	-9.81913
▁kat	-9.81977
owa	-9.82015
wan	-9.82022
ire	-9.82027
▁ehefrau	-9.82115
▁bihar	-9.82153
▁promoviert	-9.82283
▁wir	-9.82325
dass	-9.82356
▁hol	-9.82382
▁reise	-9.82592
sprach	-9.82599
▁kapelle	-9.82622
tte	-9.82704
▁linken	-9.82784
47	-9.82795
▁versuch	-9.82805
▁state	-9.82866
▁1951	-9.82866
▁organisiert	-9.82866
83	-9.82868
▁links	-9.82872
▁bürgermeister	-9.82873
▁bahnstrecke	-9.82884
02	-9.82942
mas	-9.82982
ände	-9.82992
▁zusammenarbeit	-9.83014
▁alte	-9.83084
länder	-9.83219
tlich	-9.83279
schicht	-9.83282
bank	-9.83294
▁rein	-9.83405
entwicklung	-9.83408
technik	-9.83413
▁leistung	-9.83473
▁sollten	-9.83482
▁elf	-9.83493
▁oberst	-9.83517
48	-9.83555
nova	-9.83559
▁beziehungen	-9.83588
▁unterschied	-9.83593
▁county	-9.83602
▁weibchen	-9.83602
produzent	-9.83602
▁geburt	-9.83603
▁1942	-9.8361
▁erhielten	-9.83614
▁brücke	-9.83617
▁wahr	-9.83633
▁chemie	-9.83634
stil	-9.83674
▁verließ	-9.83707
schütz	-9.83718
ding	-9.83765
dessen	-9.838
▁sv	-9.83823
▁sil	-9.83845
▁dor	-9.83886
▁fiel	-9.83916
▁geschrieben	-9.83935
dollar	-9.84173
prüfung	-9.84176
programm	-9.84176
wechsel	-9.84177
leitung	-9.84182
position	-9.84188
fußball	-9.84189
organisation	-9.84194
fra	-9.84233
ç	-9.84354
▁girault	-9.84354
▁südöstlich	-9.84354
▁erweitert	-9.84355
▁geschaffen	-9.84355
▁james	-9.84376
▁eisenbahn	-9.84394
▁wissenschaft	-9.84414
▁versch	-9.84428
legung	-9.84454
▁schriftsteller	-9.84462
▁is	-9.84467
▁sprache	-9.84472
▁doppel	-9.84487
thal	-9.8452
▁bildung	-9.84524
03	-9.84562
▁schutz	-9.84585
▁promotion	-9.8461
▁einheit	-9.84673
eder	-9.84682
_	-9.8477
▁high	-9.84792
▁langen	-9.8481
▁pal	-9.84925
▁elektro	-9.84932
distrikt	-9.84948
▁geschlossen	-9.84957
▁musikalische	-9.84959
regierung	-9.84989
39	-9.84995
▁ähnlich	-9.85078
atur	-9.85087
formation	-9.85106
▁auvergne	-9.85112
▁frauenwahlrecht	-9.85112
▁zuletzt	-9.85112
▁gmbh	-9.85112
▁vermutlich	-9.85112
▁1939	-9.85119
▁kontakt	-9.85126
par	-9.85143
süd	-9.85226
schild	-9.85274
63	-9.85307
▁handels	-9.85308
▁can	-9.85402
▁est	-9.85466
▁bücher	-9.85493
▁sowjetische	-9.85503
▁griechisch	-9.85522
setzung	-9.85542
model	-9.85554
tus	-9.85585
staffel	-9.85737
trat	-9.85825
▁amts	-9.8587
▁2019/20	-9.85875
▁üblich	-9.85875
▁klassisch	-9.85878
▁1935	-9.85885
stieg	-9.85957
namen	-9.85975
▁stamm	-9.85999
▁junioren	-9.86022
▁400	-9.86064
werke	-9.86112
▁mädchen	-9.86269
▁miss	-9.86292
tic	-9.86342
▁türkische	-9.8639
oc	-9.86484
läufer	-9.86518
wort	-9.86557
bogen	-9.86561
▁zeigte	-9.86584
▁42	-9.8662
▁nominiert	-9.86644
▁jeweilige	-9.86645
▁relativ	-9.86645
▁öffentliche	-9.86654
deutsch	-9.86668
▁triebwerk	-9.86695
▁mehrfach	-9.86696
halle	-9.86803
▁herr	-9.86842
kampf	-9.86931
▁sol	-9.86939
▁eisen	-9.87072
ula	-9.87099
▁unterstützung	-9.87138
merk	-9.87157
ado	-9.87177
▁fahrer	-9.87209
wel	-9.87215
▁regen	-9.87261
ø	-9.87307
richtung	-9.87333
▁ausgestattet	-9.8742
▁merkmale	-9.8742
ank	-9.8742
▁automobile	-9.87433
▁1911	-9.87433
▁typisch	-9.87435
▁za	-9.87443
▁para	-9.87449
are	-9.87493
▁mittlere	-9.8751
winkel	-9.87561
gegeben	-9.87567
▁freund	-9.87647
dow	-9.87696
▁180	-9.87771
▁sieger	-9.87793
low	-9.87798
▁müssen	-9.8786
net	-9.87915
▁baum	-9.87953
▁sub	-9.87974
▁marc	-9.87988
▁industrie	-9.8799
gre	-9.88059
kennzeichen	-9.8807
vel	-9.88071
▁gezeigt	-9.88201
methode	-9.88214
▁werdegang	-9.88217
▁passagiere	-9.88232
▁hill	-9.88252
▁stimmen	-9.88261
▁bauern	-9.88282
anlage	-9.88385
▁künstlerische	-9.884
paar	-9.88417
▁zeitung	-9.88423
▁frühe	-9.88484
▁preußische	-9.88569
▁star	-9.88594
▁regionalliga	-9.8866
▁hochschule	-9.88679
aya	-9.88717
▁eröffnet	-9.88725
scha	-9.8875
▁bischof	-9.88872
stab	-9.88882
▁27	-9.88907
pen	-9.88915
▁ferdinand	-9.88988
händler	-9.88988
▁durchmesser	-9.88988
wissenschaftler	-9.8899
▁verwaltungssitz	-9.88999
cent	-9.89079
▁[	-9.89117
▁china	-9.8913
eil	-9.8914
▁städten	-9.89199
kri	-9.89226
var	-9.8924
▁abschnitt	-9.89354
▁lebt	-9.89356
▁qualifikations	-9.89459
▁ford	-9.89501
▁tanz	-9.89545
▁spe	-9.89639
schau	-9.8964
saison	-9.89741
▁wagen	-9.89746
▁bio	-9.89751
▁vorsitzender	-9.89789
▁1929	-9.89792
▁albert	-9.89846
wiener	-9.89855
wärts	-9.8988
▁op	-9.89898
station	-9.89927
▁pra	-9.89966
mu	-9.89968
▁weise	-9.89996
▁verkauft	-9.89997
▁monat	-9.90037
▁entwickelt	-9.90046
▁diplom	-9.90278
▁gesch	-9.90293
57	-9.90359
▁indien	-9.90495
▁town	-9.90498
gemeinschaft	-9.9055
album	-9.9055
▁qui	-9.90556
▁fehl	-9.90578
▁trägt	-9.90582
sky	-9.90589
zwischen	-9.90599
pflicht	-9.906
stau	-9.90684
▁bes	-9.90724
▁schwerpunkt	-9.90727
▁hermann	-9.90732
▁firma	-9.9075
▁gri	-9.90793
▁arm	-9.90856
ehr	-9.90951
▁metall	-9.91086
▁xi	-9.91206
▁nächsten	-9.91322
studium	-9.91383
▁pradesh	-9.91388
▁parallel	-9.91388
▁1966	-9.91395
▁1943	-9.91395
▁1922	-9.91398
▁ph	-9.91438
▁rechten	-9.91468
▁feuer	-9.91496
fu	-9.91563
▁4,	-9.91613
▁themen	-9.91614
▁kino	-9.91679
kolleg	-9.91736
▁größere	-9.91742
▁eher	-9.91807
riss	-9.91843
▁lehrte	-9.91852
ppe	-9.91929
lehrer	-9.9193
anten	-9.91973
ül	-9.92019
▁besuch	-9.92097
▁standen	-9.9219
▁viertelfinale	-9.92202
▁markenname	-9.92205
82	-9.92247
▁teams	-9.92286
▁minute	-9.92296
▁rock	-9.92384
lichkeit	-9.92421
▁besetzt	-9.92435
cc	-9.92521
eine	-9.92643
▁philosophie	-9.92678
▁grenzt	-9.92777
▁awards	-9.92792
sammel	-9.92804
▁wer	-9.92824
▁cd	-9.92853
star	-9.92988
▁blüten	-9.93012
▁fahnenträger	-9.93021
▁royal	-9.93022
▁1928	-9.93031
▁bernhard	-9.93036
-19-	-9.9305
▁geografie	-9.93066
49	-9.93086
bas	-9.93106
ons	-9.93114
▁maschinen	-9.93121
abteilung	-9.93132
▁programm	-9.93217
▁gemäß	-9.93294
▁handelte	-9.93312
▁women	-9.93366
pla	-9.93462
▁kurze	-9.93505
▁stellen	-9.93519
ock	-9.9352
din	-9.93626
▁förder	-9.93652
ode	-9.93657
richter	-9.93678
▁tore	-9.93698
verwaltung	-9.93744
▁laufe	-9.93749
mals	-9.93793
▁gen	-9.93842
▁umgebung	-9.93849
▁bremen	-9.93879
▁quelle	-9.93919
▁höher	-9.93951
▁dick	-9.94073
lus	-9.94079
▁hy	-9.94151
alt	-9.9419
▁open	-9.943
dach	-9.94334
▁final	-9.9437
gestellt	-9.94414
▁lautete	-9.94502
▁bl	-9.94513
▁stammen	-9.94613
cup	-9.94638
▁zentimeter	-9.94681
▁bayerische	-9.94695
▁1940	-9.94696
hop	-9.94716
▁gerade	-9.9476
geboren	-9.94766
oll	-9.94778
▁wolf	-9.94782
mes	-9.94809
▁gymnasium	-9.94817
▁klub	-9.94839
version	-9.94882
43	-9.94911
mil	-9.94987
▁folgt	-9.94999
shi	-9.95054
▁straf	-9.95121
è	-9.95139
▁evangelisch	-9.9515
▁bach	-9.95264
▁wein	-9.95351
▁teilnahme	-9.95368
vre	-9.95385
top	-9.95417
▁poly	-9.95459
▁politischen	-9.95463
quart	-9.9549
▁philipp	-9.9551
flüsse	-9.95525
▁1923	-9.95532
ausstellung	-9.95547
▁gegeben	-9.9557
lit	-9.95588
▁entlang	-9.95588
▁hann	-9.95632
▁kg	-9.95669
▁asien	-9.95677
itter	-9.95696
▁unterricht	-9.95732
gas	-9.958
qua	-9.95884
▁länger	-9.95902
▁kleiner	-9.95974
33	-9.95986
▁niederländische	-9.95992
▁graf	-9.96038
▁anders	-9.96243
wick	-9.96252
punkte	-9.96267
▁kle	-9.96356
▁irvine	-9.96369
gmina	-9.96403
spor	-9.9645
kh	-9.9653
press	-9.96536
strahl	-9.96592
region	-9.96604
▁33	-9.96618
grad	-9.96661
▁hilfe	-9.96733
ufer	-9.96815
▁blau	-9.96847
dal	-9.96881
▁erb	-9.96957
▁mer	-9.97144
▁selb	-9.97171
;/	-9.97183
▁erstreckt	-9.97223
▁weitgehend	-9.97223
▁deutschsprachig	-9.97223
▁volkszählung	-9.97225
▁ich	-9.97232
geschoss	-9.97236
zell	-9.97238
▁dargestellt	-9.97239
▁besser	-9.97247
sto	-9.97268
tis	-9.97334
▁nacht	-9.97415
▁gingen	-9.97426
part	-9.9746
▁gott	-9.97478
▁forschung	-9.97483
dor	-9.97506
präsident	-9.97564
▁geh	-9.97641
inter	-9.97672
loh	-9.97704
▁zentrale	-9.9772
well	-9.97747
▁inhalt	-9.97766
gut	-9.97798
oh	-9.97819
▁meisterschaft	-9.97834
insel	-9.97922
▁größe	-9.97936
fang	-9.97941
field	-9.97945
dol	-9.97978
▁anlage	-9.97984
▁anschluss	-9.98
sprung	-9.9809
▁gesetz	-9.98175
säure	-9.98187
▁halle	-9.98197
museum	-9.98253
▁kiel	-9.98281
▁kraft	-9.98315
markt	-9.98372
ativ	-9.98386
lagen	-9.98407
heute	-9.98519
▁zugleich	-9.98565
▁kirch	-9.98584
▁fern	-9.98588
bund	-9.98611
ami	-9.98714
▁tru	-9.98788
▁debüt	-9.98825
▁schmal	-9.98894
▁erfolgt	-9.98909
▁bel	-9.98924
▁quer	-9.9895
▁mercedes	-9.98955
▁wanderspinne	-9.98955
▁herbst	-9.98959
pass	-9.98981
▁sachsen	-9.9901
▁club	-9.99055
▁bat	-9.99057
▁34	-9.991
wal	-9.99101
▁wahlrecht	-9.9911
▁bilder	-9.99119
hard	-9.99216
holz	-9.99251
▁staatliche	-9.99255
▁grundlage	-9.99265
rd	-9.99268
▁papst	-9.99271
▁zeigen	-9.99317
uth	-9.99341
▁av	-9.99367
auswahl	-9.99378
hal	-9.99409
▁persönliche	-9.9943
▁polnischen	-9.99473
▁archiv	-9.99529
▁autoren	-9.99562
erei	-9.99573
▁et	-9.9964
lied	-9.99647
zig	-9.99651
takt	-9.99671
46	-9.99702
wind	-9.99753
▁\	-9.99778
▁nordwestlich	-9.99832
▁louis	-9.99836
▁1901	-9.99842
▁runenstein	-9.99862
chan	-9.99952
▁erstes	-10.0002
66	-10.0002
▁studio	-10.0004
eiß	-10.0007
▁master	-10.0009
▁arbeiter	-10.0011
jew	-10.0016
oph	-10.002
▁vergleich	-10.0032
▁bildungs	-10.0042
tha	-10.0044
och	-10.006
▁teile	-10.0062
hage	-10.007
▁bestätigt	-10.0072
▁unmittelbar	-10.0072
▁1905	-10.0073
▁ebenda	-10.0074
▁radstand	-10.0077
cke	-10.0082
▁(1	-10.0083
vin	-10.0084
dlich	-10.0089
gruppen	-10.009
länge	-10.0095
fluss	-10.0096
zehn	-10.01
▁regierungs	-10.0103
▁plätze	-10.0114
▁ram	-10.0115
rah	-10.0116
▁hi	-10.0116
▁typ	-10.0122
szene	-10.0134
dischen	-10.0139
▁sau	-10.0142
sperr	-10.0155
▁verkehrs	-10.0157
▁männliche	-10.0161
▁klavier	-10.0161
▁muslime	-10.0161
▁schweden	-10.0161
▁1907	-10.0162
▁1941	-10.0162
▁2022	-10.0164
▁staat	-10.0168
▁selten	-10.017
holt	-10.017
▁port	-10.0174
▁thi	-10.0177
▁gesang	-10.0178
▁vertreten	-10.0182
▁heutige	-10.0185
spi	-10.0189
▁fakultät	-10.0189
▁nordische	-10.0196
▁gerichts	-10.0196
kurs	-10.0197
▁auszeichnungen	-10.0197
▁ruf	-10.0198
▁gebracht	-10.0199
▁stra	-10.02
srunde	-10.0216
▁angriff	-10.022
▁physik	-10.0223
geteilt	-10.0224
rolle	-10.0228
▁bestehende	-10.0237
▁fisch	-10.0247
▁gewonnen	-10.0251
▁1913	-10.0253
▁finnische	-10.0253
stoß	-10.0253
▁beziehung	-10.0261
roll	-10.0262
ließ	-10.0273
▁machen	-10.0274
ori	-10.0279
▁vorher	-10.0279
▁einzelnen	-10.0282
▁block	-10.0285
▁kurzen	-10.0304
▁möglichkeit	-10.0309
▁mannschafts	-10.0312
▁bru	-10.0314
▁güter	-10.0325
behörde	-10.0339
kräfte	-10.0342
▁unbekannt	-10.0342
▁sowjetunion	-10.0342
▁fließt	-10.0342
▁geworden	-10.0342
▁zivil	-10.0342
▁1908	-10.0343
▁verlegt	-10.0344
▁1918	-10.0344
▁beendete	-10.036
gend	-10.0363
▁gestaltet	-10.0365
▁geheim	-10.0369
▁gran	-10.0378
phase	-10.038
ermittlung	-10.0387
▁cla	-10.0388
▁ganze	-10.0391
▁mil	-10.0391
uri	-10.0398
seh	-10.0412
zog	-10.0413
▁transport	-10.0413
▁music	-10.0413
rea	-10.0421
▁kategorie	-10.0429
hänge	-10.0433
▁1909	-10.0434
▁australien	-10.0434
▁1936	-10.0435
▁erfahrungen	-10.0436
lor	-10.0439
ierungsrate	-10.0442
▁altar	-10.0445
▁berufen	-10.0448
ama	-10.0452
▁roll	-10.0456
▁pen	-10.0464
archiv	-10.0469
▁galt	-10.047
▁mussten	-10.0477
kopf	-10.0487
ola	-10.0489
▁nor	-10.049
▁char	-10.0496
▁spring	-10.0498
uck	-10.0502
litz	-10.0503
ella	-10.051
laub	-10.0512
▁sen	-10.0514
▁regisseur	-10.0516
▁labor	-10.052
arbeiter	-10.0521
▁bestehen	-10.0525
lässlich	-10.0526
▁mündet	-10.0526
▁rudolf	-10.0526
▁stuttgart	-10.0526
▁städtische	-10.0526
▁eigenschaften	-10.0526
▁1921	-10.0528
▁schlecht	-10.0528
▁bestritt	-10.0528
▁dennoch	-10.0528
▁1924	-10.0528
▁tradition	-10.0528
▁höchsten	-10.053
▁gemacht	-10.0533
ual	-10.0536
▁bay	-10.0543
ón	-10.0551
zar	-10.0553
verbot	-10.0553
▁test	-10.056
▁siegte	-10.0561
hir	-10.0562
▁mari	-10.0567
verfahren	-10.0571
▁bildete	-10.0577
▁kü	-10.0583
▁ya	-10.0585
oper	-10.0587
▁evangelische	-10.0587
durch	-10.059
temperatur	-10.06
kanal	-10.0603
ecke	-10.0609
▁show	-10.0612
▁washington	-10.062
2)	-10.0621
sha	-10.0627
▁gehörten	-10.0627
owitsch	-10.0628
▁fra	-10.063
▁arbeitet	-10.0631
roman	-10.0639
änderung	-10.0646
rec	-10.0658
post	-10.0678
unt	-10.068
▁rap	-10.0684
mond	-10.0696
▁anzu	-10.0702
rom	-10.0704
falls	-10.0706
▁anderer	-10.0706
ütz	-10.0708
▁offizielle	-10.071
▁allgemeine	-10.0711
▁bla	-10.0713
▁mac	-10.0713
sprecher	-10.0714
▁bayern	-10.0715
▁1925	-10.0716
▁malstatt	-10.0716
▁angaben	-10.0716
▁hotel	-10.0722
platten	-10.0723
▁vorgestellt	-10.0731
idae	-10.0753
pra	-10.0757
air	-10.0777
▁palast	-10.0785
tom	-10.0791
▁untersuchung	-10.0793
▁mir	-10.0794
▁bericht	-10.0798
▁verloren	-10.0799
▁ord	-10.0801
▁zählen	-10.0809
▁tan	-10.0809
▁parlamentswahl	-10.0809
▁spanien	-10.0809
▁gelten	-10.0818
▁verfügt	-10.0818
nord	-10.0819
igny	-10.082
,8	-10.0824
ase	-10.083
59	-10.0832
bare	-10.0832
▁tat	-10.0833
rechts	-10.0834
▁sänger	-10.0834
31	-10.0835
ubble	-10.0836
king	-10.0836
▁bestimmt	-10.0837
▁col	-10.084
kammer	-10.0842
ging	-10.0846
kapelle	-10.0855
▁don	-10.0862
▁kommandeur	-10.0863
▁live	-10.0871
schul	-10.0871
▁verkaufte	-10.0883
▁militärische	-10.0887
▁brach	-10.0888
▁blu	-10.0894
▁mittler	-10.0897
▁bezirks	-10.0902
gui	-10.0904
▁coulthard	-10.0906
▁nachwuchs	-10.0906
▁erhöht	-10.0906
▁entscheidung	-10.0906
▁silbermedaille	-10.0906
▁historische	-10.0908
▁werner	-10.0912
istischen	-10.0914
▁herz	-10.0915
olo	-10.0917
▁königlich	-10.0922
▁nationale	-10.0925
▁regie	-10.0928
▁seien	-10.0941
▁6,	-10.0943
▁tur	-10.0948
▁bewegung	-10.0953
▁ac	-10.0953
pokal	-10.0954
organ	-10.0955
▁bon	-10.0957
▁hügel	-10.0958
52	-10.0958
▁300	-10.096
▁aufgestellt	-10.096
tage	-10.0968
cken	-10.097
steine	-10.0973
▁charakter	-10.0976
verlauf	-10.0979
üh	-10.0992
kämpfe	-10.0995
sburg	-10.0996
trop	-10.0996
▁tiere	-10.1001
▁budapest	-10.1003
▁übernommen	-10.1003
zylindermotor	-10.1003
▁istanbul	-10.1004
pat	-10.1005
▁himmels	-10.1006
▁wenigen	-10.1006
uf	-10.101
▁weist	-10.1013
▁standard	-10.1014
▁begriff	-10.1019
▁verfassung	-10.102
aux	-10.102
▁garten	-10.1031
▁ep	-10.1036
▁anfangs	-10.1037
▁santa	-10.1046
mul	-10.1048
bücher	-10.1053
▁on	-10.1056
▁eis	-10.1056
code	-10.1057
▁sw	-10.1057
fenster	-10.1057
▁football	-10.1058
werte	-10.1065
▁matt	-10.1069
ash	-10.1072
führt	-10.1085
▁mio	-10.1088
graben	-10.1096
▁chinesische	-10.1098
▁dient	-10.1099
▁übergang	-10.11
â	-10.1101
▁chlumetz	-10.1101
▁texas	-10.1101
▁speziell	-10.1101
▁söhne	-10.1101
▁1926	-10.1102
▁eigentlich	-10.1102
▁ermittelt	-10.1104
▁augen	-10.111
▁alphabetis	-10.1114
▁bedeutende	-10.1115
gegangen	-10.1118
▁kosten	-10.1121
nicht	-10.1124
▁gö	-10.1132
▁weiterer	-10.1135
▁lautet	-10.114
ique	-10.1141
▁zweimal	-10.1141
▁polnische	-10.1151
bad	-10.1151
kreuz	-10.1154
partei	-10.1157
bal	-10.1158
▁auffassung	-10.1162
eß	-10.1162
▁glas	-10.1173
▁quellen	-10.1183
führende	-10.1191
kette	-10.1194
▁nutzung	-10.1198
lag	-10.1198
▁gründen	-10.1199
kompanie	-10.12
▁einzugsgebiet	-10.12
▁leichtathletik	-10.12
▁verfügung	-10.12
▁gewerkschaft	-10.12
▁hochflugtauben	-10.12
▁verbreitet	-10.12
steigerung	-10.12
▁geweiht	-10.1201
rzy	-10.1206
▁journalist	-10.1207
▁varianten	-10.121
▁+	-10.1215
61	-10.1222
tausch	-10.1225
▁höchste	-10.1227
dis	-10.1228
portal	-10.1229
▁gewinnen	-10.1235
handlung	-10.1245
ement	-10.1246
oxid	-10.1255
duc	-10.1255
siedlung	-10.1256
figur	-10.1257
phy	-10.1259
politik	-10.1259
▁tim	-10.1261
▁inschrift	-10.1273
▁wirkung	-10.1274
▁stammte	-10.1279
▁3,	-10.1279
▁il	-10.1286
name	-10.1288
▁gehen	-10.1292
▁versuchte	-10.1294
getriebe	-10.1299
▁maximal	-10.13
▁energie	-10.13
▁1932	-10.1301
▁glocken	-10.1301
▁tele	-10.1304
hau	-10.1307
▁south	-10.1309
weiß	-10.1311
▁mein	-10.1311
mund	-10.1311
▁fotograf	-10.1314
▁rest	-10.1323
▁43	-10.1325
▁angehörige	-10.1329
▁ingenieur	-10.1334
best	-10.1336
▁indem	-10.1337
▁mess	-10.1337
zone	-10.1341
▁mass	-10.1342
ball	-10.1344
plätze	-10.1351
▁weißen	-10.1351
▁öffentlichen	-10.1357
▁königs	-10.1357
prä	-10.136
▁kra	-10.1361
ürz	-10.1362
▁baute	-10.1366
▁lieder	-10.1367
▁qualifizierten	-10.1369
edit	-10.137
▁wohnung	-10.1371
einkommen	-10.1373
▁fri	-10.1376
▁eg	-10.1382
▁chart	-10.1388
cho	-10.1389
graf	-10.1395
▁einzelnachweise	-10.1401
▁übertragen	-10.1402
▁gleichnamigen	-10.1402
▁brigade	-10.1402
▁ermöglicht	-10.1403
▁herzog	-10.1403
▁angebot	-10.1416
▁besetzung	-10.1417
mobil	-10.1423
▁geld	-10.1424
▁technik	-10.1427
iker	-10.1438
räume	-10.1438
teile	-10.1443
kehr	-10.1443
▁(16	-10.1445
▁sendung	-10.1446
reform	-10.1453
▁kaiserliche	-10.1453
▁komponist	-10.1457
zw	-10.1458
blick	-10.1466
hält	-10.1468
kal	-10.147
▁front	-10.1472
katholische	-10.1474
sinn	-10.1474
▁ergebnis	-10.148
▁geist	-10.1497
▁academy	-10.1503
▁komplett	-10.1503
▁aktuell	-10.1503
▁1904	-10.1504
▁1912	-10.1505
▁500	-10.1509
▁partner	-10.1509
▁verkauf	-10.1511
ito	-10.1515
▁würden	-10.152
▁ci	-10.1521
▁pfarr	-10.1533
schloss	-10.1542
meyer	-10.1545
▁italienischen	-10.1546
förmige	-10.1561
▁stock	-10.1568
division	-10.1569
stadion	-10.1569
▁frage	-10.157
ingenieur	-10.157
pilot	-10.1572
öse	-10.1592
lehr	-10.1592
rennen	-10.1593
▁modern	-10.1596
gat	-10.1597
stru	-10.16
▁dirigent	-10.1606
▁kolonial	-10.1606
spiegel	-10.1606
▁kreisstraßen	-10.1606
▁1906	-10.1607
▁geschäfts	-10.1608
▁spa	-10.1608
▁langsam	-10.1609
pläne	-10.1609
▁zusammenhang	-10.161
anlagen	-10.161
ktion	-10.1611
▁allein	-10.1614
licht	-10.1624
not	-10.1625
▁box	-10.1626
▁weltkriegs	-10.1628
▁trau	-10.1628
▁ritter	-10.1632
▁verantwortlich	-10.1636
▁braun	-10.1644
▁nas	-10.166
▁mc	-10.1662
hang	-10.1663
ati	-10.1667
zel	-10.167
körper	-10.1675
▁que	-10.1676
▁flotte	-10.1678
hilfe	-10.1678
ensis	-10.1685
herrschaft	-10.1685
▁fund	-10.1688
▁gute	-10.1693
spruch	-10.1697
thai	-10.1697
▁ähnliche	-10.1698
trainer	-10.17
▁europäische	-10.1704
kam	-10.1706
▁reserve	-10.171
▁angelegt	-10.171
▁hindus	-10.171
▁hochschullehrer	-10.171
▁christoph	-10.171
▁stadium	-10.1711
tafel	-10.1711
▁line	-10.1713
▁erfolge	-10.1714
▁befanden	-10.1715
▁waffen	-10.1717
▁sogar	-10.1733
bauten	-10.1736
▁station	-10.1746
gram	-10.1746
▁grenz	-10.1749
ington	-10.175
▁flügel	-10.1754
politisch	-10.1755
lou	-10.1759
nehmen	-10.1761
▁dissertation	-10.1761
▁beiträge	-10.1767
▁spät	-10.178
gewicht	-10.1781
new	-10.1782
hütte	-10.1782
▁ausstattung	-10.1782
isierte	-10.1795
eign	-10.1799
höfe	-10.18
▁nummer	-10.1815
▁großbritannien	-10.1815
▁habilitation	-10.1815
▁boeing	-10.1816
auer	-10.1816
▁untersucht	-10.1816
▁1903	-10.1816
▁speckles	-10.1816
▁kohle	-10.1817
▁1917	-10.1819
▁jugendliche	-10.1821
▁1890	-10.1822
▁gift	-10.1822
▁verlassen	-10.1824
▁65	-10.183
▁hierbei	-10.1831
isse	-10.1833
tauben	-10.1836
▁eröffnung	-10.1846
sberg	-10.1847
▁gor	-10.1849
▁nimmt	-10.1857
▁freien	-10.1861
▁kandidat	-10.1864
▁genre	-10.1867
time	-10.187
72	-10.1875
▁länder	-10.1876
▁sonder	-10.1877
üchte	-10.1881
kraft	-10.1884
án	-10.1891
▁pferd	-10.1894
versammlung	-10.1895
▁komponisten	-10.1896
▁punkten	-10.1901
laden	-10.1905
französisch	-10.1912
▁wissenschaften	-10.1913
lic	-10.1918
▁rose	-10.192
tl	-10.1921
ś	-10.1921
▁männchen	-10.1922
▁benachbarte	-10.1922
▁göttingen	-10.1922
▁vorgänger	-10.1922
▁dunkel	-10.1922
▁lehrstuhl	-10.1922
▁möglicherweise	-10.1923
▁tür	-10.1923
▁australische	-10.1924
▁pfarrkirche	-10.1924
ney	-10.1924
▁senat	-10.1926
▁weltweit	-10.1927
▁musiker	-10.1928
▁stahl	-10.1928
gli	-10.193
run	-10.1931
▁fritz	-10.1931
▁älteste	-10.1931
rück	-10.1931
▁mehrheit	-10.1936
muster	-10.1938
sätze	-10.1946
▁turn	-10.1955
▁gewicht	-10.1957
▁salo	-10.1957
▁ebene	-10.1958
kol	-10.1959
▁reiter	-10.196
dio	-10.1962
▁dänische	-10.1963
rechte	-10.1971
ruf	-10.1973
last	-10.1974
kauf	-10.1983
dom	-10.1996
▁bilden	-10.1998
▁cre	-10.2002
sprache	-10.2007
▁adam	-10.2013
einheit	-10.2015
lands	-10.2019
▁größeren	-10.202
sprechen	-10.2027
▁fischer	-10.2027
▁religion	-10.2029
▁publikum	-10.2029
▁2018/19	-10.2029
▁kombination	-10.2029
▁trocken	-10.203
▁46	-10.203
▁1915	-10.2031
▁erklärt	-10.2033
▁1866	-10.2033
▁chemische	-10.2034
▁russland	-10.2034
▁schuf	-10.2034
▁niederlande	-10.2038
fliegen	-10.2041
ato	-10.2044
▁sach	-10.2046
▁emil	-10.2047
ical	-10.2054
▁herren	-10.2056
▁entschied	-10.2066
ient	-10.2067
app	-10.2073
▁nachbar	-10.2077
▁material	-10.208
▁höhen	-10.2084
▁gliederung	-10.2093
▁kritik	-10.2093
▁mauer	-10.21
bat	-10.2108
cla	-10.2111
kommission	-10.2112
▁veranstaltung	-10.2123
ration	-10.2124
▁bekannten	-10.2126
▁architekten	-10.2134
▁afrika	-10.2135
▁entspricht	-10.2138
▁getötet	-10.2138
▁tatsächlich	-10.2138
management	-10.2138
▁komposition	-10.2138
▁vertrieb	-10.2138
▁sultan	-10.2138
gebirge	-10.2138
▁prix	-10.214
beck	-10.214
▁sammelte	-10.2141
▁brut	-10.2141
▁wetter	-10.2143
▁training	-10.2145
3)	-10.2146
▁mary	-10.2149
▁foto	-10.2149
▁maß	-10.215
▁spitze	-10.2156
daten	-10.216
glück	-10.2168
beamte	-10.2173
brück	-10.2176
una	-10.218
anda	-10.2191
teilig	-10.2191
▁75	-10.2192
gc	-10.2198
homo	-10.2201
▁vaters	-10.2202
▁eingestellt	-10.2203
▁umwelt	-10.2204
horn	-10.2205
stall	-10.2215
▁(2	-10.2217
zeichen	-10.222
line	-10.2221
aufnahme	-10.2235
▁rollen	-10.2236
mannschaften	-10.2241
fallen	-10.2241
ę	-10.2248
▁friedens	-10.2248
▁kanadische	-10.2248
▁gedenk	-10.2248
▁indische	-10.2254
partie	-10.2257
▁get	-10.2263
▁dortige	-10.2274
alität	-10.2282
zeichnet	-10.2285
▁prüfung	-10.2288
▁traditionell	-10.2291
▁suche	-10.2292
▁medi	-10.2292
▁helm	-10.2297
kant	-10.23
▁peters	-10.23
▁amerikanische	-10.2305
ning	-10.2305
▁auszu	-10.2306
▁handel	-10.2314
ress	-10.2316
py	-10.2317
▁»	-10.2319
hafen	-10.2319
ographie	-10.2327
▁oben	-10.2328
red	-10.2328
▁krone	-10.2336
fahrzeug	-10.2337
stehende	-10.2339
▁konzept	-10.2341
klub	-10.2344
▁sö	-10.2348
landes	-10.2351
▁bibliothek	-10.2358
▁association	-10.2359
▁befördert	-10.2359
▁konstantinopel	-10.2359
▁nuclear	-10.2359
▁powiat	-10.2359
▁eduard	-10.2359
▁intensiv	-10.2359
schätz	-10.2361
▁diverse	-10.2361
pierre	-10.2364
▁gekommen	-10.2369
tete	-10.2372
lose	-10.2372
▁gehalten	-10.2379
▁angeles	-10.2386
▁starke	-10.2389
▁bol	-10.2394
▁fertig	-10.2396
▁kaum	-10.24
▁jene	-10.2405
abschnitt	-10.2412
▁englischen	-10.2418
gelassen	-10.2429
lock	-10.243
▁roten	-10.2436
▁bundesliga	-10.244
▁kalk	-10.2442
▁dampf	-10.2448
lio	-10.2451
gymnasium	-10.2453
▁fünften	-10.2454
▁jurist	-10.2454
▁produkt	-10.2463
▁gesundheits	-10.2466
▁stiftung	-10.2471
lokomotive	-10.2471
swachstums	-10.2471
konferenz	-10.2471
ř	-10.2471
▁landebahn	-10.2471
▁eingerichtet	-10.2472
▁1931	-10.2472
▁1902	-10.2472
▁prozentpunkte	-10.2473
▁hergestellt	-10.2474
▁operation	-10.2474
liegenden	-10.2475
bul	-10.2475
▁kammer	-10.2475
▁1860	-10.2478
▁mah	-10.248
▁ufer	-10.2484
▁morgen	-10.2484
▁häusern	-10.2485
frage	-10.2485
▁theologie	-10.2487
▁bekannte	-10.2487
lla	-10.2487
brechen	-10.2493
▁strom	-10.2495
▁edi	-10.2495
▁dorfes	-10.2496
▁ali	-10.2496
▁luxemburg	-10.2497
▁weich	-10.2504
▁mission	-10.2511
▁reicht	-10.2514
▁holte	-10.2521
▁win	-10.2526
▁bringen	-10.2527
▁ländern	-10.2529
▁gegründete	-10.253
russisch	-10.2549
▁derzeit	-10.2551
▁probleme	-10.2552
ziert	-10.2554
▁anmerkungen	-10.2557
▁ungarn	-10.2558
▁spitz	-10.2563
reiten	-10.2566
▁brüder	-10.2569
▁junior	-10.2571
▁zählt	-10.2572
▁lager	-10.2578
jahren	-10.2578
brunn	-10.258
reichen	-10.2584
sehenswürdigkeit	-10.2585
▁gustav	-10.2585
▁besaß	-10.2585
gelegenheit	-10.2585
▁bietet	-10.2585
schläge	-10.2585
▁frühjahr	-10.2587
▁freundschaft	-10.2588
▁amtszeit	-10.2591
▁werde	-10.2596
▁55	-10.2598
▁qualifizierte	-10.2598
geschlagen	-10.26
▁neubau	-10.2607
▁aero	-10.2608
▁zug	-10.2608
▁hätten	-10.2614
rasse	-10.2616
▁versetzt	-10.2617
gebiete	-10.2619
▁assistent	-10.2621
uren	-10.2622
förmig	-10.2625
flächen	-10.2626
▁grad	-10.2628
als	-10.2635
▁marine	-10.2644
▁green	-10.2654
▁verteidigung	-10.2655
sammlung	-10.2669
jahre	-10.2669
▁strecken	-10.2671
▁kongress	-10.2673
▁promovierte	-10.2674
▁brief	-10.2681
club	-10.2687
law	-10.2696
seits	-10.2696
▁betroffen	-10.27
▁ausgebildet	-10.27
▁barcelona	-10.27
▁niedrig	-10.27
▁alexandr	-10.27
▁josé	-10.27
▁motiv	-10.2701
▁fernuniversität	-10.2701
etter	-10.2702
▁idee	-10.2703
▁spielklasse	-10.2704
▁fuhr	-10.2706
▁zunehmend	-10.2709
sv	-10.2711
▁bir	-10.2714
gue	-10.2717
verhältnisse	-10.2718
cus	-10.2724
▁osmanischen	-10.2733
eten	-10.274
stoffe	-10.2741
▁kleinere	-10.2742
▁öffentlich	-10.2747
omi	-10.276
▁serien	-10.2768
▁darin	-10.2772
▁lob	-10.2774
▁pop	-10.2774
offs	-10.2775
▁mol	-10.2778
▁bü	-10.2781
▁protein	-10.2782
▁denkmal	-10.2784
witz	-10.2786
▁daran	-10.2797
vereins	-10.2798
▁firm	-10.2798
▁gegründeten	-10.2801
groß	-10.2805
▁getrennt	-10.2816
konstruktion	-10.2816
pandemie	-10.2816
▁gelegentlich	-10.2816
▁positiv	-10.2816
▁gambische	-10.2816
▁kathedrale	-10.2816
▁daniel	-10.2816
▁erlangte	-10.2818
▁kindern	-10.2818
▁demokratische	-10.282
▁blieben	-10.2822
▁dahin	-10.2825
▁zweiter	-10.2827
ico	-10.2834
▁may	-10.2835
▁grafen	-10.2836
▁east	-10.2843
▁king	-10.2844
▁beute	-10.2845
▁auswahl	-10.2846
▁engel	-10.2849
öt	-10.2851
▁typs	-10.2855
▁linien	-10.2864
▁ev	-10.2865
gua	-10.2867
asien	-10.2868
▁eth	-10.287
fehler	-10.287
ländische	-10.2872
▁(†	-10.2876
▁kamera	-10.2883
regel	-10.2885
▁hinweis	-10.2894
▁jüngere	-10.2894
mé	-10.2897
▁prag	-10.2898
▁italienische	-10.2901
▁reis	-10.2909
▁gest	-10.291
▁beck	-10.2913
court	-10.2914
karte	-10.2918
ár	-10.292
▁sprachen	-10.2923
▁wirtschaftliche	-10.2923
▁ren	-10.2923
karriere	-10.2927
sänger	-10.2929
marsch	-10.2931
▁wider	-10.2934
▁verurteilt	-10.2934
▁durfte	-10.2934
▁gefangen	-10.2934
versorgung	-10.2934
▁mtv	-10.2935
▁rückkehr	-10.2935
▁brandenburg	-10.2935
▁1927	-10.2935
▁nutz	-10.2937
▁alb	-10.2938
▁gemeinschaft	-10.2939
▁normal	-10.294
▁umfangreiche	-10.294
▁kollegen	-10.2942
▁lern	-10.2948
änner	-10.295
▁anwendung	-10.295
▁ball	-10.2957
fluggesellschaft	-10.296
ios	-10.2967
▁verhalten	-10.2967
▁genommen	-10.2977
▁deshalb	-10.298
▁volk	-10.2981
ausbildung	-10.2985
essen	-10.2995
▁aufgabe	-10.2998
▁sha	-10.2998
▁herausgeber	-10.3007
▁44	-10.3007
▁ausnahme	-10.3011
▁grau	-10.3016
▁schlug	-10.3019
▁feierte	-10.3019
dame	-10.302
oder	-10.3024
ionen	-10.3024
▁roh	-10.3025
ritz	-10.3026
romane	-10.3027
▁basiert	-10.3044
▁48	-10.3046
«	-10.3048
vorsitzende	-10.3048
unterricht	-10.3049
bürger	-10.3049
stamm	-10.305
▁publiziert	-10.3053
▁vorgesehen	-10.3053
▁rezeption	-10.3053
▁sonntag	-10.3053
wodurch	-10.3053
▁hil	-10.3054
▁henry	-10.3054
▁gewässer	-10.3054
▁studenten	-10.3056
verbindung	-10.3057
▁sieht	-10.3058
▁moderne	-10.3061
="	-10.3062
▁linie	-10.3065
grenz	-10.307
▁abstieg	-10.3078
▁begleitet	-10.3079
start	-10.3081
▁teilen	-10.3088
truppe	-10.3088
tät	-10.309
▁kop	-10.3094
berater	-10.3096
▁angeführt	-10.3098
▁kader	-10.3108
meist	-10.3113
eth	-10.3115
ies	-10.3117
uda	-10.312
▁tha	-10.3121
▁gelangte	-10.3126
ła	-10.3126
▁aktive	-10.3126
▁mill	-10.3127
far	-10.3127
▁marien	-10.3128
▁instrument	-10.3128
▁botschafter	-10.3137
chef	-10.3139
▁tam	-10.3149
garten	-10.3149
▁schau	-10.3152
▁ukrainischen	-10.3158
▁begonnen	-10.3173
▁hektar	-10.3173
▁schumacher	-10.3173
kunst	-10.3173
▁amateur	-10.3173
▁fungierte	-10.3173
anstalt	-10.3174
▁protest	-10.3175
▁1916	-10.3175
▁grundstück	-10.3177
gesetz	-10.3177
▁debütierte	-10.3178
tem	-10.3179
▁zuerst	-10.3179
▁klar	-10.318
▁1897	-10.318
abschluss	-10.3181
▁modus	-10.3181
beruf	-10.3182
▁verfasste	-10.3184
ía	-10.3191
läufe	-10.3193
▁gründer	-10.3194
▁gew	-10.3198
▁person	-10.3198
▁sicherheits	-10.3203
▁aufgelöst	-10.3213
▁problem	-10.3215
▁fernsehen	-10.3218
format	-10.322
▁mono	-10.3221
macht	-10.3221
tür	-10.3226
▁ältesten	-10.3231
ima	-10.3234
rey	-10.3237
mos	-10.3241
▁iv	-10.3243
▁neues	-10.3253
macher	-10.3257
ane	-10.3257
▁leistungs	-10.326
▁gericht	-10.3267
getragen	-10.3276
▁feier	-10.3285
▁richter	-10.3285
▁christ	-10.3285
▁anne	-10.3291
vol	-10.3292
material	-10.3295
▁eigentümer	-10.3295
▁online	-10.3296
bibliothek	-10.3296
▁öffentlichkeit	-10.3297
▁status	-10.3298
verleihung	-10.3301
▁enthalten	-10.3302
▁alex	-10.3302
▁ausgabe	-10.3303
▁black	-10.3303
rest	-10.3303
verbände	-10.3304
▁donau	-10.3304
▁island	-10.3309
maß	-10.3315
▁verwaltung	-10.3324
stra	-10.3327
▁design	-10.3329
modell	-10.3332
▁bereit	-10.3332
▁gemeinden	-10.3332
tief	-10.3334
▁saar	-10.3349
ierende	-10.3354
▁39	-10.3362
▁ky	-10.3365
▁monaten	-10.3367
▁vers	-10.3372
▁arzt	-10.3381
▁erstellt	-10.3382
▁petr	-10.3392
▁höchst	-10.3393
leicht	-10.3394
▁sprung	-10.3397
▁rosen	-10.3402
reiche	-10.3407
▁formen	-10.341
▁fla	-10.3412
▁bauwerk	-10.3414
▁komplex	-10.3414
württemberg	-10.3419
▁ukraine	-10.3419
▁hingegen	-10.3419
▁jakob	-10.3419
antrieb	-10.3419
▁revolution	-10.342
rock	-10.3422
▁wolfgang	-10.3422
komplex	-10.3423
▁alfred	-10.3423
theorie	-10.3423
▁barock	-10.3424
▁spielbetrieb	-10.3424
▁airlines	-10.3427
▁verletzt	-10.3428
▁zählte	-10.3432
▁osmanische	-10.3433
▁senator	-10.3436
▁berichtete	-10.3452
▁tages	-10.3462
▁wahlen	-10.3468
▁landschafts	-10.3471
▁150	-10.3473
immer	-10.3482
wege	-10.3485
▁mel	-10.349
▁weiteres	-10.3496
▁sicherte	-10.3499
kirchen	-10.3499
▁hess	-10.3504
▁verb	-10.3509
journal	-10.351
▁chef	-10.3511
▁abend	-10.3512
gab	-10.3527
weile	-10.353
iw	-10.353
▁setzt	-10.3532
▁media	-10.3533
▁allgemein	-10.3538
▁umbenannt	-10.3544
▁thüring	-10.3544
▁abitur	-10.3544
▁nannte	-10.3544
▁australia	-10.3544
▁herausgegeben	-10.3545
seminar	-10.3546
bind	-10.3547
▁bill	-10.3548
historiker	-10.3551
blatt	-10.3551
▁1870	-10.3551
tätigkeit	-10.3553
▁einzelne	-10.3555
▁german	-10.3557
▁gene	-10.3561
▁figuren	-10.3576
▁nationen	-10.3579
▁unge	-10.3579
▁nehmen	-10.3584
kern	-10.3588
▁elisabeth	-10.3589
öck	-10.3593
back	-10.3599
▁hall	-10.36
▁galaxie	-10.3607
para	-10.3609
▁verbreitung	-10.361
wohn	-10.3613
▁lö	-10.3616
ite	-10.3619
▁fin	-10.3622
schu	-10.3622
räumen	-10.3623
ín	-10.3624
eisen	-10.3624
▁phase	-10.3631
▁600	-10.3635
▁institute	-10.3635
▁bühnen	-10.3644
▁entwicklungs	-10.365
▁doktor	-10.365
▁love	-10.3662
▁niederlage	-10.3664
▁rio	-10.3665
pflanz	-10.3666
▁entspringt	-10.367
▁white	-10.367
▁beobachtet	-10.367
▁bachelor	-10.367
▁erzbischof	-10.367
▁löwenberg	-10.367
▁verpflichtet	-10.367
▁erinnert	-10.367
synthese	-10.367
darsteller	-10.3671
▁luftfahrzeug	-10.3671
▁abzu	-10.3672
präsentantenhaus	-10.3672
prozess	-10.3682
blätter	-10.3683
debüt	-10.3684
änge	-10.3685
▁luis	-10.3686
▁gemeinsame	-10.3686
▁erzählt	-10.3686
nick	-10.3687
hit	-10.3687
olf	-10.3701
▁lor	-10.3701
▁camp	-10.3702
▁haut	-10.3703
fiel	-10.3704
▁presse	-10.3705
wood	-10.372
ausschuss	-10.3726
mehr	-10.3727
deut	-10.3728
▁führten	-10.3736
hauses	-10.3736
thy	-10.3738
illa	-10.3738
▁schluss	-10.3745
▁leon	-10.3745
▁präsentiert	-10.3748
▁app	-10.375
gewehr	-10.3751
▁tro	-10.3754
▁angenommen	-10.3755
▁einzu	-10.3757
bericht	-10.3761
einsätze	-10.3769
▁bestimmte	-10.3769
▁auszeichnung	-10.3775
samt	-10.3779
big	-10.3779
▁lj	-10.3782
▁che	-10.3783
statt	-10.3784
▁spielten	-10.3787
innere	-10.3793
▁geborene	-10.3798
rhône	-10.3798
▁amsterdam	-10.3798
▁plettenberg	-10.3798
▁neapel	-10.3798
▁gewichtsklasse	-10.3798
knochen	-10.38
▁kooperation	-10.38
fahr	-10.38
▁spanischen	-10.3802
▁koch	-10.3807
▁ausgewählt	-10.3807
▁schauspiel	-10.3809
stellt	-10.3813
▁schwarzen	-10.3813
rhein	-10.3814
gelände	-10.3816
förderung	-10.3817
▁dreh	-10.3818
▁(15	-10.3825
▁baden	-10.3825
▁musikalisch	-10.3826
▁plus	-10.3826
▁label	-10.3832
town	-10.3836
▁errichtete	-10.3837
▁bestehend	-10.3841
▁nürnberg	-10.3852
▁renn	-10.3857
▁ausland	-10.3859
▁wander	-10.3863
▁eben	-10.3863
▁dan	-10.3864
▁automobil	-10.3877
_1	-10.388
▁leitet	-10.3881
▁bus	-10.3881
▁schwarze	-10.3883
azi	-10.3894
20-	-10.3894
ligen	-10.3897
▁/	-10.3897
▁eingang	-10.3903
alli	-10.3903
aturschutzgebiet	-10.3909
▁geben	-10.3911
▁it	-10.3913
▁berichtet	-10.3916
▁unten	-10.3921
medaille	-10.3922
▁einführung	-10.3922
▁original	-10.3924
▁norwegischen	-10.3926
▁natrium	-10.3928
▁montluçon	-10.3928
schlüsse	-10.3928
▁challenge	-10.3928
▁(2011)	-10.3928
▁dagegen	-10.3928
▁praktisch	-10.3928
rechnung	-10.3928
▁zahn	-10.3935
sonst	-10.3942
zon	-10.3947
viertel	-10.3947
rico	-10.3949
▁schauspielerin	-10.3953
geführt	-10.3953
decke	-10.3956
▁ausgeführt	-10.396
▁fabrik	-10.396
smitglied	-10.3967
▁herstellung	-10.3968
▁jesu	-10.397
schwäch	-10.3973
asse	-10.3974
▁ordens	-10.3981
▁gefängnis	-10.3983
▁marie	-10.3986
studie	-10.3993
▁siebten	-10.3997
altar	-10.3998
deutsche	-10.4005
deutschen	-10.4006
▁bett	-10.4008
pädagogik	-10.401
▁müller	-10.4016
rik	-10.4017
▁geo	-10.4024
strecken	-10.4029
mitglied	-10.4042
▁jüdischen	-10.4047
erweise	-10.4049
stiel	-10.4051
äre	-10.4056
▁präsidenten	-10.4059
▁beauftragt	-10.406
▁digital	-10.406
▁verstorben	-10.406
kampagne	-10.406
▁kalifornien	-10.406
▁teenager	-10.406
▁verlängert	-10.406
▁zugeordnet	-10.406
▁befasst	-10.406
▁margaret	-10.406
▁züchter	-10.406
▁uefa	-10.406
▁ter	-10.4061
▁aachen	-10.4061
▁beliebt	-10.4061
▁bevölkerungs	-10.4062
▁aktivitäten	-10.4062
▁aufgebaut	-10.4063
▁herbert	-10.4064
▁aussage	-10.4066
▁gelegenen	-10.4072
▁kal	-10.4074
▁mei	-10.4075
▁englisch	-10.4075
▁doha	-10.4076
qualifikation	-10.4084
▁arg	-10.4093
show	-10.4097
gänge	-10.4103
illy	-10.4104
dé	-10.4112
amerikanisch	-10.4113
▁solo	-10.4119
▁53	-10.4122
▁krieges	-10.4124
▁ny	-10.4126
▁vol	-10.413
▁basketball	-10.4131
▁näher	-10.4144
▁sel	-10.4148
flor	-10.4149
▁erd	-10.415
▁hl	-10.4152
▁stellung	-10.4154
losen	-10.4156
dp	-10.4157
▁4-	-10.4157
▁sächsische	-10.4159
▁essen	-10.4165
▁nad	-10.4169
▁wichtigsten	-10.4176
aktiv	-10.4177
ecken	-10.418
erfolg	-10.4181
artigen	-10.4193
▁längs	-10.4193
▁engagement	-10.4193
▁gestorben	-10.4193
▁mountain	-10.4193
▁stattfand	-10.4193
▁tourenwagen	-10.4193
▁arnold	-10.4193
befehl	-10.4194
▁earl	-10.4195
lieferung	-10.4196
▁serge	-10.4196
▁1861	-10.4198
stärke	-10.4199
uni	-10.42
▁familienname	-10.4205
▁cy	-10.4207
ardenne	-10.4208
▁lot	-10.4211
▁mak	-10.4214
▁schreiben	-10.4217
treffen	-10.4221
instrument	-10.4221
▁dollar	-10.4226
▁infolge	-10.4227
ká	-10.4229
▁viertel	-10.4235
historisch	-10.4237
▁syn	-10.4239
▁exemplare	-10.4241
▁dauert	-10.4248
welle	-10.425
becken	-10.4255
verlust	-10.4264
aka	-10.4268
▁bou	-10.427
stimme	-10.4274
elli	-10.4274
strecke	-10.4275
▁gemälde	-10.4276
▁af	-10.4282
gelöst	-10.4284
▁states	-10.4284
▁by	-10.4285
▁anerkannt	-10.4289
prü	-10.4295
odo	-10.43
▁schlag	-10.4302
kron	-10.4304
1)	-10.4307
▁gewalt	-10.4307
▁englische	-10.431
▁prozess	-10.431
▁kenn	-10.4314
teilen	-10.4317
ming	-10.432
▁erklärte	-10.4324
▁umfasste	-10.4327
▁adel	-10.4327
▁karlsruhe	-10.4328
▁oelsnitz	-10.4328
▁smith	-10.4328
fiction	-10.4329
▁endgültig	-10.4329
▁generation	-10.4329
▁belgische	-10.4329
▁eigenständige	-10.4329
▁festung	-10.4329
gearbeitet	-10.4329
▁vergeben	-10.433
alpes	-10.433
▁ruhestand	-10.4331
▁fro	-10.4331
▁1848	-10.4334
▁angebaut	-10.4335
hoff	-10.4336
knoten	-10.4336
▁1869	-10.4337
▁wiederholt	-10.4337
bek	-10.434
zuführen	-10.4352
▁q	-10.4355
▁qualifiziert	-10.4355
▁andreas	-10.4357
▁fels	-10.4358
bevölkerung	-10.4358
▁zeichen	-10.4359
▁63	-10.436
▁hund	-10.4364
cci	-10.4364
▁indian	-10.4365
stiftung	-10.4365
▁rü	-10.437
▁ältere	-10.4372
▁lind	-10.4376
▁witt	-10.4384
▁mitgliedern	-10.4388
▁ursache	-10.4388
▁vize	-10.4392
▁kurt	-10.4394
▁far	-10.4395
▁bewohner	-10.4395
ets	-10.4396
doi	-10.4403
grube	-10.4404
▁lernte	-10.4405
▁produkte	-10.4407
▁gewinn	-10.4415
▁besitzer	-10.442
gau	-10.4426
▁gestaltung	-10.4427
▁mika	-10.443
▁wall	-10.4432
▁37	-10.4436
mitglieder	-10.444
▁stift	-10.4441
▁beschäftigt	-10.4443
brach	-10.4444
▁sommerspiele	-10.445
ziehung	-10.4452
▁gegend	-10.4455
polnisch	-10.446
▁his	-10.4461
faktor	-10.4463
▁übersetzt	-10.4464
▁spreng	-10.4464
▁schleusingen	-10.4465
▁verbessert	-10.4465
▁existiert	-10.4465
▁uttar	-10.4466
jewitsch	-10.4466
▁stefan	-10.4466
tempel	-10.447
▁erscheinen	-10.4471
▁gliedert	-10.4471
bedingt	-10.4479
galaxie	-10.4497
industrie	-10.4498
maschine	-10.4499
gewinn	-10.45
flugzeug	-10.45
▁ersatz	-10.4506
▁zugelassen	-10.4511
▁ungefähr	-10.4513
cul	-10.4513
▁horn	-10.4517
▁woche	-10.452
ava	-10.4536
▁soldaten	-10.4536
maler	-10.4537
▁magazin	-10.454
▁iso	-10.4556
▁group	-10.456
▁heran	-10.4561
▁vorbei	-10.4564
▁treffen	-10.4576
hoch	-10.4583
mini	-10.4583
▁sri	-10.4584
▁schulen	-10.4585
▁bert	-10.4586
schanze	-10.4589
istik	-10.4589
stuhl	-10.4604
vermögen	-10.4604
▁elizabeth	-10.4604
▁records	-10.4604
▁priester	-10.4604
▁natürlich	-10.4604
▁zwang	-10.4604
speicher	-10.4605
victor	-10.4605
▁1857	-10.461
▁spezialisiert	-10.461
▁«	-10.461
▁harry	-10.4614
▁nct	-10.4618
▁ye	-10.4619
▁versucht	-10.4622
▁landtag	-10.4626
▁gedicht	-10.4631
wirkung	-10.464
lung	-10.4641
°	-10.4641
▁nachweis	-10.4641
denkmal	-10.4644
bilder	-10.4645
sheim	-10.4648
▁47	-10.4649
▁christi	-10.4679
▁nation	-10.4681
ovi	-10.4681
▁besitzen	-10.4687
zeichnung	-10.469
▁berufliche	-10.469
dä	-10.4692
▁universitäts	-10.4704
▁infanterie	-10.4705
stream	-10.4712
besitz	-10.4714
▁blut	-10.472
▁ausstellungen	-10.472
▁armen	-10.4722
▁250	-10.4729
▁alp	-10.473
▁untersuchungen	-10.4731
▁planung	-10.474
berechtigt	-10.4742
▁extrem	-10.4744
verletzung	-10.4745
▁clamecy	-10.4745
▁ekliptik	-10.4745
▁manufacturing	-10.4745
▁verändert	-10.4745
▁astronom	-10.4745
▁nahrung	-10.4745
▁ausgestrahlt	-10.4745
▁schreibt	-10.4745
akademie	-10.4746
▁lindheim	-10.4747
lösung	-10.4747
▁informationen	-10.475
▁judo	-10.4752
▁1892	-10.4753
▁teilnehmen	-10.4755
▁hugo	-10.4757
▁bomb	-10.4766
▁sekretär	-10.4773
▁menge	-10.4774
rot	-10.4775
brand	-10.4775
wandel	-10.4783
▁52	-10.4785
geschäft	-10.4785
palast	-10.4789
▁auflösung	-10.479
▁botschaft	-10.4792
llo	-10.4793
mutter	-10.4799
ziel	-10.4801
▁angel	-10.4802
▁sex	-10.4814
cycl	-10.4815
▁schwimm	-10.4817
▁cap	-10.483
▁part	-10.4837
mach	-10.484
▁cam	-10.4846
zunehmen	-10.4852
weil	-10.4854
▁ferner	-10.486
ais	-10.486
abad	-10.4862
pause	-10.4863
▁%)	-10.4863
▁premiere	-10.4865
chy	-10.4871
▁variante	-10.4875
▁gelegene	-10.4876
▁rücken	-10.488
rates	-10.4886
▁entfernung	-10.4888
▁protagonist	-10.4888
▁überliefert	-10.4888
▁michigan	-10.4888
▁nouvelle	-10.4888
▁töchter	-10.4888
▁verhaftet	-10.4888
▁örtliche	-10.4888
▁jetzt	-10.4888
▁glauben	-10.4888
▁jeden	-10.4889
▁tabellen	-10.4891
▁abgeschlossen	-10.4896
▁tonnen	-10.4897
▁bezieht	-10.4898
▁(=	-10.4898
▁schützen	-10.4898
▁barium	-10.4898
▁meisterschaften	-10.4903
▁free	-10.4905
▁force	-10.4911
eckt	-10.4912
floss	-10.4913
▁sä	-10.4919
▁bell	-10.493
literatur	-10.4932
niederlage	-10.4933
arzt	-10.4934
walzer	-10.4935
vorname	-10.4936
▁eröffnete	-10.4936
friedhof	-10.4938
▁5000	-10.4943
▁letztere	-10.4944
▁franc	-10.4953
▁entwe	-10.4953
▁öl	-10.4956
▁situation	-10.4959
▁vereinigung	-10.496
▁episoden	-10.4967
▁gef	-10.4989
▁orient	-10.4996
▁scho	-10.5006
boy	-10.5008
▁arch	-10.5016
▁gas	-10.5018
▁todes	-10.5021
▁sekund	-10.5022
▁könne	-10.5023
zylinder	-10.5032
▁beschädigt	-10.5033
▁transkription	-10.5033
▁bourgogne	-10.5033
▁verstarb	-10.5033
▁wappen	-10.5033
▁edward	-10.5033
▁francisco	-10.5034
▁tennis	-10.5034
▁täter	-10.5035
▁prior	-10.5035
▁pfarrei	-10.5036
▁belegt	-10.5037
fond	-10.5037
▁61	-10.5037
liter	-10.5038
baren	-10.5041
▁1885	-10.5042
▁nahezu	-10.5043
▁freiburg	-10.5043
▁plou	-10.5046
▁day	-10.5047
▁gewinnung	-10.5048
▁leucht	-10.5049
▁älteren	-10.5057
▁pflege	-10.5058
itsch	-10.5062
▁seitlich	-10.5064
▁diesmal	-10.5067
▁overd	-10.5068
main	-10.5074
▁hard	-10.5075
struktur	-10.5076
ular	-10.5078
politiker	-10.5078
fährt	-10.5078
schaff	-10.5079
▁films	-10.5082
physik	-10.5084
▁völker	-10.5086
stellte	-10.5087
bezeichnung	-10.509
mühle	-10.5091
ried	-10.5097
lange	-10.51
vertrag	-10.5106
▁bisherigen	-10.5111
water	-10.5112
▁fle	-10.5117
▁vorstand	-10.5119
▁por	-10.5119
▁halten	-10.5121
▁krankenhaus	-10.5127
▁gewinner	-10.5135
▁späten	-10.5136
▁landschaft	-10.5139
gewiesen	-10.5139
arre	-10.5143
▁angeboten	-10.5149
springen	-10.5151
▁long	-10.5151
quo	-10.5153
bucht	-10.5156
▁westfalen	-10.5175
ografie	-10.5175
▁theorie	-10.5177
▁physi	-10.5178
▁ägypt	-10.518
zusetzen	-10.518
▁ulrich	-10.518
▁kabinett	-10.5181
▁nicola	-10.5181
▁behandelt	-10.5181
▁schaffen	-10.5185
▁sofort	-10.5188
▁1868	-10.5188
▁1899	-10.5188
▁sm	-10.5189
verlag	-10.519
fc	-10.52
▁naturschutz	-10.5204
▁vertrat	-10.5204
▁byzantinische	-10.5208
▁figur	-10.5208
▁house	-10.5209
▁signal	-10.5212
▁kraftwerk	-10.5214
▁persönlichkeit	-10.5216
▁tisch	-10.5224
taube	-10.5225
▁covi	-10.5231
zier	-10.5232
»	-10.5233
zellen	-10.5235
zeitschrift	-10.524
▁hä	-10.5241
ière	-10.5242
▁langhaus	-10.5247
▁professur	-10.5253
▁haft	-10.5257
ordnete	-10.5258
▁malerei	-10.5259
▁pokal	-10.5259
bois	-10.5261
▁alters	-10.5264
▁rosa	-10.5265
▁geleitet	-10.5272
▁bände	-10.5276
▁schnellste	-10.5282
▁wehr	-10.5286
tplatzierte	-10.5287
▁nachfolge	-10.529
drama	-10.5291
ierenden	-10.5294
▁professorin	-10.5296
▁häuser	-10.5297
▁traten	-10.5301
person	-10.5305
technisch	-10.5306
▁kauf	-10.5315
▁trieb	-10.5324
▁südafrika	-10.5327
mindest	-10.5327
fähig	-10.5329
stipendium	-10.5329
▁edinburgh	-10.5329
▁zugänglich	-10.5329
▁türkei	-10.5329
▁kuppel	-10.5329
▁heißt	-10.5329
pfalz	-10.5329
tunnel	-10.5329
▁geriet	-10.533
▁filial	-10.533
moderator	-10.533
▁adolf	-10.5331
übung	-10.5331
▁lake	-10.5331
▁ergab	-10.5332
▁sonnen	-10.5332
cki	-10.5335
hai	-10.5336
▁1865	-10.5336
fant	-10.5337
▁verbrachte	-10.5337
lp	-10.5338
▁stimm	-10.5338
▁daraus	-10.5341
▁med	-10.5344
▁preuß	-10.5349
manuel	-10.5349
▁zoo	-10.535
▁fleisch	-10.5354
mia	-10.536
▁platzierung	-10.5363
▁gesetzt	-10.5364
afrikanische	-10.5365
stat	-10.5367
▁say	-10.5371
chor	-10.5373
▁vorrunde	-10.5375
▁hö	-10.5377
erstbeschreibung	-10.5377
▁aufgaben	-10.538
auto	-10.5382
▁bezug	-10.5383
▁geschäft	-10.5385
▁eiche	-10.539
▁with	-10.5391
▁fotografie	-10.5393
3.	-10.5393
gestaltung	-10.5393
▁jack	-10.5393
▁weite	-10.5393
▁mad	-10.5401
▁warschau	-10.5402
▁57	-10.5412
wich	-10.5417
▁ensemble	-10.5422
head	-10.5426
▁schriften	-10.5426
▁127	-10.5428
▁williams	-10.5428
krimi	-10.5429
▁krebs	-10.543
astro	-10.5445
▁frankfurter	-10.5449
istin	-10.5453
▁papier	-10.5463
jährig	-10.5465
▁aufenthalt	-10.5472
▁schenk	-10.5475
raub	-10.5475
▁sat	-10.5476
kohl	-10.5478
ý	-10.5479
▁athleten	-10.5481
▁colorado	-10.5481
▁interview	-10.5481
▁urkundlich	-10.5481
▁kroatien	-10.5481
▁unterbrochen	-10.5481
▁israel	-10.5481
▁bildhauer	-10.5481
▁belgien	-10.5481
▁vermutet	-10.5481
▁betreut	-10.5481
▁thailand	-10.5481
▁gesehen	-10.5481
▁premierminister	-10.5481
gehoben	-10.5481
▁bbc	-10.5482
▁ursprung	-10.5482
5.000	-10.5482
▁young	-10.5484
besitzer	-10.5487
▁1880	-10.5491
gard	-10.5492
▁1850	-10.5493
▁orchester	-10.5499
▁entstehen	-10.5506
▁ursprünglichen	-10.5508
▁schwach	-10.5508
massiv	-10.5509
other	-10.5513
index	-10.5514
bindung	-10.5516
▁christen	-10.5516
▁gross	-10.552
anteil	-10.5525
▁tagen	-10.5526
▁1500	-10.5526
zustellen	-10.5529
▁gemeindegebiet	-10.553
▁sara	-10.5536
▁krankheit	-10.5536
▁inneren	-10.5537
inseln	-10.5539
himmel	-10.5544
▁russ	-10.5544
norm	-10.5545
ór	-10.5545
front	-10.5547
anischen	-10.5547
spitze	-10.5547
▁gau	-10.555
▁okr	-10.5552
▁cover	-10.5554
▁tragen	-10.5554
▁leistungen	-10.5557
gliederung	-10.5557
▁72	-10.5565
▁fragen	-10.5574
▁kw	-10.5582
dz	-10.5591
onym	-10.5591
▁vorjahr	-10.5598
▁angestellt	-10.5599
durchschnittlich	-10.5599
▁produzierte	-10.56
▁statue	-10.5605
ström	-10.5619
hart	-10.562
▁spinne	-10.5629
▁gleichnamige	-10.5633
▁olympia	-10.5634
▁kommunal	-10.5634
▁chicago	-10.5635
▁gewidmet	-10.5635
▁komponiert	-10.5635
▁ostantarkti	-10.5635
▁qualifizieren	-10.5635
▁research	-10.5635
▁stattfinden	-10.5635
▁central	-10.5635
▁minderheit	-10.5635
▁täglich	-10.5635
▁1894	-10.5635
▁leistete	-10.5635
▁gedreht	-10.5635
▁kupfer	-10.5635
▁pension	-10.5635
mammut	-10.5635
▁verteilt	-10.5636
führen	-10.5637
▁melodie	-10.5637
▁aufnahme	-10.5637
▁bridge	-10.5639
▁hauptrolle	-10.5641
▁schneider	-10.5642
▁1886	-10.5643
langlauf	-10.5645
+	-10.5646
▁angeordnet	-10.5646
lassen	-10.5647
▁allgemeinen	-10.5648
plattform	-10.5649
fremd	-10.565
uell	-10.5653
▁blue	-10.5653
▁nachrichten	-10.566
▁beschäftigte	-10.5662
▁indiens	-10.5662
früchte	-10.5663
▁tsch	-10.5669
▁grafik	-10.567
▁freunde	-10.5671
kenntnisse	-10.5678
quer	-10.5683
▁gleis	-10.5685
▁soziale	-10.5687
▁wichtig	-10.5689
ij	-10.57
cour	-10.5701
smitglieder	-10.5705
▁garde	-10.5708
▁großes	-10.5714
▁weltkrieges	-10.5718
▁spanische	-10.5725
stock	-10.5725
▁boot	-10.5725
dium	-10.573
zimmer	-10.5733
schwerpunkte	-10.5734
▁hundert	-10.5735
wende	-10.5741
▁zogen	-10.5752
tech	-10.5762
▁reform	-10.5771
▁ple	-10.5776
▁klinik	-10.5778
▁from	-10.5782
iana	-10.5783
▁östlichen	-10.5785
atoren	-10.5786
abhängig	-10.5787
ixodiphagus	-10.5791
▁beschreibt	-10.5791
▁porträt	-10.5791
günstig	-10.5791
vertretung	-10.5791
▁madrid	-10.5791
▁castle	-10.5791
▁synonym	-10.5791
▁versehen	-10.5791
▁boston	-10.5791
▁clemen	-10.5792
▁entwurf	-10.5793
▁bleiben	-10.5793
getreten	-10.5799
▁sprint	-10.58
▁freiheit	-10.5801
▁brust	-10.5807
funde	-10.5808
▁ehemann	-10.5808
▁maßnahmen	-10.5809
▁weltmeister	-10.581
▁bestzeit	-10.5811
setzte	-10.5812
▁europameister	-10.5819
▁funde	-10.5828
▁minus	-10.5847
▁tode	-10.5849
richtet	-10.5851
▁gras	-10.5851
▁allier	-10.5852
▁christliche	-10.5854
produkt	-10.5856
wände	-10.5859
magazin	-10.5863
▁heck	-10.5865
▁pap	-10.5866
▁cho	-10.5867
achse	-10.5869
mba	-10.5873
einrichtung	-10.5873
▁metal	-10.5874
▁wm	-10.5878
waltungseinheit	-10.5882
ografisch	-10.5886
armee	-10.5887
bein	-10.5899
▁bann	-10.5908
▁luxemburgische	-10.5913
▁charts	-10.5928
▁langjährige	-10.5928
alphabetisierung	-10.5928
▁sankt	-10.5931
ries	-10.5934
illo	-10.5935
▁mode	-10.5938
4)	-10.5941
▁iran	-10.5943
ota	-10.5944
▁blatt	-10.5945
fahrer	-10.5947
effekt	-10.5949
▁ergänzt	-10.5949
▁frentzen	-10.5949
▁piccolomini	-10.5949
▁erwähnung	-10.595
▁notwendig	-10.595
▁ungewöhnlich	-10.595
▁äußere	-10.595
▁samuel	-10.595
▁barbara	-10.595
▁dunkle	-10.595
vögel	-10.595
▁schwyz	-10.595
▁zweck	-10.595
▁mittelalter	-10.595
▁gewisse	-10.595
▁pianist	-10.5951
▁erziehungs	-10.5951
▁stärker	-10.5952
▁datiert	-10.5954
verbandes	-10.5955
▁gesundheit	-10.5957
▁1856	-10.5959
▁oberhalb	-10.5972
▁zugang	-10.5973
▁zukunft	-10.5974
▁verbindungen	-10.5976
▁norwegische	-10.5977
▁sim	-10.5981
▁verwendete	-10.5981
▁kro	-10.5982
▁nachgewiesen	-10.5983
▁hang	-10.5986
dhya	-10.5994
▁gestalt	-10.5999
▁continental	-10.6
▁kennen	-10.6005
artige	-10.6006
▁back	-10.6006
▁blei	-10.6008
artikel	-10.603
▁lig	-10.6033
▁kleineren	-10.6035
▁stre	-10.604
▁endet	-10.6046
▁miller	-10.6047
▁religiöse	-10.6049
▁wettkampf	-10.6053
▁bäume	-10.6053
shire	-10.6054
▁spitzen	-10.6054
▁menschliche	-10.6054
ija	-10.6056
▁kritiken	-10.6058
▁beruf	-10.606
▁kategorien	-10.6065
block	-10.6068
lind	-10.6077
▁sicherheit	-10.6078
▁monument	-10.6079
▁hochschul	-10.6093
gio	-10.6099
▁bezog	-10.6101
▁tabelle	-10.6107
bedarf	-10.611
kommissar	-10.6111
▁berühmt	-10.6111
▁commune	-10.6111
▁reguläre	-10.6111
▁völlig	-10.6111
▁fahrgestell	-10.6111
▁taylor	-10.6111
rüstung	-10.6111
ermittler	-10.6111
gräber	-10.6111
mächtig	-10.6111
▁verpasste	-10.6111
▁antwort	-10.6111
schirm	-10.6114
▁kö	-10.6114
▁center	-10.6117
▁pur	-10.6118
▁prozession	-10.6118
▁1874	-10.6119
trakt	-10.6121
▁iwan	-10.6121
rohr	-10.6126
gasse	-10.6128
▁board	-10.613
▁termin	-10.613
▁bestandteil	-10.6143
▁lud	-10.6154
▁bauwerke	-10.6155
▁lagen	-10.6164
▁bedingungen	-10.6171
▁leda	-10.6171
▁fair	-10.618
▁nutzte	-10.6181
liber	-10.6183
autor	-10.6188
▁französischer	-10.6188
▁aufgeteilt	-10.6191
▁eva	-10.6194
▁register	-10.6195
mmel	-10.62
geladen	-10.6201
▁ross	-10.6202
bringen	-10.621
▁seele	-10.6216
▁jagd	-10.622
▁alben	-10.6223
malerei	-10.6229
fällig	-10.623
moschee	-10.6232
gott	-10.6248
lett	-10.6251
▁aufführung	-10.6254
▁blätter	-10.6258
▁vorbild	-10.626
▁historiker	-10.6265
▁einkommen	-10.6266
▁lin	-10.6269
▁fallen	-10.6269
▁fällt	-10.6269
▁karosserie	-10.6274
▁erscheinung	-10.6274
▁dänemark	-10.6275
▁kolumbien	-10.6275
▁tübingen	-10.6275
▁verändern	-10.6275
▁abgerissen	-10.6275
würfe	-10.6275
▁künste	-10.6275
erkrankung	-10.6275
▁theodor	-10.6275
▁streitkräfte	-10.6275
▁betrachtet	-10.6275
▁begrenzt	-10.6275
▁ursprüngliche	-10.6276
▁senior	-10.6276
▁kanada	-10.6277
▁point	-10.6278
▁abgehalten	-10.6278
▁kaufmann	-10.6279
mag	-10.628
▁unterrichtete	-10.628
▁einsätzen	-10.6281
▁kiew	-10.6281
▁1855	-10.6283
▁1864	-10.6284
▁außerordentlich	-10.6285
▁landgemeinde	-10.6285
▁marmor	-10.6289
gäste	-10.6292
rank	-10.6299
womit	-10.6299
▁erreichten	-10.63
▁mos	-10.6306
european	-10.6308
▁66	-10.631
▁act	-10.6315
suche	-10.6319
▁alpen	-10.6322
▁mensch	-10.6329
▁jüngeren	-10.633
tsi	-10.6338
▁griff	-10.6345
▁betreiber	-10.636
funktion	-10.6363
kloster	-10.6364
schüler	-10.6364
thi	-10.6365
▁mord	-10.6367
vereinigung	-10.6367
▁hamburger	-10.6371
bezirke	-10.6376
mol	-10.6377
schafft	-10.6384
▁fü	-10.6392
▁verblieben	-10.6393
▁bil	-10.6394
▁stabil	-10.6409
klein	-10.6413
schuss	-10.6413
anti	-10.6414
▁besucher	-10.6417
▁epi	-10.6421
▁verfügte	-10.6428
student	-10.6438
fähigkeit	-10.6438
gold	-10.6438
kommando	-10.6441
▁entstehung	-10.6441
▁heidelberg	-10.6441
▁performance	-10.6441
▁potsdam	-10.6441
▁reederei	-10.6441
▁geblieben	-10.6441
▁norwegen	-10.6441
▁menhir	-10.6442
▁kommunistische	-10.6442
jäger	-10.6442
▁jacob	-10.6443
▁schwierig	-10.6443
▁geschichts	-10.6443
▁erwachsene	-10.6444
dule	-10.6447
▁1873	-10.645
▁1896	-10.6453
▁freitag	-10.6454
▁finanzielle	-10.6455
▁hauptort	-10.6455
▁western	-10.6456
▁davis	-10.6458
damm	-10.6468
▁kano	-10.6468
lenk	-10.6469
nacht	-10.6476
▁sturm	-10.648
▁expedition	-10.6487
▁basel	-10.6491
▁rub	-10.6492
▁59	-10.6492
▁zy	-10.6495
geschrieben	-10.65
▁zustand	-10.6503
▁dozent	-10.6516
▁loch	-10.6526
▁artillerie	-10.6528
professor	-10.6536
▁sechsten	-10.6538
▁dichter	-10.654
georg	-10.6541
▁maur	-10.6542
▁gleiche	-10.6542
sendung	-10.6547
riff	-10.655
frank	-10.6555
▁portugiesischen	-10.6555
boot	-10.6565
▁grenzen	-10.6566
▁heil	-10.6567
▁49	-10.6569
▁michel	-10.6572
▁kritiker	-10.6572
▁analyse	-10.6574
▁verfügbar	-10.6575
helm	-10.6577
▁elemente	-10.6578
ship	-10.6579
▁comp	-10.6584
▁auseinandersetz	-10.6592
wiegend	-10.6595
event	-10.6598
▁170	-10.6604
erfahrung	-10.661
▁council	-10.6611
▁innsbruck	-10.6611
▁jüngste	-10.6611
▁widmete	-10.6611
▁zeitgenössische	-10.6611
komödie	-10.6611
▁festgelegt	-10.6611
▁reduziert	-10.6611
▁hindernis	-10.6611
gewölbe	-10.6611
▁geschickt	-10.6611
▁veranstaltet	-10.6611
brauerei	-10.6611
▁gebrauch	-10.6611
▁gemeldet	-10.6611
▁arthur	-10.6611
▁rumpf	-10.6611
▁gegner	-10.6611
▁zdf	-10.6611
▁gordon	-10.6612
chmal	-10.6614
book	-10.6616
▁entsprach	-10.6617
▁werkstatt	-10.6617
▁1,5	-10.6619
▁scheint	-10.6619
▁1893	-10.6619
▁1875	-10.662
▁großteil	-10.662
▁lil	-10.6622
▁reiste	-10.6624
förmigen	-10.6626
▁schottische	-10.6629
▁behandlung	-10.6632
▁juden	-10.6637
▁abschloss	-10.6638
▁löste	-10.6639
▁10.000	-10.6639
▁institution	-10.6666
▁seither	-10.6667
▁flächen	-10.6672
▁erstligist	-10.6679
▁absolviert	-10.668
▁einkommens	-10.6685
gebracht	-10.6687
▁law	-10.6689
▁jane	-10.6702
▁schrei	-10.6711
größe	-10.6712
nimmt	-10.6716
kamera	-10.6717
▁bundesstaates	-10.6717
▁wirklich	-10.6718
▁vereinigte	-10.6719
key	-10.6724
flügel	-10.6732
▁weiße	-10.6747
▁verfahren	-10.6757
▁laufend	-10.6764
▁antike	-10.6765
▁begleit	-10.6771
zieht	-10.6772
kali	-10.6773
▁dj	-10.6779
ping	-10.6783
häuptling	-10.6783
▁anerkennung	-10.6783
▁eidgenössische	-10.6783
▁millimeter	-10.6783
kartoffel	-10.6783
▁erhebung	-10.6783
▁horror	-10.6783
▁saarbrücken	-10.6783
▁hoffnung	-10.6783
▁gemarkung	-10.6783
▁kritisiert	-10.6783
fragment	-10.6783
▁erkennen	-10.6783
▁draft	-10.6784
▁aufmerksamkeit	-10.6784
▁zerstörer	-10.6784
▁bewohnt	-10.6784
▁hieß	-10.6784
▁wissen	-10.6785
hängt	-10.6785
▁staatsbürger	-10.6785
▁erlitt	-10.6786
▁grammy	-10.6786
▁festgestellt	-10.6787
▁letztlich	-10.6788
▁urban	-10.6788
zwei	-10.6789
▁kaiserreich	-10.6789
fort	-10.6791
▁partien	-10.6793
weisung	-10.6795
gebunden	-10.6796
▁marburg	-10.6796
▁beschloss	-10.6797
tausend	-10.6798
▁human	-10.6803
▁held	-10.6804
▁schlange	-10.6804
▁down	-10.6807
▁helmut	-10.6808
▁langer	-10.6811
▁saisonende	-10.6811
kranke	-10.6813
▁zugeschrieben	-10.6821
▁umbau	-10.6823
▁kommission	-10.6826
▁markus	-10.6829
may	-10.6832
▁landstraße	-10.6834
▁mangel	-10.6836
▁angebracht	-10.6839
▁infrastruktur	-10.6843
▁yu	-10.6847
▁schweren	-10.6849
pack	-10.685
dscha	-10.685
atsu	-10.6859
▁kämpfte	-10.6861
▁spiral	-10.6865
▁publikationen	-10.6865
materialien	-10.6875
▁felder	-10.6876
▁königin	-10.6876
right	-10.6877
▁jüdische	-10.6877
kämpft	-10.688
▁wiesen	-10.6887
wiesen	-10.6895
hardt	-10.6896
▁120	-10.69
▁abgeordneter	-10.6904
▁photo	-10.6908
▁fassade	-10.6909
▁widerstands	-10.6912
▁eier	-10.6916
hydro	-10.6919
▁mühle	-10.6919
▁weiler	-10.6921
▁sang	-10.6929
▁palm	-10.6934
rott	-10.6938
text	-10.6944
quelle	-10.695
begriffsklärung	-10.6959
obergrabenpresse	-10.6959
▁badminton	-10.6959
▁brasilien	-10.6959
▁eswatini	-10.6959
▁generalmajor	-10.6959
▁pennsylvania	-10.6959
▁restauriert	-10.6959
begegnung	-10.6959
beobachtung	-10.6959
fluorosulfonat	-10.6959
läufig	-10.6959
▁beeinflusst	-10.6959
▁griffith	-10.6959
technologie	-10.6959
▁entgegen	-10.6959
▁zähne	-10.6959
-100-	-10.6959
▁wehrmacht	-10.6959
segment	-10.6959
▁nennt	-10.6959
▁vergangenheit	-10.6959
▁liberal	-10.696
▁giovanni	-10.696
▁schnee	-10.6962
▁mittelalterlich	-10.6962
▁kontroll	-10.6964
▁erlaubt	-10.6965
▁1849	-10.6966
▁einrichtungen	-10.6966
▁behörden	-10.6966
▁löwe	-10.6966
▁aufstand	-10.6967
▁antonio	-10.6968
▁schritt	-10.6968
▁unternehmer	-10.6969
▁1888	-10.697
▁1895	-10.6971
▁teich	-10.6973
▁personal	-10.6974
▁champions	-10.6974
▁förderung	-10.6975
▁now	-10.6976
ausgabe	-10.698
▁höheren	-10.698
▁beleg	-10.698
▁lyon	-10.6982
▁grö	-10.6984
einhalb	-10.6989
▁gesicht	-10.7
▁ausländische	-10.7004
▁trompete	-10.7016
▁zweig	-10.7017
springer	-10.7023
▁konflikt	-10.7023
hochschule	-10.7025
kö	-10.7027
▁versammlung	-10.703
▁blick	-10.7031
▁metz	-10.7032
▁roth	-10.7033
▁mainz	-10.7043
▁bull	-10.7056
melde	-10.706
▁800	-10.7063
bedingungen	-10.7071
offizier	-10.7072
hersteller	-10.7072
▁pionier	-10.7072
trompete	-10.7073
kay	-10.7073
gibt	-10.7074
bahnhof	-10.7081
siehe	-10.7083
partner	-10.7084
lux	-10.7084
work	-10.7085
▁stimme	-10.7086
▁kaufte	-10.7087
▁shi	-10.7098
ographisch	-10.7099
farben	-10.7106
▁fil	-10.7108
▁schließt	-10.7109
menge	-10.712
▁wy	-10.7125
englisch	-10.7126
poli	-10.7129
▁austragung	-10.7137
▁akademische	-10.7137
▁kilogramm	-10.7137
▁mosambik	-10.7137
kommandant	-10.7137
▁2017/18	-10.7137
▁sebastian	-10.7137
▁1862	-10.7137
▁gipfel	-10.7137
▁angesehen	-10.7137
▁stephen	-10.7137
▁puerto	-10.7137
▁existieren	-10.7138
▁verfolgt	-10.7138
▁abschlussfeier	-10.7138
▁getragen	-10.7138
__	-10.7138
▁angeblich	-10.714
▁eingemeindet	-10.714
gri	-10.7141
▁ganges	-10.7144
▁gefahr	-10.7144
▁1883	-10.7145
▁modernen	-10.7146
▁dortmund	-10.7147
▁1889	-10.7147
▁korps	-10.7147
▁treu	-10.7148
▁fecht	-10.7149
▁absturz	-10.7152
▁einrichtung	-10.7158
▁mö	-10.7163
lob	-10.7165
rangliste	-10.7173
▁abgeordnete	-10.7174
▁funk	-10.7178
reiter	-10.719
▁verschiedener	-10.7191
▁farm	-10.7192
▁linke	-10.7192
▁dou	-10.7194
owice	-10.7201
▁dank	-10.7204
▁hex	-10.7205
▁life	-10.7205
strich	-10.7217
▁ukrainische	-10.7221
▁130	-10.7226
▁erhält	-10.7228
▁übrigen	-10.7235
▁graz	-10.7245
▁juan	-10.7247
▁games	-10.7249
könig	-10.7255
▁entschieden	-10.7257
hauptstadt	-10.7262
affe	-10.7268
▁desselben	-10.7274
bald	-10.7278
▁errichtung	-10.7287
▁beendet	-10.729
▁schle	-10.7292
uli	-10.73
rabi	-10.7309
vid	-10.7309
demokrat	-10.7314
euil	-10.7316
▁leopold	-10.7316
▁villeneuve	-10.7319
vorbereitung	-10.7319
▁[...]	-10.7319
▁begründet	-10.7319
▁erworben	-10.7319
▁systematik	-10.7319
▁verstärkt	-10.7319
▁church	-10.7319
admiral	-10.7319
▁herschel	-10.732
▁major	-10.732
▁fertiggestellt	-10.732
▁denkmalschutz	-10.732
▁mikro	-10.732
spannung	-10.732
▁jugendliteratur	-10.7321
▁patrick	-10.7322
▁gabriel	-10.7322
▁bedeutendsten	-10.7322
▁kindheit	-10.7323
▁kir	-10.7323
▁1859	-10.7325
streifen	-10.7327
▁lotta	-10.7328
gerufen	-10.7329
▁sea	-10.733
▁estnische	-10.733
▁beschrieb	-10.7331
lebt	-10.7333
▁street	-10.7333
▁luc	-10.7337
hou	-10.7337
▁mandat	-10.734
▁bod	-10.734
▁simon	-10.7347
ło	-10.7353
▁spinnen	-10.7358
messe	-10.7361
▁größer	-10.7363
▁hören	-10.7364
rücken	-10.7365
▁tauf	-10.7367
▁musical	-10.737
▁symbol	-10.7373
▁acker	-10.7382
bia	-10.7387
▁costa	-10.7391
▁gui	-10.7392
möglichkeiten	-10.7394
wah	-10.7394
seit	-10.7395
▁mündung	-10.7405
▁wichtigste	-10.7406
score	-10.7407
tour	-10.7411
allier	-10.7416
sektion	-10.7418
▁fossil	-10.7423
lutherische	-10.7426
▁nordamerika	-10.7432
▁spezial	-10.7441
▁plant	-10.7445
assistent	-10.7446
büro	-10.7446
medizin	-10.7446
design	-10.7447
richten	-10.7448
feier	-10.7462
halter	-10.7462
gelenk	-10.7464
gleis	-10.7466
ordens	-10.7467
▁andrea	-10.7471
tribu	-10.7476
▁forst	-10.7478
▁formel	-10.7488
▁chal	-10.7495
▁kontrolle	-10.7499
▁nigeria	-10.7501
leutnant	-10.7502
▁portugiesische	-10.7503
▁charlotte	-10.7504
jubiläum	-10.7504
▁administrativ	-10.7504
▁gefertigt	-10.7504
▁kopenhagen	-10.7504
▁nägeli	-10.7504
▁osttimor	-10.7504
▁eberhard	-10.7504
▁wählte	-10.7504
▁wiederaufbau	-10.7504
▁kündigte	-10.7504
▁rettung	-10.7504
▁benutzt	-10.7504
▁besiegte	-10.7505
▁kassel	-10.7505
▁bedeckt	-10.7505
▁tragfläche	-10.7505
▁ausgerichtet	-10.7506
▁bürgerkrieg	-10.7506
▁sonstige	-10.7506
räder	-10.7506
▁entlassen	-10.7507
asia	-10.7508
▁rapper	-10.7509
first	-10.7509
▁lebensmittel	-10.7509
▁1879	-10.7513
▁1884	-10.7513
▁1878	-10.7514
▁szenen	-10.7514
lizenz	-10.7515
union	-10.7515
▁1840	-10.7519
ilia	-10.752
▁ausgeliefert	-10.7522
round	-10.7523
▁web	-10.7525
▁küsten	-10.7525
treppe	-10.7528
▁lü	-10.7534
▁jahrzehnte	-10.7534
▁streit	-10.7535
▁exil	-10.7537
▁feder	-10.7557
breite	-10.7558
▁freundin	-10.7571
▁sar	-10.7572
▁sender	-10.7573
▁virginia	-10.7573
▁ausgestellt	-10.7579
▁jedem	-10.7584
▁büro	-10.759
▁erwerb	-10.7596
▁ausdruck	-10.7602
lach	-10.7607
▁biografien	-10.7608
▁still	-10.7612
kov	-10.7621
▁wach	-10.7627
tournee	-10.7634
symbol	-10.7637
festival	-10.7639
mission	-10.7639
general	-10.7639
transport	-10.7639
▁neo	-10.764
rant	-10.7645
geräte	-10.7651
▁wende	-10.7651
▁spalte	-10.7658
▁rückte	-10.7672
zentr	-10.7674
läuft	-10.768
entscheid	-10.7683
bow	-10.7683
gouverneur	-10.7693
▁matthias	-10.7693
kleinerungsform	-10.7693
repertoire	-10.7693
rhythm	-10.7693
▁berücksichtigt	-10.7693
▁committee	-10.7693
▁definiert	-10.7693
▁departamento	-10.7693
▁geschwister	-10.7693
▁mathematik	-10.7693
▁wuppertal	-10.7693
▁2016/17	-10.7693
▁konzentriert	-10.7693
▁toronto	-10.7693
▁wunsch	-10.7693
▁stürzte	-10.7693
▁mittelmeer	-10.7693
▁bevorzugt	-10.7693
special	-10.7693
▁tirol	-10.7694
▁andererseits	-10.7694
▁lanka	-10.7696
kraftwagen	-10.7696
▁säulen	-10.7696
▁afrikanischen	-10.7698
micro	-10.7699
▁beschlossen	-10.77
▁year	-10.7702
▁erlangen	-10.7702
bou	-10.7705
▁goldenen	-10.7705
▁architekt	-10.7706
▁ballett	-10.7707
sender	-10.7708
▁heller	-10.7708
▁saß	-10.771
▁talent	-10.7712
▁stets	-10.7713
▁messe	-10.7714
▁hip	-10.7717
fülle	-10.7719
▁patent	-10.7722
▁errang	-10.7722
eshalb	-10.7728
▁schmid	-10.7731
▁linz	-10.7738
▁heilige	-10.7741
▁hände	-10.7746
▁steil	-10.7752
▁schaffte	-10.7753
▁lebensjahr	-10.7755
pädagogische	-10.7756
phil	-10.7758
▁(14	-10.7758
real	-10.7761
dokument	-10.7769
▁sucht	-10.7771
▁litt	-10.7805
▁bataillon	-10.7806
sauce	-10.7811
▁meistertitel	-10.782
expedition	-10.7833
▁reisen	-10.7836
stimmung	-10.7837
schauspieler	-10.7837
forscher	-10.7844
▁bedeutend	-10.7854
kenntnis	-10.7856
flüge	-10.7857
▁heide	-10.7858
▁beitrag	-10.786
▁...	-10.7868
geschlecht	-10.7879
track	-10.7881
wälder	-10.7881
▁kulturelle	-10.7884
ô	-10.7885
▁corporation	-10.7885
▁habilitierte	-10.7885
▁pacific	-10.7885
▁service	-10.7885
▁unterstützen	-10.7885
männerüberschuss	-10.7885
▁flugunfall	-10.7885
▁getroffen	-10.7885
▁horizon	-10.7885
▁verbindet	-10.7885
▁benennung	-10.7885
▁qualität	-10.7885
▁strophe	-10.7885
▁global	-10.7886
▁hirsch	-10.7887
▁musikvideo	-10.7887
▁fernsehserie	-10.7889
▁hilfs	-10.789
▁chance	-10.789
rechtlich	-10.7894
▁1898	-10.7897
zwischenzeitlich	-10.7899
▁eugen	-10.7901
▁auseinander	-10.7906
▁reste	-10.7913
gottesdienst	-10.7918
organis	-10.792
▁girl	-10.7922
tanz	-10.7925
prinzip	-10.7926
▁meinung	-10.7939
▁darstellt	-10.7942
▁gewerbe	-10.7949
füllt	-10.7954
▁zufluss	-10.7966
▁alternative	-10.7967
leib	-10.7968
▁diplomat	-10.7975
▁stadtrat	-10.7977
wing	-10.798
▁toten	-10.7993
▁unver	-10.7999
glieder	-10.8
▁kapitel	-10.8001
▁disziplin	-10.8011
▁guy	-10.8019
afrika	-10.8027
▁oberfläche	-10.8032
offiziell	-10.8033
studio	-10.8034
ächte	-10.8038
▁prinz	-10.8041
herstellung	-10.8044
▁statistik	-10.8045
▁medizinischen	-10.8047
▁jahrzehnten	-10.805
▁isa	-10.8053
deutschland	-10.8053
▁südwest	-10.8064
▁ausschied	-10.8081
▁bezwang	-10.8081
▁empfang	-10.8081
▁kardinal	-10.8081
▁kreuztabelle	-10.8081
▁mexiko	-10.8081
▁würzburg	-10.8081
▁comedy	-10.8081
▁eingewechselt	-10.8081
▁glasgow	-10.8081
▁kontinent	-10.8081
▁moulins	-10.8081
gespräch	-10.8081
▁breslau	-10.8081
▁trifft	-10.8081
▁minardi	-10.8082
▁ralf	-10.8082
satellit	-10.8082
▁fließen	-10.8083
▁ermöglichen	-10.8083
gam	-10.8083
▁tänzer	-10.8083
▁enthielt	-10.8083
▁nachbarort	-10.8085
▁passive	-10.8085
▁jackson	-10.8086
trans	-10.8086
▁1872	-10.8087
▁operette	-10.8088
▁heimatstadt	-10.8088
vater	-10.8089
▁1833	-10.8089
▁jones	-10.809
▁scott	-10.8091
▁anatom	-10.8092
▁1891	-10.8092
maurice	-10.8096
▁nochmals	-10.8098
▁aufnahmen	-10.8098
▁untergebracht	-10.8098
▁überlebt	-10.81
vorstand	-10.8102
ør	-10.8108
▁summe	-10.8108
▁verziert	-10.811
bestimmung	-10.8131
▁rückspiel	-10.8135
▁vorkommen	-10.8144
gleichheit	-10.815
▁ansicht	-10.8154
▁damen	-10.8159
▁quell	-10.8181
▁bekannteste	-10.8187
amerikaner	-10.8198
▁lateinische	-10.8198
▁marco	-10.8203
sekretär	-10.8209
rutsch	-10.8214
bezüglich	-10.8219
▁heinz	-10.822
▁bühne	-10.8226
woche	-10.8232
liegen	-10.8235
therapie	-10.8236
▁flusses	-10.8236
signal	-10.8238
steuer	-10.8244
▁salz	-10.8246
▁englischer	-10.8251
▁küche	-10.8252
▁beat	-10.8256
▁drehte	-10.8257
▁kara	-10.8258
empore	-10.828
unentschieden	-10.8281
▁bezanozano	-10.8281
▁championship	-10.8281
▁gekennzeichnet	-10.8281
▁illinois	-10.8281
▁uraufführung	-10.8281
▁hockey	-10.8281
▁magdeburg	-10.8281
▁unklar	-10.8281
verkäufe	-10.8281
▁chemiker	-10.8281
▁spricht	-10.8281
▁beteiligung	-10.8281
▁kürzer	-10.8281
▁treffer	-10.8282
▁ashton	-10.8282
▁thron	-10.8282
▁dreharbeiten	-10.8282
▁galerie	-10.8282
▁hubraum	-10.8282
▁handball	-10.8283
▁freiwillig	-10.8283
▁entworfen	-10.8283
▁wollen	-10.8283
▁cross	-10.8284
▁folk	-10.8286
▁dietrich	-10.8286
▁oblast	-10.8286
▁dominic	-10.8286
▁beschränkt	-10.8287
▁weltcup	-10.8288
▁elektronische	-10.8289
▁1863	-10.829
▁hypo	-10.8291
▁geflügel	-10.8291
▁1871	-10.8291
▁witwe	-10.8291
franche	-10.8294
bundes	-10.8295
gelagert	-10.8296
tempo	-10.8296
▁oberliga	-10.8299
leidet	-10.8299
burzel	-10.8299
▁enkel	-10.8304
blau	-10.8307
▁flog	-10.8309
fries	-10.8311
ward	-10.8311
ungarisch	-10.8319
▁lebensweise	-10.832
▁hochzeit	-10.8329
▁überhaupt	-10.8329
▁hauptmann	-10.833
künstler	-10.8342
yama	-10.8343
▁dreimal	-10.8343
▁stammende	-10.8345
▁leser	-10.8346
hilf	-10.835
▁errichten	-10.8353
▁sé	-10.8358
▁element	-10.8364
▁vorstellung	-10.8378
▁nutzen	-10.838
▁übersicht	-10.8381
uhr	-10.8382
▁100"	-10.8389
▁software	-10.8391
▁zufolge	-10.8396
▁sho	-10.8409
exemplar	-10.8413
just	-10.8415
artig	-10.8422
masse	-10.8431
▁sank	-10.8432
▁sängerin	-10.8443
auftritt	-10.8455
gesang	-10.8457
▁unsere	-10.8458
kraftwerk	-10.8458
▁fein	-10.8461
elemente	-10.8463
pell	-10.8463
house	-10.8464
torium	-10.8464
▁malte	-10.8466
▁steve	-10.8469
fels	-10.847
anwalt	-10.847
sturz	-10.8474
▁ferr	-10.8479
▁dritt	-10.848
wurf	-10.8484
diözese	-10.8485
versicherung	-10.8485
▁angekündigt	-10.8485
▁archäologische	-10.8485
▁benötigt	-10.8485
▁erweiterung	-10.8485
▁macmillan	-10.8485
▁beinhaltet	-10.8485
▁gitarre	-10.8485
▁soziologie	-10.8485
▁fellow	-10.8485
▁darmstadt	-10.8485
▁zweitligisten	-10.8485
▁geeignet	-10.8485
▁oldenburg	-10.8486
▁umgebaut	-10.8486
▁verlief	-10.8486
▁samstag	-10.8486
▁zwerg	-10.8486
▁geschätzt	-10.8486
▁geschützt	-10.8486
▁trainiert	-10.8487
▁salzburg	-10.8487
▁bewertet	-10.8487
▁dokumentiert	-10.8487
▁peking	-10.8488
▁ermland	-10.8489
▁internet	-10.849
▁grundriss	-10.849
▁export	-10.8491
▁trompeten	-10.8493
▁fracht	-10.8494
▁entscheiden	-10.8498
500	-10.85
▁sorgte	-10.85
grab	-10.8502
▁sagte	-10.8505
▁multi	-10.8507
gedeckt	-10.8508
▁einerseits	-10.8518
gelb	-10.8522
niederösterreich	-10.8526
▁mario	-10.8533
ova	-10.8535
▁hub	-10.8543
abend	-10.855
▁doppelt	-10.8561
▁redakteur	-10.8561
anzeige	-10.8562
cine	-10.8571
print	-10.8577
wunde	-10.8578
▁dicht	-10.8582
▁henri	-10.8584
cell	-10.8585
▁verweis	-10.8585
weni	-10.8587
▁abstand	-10.8593
▁krist	-10.8599
isation	-10.86
dichte	-10.8602
▁autorin	-10.8614
▁vorlauf	-10.8623
atti	-10.863
möglich	-10.8654
freunde	-10.8655
funk	-10.8656
schreiben	-10.8659
[	-10.866
pflege	-10.8665
kör	-10.8666
hochflug	-10.8669
berlin	-10.8671
▁beach	-10.8678
▁rote	-10.8681
▁passagier	-10.8685
raufhin	-10.8688
evolution	-10.869
▁bewusst	-10.8692
genossenschaft	-10.8694
verständnis	-10.8694
▁fantasy	-10.8694
▁jürgen	-10.8694
▁verursacht	-10.8694
▁besonderheit	-10.8694
▁nintendo	-10.8694
▁ostindien	-10.8694
▁erheblich	-10.8694
▁zensus	-10.8694
▁hemelinge	-10.8694
▁erhoben	-10.8694
▁terror	-10.8694
▁bailey	-10.8695
▁studioalbum	-10.8695
▁feuerwehr	-10.8695
▁verdun	-10.8696
▁wassil	-10.8698
▁frucht	-10.8699
▁dritter	-10.87
einsatz	-10.87
▁vogel	-10.87
profil	-10.8701
▁1887	-10.8705
▁1877	-10.8705
▁landung	-10.8707
▁medizinische	-10.8708
▁gü	-10.8708
drückt	-10.8713
planck	-10.8715
▁2500	-10.8717
▁verzeichnet	-10.8718
▁road	-10.8724
rain	-10.8728
▁bergbau	-10.8735
ohne	-10.8738
▁ausgewiesen	-10.8738
▁erzähl	-10.8742
▁rumänische	-10.8744
▁ortsname	-10.8748
zweig	-10.8754
marie	-10.8757
▁stationiert	-10.8757
▁rau	-10.8768
▁amerika	-10.8769
▁lehnte	-10.8771
▁halbfinal	-10.8771
rap	-10.8773
▁engagierte	-10.8776
yang	-10.8777
▁präsent	-10.8778
▁1,2	-10.8782
▁lund	-10.8792
scheibe	-10.8796
▁sound	-10.8805
strafe	-10.8811
▁abtei	-10.8813
france	-10.8821
wirt	-10.8824
zeitung	-10.8827
▁joy	-10.884
wärme	-10.8846
petit	-10.8847
▁hoher	-10.8854
▁eishockey	-10.8859
uit	-10.8866
_2	-10.8867
ión	-10.8872
▁feind	-10.8873
▁islam	-10.8874
schwarz	-10.8877
feuer	-10.8878
▁anwesen	-10.8885
▁levi	-10.8894
lá	-10.8895
beschäftig	-10.8904
▁heirat	-10.8905
saumarez	-10.8907
▁bundesrepublik	-10.8907
▁konfession	-10.8907
▁populär	-10.8907
▁province	-10.8907
▁synchronisation	-10.8907
côtes	-10.8907
demonstration	-10.8907
färbung	-10.8907
nièvre	-10.8907
verzeichnis	-10.8907
▁2020/21	-10.8907
gletscher	-10.8907
▁darauffolgende	-10.8907
▁bochum	-10.8907
spätestens	-10.8907
▁geburtstag	-10.8907
▁gegenwart	-10.8907
verfolgung	-10.8907
▁registriert	-10.8907
▁magnus	-10.8907
fächer	-10.8907
▁erscheint	-10.8908
▁horst	-10.8908
▁selbständig	-10.8909
schäden	-10.8909
stürmer	-10.8909
▁möbel	-10.8909
▁manche	-10.8911
▁geographische	-10.8911
▁albrecht	-10.8912
▁petersburg	-10.8912
▁umfassende	-10.8913
▁1852	-10.8914
▁kriegsende	-10.8915
kristallstruktur	-10.8916
▁überreste	-10.8916
▁südseite	-10.8918
▁mineral	-10.892
strom	-10.892
hall	-10.8925
▁reifen	-10.8926
gefühl	-10.8928
▁hunter	-10.8933
▁runen	-10.8935
doktorand	-10.894
▁übernehmen	-10.8941
▁3000	-10.8944
▁billy	-10.8945
▁riga	-10.8946
▁etc	-10.8948
▁abgegeben	-10.8952
▁gond	-10.8961
▁bildende	-10.8967
▁sir	-10.897
▁heu	-10.8975
▁persönlich	-10.9004
▁würdig	-10.9013
holm	-10.902
▁tvr	-10.9045
dale	-10.9054
adel	-10.9061
▁ablauf	-10.9067
finale	-10.9069
▁portugiesisch	-10.907
maßnahmen	-10.9098
orchester	-10.9098
provinz	-10.91
cola	-10.91
höchste	-10.9102
martin	-10.912
erwartung	-10.9123
champagne	-10.9124
cupiennius	-10.9124
▁achtelfinale	-10.9124
▁geändert	-10.9124
▁grabenstedt	-10.9124
▁hildesheim	-10.9124
▁restaurant	-10.9124
▁ecuador	-10.9124
▁gesichert	-10.9124
▁scheiterte	-10.9124
▁carolina	-10.9124
▁ernennung	-10.9124
▁justiz	-10.9124
▁gegliedert	-10.9124
▁wenzel	-10.9124
▁gesammelt	-10.9124
▁glatt	-10.9124
▁sophie	-10.9124
betracht	-10.9124
▁erkannt	-10.9124
verarbeitung	-10.9125
▁entdeckung	-10.9126
nunatak	-10.9126
▁übergeben	-10.9126
▁siegfried	-10.9128
▁lieferte	-10.9128
▁arabischen	-10.9128
▁restlichen	-10.913
▁medaillen	-10.913
▁handwerk	-10.9132
▁1882	-10.9133
▁letzter	-10.9134
▁behielt	-10.9135
▁power	-10.9135
adult	-10.9138
▁legende	-10.9138
▁kämpfen	-10.9141
garonne	-10.9141
play	-10.9142
▁schutzgebiet	-10.9143
▁circ	-10.9145
beratung	-10.9146
▁obmann	-10.9149
▁ereignisse	-10.915
▁umfang	-10.9153
▁premier	-10.9158
▁kugel	-10.9158
lack	-10.9169
▁übersetzung	-10.9173
▁lars	-10.9176
▁integriert	-10.9178
▁wit	-10.9179
09)	-10.9181
▁orf	-10.9185
▁richtete	-10.9192
▁og	-10.9197
▁stich	-10.9197
▁ruhe	-10.9198
iya	-10.92
worth	-10.9204
leiten	-10.9218
▁kalt	-10.9218
▁nächste	-10.9228
ikon	-10.9239
▁hinten	-10.9249
07)	-10.9271
sohn	-10.9291
pool	-10.9294
schienen	-10.9314
▁sid	-10.9315
owna	-10.932
untersuchung	-10.9326
gründung	-10.9327
▁bauhaus	-10.9332
faser	-10.9335
meldung	-10.9338
platte	-10.9344
▁decauville	-10.9346
explosion	-10.9346
kapazität	-10.9346
spektrum	-10.9346
▁ausgedehnte	-10.9346
▁foundation	-10.9346
▁jungfrau	-10.9346
▁kriterien	-10.9346
▁massachusetts	-10.9346
▁oxford	-10.9346
▁pseudonym	-10.9346
▁verunglückte	-10.9346
▁erforderlich	-10.9346
▁janeiro	-10.9346
▁maßgeblich	-10.9346
bulgarisch	-10.9346
stärkste	-10.9346
▁computer	-10.9346
▁miteinander	-10.9346
▁vogtland	-10.9346
comté	-10.9346
▁soundtrack	-10.9346
▁insassen	-10.9347
▁börse	-10.9347
▁british	-10.9347
▁brown	-10.9347
▁lebenserwartung	-10.9347
▁goldmedaille	-10.9347
▁sängerfest	-10.9348
▁drehbuch	-10.9348
▁kalium	-10.9349
▁schwanz	-10.9352
▁zeichnungen	-10.9353
▁nikolai	-10.9354
dekor	-10.9354
▁zoll	-10.9356
▁eingebaut	-10.9356
▁1867	-10.9356
▁golf	-10.9357
phaka	-10.9357
▁dahinter	-10.9357
▁andré	-10.9358
▁hauptrunde	-10.9358
▁moritz	-10.9359
▁1851	-10.936
▁schlicht	-10.936
▁ruhr	-10.9361
pop	-10.9364
elia	-10.9365
schaffung	-10.9368
▁erhältlich	-10.9369
schnitz	-10.9382
▁forta	-10.9385
angel	-10.9386
▁frances	-10.9387
▁ankunft	-10.9391
▁kirchliche	-10.9396
▁brems	-10.9408
▁durchführung	-10.9412
▁verlaufende	-10.9424
vé	-10.9427
▁segel	-10.9451
konvention	-10.9456
▁wohnte	-10.9476
▁meisterin	-10.9479
streich	-10.9482
▁treib	-10.949
gefüllt	-10.9494
scot	-10.9496
▁gültige	-10.9496
▁werbe	-10.9497
▁luca	-10.9499
barkeit	-10.9507
öffnung	-10.9508
▁julius	-10.9514
ergebnis	-10.9517
stimmt	-10.9519
aktivität	-10.9535
ère	-10.9545
waffen	-10.9547
basis	-10.9547
architekt	-10.9558
airlines	-10.9558
training	-10.9559
modus	-10.9559
schritt	-10.9562
wässer	-10.9565
klassige	-10.9571
säule	-10.9571
▁kommuni	-10.9573
administration	-10.9573
gaylussacia	-10.9573
▁tschechien	-10.9573
▁äußerte	-10.9573
gängig	-10.9573
stufung	-10.9573
▁individuell	-10.9573
▁taiwan	-10.9573
▁thailändische	-10.9573
▁stephan	-10.9573
▁theilmann	-10.9573
▁guinea	-10.9574
sponsor	-10.9574
▁ereignete	-10.9574
▁erfuhr	-10.9574
▁helfen	-10.9574
emblem	-10.9574
▁andrew	-10.9574
kleidung	-10.9574
▁gregor	-10.9574
▁franzosen	-10.9574
▁keller	-10.9575
▁opposition	-10.9575
dank	-10.9575
▁hochflieger	-10.9576
▁francesco	-10.9576
brachte	-10.9577
▁bewegt	-10.9578
▁schottland	-10.958
▁mou	-10.958
luft	-10.9582
▁forderte	-10.9584
▁1881	-10.9585
▁spielerinnen	-10.9587
▁grundschule	-10.9594
▁urteil	-10.9599
▁erfolglos	-10.9602
▁kahl	-10.9606
sław	-10.9611
▁comic	-10.9612
▁kha	-10.9612
sozialismus	-10.9617
jean	-10.9623
tino	-10.9628
swettbewerb	-10.9632
▁job	-10.9637
▁bestände	-10.964
▁maut	-10.9647
▁duke	-10.9652
▁montiert	-10.9657
▁brenn	-10.9657
▁maurer	-10.9669
▁irische	-10.9684
periode	-10.9691
▁melo	-10.9693
▁ausbruch	-10.9695
klingen	-10.97
▁2,5	-10.9706
▁hydr	-10.9711
▁fehlt	-10.9713
meier	-10.9719
armor	-10.9723
gefährlich	-10.9726
▁700	-10.9753
dynamik	-10.976
▁europe	-10.9767
▁jener	-10.9769
firma	-10.9784
bett	-10.979
problem	-10.9792
sicherheit	-10.9796
korps	-10.9796
polizei	-10.9797
international	-10.9799
▁fußballspiele	-10.98
kritik	-10.9801
▁feucht	-10.9801
höhle	-10.9803
bilität	-10.9804
▁äußerst	-10.9806
orthodoxe	-10.9806
▁commonwealth	-10.9806
▁dürfen	-10.9806
▁entertainment	-10.9806
▁entwickeln	-10.9806
▁gefährdet	-10.9806
▁identität	-10.9806
▁individuen	-10.9806
▁uraufgeführt	-10.9806
▁elliptisch	-10.9806
▁kommune	-10.9806
whitney	-10.9806
▁annäher	-10.9806
▁aufeinander	-10.9806
▁praxis	-10.9806
maximilian	-10.9806
▁gefecht	-10.9806
▁xaver	-10.9806
▁veranlass	-10.9806
schuppen	-10.9806
▁stockholm	-10.9806
▁weizen	-10.9807
▁hammer	-10.9807
▁verdient	-10.9807
▁moerman	-10.9807
▁angrenzende	-10.9808
▁kelch	-10.9808
▁rundfunk	-10.9809
▁meldete	-10.9809
▁harris	-10.9809
▁corps	-10.9811
▁unternahm	-10.9811
▁grafschaft	-10.9811
organisator	-10.9812
geht	-10.9812
▁nationalteam	-10.9817
▁rief	-10.9818
chemie	-10.9819
▁sichtbar	-10.9819
▁hinsicht	-10.9821
▁organische	-10.9821
▁christus	-10.9822
▁lettische	-10.9824
ladung	-10.9826
▁wandte	-10.9827
hergang	-10.983
▁leitende	-10.983
▁gefolg	-10.9832
arabisch	-10.9835
▁begraben	-10.9836
spannt	-10.9839
▁roger	-10.9841
▁polar	-10.9843
staatsanwalt	-10.9847
chang	-10.9848
_3	-10.9852
▁spin	-10.9854
▁anmerkung	-10.9863
▁shah	-10.9867
▁schulter	-10.9876
▁montan	-10.988
villa	-10.9887
▁osman	-10.9927
▁rathaus	-10.9929
▁nest	-10.9932
verteidiger	-10.9944
spanisch	-10.9946
▁gotische	-10.9947
kunft	-10.9957
streit	-10.9963
▁gebet	-10.9964
▁petro	-10.9996
österreich	-10.9998
▁iranische	-11
▁cli	-11.0011
termin	-11.0013
▁philosoph	-11.0027
gebrochen	-11.0028
▁schott	-11.0028
stift	-11.0029
▁110	-11.003
▁ziegel	-11.0036
variante	-11.004
brigade	-11.0041
grammy	-11.0042
▁nominierung	-11.0044
▁eingestuft	-11.0044
▁ferguson	-11.0044
▁gefärbt	-11.0044
▁normandie	-11.0044
▁railroad	-11.0044
▁runabout	-11.0044
▁ähnelt	-11.0044
erklärung	-11.0044
▁adolph	-11.0044
▁jessica	-11.0044
initiative	-11.0044
▁katalog	-11.0044
▁(2019)	-11.0044
▁schwierigkeiten	-11.0044
berleburg	-11.0044
▁süß	-11.0044
▁verschoben	-11.0044
▁jordan	-11.0044
territorium	-11.0044
zeremonie	-11.0044
▁luzern	-11.0044
▁notre	-11.0045
▁angewandt	-11.0045
▁dominik	-11.0045
▁scharf	-11.0045
▁unterteilt	-11.0045
ozän	-11.0045
niveau	-11.0045
▁identisch	-11.0045
▁pieter	-11.0045
▁aussehen	-11.0046
▁vision	-11.0046
geschehen	-11.0047
turbine	-11.0047
ský	-11.0047
haltestelle	-11.0047
▁hinterachse	-11.0047
▁zeile	-11.0048
▁bundeswehr	-11.0049
▁lorenz	-11.0049
chinesisch	-11.005
brannte	-11.0051
▁flucht	-11.0052
▁markiert	-11.0052
braun	-11.0053
▁streng	-11.0053
▁mannheim	-11.0054
▁abgeleitet	-11.0054
-17-	-11.0057
▁abstimmung	-11.0065
▁sandstein	-11.0068
▁ausgeschlossen	-11.0068
▁kunden	-11.007
▁alice	-11.0071
▁nfl	-11.0073
▁bürgerliche	-11.0084
werkstatt	-11.0094
▁umsetzung	-11.0095
▁army	-11.0098
▁1,6	-11.0101
▁auffällig	-11.011
borg	-11.0113
▁over	-11.0116
deckung	-11.0134
▁bauch	-11.0154
weide	-11.0163
▁josh	-11.0163
mitte	-11.0168
zia	-11.0173
▁erzählung	-11.0178
▁coll	-11.0184
treiben	-11.0196
ík	-11.021
▁rou	-11.0223
busch	-11.0225
▁natural	-11.0229
▁wendet	-11.0238
▁integr	-11.0247
kapital	-11.025
nehmer	-11.0264
▁torre	-11.0266
▁psycho	-11.0267
▁poll	-11.0272
kompetenz	-11.0288
wittgenstein	-11.0288
▁barrichello	-11.0288
▁kurzfristig	-11.0288
▁mitbegründer	-11.0288
▁niedersachsen	-11.0288
▁nämlich	-11.0288
▁salzwedel	-11.0288
▁überraschend	-11.0288
kollektiv	-11.0288
▁bestattet	-11.0288
▁youtube	-11.0288
▁erinnerung	-11.0288
▁kętrzy	-11.0288
▁florida	-11.0288
▁angepasst	-11.0288
▁dünn	-11.0288
▁krosno	-11.0288
kanzlei	-11.0288
▁römer	-11.0288
▁behauptet	-11.0288
adelsgeschlecht	-11.0288
▁finnland	-11.0288
▁dialog	-11.0288
▁pfeil	-11.0288
▁geologisch	-11.0288
▁stausee	-11.0288
▁nordindische	-11.0289
▁unterlegt	-11.0289
böden	-11.029
migration	-11.029
triebwerk	-11.0291
▁überzeugen	-11.0291
▁kritisch	-11.0291
▁onkel	-11.0292
▁panzer	-11.0292
▁kirchengemeinde	-11.0295
▁zhang	-11.0295
▁lebensraum	-11.0296
▁informations	-11.0297
▁henne	-11.0299
▁temperaturen	-11.03
▁1834	-11.03
▁muse	-11.03
▁branch	-11.0305
gestiegen	-11.0306
▁gottes	-11.0306
ündig	-11.0308
schreiber	-11.0308
▁kunstgeschichte	-11.0309
▁begab	-11.0314
▁social	-11.0315
hell	-11.0319
niedersächsische	-11.0321
▁angeschlossen	-11.0327
▁maxim	-11.0339
▁lucia	-11.0341
ignat	-11.0345
▁wang	-11.0359
drei	-11.0363
essio	-11.0364
funktionär	-11.0371
altäre	-11.0378
▁kim	-11.0378
▁stadtbezirk	-11.038
▁ragt	-11.0384
▁erfolgreichste	-11.0402
sous	-11.0416
▁pius	-11.0422
aire	-11.0423
wanderung	-11.0426
italienisch	-11.0435
messung	-11.0455
▁fähr	-11.046
▁journalistin	-11.0493
gesetzes	-11.0507
▁rauch	-11.0511
▁finanziell	-11.0518
wurzel	-11.0534
unsten	-11.0535
▁befestigt	-11.0538
▁bielefeld	-11.0538
▁netflix	-11.0538
▁nordsternhimmel	-11.0538
▁rumänien	-11.0538
▁zwanzig	-11.0538
genehmigung	-11.0538
▁ansässig	-11.0538
▁entwässert	-11.0538
▁erhebt	-11.0538
▁ermordet	-11.0538
▁gefördert	-11.0538
▁gitarrist	-11.0538
▁plötzlich	-11.0538
▁vulkan	-11.0538
köpfige	-11.0538
▁cricket	-11.0538
▁unterscheiden	-11.0538
hubschrauber	-11.0538
▁tatsache	-11.0538
▁kohorte	-11.0538
▁airways	-11.0538
▁kärnt	-11.0538
▁buchstaben	-11.0538
▁spirit	-11.0538
▁gewertet	-11.0538
▁gulden	-11.0538
▁tallinn	-11.0538
flüssig	-11.0538
▁vincent	-11.0538
lehnung	-11.0538
▁möchte	-11.0538
▁minimal	-11.0538
chirurg	-11.0538
fizierung	-11.0539
praktik	-11.0539
▁ingvar	-11.0539
▁verdienste	-11.054
▁lyrik	-11.054
▁america	-11.0541
▁kevin	-11.0542
▁oslo	-11.0542
▁trotzdem	-11.0543
batterie	-11.0543
▁bestleistung	-11.0544
▁mittelpunkt	-11.0545
fällt	-11.0546
westfalen	-11.0547
▁rolf	-11.0547
▁freiherr	-11.0547
video	-11.0548
▁kurator	-11.0548
schatz	-11.055
klima	-11.0551
▁1841	-11.0553
operation	-11.0554
flieger	-11.0554
▁glo	-11.0556
▁abgebrochen	-11.0556
metall	-11.0556
▁susan	-11.0556
▁spielfilm	-11.0557
▁moment	-11.0557
▁basierend	-11.0558
▁gent	-11.056
dreh	-11.0563
geschnitten	-11.0563
saint	-11.0564
▁bekanntheit	-11.0564
▁gerne	-11.0565
regime	-11.0565
hielt	-11.0572
aumont	-11.0573
▁werra	-11.0573
▁leisten	-11.0574
▁islamische	-11.0577
▁konstantin	-11.0584
▁kult	-11.0584
radi	-11.0587
▁sterbe	-11.059
▁haag	-11.0592
▁nerv	-11.0592
▁paulus	-11.0593
▁macau	-11.0596
ottomotor	-11.0599
landschaft	-11.0607
▁amtierende	-11.0613
▁verblieb	-11.0614
▁2009/	-11.0616
hora	-11.0622
▁lip	-11.0626
▁bär	-11.0646
master	-11.0646
trio	-11.0652
▁evangeli	-11.0657
▁fleck	-11.0663
▁huf	-11.0669
▁terra	-11.0681
▁aires	-11.0681
▁pont	-11.069
▁orientiert	-11.0693
geistliche	-11.0697
▁della	-11.0701
behind	-11.0702
▁beweis	-11.074
▁schmidt	-11.0743
künstlerin	-11.0757
europameisterin	-11.0765
▁bruno	-11.078
▁kristall	-11.0788
ökonom	-11.0789
link	-11.0793
independent	-11.0794
aquitaine	-11.0794
gruppierung	-11.0794
symmetrisch	-11.0794
▁bayreuth	-11.0794
▁chemnitz	-11.0794
▁entsteht	-11.0794
▁gewöhnlich	-11.0794
▁helsinki	-11.0794
▁michail	-11.0794
▁pakistan	-11.0794
▁verzichtete	-11.0794
▁wähler	-11.0794
▁abgesagt	-11.0794
▁entwarf	-11.0794
▁testament	-11.0794
zugehörigkeit	-11.0794
▁prominente	-11.0794
▁schnabel	-11.0794
chlorid	-11.0794
▁rechteckige	-11.0795
▁negativ	-11.0795
▁ehrungen	-11.0795
▁kriminal	-11.0795
▁bedient	-11.0795
▁control	-11.0795
▁dvd	-11.0795
▁amazon	-11.0795
▁pfund	-11.0795
▁vizepräsident	-11.0795
stämm	-11.0795
▁tellur	-11.0795
geflogen	-11.0796
▁zerstörung	-11.0796
▁geschäftsführer	-11.0796
gefügt	-11.0796
▁mönch	-11.0797
▁falsch	-11.0797
▁verschwand	-11.0799
▁ähnlichkeit	-11.0799
▁ideal	-11.08
▁wüst	-11.08
▁geschlechts	-11.0801
▁vorsitzenden	-11.0803
▁wirbel	-11.0803
▁brunnen	-11.0805
adresse	-11.0805
▁boys	-11.0806
▁1844	-11.0807
▁1826	-11.0807
▁erzeugt	-11.0808
alois	-11.0808
▁great	-11.0809
▁peak	-11.0809
aufenthalt	-11.081
angebot	-11.081
\	-11.081
▁droh	-11.0811
▁offenbar	-11.0812
▁sarah	-11.0824
▁kraus	-11.0825
throp	-11.0825
▁neupreis	-11.0826
lippe	-11.0826
▁bueno	-11.0828
▁athen	-11.0831
▁zweifel	-11.0832
aume	-11.0834
▁jura	-11.0841
blockkennzeichen	-11.0847
▁landesstraße	-11.0847
hessische	-11.0854
▁länderspiel	-11.0856
kinder	-11.0856
▁drittel	-11.0859
vogtl	-11.0873
▁münch	-11.0877
▁lima	-11.0877
▁höhepunkt	-11.0878
flanke	-11.0882
bereitschaft	-11.0883
partnerschaft	-11.0887
▁nordost	-11.0894
▁dinge	-11.0896
label	-11.0896
▁350	-11.0902
▁textil	-11.0919
▁dell	-11.0923
▁inhaber	-11.0927
▁home	-11.0938
tox	-11.0948
pädagoge	-11.095
▁meta	-11.0955
▁johan	-11.0965
stad	-11.0966
wohnung	-11.0966
▁etablierte	-11.097
strasse	-11.0982
marx	-11.0985
bewerb	-11.0986
nationalpark	-11.1015
▁anwesend	-11.1016
▁karst	-11.1022
phone	-11.1028
opfer	-11.1034
histo	-11.1036
▁gemein	-11.1042
rovinziallandtag	-11.1044
aufträge	-11.1052
kommunikation	-11.1053
experte	-11.1055
wickelt	-11.1056
▁giovan	-11.1056
außen	-11.1057
lagomeryx	-11.1058
pertechnetat	-11.1058
spezifische	-11.1058
▁cambridge	-11.1058
▁joachim	-11.1058
▁konkurrenz	-11.1058
▁ottakring	-11.1058
▁recording	-11.1058
▁sakristei	-11.1058
▁verteidigt	-11.1058
▁zaoralek	-11.1058
▁ausgrabungen	-11.1058
▁slowenische	-11.1058
▁venedig	-11.1058
▁gezwungen	-11.1058
sequenz	-11.1058
▁antarktis	-11.1058
▁polizist	-11.1058
▁schäfer	-11.1058
▁ausstrahlung	-11.1058
▁eingeweiht	-11.1058
▁dolmen	-11.1058
▁komorn	-11.1058
▁durchquert	-11.1058
litauen	-11.1058
▁verbleib	-11.1058
▁gefeiert	-11.1058
▁goethe	-11.1058
▁gelegt	-11.1058
▁pflichtspiel	-11.1058
erlaubnis	-11.1058
section	-11.1058
▁perspektive	-11.1059
▁fachzeitschrift	-11.1059
▁generalleutnant	-11.1059
▁vixen	-11.1059
▁versteck	-11.106
▁schleif	-11.106
rakete	-11.106
wrack	-11.1061
▁redaktion	-11.1062
▁express	-11.1062
▁innenraum	-11.1062
▁valley	-11.1063
nathan	-11.1063
mylodon	-11.1064
▁darstellen	-11.1065
▁industrielle	-11.1066
▁straßenbahn	-11.1067
masuren	-11.1068
▁ausgebaut	-11.1069
▁philosophische	-11.1071
▁volksschule	-11.1071
▁kreisstadt	-11.1074
▁1845	-11.1075
▁jury	-11.1076
kilometer	-11.108
klinik	-11.108
fleisch	-11.1081
vai	-11.1087
▁kühl	-11.1092
äumt	-11.1093
lappen	-11.1096
▁thun	-11.1096
▁vorsprung	-11.1104
▁blanc	-11.1107
▁1800	-11.1115
▁regelung	-11.1115
willig	-11.1116
biologie	-11.112
▁helen	-11.1122
▁gerhard	-11.1126
▁bekommen	-11.1128
▁widerstand	-11.1137
kranz	-11.1138
▁speise	-11.1138
gemischt	-11.1146
▁zwischenfall	-11.115
▁1,8	-11.1152
▁sozialistische	-11.1156
▁südost	-11.1157
▁mcc	-11.1159
▁landrat	-11.1166
titelverteidiger	-11.1169
▁chris	-11.1213
▁betont	-11.1227
plast	-11.1237
▁übergab	-11.1249
turn	-11.1294
▁hass	-11.13
▁heilig	-11.1304
route	-11.1308
störung	-11.1309
gekommen	-11.1316
phänomen	-11.1328
skulptur	-11.1328
▁begeister	-11.1328
▁hamilton	-11.1328
▁psychologie	-11.1328
▁quidditch	-11.1328
▁shiselweni	-11.1328
▁verhindern	-11.1328
▁westfälische	-11.1328
▁public	-11.1328
▁suffrage	-11.1328
▁kulturdenkmale	-11.1328
▁krakau	-11.1328
▁jörg	-11.1328
▁niederlassung	-11.1328
▁illegal	-11.1328
▁belagerung	-11.1328
▁pedro	-11.1328
▁kurzzeitig	-11.1328
▁theologische	-11.1328
▁gehabt	-11.1328
▁fokus	-11.1328
▁rajon	-11.1328
▁heftig	-11.1328
▁dfb	-11.1328
▁separat	-11.1328
▁befreundet	-11.1329
referent	-11.1329
vektor	-11.1329
▁auswirkungen	-11.1329
▁story	-11.1329
▁debütalbum	-11.1329
▁präfektur	-11.133
quadrat	-11.133
▁heimstadion	-11.133
▁wunder	-11.133
▁großvater	-11.133
▁kontext	-11.133
▁nunmehr	-11.133
harald	-11.1331
▁roadster	-11.1331
geschichtlich	-11.1331
gesandt	-11.1331
▁nims	-11.1332
▁chief	-11.1333
▁tschad	-11.1333
▁tourismus	-11.1334
▁bremer	-11.1335
▁orange	-11.1336
▁kirchenschiff	-11.1337
▁1831	-11.1337
▁feiertag	-11.1337
übertragung	-11.1338
▁1846	-11.1338
▁konrad	-11.1339
▁2023	-11.1339
▁1842	-11.134
▁unterschrieb	-11.1341
▁1814	-11.1343
reporter	-11.1343
▁1858	-11.1343
zeugnis	-11.1349
▁gefallen	-11.135
iye	-11.1351
▁schuh	-11.1352
spezial	-11.1357
regisseur	-11.1358
münster	-11.1359
▁granit	-11.1364
ücke	-11.1368
▁1804	-11.1374
▁georgia	-11.1385
etwa	-11.1388
▁bewertung	-11.139
ridge	-11.1394
▁chile	-11.14
▁folgejahr	-11.14
loch	-11.1405
sozialistisch	-11.1407
ergebnisse	-11.141
▁lisa	-11.1423
▁müsse	-11.1448
otto	-11.1451
single	-11.1472
▁ruine	-11.148
▁engagiert	-11.1497
▁juristische	-11.1499
obby	-11.1505
türme	-11.1521
▁böhmisch	-11.1529
▁vorherige	-11.1531
besuch	-11.154
+1	-11.1542
ful	-11.1542
▁elektrische	-11.1551
▁1200	-11.1552
▁letzt	-11.1553
auswärts	-11.1571
▁kath	-11.1573
schmiede	-11.159
▁erwies	-11.1605
françois	-11.1606
gerechnet	-11.1606
komponente	-11.1606
konservative	-11.1606
▁brüssel	-11.1606
▁cockpit	-11.1606
▁gundersen	-11.1606
▁hedwig	-11.1606
▁identifiziert	-11.1606
▁jersey	-11.1606
▁melbourne	-11.1606
▁philadelphia	-11.1606
▁udssr	-11.1606
▁vergrößert	-11.1606
▁literarische	-11.1606
▁queensland	-11.1606
▁szczeci	-11.1606
▁eröffnungsfeier	-11.1606
▁inspiriert	-11.1606
▁kommendator	-11.1606
▁prince	-11.1606
▁interessiert	-11.1606
▁erkennbar	-11.1606
▁pilger	-11.1606
▁gießen	-11.1606
barberine	-11.1606
▁benediktiner	-11.1606
▁recherche	-11.1606
▁florian	-11.1606
▁verhandlungen	-11.1606
▁johanniter	-11.1606
pfeife	-11.1606
▁etappe	-11.1606
▁kenneth	-11.1606
schrecken	-11.1607
▁distanz	-11.1607
▁pastor	-11.1607
bewirtschaftung	-11.1607
▁klaus	-11.1607
▁nennen	-11.1607
relief	-11.1608
▁clark	-11.1608
▁geografische	-11.1609
schießen	-11.1609
▁geistlicher	-11.1609
▁fortsetzung	-11.1611
▁europapokal	-11.1611
▁vielfach	-11.1612
▁hinterließ	-11.1612
schmerz	-11.1614
▁divis	-11.1616
helfer	-11.1617
▁1837	-11.1619
▁afro	-11.162
▁orgelbau	-11.1625
▁gemeindeverband	-11.1637
▁1:0	-11.1643
brüder	-11.1644
veranstaltung	-11.1644
league	-11.1645
bundesstaat	-11.1646
▁strand	-11.1647
▁death	-11.1653
▁wohnhaus	-11.1653
▁turin	-11.1653
▁augsburg	-11.1658
tschechoslowakei	-11.166
▁lewis	-11.1664
gründen	-11.1669
ähnlich	-11.1673
▁1:1	-11.1685
wall	-11.1693
journalist	-11.171
▁emma	-11.1715
▁kiss	-11.1721
▁episode	-11.1733
▁biografie	-11.1737
polymer	-11.1737
khan	-11.1752
▁merc	-11.1766
ohors	-11.1782
aspar	-11.1793
▁steigen	-11.1794
gemäß	-11.1799
ario	-11.1801
versuch	-11.1835
forum	-11.1838
räte	-11.186
▁loma	-11.1865
▁verbesserung	-11.1888
worfen	-11.1889
▁benedikt	-11.1891
leichtathlet	-11.1891
einzelkonkurrenz	-11.1891
monarchie	-11.1891
stipendiat	-11.1891
▁abweichend	-11.1891
▁aufhebung	-11.1891
▁bezeichnen	-11.1891
▁bretagne	-11.1891
▁flugbegleiter	-11.1891
▁hervorragende	-11.1891
▁manuskript	-11.1891
▁osnabrück	-11.1891
▁professionelle	-11.1891
▁stellvertreter	-11.1891
▁weihnachts	-11.1891
▁bekleidete	-11.1891
▁künstlich	-11.1891
▁wladimir	-11.1891
▁aufgelistet	-11.1891
▁storting	-11.1891
▁befreiung	-11.1891
▁protestantische	-11.1891
▁viktor	-11.1891
▁erneuert	-11.1891
▁schließen	-11.1892
vorsteher	-11.1892
voraussetzung	-11.1892
▁münz	-11.1892
▁eroberung	-11.1892
▁platin	-11.1892
▁aktien	-11.1892
▁herrscht	-11.1893
▁troms	-11.1893
▁flugkapitän	-11.1893
▁richtig	-11.1893
▁rechtsanwalt	-11.1893
▁trennt	-11.1893
▁gottfried	-11.1894
▁eindeutig	-11.1894
▁constan	-11.1894
▁kunstakademie	-11.1895
registr	-11.1896
pulver	-11.1896
▁nigerianische	-11.1896
▁startplätze	-11.1897
agentur	-11.1897
▁umfassen	-11.1898
▁eigentum	-11.1898
metrisch	-11.19
▁short	-11.1901
▁nebenfluss	-11.1902
▁1853	-11.1904
▁burbach	-11.1906
▁1876	-11.1907
claude	-11.1907
▁1772	-11.1909
▁zeugen	-11.191
▁stadtverwaltung	-11.1913
▁spenden	-11.1913
▁rosenberg	-11.1915
▁konsul	-11.1917
glocke	-11.1917
▁zeitgleich	-11.1918
▁reformation	-11.1922
ène	-11.1923
▁frey	-11.1926
▁mitgliedschaft	-11.1929
▁reinhard	-11.193
▁neustadt	-11.1932
genannt	-11.1933
▁jahreszeit	-11.1933
▁frisch	-11.1936
schließt	-11.1937
papier	-11.1938
bischof	-11.1938
konzept	-11.1938
gewalt	-11.1938
beginn	-11.1938
▁instrumental	-11.1939
nutzung	-11.1942
katholisch	-11.1946
brief	-11.1949
unser	-11.195
barten	-11.1959
hülle	-11.1965
▁kroatische	-11.1965
schön	-11.1974
zweite	-11.1976
▁feierlich	-11.1989
▁rausch	-11.1994
▁einheitlich	-11.2007
zentral	-11.202
lokal	-11.2024
▁therm	-11.2034
letzter	-11.2035
▁mehrmal	-11.205
jong	-11.2055
charakteristisch	-11.2074
gültig	-11.2077
härte	-11.2087
bunt	-11.2094
harmonie	-11.2104
chat	-11.2116
▁vizemeister	-11.2127
▁konstant	-11.2132
▁0,1	-11.2147
▁braunschweig	-11.2185
ampelmännchen	-11.2185
dunkelgestorchte	-11.2185
frequenz	-11.2185
künfte	-11.2185
▁barciany	-11.2185
▁bedroht	-11.2185
▁betreibt	-11.2185
▁ernährung	-11.2185
▁hospital	-11.2185
▁hughes	-11.2185
▁municipal	-11.2185
▁restaurierung	-11.2185
▁sydney	-11.2185
▁technology	-11.2185
▁touchdowns	-11.2185
▁verabschiedet	-11.2185
▁verlängerung	-11.2185
▁konkret	-11.2185
▁nizza	-11.2185
zählig	-11.2185
▁apsis	-11.2186
▁commission	-11.2186
▁dressur	-11.2186
▁ausgespielt	-11.2186
▁habsburg	-11.2186
▁reihenfolge	-11.2186
▁history	-11.2186
▁dexter	-11.2186
▁ohio	-11.2186
▁hinterlegt	-11.2186
▁jesuiten	-11.2186
switch	-11.2186
mechanik	-11.2186
▁bringt	-11.2186
jezd	-11.2187
▁flusskilometer	-11.2187
▁zitiert	-11.2187
▁schlaf	-11.2187
▁gedruckt	-11.2188
käfer	-11.2188
▁ausreichend	-11.2189
▁vergleichsweise	-11.2189
▁ehepaar	-11.219
▁rücktritt	-11.2191
▁wäldern	-11.2191
▁cannes	-11.2192
▁gesamtwertung	-11.2192
▁pascha	-11.2195
▁kameramann	-11.2195
▁weiterbildung	-11.2195
▁francis	-11.2196
▁bezahlt	-11.2196
▁leih	-11.2198
▁novel	-11.2202
▁1815	-11.2205
▁bright	-11.2206
▁nagar	-11.2206
▁moore	-11.2208
manager	-11.2209
▁typus	-11.2214
▁erstflug	-11.2214
▁stadtzentrum	-11.2215
schrieb	-11.2223
▁ernesto	-11.2225
cott	-11.2226
▁unterhält	-11.2227
▁berufung	-11.2231
statistik	-11.2241
wilhelm	-11.2242
▁leiche	-11.2245
bänder	-11.2246
▁arsen	-11.2251
▁briti	-11.2253
llah	-11.2255
▁dessau	-11.2257
▁gerichtet	-11.2268
▁traum	-11.227
child	-11.2295
▁bai	-11.2304
▁anderson	-11.2322
▁beend	-11.2326
öhr	-11.234
▁transportiert	-11.2345
patron	-11.2354
ligisten	-11.2355
dreieck	-11.2359
▁diplomatische	-11.2381
ballet	-11.2387
basti	-11.2396
▁fachwerk	-11.2441
beschreibung	-11.2453
geschlossen	-11.2462
gefasst	-11.2486
▁kräftig	-11.2488
antarctic	-11.2488
fränkische	-11.2488
▁abgelehnt	-11.2488
▁argentinische	-11.2488
▁aserbaidschan	-11.2488
▁befindlichen	-11.2488
▁eingemeindung	-11.2488
▁griechenland	-11.2488
▁günther	-11.2488
▁hölzerne	-11.2488
▁kandidierte	-11.2488
▁meeresspiegel	-11.2488
▁milliarden	-11.2488
▁nacional	-11.2488
▁population	-11.2488
▁přelouč	-11.2488
▁schulzenamt	-11.2488
▁sternhaufen	-11.2488
▁unverändert	-11.2488
▁voigtsberg	-11.2488
gräfin	-11.2488
▁katsonis	-11.2488
▁verschwunden	-11.2488
▁harvard	-11.2488
▁insekten	-11.2489
▁konstanz	-11.2489
▁variieren	-11.2489
▁gastgeber	-11.2489
▁earth	-11.2489
regulierung	-11.2489
▁bleibt	-11.2489
▁cruz	-11.2489
▁kinsky	-11.2489
gebühr	-11.2489
review	-11.2489
▁oberstleutnant	-11.2489
▁mckee	-11.2489
märchen	-11.249
olympiasieger	-11.249
▁kanzel	-11.2491
▁schaden	-11.2491
▁howard	-11.2492
▁briten	-11.2492
▁essay	-11.2492
▁handschrift	-11.2492
brüche	-11.2492
▁experten	-11.2493
▁leopoldina	-11.2493
▁gesungen	-11.2493
▁höhlen	-11.2494
▁chester	-11.2495
▁rückzug	-11.2498
originaltitel	-11.2498
▁bieten	-11.2499
▁alfons	-11.25
▁baby	-11.2501
fassen	-11.2502
▁1847	-11.2502
▁selbstständig	-11.2502
▁1854	-11.2505
▁teilnehmerfeld	-11.2506
▁neffe	-11.2506
▁rheinland	-11.251
▁brian	-11.251
▁kurzfilm	-11.251
▁cheng	-11.2512
–15	-11.2513
▁feststoff	-11.2513
verleger	-11.2515
atherine	-11.2515
▁filmmusik	-11.2518
▁siebte	-11.252
1,4	-11.252
▁dance	-11.2526
▁1817	-11.2532
bissau	-11.2543
▁herrenhaus	-11.2545
austral	-11.2549
fernseh	-11.2553
lässt	-11.2554
güter	-11.2554
school	-11.2555
analyse	-11.2555
statue	-11.2556
dampf	-11.256
spalte	-11.2565
schraube	-11.2565
ruhig	-11.2566
laufbahn	-11.2572
▁mike	-11.2573
▁reformierte	-11.2592
heiße	-11.2597
wochenende	-11.2599
▁thoma	-11.2603
▁zeichnete	-11.2608
herab	-11.2617
▁verlieh	-11.262
▁period	-11.2639
agios	-11.2654
avelle	-11.2689
▁samoa	-11.2712
außenministerium	-11.2729
▁neunte	-11.2735
▁platt	-11.2751
▁verfasst	-11.2772
branche	-11.2789
▁belief	-11.2801
vaughn	-11.2801
▁allmählich	-11.2801
▁anfänglich	-11.2801
▁baudenkmäler	-11.2801
▁benjamin	-11.2801
▁detroit	-11.2801
▁dokumentarfilm	-11.2801
▁déléguée	-11.2801
▁gouvernement	-11.2801
▁kavallerie	-11.2801
▁ostpreußen	-11.2801
▁reparatur	-11.2801
▁unregelmäßig	-11.2801
▁unterscheidet	-11.2801
▁verhindert	-11.2801
▁wettkämpfe	-11.2801
▁wolstenholme	-11.2801
▁dufour	-11.2801
▁kendall	-11.2801
▁kugelstoßen	-11.2801
▁miguel	-11.2801
▁erfurt	-11.2801
▁wigham	-11.2801
▁übersetzer	-11.2801
▁(2017)	-11.2801
▁laurent	-11.2801
▁geborgen	-11.2801
rastenburg	-11.2801
▁verarbeitet	-11.2801
▁larven	-11.2801
▁opole	-11.2801
▁fisher	-11.2802
▁netzwerk	-11.2802
teatro	-11.2802
madonna	-11.2802
▁gattin	-11.2802
▁cheftrainer	-11.2802
▁preisgeld	-11.2802
▁ferrari	-11.2802
▁existenz	-11.2803
▁wahlperiode	-11.2803
▁vergangen	-11.2804
▁landwirt	-11.2804
marschall	-11.2804
▁ferrier	-11.2804
fabrikant	-11.2806
▁wurzeln	-11.2806
klassik	-11.2806
gesteuert	-11.2808
anthologie	-11.2808
▁kolesa	-11.2808
schüsse	-11.2809
▁fachbereich	-11.2809
▁ziegelei	-11.2812
trommel	-11.2813
▁1843	-11.2813
▁freigabe	-11.2813
▁verstehen	-11.2813
▁unterzeichnete	-11.2814
▁nagy	-11.2815
▁bandini	-11.2816
▁hubert	-11.2816
▁ordentliche	-11.2818
parasite	-11.2819
▁1823	-11.282
anmeldung	-11.2822
▁zusammenbruch	-11.2823
▁1811	-11.2826
„	-11.2832
2000	-11.2839
▁erzielt	-11.2863
töne	-11.2863
sarthe	-11.2864
▁tatar	-11.2871
▁dramati	-11.2874
kongress	-11.2876
objekt	-11.2877
früher	-11.2877
jugend	-11.2881
streben	-11.2881
▁echte	-11.2884
ungarn	-11.2887
gegr	-11.2893
▁game	-11.2903
türkisch	-11.2908
bourg	-11.2919
▁hannoversche	-11.2932
▁vergleichbar	-11.2941
abgeordneten	-11.2977
▁dokumente	-11.2991
▁armenisch	-11.3015
wache	-11.3024
▁bisherige	-11.3025
▁wachsen	-11.3033
stehen	-11.3038
▁skiverband	-11.3047
▁verschieden	-11.3068
direktion	-11.3088
geliefert	-11.3093
▁mehrzweck	-11.3124
▁bewaffnet	-11.3124
▁kombiniert	-11.3124
▁abendmahl	-11.3124
▁abschied	-11.3124
▁artenacien	-11.3124
▁columbia	-11.3124
▁definition	-11.3124
▁erzbistum	-11.3124
▁experimentelle	-11.3124
▁gratzki	-11.3124
▁humboldt	-11.3124
▁høyre	-11.3124
▁lincoln	-11.3124
▁ländliche	-11.3124
▁morphologisch	-11.3124
▁muslimische	-11.3124
▁mustafa	-11.3124
▁päpstliche	-11.3124
▁strategisch	-11.3124
▁sämtliche	-11.3124
▁taubenzüchter	-11.3124
▁verteidigen	-11.3124
▁wächst	-11.3124
▁zürcher	-11.3124
▁bemüht	-11.3124
▁lothringen	-11.3124
▁equipe	-11.3124
▁gestapo	-11.3124
▁naturdenkmale	-11.3124
trilogie	-11.3124
▁africa	-11.3124
middle	-11.3124
▁stieß	-11.3124
▁yoshi	-11.3124
▁drogen	-11.3124
▁offensive	-11.3124
▁sockel	-11.3124
▁schwelm	-11.3124
anbieter	-11.3124
▁drehbuchautor	-11.3124
▁victoria	-11.3124
▁fürstenberg	-11.3124
tantalat	-11.3124
▁systematisch	-11.3124
▁dominiert	-11.3124
▁bureau	-11.3125
ście	-11.3125
▁steyr	-11.3125
▁gastprofessor	-11.3125
▁immobilie	-11.3126
source	-11.3127
▁installiert	-11.3127
▁schwergewicht	-11.3127
▁unterwegs	-11.3127
▁corneli	-11.3127
▁thé	-11.3127
▁kommunikations	-11.3129
▁endrunde	-11.3131
▁lukas	-11.3131
▁vicki	-11.3131
ienne	-11.3131
▁schwarzwald	-11.3131
▁simca	-11.3132
▁zecken	-11.3132
▁fähigkeiten	-11.3132
▁erlebte	-11.3134
werfen	-11.3134
▁autobahn	-11.3135
▁südafrikanische	-11.3135
▁fünfzig	-11.3137
▁personenverkehr	-11.3138
▁1836	-11.3139
ornament	-11.3139
▁operade	-11.3139
▁baku	-11.3144
▁night	-11.3144
▁1825	-11.3147
köpfe	-11.3148
▁baptist	-11.3149
▁armut	-11.315
▁gené	-11.3154
▁good	-11.3154
▁gastmannschaft	-11.3157
▁monster	-11.3158
▁2:1	-11.3158
sächsische	-11.3164
▁erteilt	-11.3171
▁ritt	-11.3173
diplom	-11.3213
freund	-11.3217
▁internat	-11.3221
michel	-11.3221
▁wann	-11.3241
▁historique	-11.3261
north	-11.3268
▁strafrecht	-11.3272
▁übrig	-11.3275
▁latein	-11.3283
kleber	-11.3301
reih	-11.3311
marcel	-11.3319
▁heimische	-11.3359
grace	-11.336
schiebe	-11.3372
wendung	-11.3404
älter	-11.3423
▁ernest	-11.3429
mura	-11.344
beschränk	-11.3447
▁entscheidende	-11.3452
stanbul	-11.3454
shintergrund	-11.3457
▁chronologisch	-11.3457
▁details	-11.3457
▁flugsicherung	-11.3457
▁klapka	-11.3457
▁malinconico	-11.3457
▁mclaren	-11.3457
▁merveldt	-11.3457
▁prinzessin	-11.3457
▁rotterdam	-11.3457
▁sutherland	-11.3457
▁unerwartet	-11.3457
aufklärung	-11.3457
▁angefertigt	-11.3457
▁beherbergt	-11.3457
▁gegenwärtig	-11.3457
▁herausragende	-11.3457
▁vegetation	-11.3457
jacques	-11.3457
▁renoviert	-11.3457
▁tiflis	-11.3457
▁apostel	-11.3457
▁delegation	-11.3457
▁eingegliedert	-11.3457
▁dekanat	-11.3457
▁verwaltet	-11.3457
▁anthony	-11.3457
▁gestartet	-11.3457
bourbonnais	-11.3457
▁houston	-11.3457
▁osterholz	-11.3457
geschwader	-11.3457
richtlinie	-11.3457
▁violett	-11.3457
▁verwandten	-11.3457
▁canyon	-11.3457
▁übte	-11.3457
▁second	-11.3457
▁zoologie	-11.3457
▁kaffee	-11.3457
metropol	-11.3457
▁gelistet	-11.3457
litauisch	-11.3458
▁physikalisch	-11.3458
▁veränderungen	-11.3458
▁prime	-11.3458
▁reagiert	-11.3458
chinitz	-11.3458
▁agape	-11.3458
▁stopp	-11.3459
habitat	-11.3459
▁analog	-11.3459
▁erzielen	-11.346
▁vorzeitig	-11.346
bewusstsein	-11.346
▁absteigen	-11.346
▁manchester	-11.3461
▁forderung	-11.3461
▁fertigstellung	-11.3461
▁zusammengefasst	-11.3461
▁philippinen	-11.3462
▁hawk	-11.3462
▁nikolaus	-11.3463
▁franklin	-11.3464
▁trink	-11.3465
▁munger	-11.3466
animation	-11.3468
▁organist	-11.3468
monsun	-11.3469
▁ewige	-11.3471
▁mathi	-11.3472
▁space	-11.3476
▁taucht	-11.3476
gewerbeschule	-11.3488
lucky	-11.3491
schach	-11.3493
christlich	-11.3514
▁nachfolgende	-11.3536
1835	-11.3547
unterschied	-11.3549
▁optische	-11.355
▁tschechische	-11.3552
parlament	-11.3552
fassade	-11.3554
städte	-11.3555
vertreter	-11.3555
johann	-11.3556
john	-11.3556
teilnehmer	-11.3557
pferd	-11.3562
schlug	-11.3565
niederländisch	-11.3612
martha	-11.3737
nivers	-11.3744
koeffizient	-11.3802
mississippi	-11.3802
scorpion	-11.3802
synchronsprecher	-11.3802
thriller	-11.3802
▁besiedelt	-11.3802
▁damentennis	-11.3802
▁higgins	-11.3802
▁hollywood	-11.3802
▁katharina	-11.3802
▁konzession	-11.3802
▁konzipiert	-11.3802
▁liturgie	-11.3802
▁paderborn	-11.3802
▁unterbrechung	-11.3802
▁vermeintlich	-11.3802
▁vorkommt	-11.3802
▁wikipedia	-11.3802
inspektor	-11.3802
protokoll	-11.3802
▁alkohol	-11.3802
▁business	-11.3802
▁gertrud	-11.3802
▁spurweite	-11.3802
zyklus	-11.3802
▁depression	-11.3802
inspektion	-11.3802
▁adelsfamilie	-11.3802
▁capital	-11.3802
▁umstritten	-11.3802
▁wohlhabende	-11.3802
▁winkler	-11.3802
lectric	-11.3802
▁(2018)	-11.3802
▁angegriffen	-11.3802
▁pazifis	-11.3802
▁pharma	-11.3802
▁gansel	-11.3802
▁botanik	-11.3802
▁erwartet	-11.3802
▁sexuelle	-11.3802
▁hitler	-11.3802
▁grundlegende	-11.3802
▁anorganische	-11.3802
▁dutch	-11.3802
▁gezielt	-11.3802
▁verliert	-11.3802
▁niemand	-11.3802
schmuck	-11.3803
▁staatsexamen	-11.3803
▁adrian	-11.3804
▁naturforscher	-11.3804
▁überquert	-11.3804
▁verkörpert	-11.3805
▁inhaftiert	-11.3805
belastung	-11.3805
▁angetrieben	-11.3805
▁ehf	-11.3805
▁southern	-11.3806
▁interpreten	-11.3806
▁spandau	-11.3806
▁rostock	-11.3808
▁maría	-11.3808
▁aufweisen	-11.3808
▁trivia	-11.3808
▁ligue	-11.3808
▁gewässername	-11.381
▁bassist	-11.381
▁entschloss	-11.381
▁cohen	-11.381
▁festgenommen	-11.3811
verbrauch	-11.3813
zulassung	-11.3814
▁ankara	-11.3814
▁einheimische	-11.3814
▁habern	-11.3815
▁faust	-11.3815
▁ebert	-11.3824
zulegen	-11.3827
▁mittig	-11.3841
▁luftfahrt	-11.3857
▁vergleichende	-11.387
grau	-11.3872
▁böhm	-11.3897
▁entsprechen	-11.3908
heinz	-11.3908
kapitän	-11.391
ausstattung	-11.3911
flotte	-11.3912
bundesliga	-11.3913
protein	-11.3914
▁serbische	-11.3921
fossilien	-11.3956
löslich	-11.3967
▁soldat	-11.3978
▁dresd	-11.3979
▁schweizerische	-11.4005
▁südamerika	-11.4026
▁segelflug	-11.4033
▁lehm	-11.4102
stube	-11.4131
hack	-11.4148
dynastie	-11.4159
kolumbianische	-11.4159
melodifestivalen	-11.4159
pavillon	-11.4159
▁adlerorden	-11.4159
▁aufbewahrt	-11.4159
▁ausgesprochen	-11.4159
▁berechnet	-11.4159
▁beschleunigt	-11.4159
▁buddhistische	-11.4159
▁defensive	-11.4159
▁diskografie	-11.4159
▁geringfügig	-11.4159
▁großherzog	-11.4159
▁hhohho	-11.4159
▁innehatte	-11.4159
▁konstrukteur	-11.4159
▁kriegsgefangen	-11.4159
▁memorial	-11.4159
▁nsdap	-11.4159
▁nächstgelegene	-11.4159
▁punjab	-11.4159
▁renommierte	-11.4159
▁renovierung	-11.4159
▁sakrament	-11.4159
▁unterkiefer	-11.4159
▁vouziers	-11.4159
▁beschwerde	-11.4159
▁calcium	-11.4159
▁erklären	-11.4159
▁gegeneinander	-11.4159
▁kommerziell	-11.4159
▁leidenschaft	-11.4159
▁lithium	-11.4159
gewächs	-11.4159
municipio	-11.4159
▁gambia	-11.4159
▁konservatorium	-11.4159
▁neuseeland	-11.4159
▁sauerstoff	-11.4159
▁loriot	-11.4159
▁sorokin	-11.4159
▁filmfestspiele	-11.4159
political	-11.4159
bedürf	-11.4159
migranten	-11.4159
▁sikhs	-11.4159
▁nötig	-11.4159
marathon	-11.4159
▁magister	-11.4159
▁diskussion	-11.4159
▁navy	-11.4159
▁zweigeschossige	-11.4159
▁forschte	-11.4159
substanz	-11.416
▁anhänger	-11.416
▁inszeniert	-11.416
▁oscar	-11.416
▁tainan	-11.416
vibration	-11.416
schallplatte	-11.416
▁austragungsort	-11.416
▁meuse	-11.4161
▁verliebt	-11.4161
▁bemerkt	-11.4161
▁justin	-11.4161
vorlesungen	-11.4162
▁blütenstände	-11.4163
▁setzen	-11.4163
▁strauch	-11.4163
▁geschah	-11.4163
▁überzeugt	-11.4163
▁überlebende	-11.4164
▁natali	-11.4164
▁bewegen	-11.4164
▁raketen	-11.4164
▁niederländer	-11.4165
▁vermittelt	-11.4166
▁humor	-11.4168
▁bevölkerungszu	-11.4168
▁suite	-11.4173
▁elite	-11.4175
▁arena	-11.4176
▁gotteshaus	-11.4176
lès	-11.4177
▁prima	-11.4185
▁1806	-11.4188
orbit	-11.4191
▁trient	-11.4192
▁stevens	-11.4197
zerstör	-11.4198
drüse	-11.4199
▁ursul	-11.4206
henning	-11.4208
▁spezialist	-11.4229
sozialisten	-11.4245
▁feministische	-11.4246
krebs	-11.4281
müller	-11.4282
group	-11.4282
kategorie	-11.4282
wahrscheinlich	-11.4282
größte	-11.4282
tümmler	-11.4283
jagd	-11.4283
▁republikanische	-11.429
robertson	-11.4311
▁lück	-11.4313
magnet	-11.4343
▁röd	-11.4344
▁0,2	-11.435
römische	-11.4362
ukrainisch	-11.4403
orientierte	-11.4405
▁lehn	-11.4416
proben	-11.4478
▁kammerherr	-11.4485
gnan	-11.4495
▁südkorea	-11.4508
kammerspiele	-11.4509
▁fluor	-11.4521
tänze	-11.4527
interpret	-11.4528
▁diskus	-11.4529
erstausstrahlung	-11.4529
nordnordwestlich	-11.4529
▁alençon	-11.4529
▁bemerkenswert	-11.4529
▁cyriaxweimar	-11.4529
▁einträge	-11.4529
▁galizien	-11.4529
▁giuseppe	-11.4529
▁hauptquartier	-11.4529
▁identitäre	-11.4529
▁inklusive	-11.4529
▁insolvenz	-11.4529
▁library	-11.4529
▁mohammed	-11.4529
▁renaissance	-11.4529
▁santiago	-11.4529
▁schreibweise	-11.4529
▁tehsil	-11.4529
▁torpedo	-11.4529
▁unterstützer	-11.4529
▁vielfältig	-11.4529
korrespondent	-11.4529
▁atlanta	-11.4529
▁außergewöhnlich	-11.4529
▁emeritiert	-11.4529
▁erkrankte	-11.4529
▁illustriert	-11.4529
▁kostüm	-11.4529
▁mastodon	-11.4529
▁matthöfer	-11.4529
▁ontario	-11.4529
▁pestalozzi	-11.4529
▁volleyball	-11.4529
▁wolodymyr	-11.4529
▁zagreb	-11.4529
▁getreide	-11.4529
▁hradiš	-11.4529
▁railway	-11.4529
arrangement	-11.4529
fontaine	-11.4529
▁relegation	-11.4529
▁wolfhagen	-11.4529
▁konstruiert	-11.4529
▁konzertplänen	-11.4529
▁offensichtlich	-11.4529
▁toledo	-11.4529
▁bohrung	-11.4529
▁suizid	-11.4529
▁durchsetzen	-11.4529
▁donald	-11.4529
▁lwiw	-11.4529
täusch	-11.4529
▁gemahl	-11.4529
▁köhler	-11.4529
▁wagner	-11.4529
▁rückenflosse	-11.4529
▁chefredakteur	-11.4529
kümmert	-11.4529
▁sejm	-11.4529
▁gedanken	-11.4529
▁akemi	-11.453
▁radikal	-11.453
gürtel	-11.453
crystal	-11.453
▁stolz	-11.453
einfurt	-11.453
▁schickte	-11.453
▁unfallursache	-11.453
▁gedacht	-11.453
▁germanistik	-11.453
rezept	-11.453
▁hellblau	-11.453
▁dalton	-11.4531
▁tribes	-11.4531
▁kommunalwahl	-11.4531
▁samsung	-11.4531
▁erdgeschoss	-11.4531
▁fühlt	-11.4532
▁einzelfinale	-11.4532
▁wallfahrt	-11.4532
▁durchgehend	-11.4532
jauker	-11.4532
▁volksgruppen	-11.4534
▁radsport	-11.4535
▁quadratische	-11.4535
▁künstlernamen	-11.4536
▁rainer	-11.4536
volumen	-11.4537
zmir	-11.4539
▁nsg	-11.4539
▁thing	-11.454
▁genug	-11.454
versagen	-11.4542
gekauft	-11.4546
feuchtigkeit	-11.4546
hydrat	-11.4554
dimensionale	-11.4555
häfen	-11.4557
▁indigene	-11.4559
▁einstige	-11.459
meistertitel	-11.4606
schwerpunkt	-11.4626
disziplin	-11.4665
wettkampf	-11.4666
bäume	-11.4666
konzert	-11.4666
krankenhaus	-11.4667
unterstützung	-11.4667
hälfte	-11.4667
mpfflugzeug	-11.4667
schweiz	-11.4668
▁gruppenspiele	-11.4671
▁elektr	-11.4684
▁(176	-11.4708
▁wirkt	-11.4709
kmalgeschützte	-11.4716
▁konvent	-11.4725
▁publikation	-11.4732
pionier	-11.4745
3,3	-11.4749
▁hört	-11.4772
fertigung	-11.4782
farbige	-11.4783
remis	-11.4796
▁ozean	-11.4869
odont	-11.4883
verleih	-11.4904
ausdehnung	-11.4914
katastrophe	-11.4914
songwriter	-11.4914
stéphan	-11.4914
toyohashi	-11.4914
žiželice	-11.4914
▁archäologe	-11.4914
▁aslanow	-11.4914
▁bangkok	-11.4914
▁battista	-11.4914
▁görgey	-11.4914
▁lučice	-11.4914
▁missouri	-11.4914
▁nedabylic	-11.4914
▁strašov	-11.4914
▁trümmer	-11.4914
▁vereidigt	-11.4914
▁viljoen	-11.4914
▁vorübergehend	-11.4914
betreuung	-11.4914
gießerei	-11.4914
wechslung	-11.4914
▁garnison	-11.4914
▁gesprochen	-11.4914
▁sklaven	-11.4914
▁zuckerrohr	-11.4914
sprechung	-11.4914
▁schlagzeuger	-11.4914
geschaltet	-11.4914
▁argument	-11.4914
▁duisburg	-11.4914
▁mullem	-11.4914
▁gestiftet	-11.4914
gehäuse	-11.4914
▁abstammung	-11.4914
▁marshall	-11.4914
▁permanent	-11.4914
▁alonso	-11.4914
▁göschel	-11.4914
findung	-11.4914
▁stuart	-11.4914
▁vargas	-11.4914
▁bananen	-11.4914
▁behinderte	-11.4914
reservat	-11.4914
▁stanford	-11.4914
▁installation	-11.4914
▁dutzend	-11.4914
▁patriot	-11.4914
▁fürstentum	-11.4914
▁vergessen	-11.4914
▁alltags	-11.4914
secret	-11.4914
▁zweitliga	-11.4914
▁ulrik	-11.4914
▁weihbisch	-11.4914
fjord	-11.4914
▁whitehouse	-11.4914
kharif	-11.4914
▁pernstein	-11.4915
▁ricard	-11.4915
orious	-11.4915
▁privatdozent	-11.4915
▁informatik	-11.4915
▁temple	-11.4915
▁popular	-11.4915
▁interpretiert	-11.4915
▁hindle	-11.4916
▁aufzeichnungen	-11.4916
▁edmund	-11.4916
▁buslinie	-11.4917
▁fuchs	-11.4917
▁holding	-11.4917
▁choice	-11.4917
▁garcia	-11.4918
▁urlaub	-11.4918
sektor	-11.4918
▁gruppenphase	-11.4918
gerüst	-11.4918
▁kredit	-11.4919
rennfahrer	-11.4919
▁knight	-11.4919
tümer	-11.4921
▁grotte	-11.4921
villers	-11.4922
wytsch	-11.4923
▁lhot	-11.4929
▁eroberte	-11.493
▁gebogene	-11.4931
axel	-11.4959
▁persische	-11.5021
ändisch	-11.5039
geleitet	-11.5049
hundert	-11.5054
fordern	-11.5058
ensemble	-11.5066
finanz	-11.5066
gemälde	-11.5066
schriftsteller	-11.5066
herausgeber	-11.5066
verteidigung	-11.5066
junioren	-11.5067
entsprechend	-11.5067
später	-11.5067
bruder	-11.5068
río	-11.5068
interesse	-11.5121
ehemals	-11.513
agent	-11.5146
bremse	-11.5209
elektrisch	-11.5225
grimm	-11.5242
stella	-11.5244
▁choreografie	-11.5265
▁rittergut	-11.5286
▁hürden	-11.5289
▁spleiß	-11.5305
borough	-11.5314
▁alabama	-11.5314
▁ausführlich	-11.5314
▁cyclecar	-11.5314
▁engineering	-11.5314
▁genehmigt	-11.5314
▁hoyerswerda	-11.5314
▁kastilien	-11.5314
▁klagenfurt	-11.5314
▁komárov	-11.5314
▁lissabon	-11.5314
▁lüttich	-11.5314
▁møller	-11.5314
▁nuklear	-11.5314
▁pardubice	-11.5314
▁pazifik	-11.5314
▁repräsentativ	-11.5314
▁straßburg	-11.5314
▁umgewandelt	-11.5314
▁verfügen	-11.5314
▁veräußer	-11.5314
▁vierungsturm	-11.5314
▁volksrepublik	-11.5314
▁zeichnen	-11.5314
▁zyklon	-11.5314
beobachter	-11.5314
katalysator	-11.5314
▁abgetrennt	-11.5314
▁bedrohung	-11.5314
▁dürfte	-11.5314
▁rezension	-11.5314
▁turboprop	-11.5314
▁verstärkung	-11.5314
▁vorbereitet	-11.5314
▁beantragt	-11.5314
▁castillo	-11.5314
▁empfing	-11.5314
▁ullrich	-11.5314
anforderungen	-11.5314
geräusch	-11.5314
▁defense	-11.5314
▁eventuell	-11.5314
▁formulierung	-11.5314
▁wählen	-11.5314
wölbt	-11.5314
▁pokalsieger	-11.5314
▁aufprall	-11.5314
▁vorangegangen	-11.5314
bündnis	-11.5314
▁manitou	-11.5314
▁refrain	-11.5314
pflaster	-11.5314
sprünge	-11.5314
▁dokumentation	-11.5314
▁labour	-11.5314
▁mechanische	-11.5314
▁voneinander	-11.5314
▁gerettet	-11.5314
▁eliza	-11.5314
▁theresia	-11.5314
▁vereinzelt	-11.5314
▁bestattung	-11.5314
geschmack	-11.5314
▁biologische	-11.5314
▁spanier	-11.5314
▁thematisiert	-11.5314
▁butler	-11.5314
▁speyer	-11.5314
▁autonome	-11.5315
fundament	-11.5315
▁office	-11.5315
▁kansas	-11.5315
englischsprachig	-11.5315
wörter	-11.5315
sammler	-11.5316
▁siedlungsgebiet	-11.5316
erscheinungsbild	-11.5316
agenais	-11.5316
▁fortschritt	-11.5316
▁anwesenheit	-11.5317
jenigen	-11.5317
konzern	-11.5317
▁stirn	-11.5317
▁rinder	-11.5318
▁moderiert	-11.5318
▁gemalt	-11.5319
▁südkoreanische	-11.532
▁deutet	-11.5321
werkstätten	-11.5323
siedeln	-11.5326
▁avanc	-11.5327
▁siedelte	-11.533
dämme	-11.533
depot	-11.5331
rijk	-11.534
▁informiert	-11.5341
fieber	-11.5346
▁angst	-11.5349
▁singh	-11.5362
▁fasst	-11.5376
laboratori	-11.5377
▁dieselbe	-11.5382
▁weiss	-11.5404
grave	-11.5412
▁teilnahm	-11.5452
sozial	-11.5467
gestalt	-11.5477
bataillon	-11.5482
preußische	-11.5484
zusammen	-11.5484
kapitel	-11.5484
sommer	-11.5485
wirklich	-11.5486
breitungsgebiet	-11.5508
schriftstellerin	-11.5509
charlie	-11.5515
▁alternativ	-11.5555
▁einsetzt	-11.5596
▁dynami	-11.5625
_5	-11.5643
▁tschechoslowak	-11.5649
▁ereignis	-11.5681
werbung	-11.571
▁nikola	-11.571
▁südsüdwest	-11.5731
provincial	-11.5731
société	-11.5731
universiade	-11.5731
▁afghanistan	-11.5731
▁athletic	-11.5731
▁befürchtet	-11.5731
▁betätigt	-11.5731
▁champaran	-11.5731
▁dirnhofer	-11.5731
▁dreißigjährige	-11.5731
▁einschränkung	-11.5731
▁erschossen	-11.5731
▁farmanfarmaian	-11.5731
▁flüchtlinge	-11.5731
▁gerdauen	-11.5731
▁geöffnet	-11.5731
▁grantura	-11.5731
▁grundsätzlich	-11.5731
▁indonesien	-11.5731
▁lawrence	-11.5731
▁länglich	-11.5731
▁metropolitan	-11.5731
▁minnesota	-11.5731
▁priesterweihe	-11.5731
▁shakespeare	-11.5731
▁stabhochsprung	-11.5731
▁stillgelegt	-11.5731
▁säugetier	-11.5731
▁teodoro	-11.5731
▁umbenennung	-11.5731
▁wintersemester	-11.5731
kräuter	-11.5731
verzögerung	-11.5731
▁beruht	-11.5731
▁festgehalten	-11.5731
▁komitat	-11.5731
▁kočner	-11.5731
▁limited	-11.5731
▁munition	-11.5731
▁bekämpfung	-11.5731
▁manitoba	-11.5731
▁teheran	-11.5731
▁family	-11.5731
▁baseball	-11.5731
▁neuwiese	-11.5731
▁zypern	-11.5731
▁katalanische	-11.5731
▁telefon	-11.5731
▁historic	-11.5731
wirksam	-11.5731
▁bewarb	-11.5731
▁weigerte	-11.5731
stöckige	-11.5731
▁stettin	-11.5731
sediment	-11.5731
▁fylke	-11.5731
plateau	-11.5731
▁grönland	-11.5731
▁molaren	-11.5731
▁bewaldet	-11.5731
▁freude	-11.5731
▁unterirdisch	-11.5731
▁heiligkreuz	-11.5731
▁arsenjew	-11.5731
▁agrar	-11.5731
▁bearbeitet	-11.5731
▁besagt	-11.5731
▁vollendet	-11.5731
▁durst	-11.5731
▁zauber	-11.5732
▁anpassung	-11.5732
▁trophy	-11.5732
▁minuspunkte	-11.5732
▁generell	-11.5732
▁forstwirtschaft	-11.5732
▁profivertrag	-11.5732
▁kostete	-11.5732
▁botanic	-11.5733
astrid	-11.5733
▁arbeitnehmer	-11.5733
▁erarbeitet	-11.5733
erzeugung	-11.5734
▁nolte	-11.5734
▁hörspiel	-11.5735
oidea	-11.5737
greift	-11.5738
trou	-11.5739
büchse	-11.574
▁ethnische	-11.574
asilica	-11.574
blöcke	-11.5743
▁quinta	-11.5744
palais	-11.5751
▁luftwaffe	-11.5753
▁hurt	-11.5759
sensor	-11.5767
zuweisen	-11.5772
flagge	-11.5774
▁haushalte	-11.5791
genetik	-11.5806
bezogene	-11.5814
arrow	-11.5816
canada	-11.5838
schädigung	-11.587
ausweis	-11.5871
▁etabliert	-11.5872
gewählt	-11.5888
älteste	-11.5918
football	-11.5918
kommandeur	-11.5918
philosophie	-11.5918
regionalliga	-11.5918
high	-11.5925
fotograf	-11.5926
spektive	-11.5992
genetisch	-11.5997
schlesische	-11.6007
galaxiengruppe	-11.606
▁zeige	-11.6088
zählung	-11.6099
champion	-11.6127
landschaftsmaler	-11.6142
▁umliegende	-11.6164
▁korrespondier	-11.6165
▁pseudo	-11.6165
auptverkehrsader	-11.6165
chýš	-11.6165
masillamys	-11.6165
minütige	-11.6165
weißgestorchte	-11.6165
▁angesiedelt	-11.6165
▁ausgeprägte	-11.6165
▁auxerre	-11.6165
▁bemühungen	-11.6165
▁betriebsstunden	-11.6165
▁bolivien	-11.6165
▁brockhampton	-11.6165
▁bukarest	-11.6165
▁development	-11.6165
▁documenta	-11.6165
▁drehimpuls	-11.6165
▁fisichella	-11.6165
▁franziskus	-11.6165
▁gemeinnützige	-11.6165
▁gläubige	-11.6165
▁gäbler	-11.6165
▁leclerc	-11.6165
▁lloyd	-11.6165
▁mogulreich	-11.6165
▁sawarenski	-11.6165
▁vestermarie	-11.6165
▁vápno	-11.6165
▁weitestgehend	-11.6165
▁bologna	-11.6165
▁flamenco	-11.6165
▁homosexuell	-11.6165
-639-	-11.6165
▁nennenswerte	-11.6165
▁patrimonial	-11.6165
district	-11.6165
▁gilbert	-11.6165
▁martín	-11.6165
▁caroline	-11.6165
▁fasching	-11.6165
▁felix	-11.6165
▁network	-11.6165
▁buxar	-11.6165
▁gesetzgebende	-11.6165
▁miejs	-11.6165
▁schaffhausen	-11.6165
▁dorothe	-11.6165
▁fresken	-11.6165
▁kennedy	-11.6165
▁namensgebende	-11.6165
▁interpretation	-11.6165
▁ajax	-11.6165
▁graduierte	-11.6165
▁startelf	-11.6165
▁konzil	-11.6165
regulation	-11.6165
▁behaart	-11.6166
▁diskuswurf	-11.6166
schaftswahl	-11.6166
▁predigt	-11.6166
marseille	-11.6166
▁oxidation	-11.6166
▁potok	-11.6166
erneuerung	-11.6166
▁erlernte	-11.6166
▁plakat	-11.6166
▁geehrt	-11.6166
▁isoliert	-11.6166
▁epoche	-11.6166
▁lübeck	-11.6166
▁erwarten	-11.6167
▁nutzlast	-11.6167
▁jetzige	-11.6167
▁stadien	-11.6167
royce	-11.6167
▁glaubt	-11.6167
▁röhre	-11.6169
▁nachhaltige	-11.6169
gärten	-11.6169
▁jemand	-11.6169
▁alesi	-11.6169
▁ausgehend	-11.6172
▁ultra	-11.6173
▁erreichbar	-11.6177
▁kreisfreie	-11.6177
feindliche	-11.6178
▁sorb	-11.6184
▁vereinigt	-11.6195
▁3:0	-11.621
rängen	-11.622
▁coupe	-11.6222
konsum	-11.6226
wanderte	-11.6232
▁bowl	-11.6235
generalsekretär	-11.6236
niederschlags	-11.6245
zugeben	-11.6257
▁1:2	-11.6274
▁2:2	-11.6282
werkzeuge	-11.6286
▁excel	-11.6305
oxy	-11.6354
software	-11.6371
beiträge	-11.6372
doppel	-11.6373
griechisch	-11.6373
hügel	-11.6373
italien	-11.6383
▁1,7	-11.6431
▁charakterisier	-11.6458
▁topographi	-11.6463
hetero	-11.6499
wirtschaftslehre	-11.6528
▁erkennt	-11.6564
▁prüf	-11.657
▁1,0	-11.661
saxophon	-11.662
▁verwandtschaft	-11.662
danielewicz	-11.662
darbietung	-11.662
moleküle	-11.662
oxybelis	-11.662
torhüter	-11.662
▁atmosphäre	-11.662
▁berenguer	-11.662
▁birmingham	-11.662
▁brasilianische	-11.662
▁bulgarien	-11.662
▁cadillac	-11.662
▁chlumec	-11.662
▁enthüllt	-11.662
▁fröhlich	-11.662
▁klöster	-11.662
▁lodomerien	-11.662
▁malaysia	-11.662
▁meskó	-11.662
▁neugegründete	-11.662
▁nhlanhla	-11.662
▁oberkiefer	-11.662
▁schleswig	-11.662
▁schwäbisch	-11.662
▁slowakei	-11.662
▁solothurn	-11.662
▁taxonomie	-11.662
▁trübner	-11.662
▁verzeichnen	-11.662
▁vilnius	-11.662
▁vorarlberg	-11.662
▁wöchentlich	-11.662
▁übersiedelte	-11.662
▁štít	-11.662
hitparade	-11.662
mechanismus	-11.662
▁congress	-11.662
▁entomologe	-11.662
▁jimmy	-11.662
▁santaraja	-11.662
▁turquel	-11.662
katalyse	-11.662
▁duncan	-11.662
▁holotyp	-11.662
▁takagi	-11.662
▁stickstoff	-11.662
▁thatcher	-11.662
▁zurückkehrte	-11.662
▁lugano	-11.662
▁aufgefunden	-11.662
▁huhnen	-11.662
▁vermeiden	-11.662
▁moseley	-11.662
teleskop	-11.662
▁entlassung	-11.662
▁westerholt	-11.662
▁daimler	-11.662
▁vorrangig	-11.662
▁corinth	-11.662
▁erfasst	-11.662
patricia	-11.662
▁fluglotse	-11.662
▁jefty	-11.662
solvent	-11.662
▁avatar	-11.662
▁grenada	-11.662
▁roßberg	-11.662
▁seoul	-11.662
▁berief	-11.662
▁betraf	-11.662
▁kadett	-11.662
▁aquari	-11.662
▁command	-11.662
▁vermarktet	-11.662
wiejska	-11.662
▁kronenberg	-11.662
▁nancy	-11.662
▁abuja	-11.662
▁next	-11.662
▁teresa	-11.662
▁befunden	-11.662
▁weimar	-11.662
vielfalt	-11.6621
▁domäne	-11.6621
▁rethel	-11.6621
▁ingrid	-11.6621
klettern	-11.6621
▁verwenden	-11.6621
▁einsetzen	-11.6621
croix	-11.6621
sphäre	-11.6621
▁labem	-11.6621
▁cherry	-11.6621
▁collegi	-11.6622
bögen	-11.6622
▁überreicht	-11.6623
three	-11.6623
▁prize	-11.6624
korallen	-11.6625
▁eignet	-11.6625
apparat	-11.6627
▁geformt	-11.6627
oslav	-11.6632
kalender	-11.6638
▁prägte	-11.6651
slashe	-11.6653
▁magneti	-11.6671
ozeanien	-11.6673
choreograf	-11.6675
reinigung	-11.6688
löcher	-11.6751
azza	-11.6763
▁1:4	-11.679
bühne	-11.6847
artillerie	-11.6848
betreiber	-11.6848
register	-11.6848
würde	-11.6849
sowjetische	-11.6849
mädchen	-11.6849
world	-11.6849
august	-11.685
denkmalgeschützt	-11.6859
luther	-11.6877
▁vertreib	-11.6973
einzelwettbewerb	-11.6978
▁verwies	-11.7066
▁schneide	-11.7073
ogramm	-11.7077
speckle	-11.7092
▁aufmerksam	-11.7095
fideikommissherr	-11.7096
▁berührt	-11.7096
economic	-11.7096
ligakonkurrenten	-11.7096
neosaimiri	-11.7096
oglyphe	-11.7096
plukeneti	-11.7096
repräsentiert	-11.7096
▁abschließend	-11.7096
▁adaptiert	-11.7096
▁akzeptiert	-11.7096
▁antwerpen	-11.7096
▁ardfinnan	-11.7096
▁assistant	-11.7096
▁ausdrücklich	-11.7096
▁bhagalpur	-11.7096
▁breisgau	-11.7096
▁brooklyn	-11.7096
▁brügge	-11.7096
▁chemistry	-11.7096
▁commendone	-11.7096
▁dialogregie	-11.7096
▁direction	-11.7096
▁donnerstag	-11.7096
▁douglas	-11.7096
▁düdelingen	-11.7096
▁ehrendoktor	-11.7096
▁emigrierte	-11.7096
▁erzwespe	-11.7096
▁girolamo	-11.7096
▁grubenwarte	-11.7096
▁katholiken	-11.7096
▁koalition	-11.7096
▁koblenz	-11.7096
▁kontinuierlich	-11.7096
▁krankenhäuser	-11.7096
▁krönung	-11.7096
▁küstentiefland	-11.7096
▁leningrad	-11.7096
▁limousine	-11.7096
▁lubombo	-11.7096
▁lópez	-11.7096
▁manhattan	-11.7096
▁millinocket	-11.7096
▁mukoidzyste	-11.7096
▁organization	-11.7096
▁paraskevi	-11.7096
▁preßburg	-11.7096
▁produzieren	-11.7096
▁sheffield	-11.7096
▁stalingrad	-11.7096
▁verbessern	-11.7096
▁verweigert	-11.7096
▁yanshui	-11.7096
▁zugesprochen	-11.7096
▁zuzuordnen	-11.7096
▁østermarie	-11.7096
modifikation	-11.7096
superintendent	-11.7096
verschiebung	-11.7096
▁aufzubauen	-11.7096
▁bahrain	-11.7096
▁fortpflanzung	-11.7096
▁jerewan	-11.7096
▁südwestmonsuns	-11.7096
▁verkürzt	-11.7096
▁weblinks	-11.7096
▁erforscht	-11.7096
▁2015/16	-11.7096
▁biennale	-11.7096
▁deportiert	-11.7096
▁empfäng	-11.7096
▁gefordert	-11.7096
▁nevada	-11.7096
aufwändig	-11.7096
▁finnmark	-11.7096
syndrom	-11.7096
▁mixed	-11.7096
▁fassungsvermöge	-11.7096
athedral	-11.7096
▁teufel	-11.7096
▁chemical	-11.7096
▁future	-11.7096
▁schwefel	-11.7096
▁zweithöchste	-11.7096
▁automatisch	-11.7096
▁inlandsflug	-11.7096
▁tattoo	-11.7096
▁tannay	-11.7096
entwickler	-11.7096
▁ausgelegt	-11.7096
petenera	-11.7096
▁ausgrenzung	-11.7096
▁pablo	-11.7096
▁mörder	-11.7096
▁ethics	-11.7096
▁vettel	-11.7096
▁sucre	-11.7096
währing	-11.7096
▁curry	-11.7096
▁martinshof	-11.7096
anthropologie	-11.7096
▁café	-11.7096
▁erinnern	-11.7096
▁marathen	-11.7096
▁rötlich	-11.7096
▁crown	-11.7096
▁lektionen	-11.7096
▁szenari	-11.7097
▁biblische	-11.7097
▁deakin	-11.7097
▁nichol	-11.7097
▁kontrast	-11.7097
▁auslosung	-11.7097
▁smeal	-11.7097
▁schlank	-11.7097
▁gelingt	-11.7097
▁verwundet	-11.7097
rammstein	-11.7097
▁haushalts	-11.7098
▁wertvolle	-11.7098
peptid	-11.7098
▁gelehrte	-11.7098
▁fresne	-11.7098
▁verehrt	-11.7099
▁befreit	-11.71
▁narbe	-11.7106
kapı	-11.7112
examen	-11.7112
▁drittligist	-11.7113
watch	-11.7115
pässe	-11.7116
schiller	-11.7117
▁2:0	-11.7119
koreanisch	-11.7141
wirtschaftszweig	-11.7159
isabell	-11.716
italia	-11.7165
▁botanische	-11.7167
bräu	-11.7168
sofern	-11.718
göttin	-11.7209
erzähler	-11.7215
geschäftsführung	-11.7255
hinterleib	-11.729
traßenabschnitte	-11.7314
dynamische	-11.7316
professur	-11.7348
situation	-11.7348
frankfurter	-11.7348
bewohner	-11.7349
dissertation	-11.7349
alexander	-11.7349
tochter	-11.7354
parodie	-11.7396
dänisch	-11.7407
▁bräunlich	-11.7434
begleitung	-11.7531
▁kurfürst	-11.7563
▁torschützen	-11.7587
▁überwachung	-11.7596
freguesia	-11.7596
gepfarrt	-11.7596
gravitation	-11.7596
phoneutria	-11.7596
symmetrie	-11.7596
äußerungen	-11.7596
überschwemmungen	-11.7596
▁archäologie	-11.7596
▁außerplanmäßige	-11.7596
▁bedeutsam	-11.7596
▁berkeley	-11.7596
▁bhojpur	-11.7596
▁blättchen	-11.7596
▁conference	-11.7596
▁connecticut	-11.7596
▁elgün	-11.7596
▁erschließung	-11.7596
▁glänzend	-11.7596
▁guangzhou	-11.7596
▁herausforderung	-11.7596
▁hongkong	-11.7596
▁interessant	-11.7596
▁jerusalem	-11.7596
▁jugoslawien	-11.7596
▁künftig	-11.7596
▁lockheed	-11.7596
▁malčín	-11.7596
▁mendoza	-11.7596
▁nachkriegszeit	-11.7596
▁pharmazeutische	-11.7596
▁qualifying	-11.7596
▁repräsentation	-11.7596
▁schicksal	-11.7596
▁singapur	-11.7596
▁slowakische	-11.7596
▁stegaurach	-11.7596
▁vielseitigkeit	-11.7596
▁zanardi	-11.7596
resultat	-11.7596
▁country	-11.7596
▁dougall	-11.7596
▁mythologie	-11.7596
▁reduktion	-11.7596
▁schwieger	-11.7596
▁verdrängt	-11.7596
▁überraschung	-11.7596
laudatio	-11.7596
mikroskop	-11.7596
▁bradford	-11.7596
▁prototyp	-11.7596
▁wiesbaden	-11.7596
▁campbell	-11.7596
▁erfinder	-11.7596
▁fernando	-11.7596
▁jelinek	-11.7596
▁rechtzeitig	-11.7596
gefäß	-11.7596
jahresvertrag	-11.7596
▁kraftfahrzeugen	-11.7596
▁quadratmeter	-11.7596
▁territorial	-11.7596
▁abwechselnd	-11.7596
▁ausgerüstet	-11.7596
▁bordeaux	-11.7596
▁nicole	-11.7596
▁(2015)	-11.7596
▁mathilde	-11.7596
▁ausscheiden	-11.7596
▁granados	-11.7596
▁unicode	-11.7596
matrikel	-11.7596
ourçai	-11.7596
▁pölten	-11.7596
▁zueinander	-11.7596
▁indonesische	-11.7596
▁abgesehen	-11.7596
▁(2001)	-11.7596
▁effektive	-11.7596
▁franziska	-11.7596
▁verringert	-11.7596
▁monsunzeit	-11.7596
▁patronat	-11.7596
franchise	-11.7596
stöße	-11.7596
▁visuelle	-11.7596
▁anfänge	-11.7596
kombinat	-11.7596
▁neugotische	-11.7596
▁scotland	-11.7596
kabarett	-11.7596
▁architektonisch	-11.7596
▁abgerundet	-11.7596
initiator	-11.7596
▁jenseits	-11.7597
▁kursiv	-11.7597
▁nepal	-11.7597
nehmlich	-11.7597
▁aufweist	-11.7597
▁hooker	-11.7597
▁gemessen	-11.7597
▁vertikal	-11.7597
▁untersagt	-11.7597
▁pkw	-11.7597
grunau	-11.7597
defekt	-11.7597
▁betitelt	-11.7598
▁vermehrt	-11.7598
▁klinische	-11.7598
▁viertligist	-11.7599
▁chilenische	-11.7602
▁stetig	-11.7604
vereinbarung	-11.7607
daily	-11.7612
▁riesige	-11.7615
belastet	-11.7619
screen	-11.7622
azzo	-11.7628
▁standesherr	-11.7629
geweih	-11.7632
▁instabil	-11.766
brenner	-11.77
spect	-11.7731
ückt	-11.7735
klopf	-11.7759
dritte	-11.7807
mündung	-11.7874
kandidat	-11.7875
spiral	-11.7875
jurist	-11.7877
▁empfind	-11.7996
kraut	-11.8031
dimension	-11.8086
wüstung	-11.8115
▁territo	-11.8122
▁kabine	-11.8122
ämpfung	-11.8122
navigation	-11.8122
abschlusstabelle	-11.8122
châtelard	-11.8122
egislaturperiode	-11.8122
geganselte	-11.8122
grätz	-11.8122
improvisation	-11.8122
kordverbesserung	-11.8122
phosphor	-11.8122
sklaverei	-11.8122
smaragdkolibri	-11.8122
▁adjektiv	-11.8122
▁allsvenskan	-11.8122
▁anschliessend	-11.8122
▁arizona	-11.8122
▁authority	-11.8122
▁barsinghausen	-11.8122
▁beheimatet	-11.8122
▁belediyespor	-11.8122
▁beschuldigt	-11.8122
▁bestätigung	-11.8122
▁boxenstopp	-11.8122
▁brachycera	-11.8122
▁cidlinou	-11.8122
▁colombo	-11.8122
▁commerce	-11.8122
▁cummings	-11.8122
▁diskutiert	-11.8122
▁dongshan	-11.8122
▁drängte	-11.8122
▁empfahl	-11.8122
▁eurovision	-11.8122
▁evelyn	-11.8122
▁frydenberg	-11.8122
▁garcía	-11.8122
▁gänzlich	-11.8122
▁hasenbosch	-11.8122
▁interlingua	-11.8122
▁kaiserslautern	-11.8122
▁kapuziner	-11.8122
▁karpatenvorland	-11.8122
▁katastral	-11.8122
▁kpdsu	-11.8122
▁lehrbeauftragte	-11.8122
▁limassol	-11.8122
▁nalepastraße	-11.8122
▁neapolitanische	-11.8122
▁orchideenmantis	-11.8122
▁pittsburgh	-11.8122
▁priscilla	-11.8122
▁přepychy	-11.8122
▁rebounds	-11.8122
▁rekonstruiert	-11.8122
▁signifikant	-11.8122
▁slowenien	-11.8122
▁thompson	-11.8122
▁ulysses	-11.8122
▁umgekehrt	-11.8122
▁verbrennung	-11.8122
▁vietnam	-11.8122
▁virtuelle	-11.8122
▁vorgelegt	-11.8122
gård	-11.8122
▁2021/22	-11.8122
▁adalbert	-11.8122
▁aufsichtsrat	-11.8122
▁beherrscht	-11.8122
▁billboard	-11.8122
▁clifton	-11.8122
▁eingebettet	-11.8122
▁jakarta	-11.8122
▁verputzt	-11.8122
compagnie	-11.8122
erichterstattung	-11.8122
mazedonisch	-11.8122
▁inszenierung	-11.8122
▁intelligent	-11.8122
▁krylow	-11.8122
▁loyola	-11.8122
▁profikader	-11.8122
▁aquitani	-11.8122
▁primär	-11.8122
▁website	-11.8122
▁favorit	-11.8122
▁namensgebung	-11.8122
prospekt	-11.8122
étienne	-11.8122
▁tonneau	-11.8122
▁senkrecht	-11.8122
kiebitz	-11.8122
▁serbien	-11.8122
▁viertklassige	-11.8122
lüneburg	-11.8122
▁erholungs	-11.8122
▁shanxi	-11.8122
▁huriel	-11.8122
gesamtaufführung	-11.8122
▁ammonium	-11.8122
▁ehrenamtlich	-11.8122
füttert	-11.8122
▁stewart	-11.8122
▁aufgewachsen	-11.8122
▁rhone	-11.8122
▁zweitklassige	-11.8122
▁angemessen	-11.8122
▁pietro	-11.8122
▁(2016)	-11.8122
▁richmond	-11.8122
ouroux	-11.8123
▁spendete	-11.8123
▁schwanger	-11.8123
vampire	-11.8123
▁remix	-11.8123
▁variiert	-11.8123
▁überregionale	-11.8123
▁ritual	-11.8123
▁schlucht	-11.8123
▁tötet	-11.8123
▁skelett	-11.8123
▁schumann	-11.8123
▁viewer	-11.8123
▁namibi	-11.8123
skandal	-11.8123
geschoben	-11.8123
▁padua	-11.8124
bänke	-11.8124
charlottenburg	-11.8124
▁chronisch	-11.8124
▁jungtiere	-11.8125
▁asiatische	-11.8125
infektion	-11.8126
intendant	-11.8126
▁eiserne	-11.8127
▁paket	-11.8127
knecht	-11.8128
jørg	-11.8128
▁aufstiegsspiele	-11.8129
▁chinese	-11.813
hymne	-11.813
frankenstein	-11.813
gremien	-11.8133
wilkens	-11.8133
▁0:1	-11.8135
sopran	-11.814
▁molekular	-11.8145
kulisse	-11.8145
arriage	-11.8161
bunker	-11.8165
leigh	-11.8193
bronowic	-11.8212
▁springreit	-11.8213
▁1:3	-11.8229
europäische	-11.8356
dozent	-11.843
jüdische	-11.843
abgeordneter	-11.843
elektro	-11.8431
ursache	-11.8433
▁feminist	-11.8543
inisterpräsident	-11.8544
esniederschlag	-11.8584
berechtigung	-11.8622
▁bewässerung	-11.8676
▁räumlich	-11.8677
▁matthäus	-11.8678
dionysius	-11.8678
flügler	-11.8678
sagittari	-11.8678
▁abgeflacht	-11.8678
▁abkürzung	-11.8678
▁absolvieren	-11.8678
▁alessandro	-11.8678
▁angeklagt	-11.8678
▁auswärtige	-11.8678
▁beeinflussen	-11.8678
▁beeinträchtigt	-11.8678
▁beschlagnahmt	-11.8678
▁bydgoszcz	-11.8678
▁domínguez	-11.8678
▁dystopische	-11.8678
▁effects	-11.8678
▁fjodor	-11.8678
▁genügend	-11.8678
▁gescheitert	-11.8678
▁gundarenko	-11.8678
▁gärtner	-11.8678
▁göteborg	-11.8678
▁hülsenfrüchte	-11.8678
▁karibik	-11.8678
▁kaufmännische	-11.8678
▁kladruby	-11.8678
▁klammer	-11.8678
▁kontrovers	-11.8678
▁metcalf	-11.8678
▁michelinstern	-11.8678
▁molthainen	-11.8678
▁muschelkalk	-11.8678
▁mutmaßlich	-11.8678
▁muzaffarpur	-11.8678
▁napoleon	-11.8678
▁naturräumlich	-11.8678
▁patrozinium	-11.8678
▁propaganda	-11.8678
▁protectionist	-11.8678
▁rangierbahnhof	-11.8678
▁rätsel	-11.8678
▁seeschlacht	-11.8678
▁sowjetrepublik	-11.8678
▁tadschikische	-11.8678
▁terroranschläge	-11.8678
▁ungeklärt	-11.8678
▁verfasser	-11.8678
▁verstappen	-11.8678
▁veröffentlichen	-11.8678
▁wisconsin	-11.8678
▁zeitgenossen	-11.8678
▁ärztliche	-11.8678
▁aluminium	-11.8678
▁building	-11.8678
▁dialekt	-11.8678
▁ermordung	-11.8678
▁facebook	-11.8678
▁flagellin	-11.8678
▁gymnasial	-11.8678
▁illustration	-11.8678
▁privileg	-11.8678
▁verknüpf	-11.8678
▁hausangestellte	-11.8678
▁triumph	-11.8678
▁universum	-11.8678
▁öffnen	-11.8678
▁abgebildet	-11.8678
▁nektar	-11.8678
▁simpson	-11.8678
▁channel	-11.8678
▁filippen	-11.8678
▁lindgren	-11.8678
▁rafael	-11.8678
▁saharsa	-11.8678
▁schließung	-11.8678
▁befahl	-11.8678
▁(2014)	-11.8678
▁asphalt	-11.8678
▁attraktiv	-11.8678
▁laubblätter	-11.8678
▁musikalben	-11.8678
▁tettau	-11.8678
herdringen	-11.8678
▁omega	-11.8678
▁venezia	-11.8678
departement	-11.8678
▁dambeck	-11.8678
schütter	-11.8678
▁dekret	-11.8678
▁mosaik	-11.8678
▁massaker	-11.8678
kopplung	-11.8678
compilation	-11.8678
▁dublin	-11.8678
▁verehrung	-11.8678
▁glinik	-11.8678
▁zeitweilig	-11.8678
▁einzigartig	-11.8678
▁flammen	-11.8678
▁namensgeber	-11.8678
▁überwacht	-11.8678
▁gesperrt	-11.8678
▁samperi	-11.8678
▁study	-11.8678
umwandlung	-11.8678
▁demokratie	-11.8678
▁theatre	-11.8678
▁ändern	-11.8678
▁gehandelt	-11.8678
▁schlesien	-11.8678
▁entomologi	-11.8678
▁tessin	-11.8678
▁(74,0	-11.8678
stufige	-11.8678
▁wolga	-11.8678
▁classic	-11.8678
spaltung	-11.8678
▁vertraut	-11.8678
nattern	-11.8679
▁konsole	-11.8679
▁propst	-11.8679
▁reichweite	-11.8679
meidling	-11.8679
blood	-11.8679
tahara	-11.868
▁ocean	-11.868
▁algerische	-11.868
▁tabak	-11.868
▁asahi	-11.868
▁pforte	-11.8681
▁statistische	-11.8681
▁materie	-11.8682
▁0:2	-11.8683
attack	-11.8685
schiefer	-11.8686
wiederholung	-11.8686
stündige	-11.869
▁ökonomische	-11.8691
▁vereinbart	-11.8713
▁stumpf	-11.8728
bakke	-11.8734
osmanisch	-11.874
▁3:1	-11.8795
christensen	-11.8831
rundfahrt	-11.8936
▁musikpädagog	-11.8942
gewerbe	-11.9016
portugiesisch	-11.9017
gefängnis	-11.9018
nürnberg	-11.9018
tradition	-11.9019
%	-11.9019
alpine	-11.9093
1994	-11.9128
baptiste	-11.9219
▁tyrannosaurid	-11.9266
▁zuverlässig	-11.9266
didaktik	-11.9266
erhöhung	-11.9266
liechtenstein	-11.9266
midsommar	-11.9266
tarifvertrag	-11.9266
▁aarhus	-11.9266
▁aggression	-11.9266
▁amphibien	-11.9266
▁ausgeliehen	-11.9266
▁baradieser	-11.9266
▁bekommt	-11.9266
▁brixlegg	-11.9266
▁criscuolo	-11.9266
▁deskriptiv	-11.9266
▁disqualifiziert	-11.9266
▁emeritierung	-11.9266
▁emotional	-11.9266
▁eredivisie	-11.9266
▁ernähren	-11.9266
▁etymologie	-11.9266
▁evakuierung	-11.9266
▁explizit	-11.9266
▁fitzalan	-11.9266
▁gefiedert	-11.9266
▁geschmückt	-11.9266
▁gieseke	-11.9266
▁gymnasien	-11.9266
▁görnitz	-11.9266
▁karfreitag	-11.9266
▁kesseltrommel	-11.9266
▁kishanganj	-11.9266
▁klamoš	-11.9266
▁koordinaten	-11.9266
▁langfristig	-11.9266
▁liebesmahl	-11.9266
▁nafanua	-11.9266
▁optimal	-11.9266
▁progressive	-11.9266
▁rechtsextreme	-11.9266
▁rockenthin	-11.9266
▁selenskyj	-11.9266
▁sylvia	-11.9266
▁tarragó	-11.9266
▁unbenannte	-11.9266
▁unterhermsgrün	-11.9266
▁verschlechter	-11.9266
▁wetzikon	-11.9266
▁zylindrische	-11.9266
aventura	-11.9266
hängung	-11.9266
taschenratte	-11.9266
▁atlantic	-11.9266
▁giftdrüsen	-11.9266
▁konfrontiert	-11.9266
▁potentiell	-11.9266
▁relevant	-11.9266
▁serviert	-11.9266
▁turbulenz	-11.9266
▁zwischenstopp	-11.9266
▁ärztin	-11.9266
▁2014/15	-11.9266
▁addition	-11.9266
▁bestseller	-11.9266
▁dixmont	-11.9266
▁fußgänger	-11.9266
▁levín	-11.9266
ardennaise	-11.9266
dramaturg	-11.9266
hebräisch	-11.9266
▁sechzehn	-11.9266
▁täufer	-11.9266
▁ausgewechselt	-11.9266
▁shetland	-11.9266
▁zwickau	-11.9266
trophäe	-11.9266
▁eingreifen	-11.9266
häftling	-11.9266
schwörung	-11.9266
▁namhafte	-11.9266
adaption	-11.9266
▁angegliedert	-11.9266
▁belfast	-11.9266
▁beruhen	-11.9266
tägige	-11.9266
▁(2008)	-11.9266
▁haltepunkt	-11.9266
▁people	-11.9266
▁versenkt	-11.9266
▁alliance	-11.9266
▁gallery	-11.9266
▁józ	-11.9266
▁wiktor	-11.9266
▁1794	-11.9266
▁karoline	-11.9266
▁brescia	-11.9266
▁(2010)	-11.9266
▁square	-11.9266
erlebnis	-11.9266
▁nachmittag	-11.9266
defizit	-11.9266
▁(2012)	-11.9266
sioule	-11.9267
automatisiert	-11.9267
▁nutzfahrzeuge	-11.9267
▁authenti	-11.9267
risiko	-11.9267
▁gelernt	-11.9267
▁giorgi	-11.9267
▁analysi	-11.9268
zentrationslager	-11.9268
▁abfallende	-11.9268
▁palatin	-11.9269
▁externe	-11.9269
manöver	-11.9269
gestört	-11.9269
ázav	-11.9271
▁staatsangehörig	-11.9271
revolutionären	-11.9271
▁jegliche	-11.9272
▁teamkollege	-11.9274
sorbische	-11.9274
▁verbindlich	-11.9276
▁facto	-11.9284
aufbereit	-11.929
züglich	-11.9455
▁respekt	-11.9504
▁geordnet	-11.954
=	-11.9549
serbisch	-11.9677
eisenbahnstrecke	-11.9868
▁universit	-11.9877
münze	-11.989
argentinas	-11.9891
▁zwillings	-11.9891
benzoylbenzoesäu	-11.9891
administrator	-11.9891
bändige	-11.9891
effizienz	-11.9891
elfmeterschießen	-11.9891
machtergreifung	-11.9891
mołtajny	-11.9891
ommutationswerte	-11.9891
pithecus	-11.9891
pásmán	-11.9891
schnäbelige	-11.9891
▁anchicayá	-11.9891
▁begegnet	-11.9891
▁benötigen	-11.9891
▁beobachten	-11.9891
▁delmenhorst	-11.9891
▁detaillierte	-11.9891
▁durchfließt	-11.9891
▁einbezogen	-11.9891
▁ergänzen	-11.9891
▁erwärmung	-11.9891
▁filipenko	-11.9891
▁galaxy	-11.9891
▁geheiratet	-11.9891
▁gemüse	-11.9891
▁giacomo	-11.9891
▁grenadinen	-11.9891
▁heliographen	-11.9891
▁hungersnöten	-11.9891
▁indirekt	-11.9891
▁králové	-11.9891
▁leibniz	-11.9891
▁linköping	-11.9891
▁liturgische	-11.9891
▁lüttjohann	-11.9891
▁madagaskar	-11.9891
▁magdalena	-11.9891
▁montpellier	-11.9891
▁neubydžow	-11.9891
▁oberhermsgrün	-11.9891
▁oberlausitz	-11.9891
▁palästina	-11.9891
▁präsidium	-11.9891
▁pérez	-11.9891
▁quäker	-11.9891
▁ressourcen	-11.9891
▁restaurator	-11.9891
▁rodríguez	-11.9891
▁rybník	-11.9891
▁salvator	-11.9891
▁sekondeleutnant	-11.9891
▁stattgefunden	-11.9891
▁verdächtig	-11.9891
▁výkleky	-11.9891
▁waldränder	-11.9891
▁watkins	-11.9891
▁weltpremiere	-11.9891
▁westkordillere	-11.9891
▁wosnessenski	-11.9891
▁wärmeplus	-11.9891
▁ziegenbrink	-11.9891
▁zugespitzt	-11.9891
▁álvarez	-11.9891
befestigungen	-11.9891
fledermaus	-11.9891
grenadier	-11.9891
▁advance	-11.9891
▁aggressiv	-11.9891
▁bristol	-11.9891
▁chromosom	-11.9891
▁claudia	-11.9891
▁kompakt	-11.9891
▁koordiniert	-11.9891
▁navarra	-11.9891
▁nebeneinander	-11.9891
▁potenziell	-11.9891
▁quotientenregel	-11.9891
▁sputnik	-11.9891
▁thorax	-11.9891
▁variable	-11.9891
▁versteht	-11.9891
▁verzweifelt	-11.9891
▁école	-11.9891
konstellation	-11.9891
▁abwesenheit	-11.9891
▁ansprüche	-11.9891
▁aufwendig	-11.9891
▁eleanor	-11.9891
▁legendäre	-11.9891
▁librett	-11.9891
▁marokko	-11.9891
▁montmorin	-11.9891
▁ausgetauscht	-11.9891
▁freischaffend	-11.9891
▁gegossen	-11.9891
▁bornholm	-11.9891
▁cottbus	-11.9891
▁gestürzt	-11.9891
▁gestützt	-11.9891
▁vorgeworfen	-11.9891
▁entfernen	-11.9891
▁heavy	-11.9891
▁husaren	-11.9891
▁chassis	-11.9891
▁finaleinzug	-11.9891
▁hodaka	-11.9891
▁nikaia	-11.9891
▁entsandt	-11.9891
▁verspät	-11.9891
▁(2006)	-11.9891
konfiguration	-11.9891
▁astrup	-11.9891
#	-12.0558
ş	-13.8073
