<unk>	0
<s>	0
</s>	0
.	-3.13929
,	-3.59099
▁the	-3.63545
s	-3.74053
▁to	-4.30097
>'	-4.35487
▁a	-4.35602
ax	-4.39892
▁of	-4.43815
▁>	-4.47816
'	-4.50137
▁and	-4.583
▁i	-4.65251
▁in	-4.69294
t	-4.75652
)	-4.83996
▁is	-4.87336
▁that	-4.92259
-	-5.00163
▁(	-5.02517
▁	-5.09023
▁it	-5.10116
:	-5.14317
d	-5.19851
@	-5.26207
▁for	-5.28387
▁you	-5.32702
?	-5.4706
▁be	-5.54266
"	-5.58279
▁on	-5.63259
▁this	-5.63483
m	-5.64116
r	-5.68058
▁are	-5.69398
▁not	-5.70414
▁have	-5.70431
w	-5.7049
ing	-5.71813
i	-5.73017
▁"	-5.76073
c	-5.76074
▁with	-5.77423
a	-5.79119
ed	-5.80395
>	-5.82247
p	-5.82829
/	-5.833
f	-5.84398
g	-5.89652
▁as	-5.91763
e	-5.92654
*	-5.94605
n	-5.9558
b	-5.96059
▁or	-5.98062
o	-5.99547
!	-5.99801
u	-6.0093
▁was	-6.02207
▁but	-6.02627
▁m	-6.03326
v	-6.0565
▁if	-6.05926
▁they	-6.06443
q	-6.07094
edu	-6.09641
;	-6.12039
9	-6.12739
▁|	-6.13351
x	-6.14326
l	-6.15203
▁can	-6.16128
▁-	-6.17712
=	-6.18085
8	-6.2209
y	-6.22901
k	-6.24659
▁from	-6.25208
_	-6.2529
▁by	-6.2587
▁an	-6.26925
▁at	-6.26981
h	-6.32372
3	-6.337
▁we	-6.3439
▁do	-6.34973
▁>>	-6.35255
▁my	-6.35349
5	-6.35493
▁all	-6.3615
▁he	-6.37075
z	-6.37291
▁one	-6.38274
▁will	-6.38356
1	-6.38641
]	-6.38786
▁there	-6.39064
▁what	-6.39282
\	-6.40041
----------------	-6.41838
<	-6.42336
▁would	-6.42681
4	-6.44356
▁--	-6.45621
com	-6.47761
▁so	-6.47831
6	-6.48381
in	-6.48469
+	-6.49039
▁me	-6.49435
▁about	-6.5087
er	-6.51983
▁writes	-6.52828
0	-6.53372
(	-6.53593
[	-6.55396
ly	-6.57954
▁has	-6.58436
▁no	-6.59434
▁*	-6.60886
▁your	-6.61399
▁|>	-6.61411
▁article	-6.63358
re	-6.63898
▁x	-6.6414
j	-6.66761
%	-6.67053
2	-6.6773
▁any	-6.67954
▁some	-6.70094
▁out	-6.73168
▁who	-6.7334
$	-6.78607
▁don	-6.80287
▁people	-6.80505
▁1	-6.81608
&	-6.82262
#	-6.83842
▁more	-6.85845
▁like	-6.86124
▁which	-6.86286
▁when	-6.91342
▁know	-6.91424
▁just	-6.91999
▁were	-6.92296
▁their	-6.92643
▁up	-6.93111
▁other	-6.93316
...	-6.94738
7	-6.96936
al	-6.98631
▁get	-6.99426
▁than	-7.02198
▁had	-7.02292
▁max	-7.027
^	-7.03101
▁only	-7.03873
▁think	-7.04621
▁how	-7.05318
▁his	-7.06358
▁<	-7.08126
or	-7.0863
the	-7.10319
▁been	-7.10837
▁them	-7.12653
▁use	-7.15901
▁also	-7.17491
▁2	-7.19518
▁time	-7.19594
▁does	-7.2111
ve	-7.21156
▁new	-7.26326
▁e	-7.30838
▁then	-7.31631
▁c	-7.32119
▁these	-7.33948
▁am	-7.3467
▁good	-7.3468
▁should	-7.34944
▁could	-7.35231
▁even	-7.38934
).	-7.40789
▁very	-7.41434
▁because	-7.41781
ll	-7.42226
▁well	-7.4242
▁may	-7.45211
▁into	-7.45757
▁0	-7.45805
es	-7.46506
▁us	-7.46938
▁see	-7.47423
ca	-7.47481
▁over	-7.48144
▁two	-7.48885
apr	-7.49418
`	-7.4958
it	-7.50267
▁go	-7.50648
▁p	-7.50991
▁make	-7.51494
▁'	-7.51545
▁god	-7.51892
▁first	-7.52396
▁now	-7.53174
on	-7.53206
▁way	-7.5409
▁those	-7.54522
▁much	-7.54893
en	-7.55713
▁3	-7.56497
and	-7.57078
▁#	-7.57283
▁re	-7.57514
▁most	-7.57712
▁many	-7.57779
▁here	-7.59
▁why	-7.59253
▁say	-7.5954
as	-7.59634
▁[	-7.59869
▁right	-7.60108
▁d	-7.60437
▁such	-7.60904
▁s	-7.61851
is	-7.62241
▁where	-7.63679
▁want	-7.63933
▁system	-7.64024
."	-7.64923
▁r	-7.64931
▁said	-7.66324
▁our	-7.66711
th	-7.67061
▁work	-7.6774
================	-7.69446
▁<1993	-7.6968
▁4	-7.71238
▁did	-7.71261
▁used	-7.72126
▁being	-7.72313
▁same	-7.72862
▁anyone	-7.73068
▁need	-7.73748
▁un	-7.74308
el	-7.74625
▁after	-7.74793
▁back	-7.75264
an	-7.75308
▁j	-7.76617
to	-7.77246
▁/	-7.78752
▁k	-7.78952
▁him	-7.79321
▁something	-7.79351
▁o	-7.81953
▁problem	-7.82219
▁b	-7.83052
▁believe	-7.83488
▁10	-7.83564
▁w	-7.83832
ers	-7.86097
▁n	-7.8613
le	-7.86143
um	-7.86857
▁too	-7.87161
ch	-7.87221
no	-7.87667
▁really	-7.88546
▁f	-7.89631
▁since	-7.89833
▁still	-7.89884
man	-7.89996
ation	-7.90194
de	-7.9051
us	-7.91181
ic	-7.92045
cs	-7.92357
▁point	-7.92636
▁going	-7.92805
▁please	-7.92812
able	-7.93393
▁t	-7.94411
▁take	-7.95025
▁government	-7.9506
▁find	-7.96134
▁year	-7.96196
,3$	-7.96228
▁using	-7.96248
▁last	-7.96657
▁off	-7.96763
ra	-7.96844
▁years	-7.98431
▁might	-7.98586
▁own	-8.00236
pl	-8.00566
▁$	-8.01435
▁number	-8.01441
▁g	-8.01805
▁car	-8.02175
▁u	-8.02336
▁under	-8.02641
▁must	-8.02693
ac	-8.02733
ion	-8.0286
▁information	-8.02914
▁before	-8.02998
▁=	-8.03109
▁5	-8.03461
▁help	-8.03776
▁question	-8.03831
▁better	-8.04941
▁never	-8.0556
▁program	-8.05652
▁things	-8.06072
▁down	-8.06195
▁while	-8.06409
▁+	-8.06423
▁sure	-8.065
▁:	-8.07068
▁thanks	-8.07102
▁read	-8.07257
ri	-8.07338
▁let	-8.07358
****************	-8.07677
▁v	-8.08716
il	-8.08877
▁she	-8.08895
di	-8.08896
▁part	-8.08998
▁_	-8.09409
▁data	-8.09938
▁another	-8.10011
ne	-8.10106
▁got	-8.10151
▁de	-8.10221
▁both	-8.10732
▁file	-8.11329
id	-8.12552
▁l	-8.12629
▁space	-8.12636
▁thing	-8.12885
▁through	-8.1306
ck	-8.13229
),	-8.13268
▁someone	-8.14422
▁made	-8.15115
am	-8.1542
▁come	-8.15649
ity	-8.15671
11	-8.15964
▁its	-8.16513
▁doesn	-8.1703
▁law	-8.17036
ur	-8.17214
▁key	-8.17525
▁case	-8.17707
30	-8.17789
▁power	-8.18485
>,	-8.18637
▁didn	-8.18731
▁long	-8.18866
▁look	-8.1897
▁without	-8.1901
▁few	-8.19977
▁etc	-8.20179
at	-8.20471
▁between	-8.20521
▁8	-8.20673
▁world	-8.21013
▁university	-8.2161
▁little	-8.2174
if	-8.21753
▁available	-8.22033
▁&	-8.22204
▁6	-8.23958
▁every	-8.24324
▁fact	-8.24543
24	-8.24778
ent	-8.24792
00	-8.25117
20	-8.25312
▁give	-8.25535
▁course	-8.26376
▁each	-8.26523
▁anything	-8.26571
▁drive	-8.26644
co	-8.26844
▁second	-8.26894
▁day	-8.26931
▁true	-8.27029
▁...	-8.27087
▁end	-8.27261
▁however	-8.27456
ive	-8.27502
▁around	-8.27602
▁far	-8.27696
▁state	-8.28646
1.	-8.28787
▁7	-8.28926
▁her	-8.28972
▁different	-8.29132
▁h	-8.29195
▁windows	-8.29227
▁again	-8.29788
ho	-8.29794
▁19	-8.30314
▁put	-8.30438
cc	-8.31025
te	-8.3145
________________	-8.31521
do	-8.31578
▁real	-8.31579
▁tell	-8.3181
▁set	-8.31986
me	-8.32251
▁lot	-8.32486
au	-8.32578
ei	-8.32745
im	-8.32858
ar	-8.33091
▁least	-8.3344
▁list	-8.33579
▁against	-8.34616
▁<1	-8.34764
ie	-8.34841
▁probably	-8.34842
▁seems	-8.35569
▁best	-8.35686
▁>>>	-8.35936
▁man	-8.36003
|	-8.3644
▁mean	-8.37263
▁enough	-8.3737
▁name	-8.37982
em	-8.3801
▁st	-8.38098
mail	-8.38245
▁post	-8.3825
▁try	-8.38925
ia	-8.38969
▁jesus	-8.39041
▁game	-8.39091
^/	-8.39493
▁team	-8.39536
10	-8.3986
▁run	-8.39959
▁bit	-8.40103
13	-8.40141
▁great	-8.40691
la	-8.40746
--	-8.40765
▁life	-8.41114
86%	-8.41288
be	-8.41412
▁9	-8.42062
na	-8.42093
▁support	-8.42295
▁says	-8.42503
of	-8.43079
▁mac	-8.4317
▁high	-8.43562
ex	-8.43574
▁possible	-8.43678
▁old	-8.44329
▁group	-8.44757
se	-8.44769
▁co	-8.44841
▁line	-8.45369
go	-8.45609
cx	-8.45621
▁person	-8.45989
et	-8.46051
son	-8.46103
▁software	-8.46226
▁computer	-8.46232
▁mr	-8.46364
un	-8.46442
▁12	-8.4646
19	-8.46465
▁20	-8.47037
▁either	-8.47145
▁order	-8.4737
▁hard	-8.47517
ment	-8.47586
▁though	-8.47622
net	-8.47708
:6	-8.4795
he	-8.48284
▁free	-8.48339
+"	-8.48357
▁keep	-8.4838
ter	-8.4868
▁call	-8.48792
mb	-8.49239
▁found	-8.49323
▁rather	-8.49618
ge	-8.49641
▁actually	-8.4969
up	-8.50019
▁pro	-8.5007
ist	-8.50216
▁else	-8.50266
▁ma	-8.50349
▁con	-8.5071
we	-8.50742
uk	-8.51071
▁window	-8.51235
▁non	-8.51957
▁called	-8.5267
ry	-8.52767
45	-8.53325
▁card	-8.53502
▁done	-8.53559
▁wrong	-8.53566
▁next	-8.54291
15	-8.54432
▁nothing	-8.54966
li	-8.55309
not	-8.55936
▁---	-8.56614
);	-8.56614
34	-8.56644
▁place	-8.5681
▁bad	-8.57108
-2	-8.57123
ty	-8.57278
▁q	-8.5738
ul	-8.57493
▁reason	-8.5768
14	-8.57761
▁la	-8.57777
▁example	-8.58326
▁thought	-8.58365
▁15	-8.58391
ma	-8.58773
▁\	-8.58858
▁three	-8.59652
▁home	-8.59676
▁public	-8.60315
▁11	-8.60348
16	-8.60803
▁pre	-8.60836
▁able	-8.61216
▁seen	-8.61235
ian	-8.61504
ey	-8.61853
bo	-8.61874
▁!	-8.62003
ies	-8.62127
▁less	-8.62329
▁left	-8.62515
▁control	-8.62681
org	-8.62851
po	-8.62955
rs	-8.63139
▁above	-8.63396
75	-8.63684
▁john	-8.64065
▁following	-8.64301
▁>|>	-8.64354
▁won	-8.6441
▁trying	-8.6443
▁chip	-8.64549
▁kind	-8.64652
▁14	-8.64787
▁having	-8.64805
▁send	-8.64977
▁always	-8.65117
▁human	-8.65438
▁general	-8.65449
▁big	-8.6579
▁win	-8.65889
▁ever	-8.65901
▁heard	-8.6612
▁hi	-8.66226
▁play	-8.66311
▁start	-8.66555
▁problems	-8.66622
▁per	-8.66893
▁means	-8.67191
▁several	-8.6776
▁files	-8.67774
▁away	-8.67879
▁doing	-8.67939
▁quite	-8.67945
for	-8.68096
you	-8.68181
▁image	-8.68186
ton	-8.68451
▁email	-8.68492
sh	-8.68853
▁looking	-8.69263
ta	-8.6935
▁dis	-8.69386
▁maybe	-8.69532
ga	-8.69586
▁16	-8.69884
ness	-8.70149
▁idea	-8.70331
▁research	-8.70693
▁seem	-8.70968
▁money	-8.71011
▁ca	-8.71412
ut	-8.71797
▁code	-8.71904
▁hand	-8.72076
bit	-8.7209
▁wrote	-8.72158
▁today	-8.72319
▁gun	-8.7232
25	-8.72321
ke	-8.72518
▁isn	-8.72573
▁word	-8.72796
os	-8.72938
hz	-8.73125
ary	-8.7353
▁yet	-8.73706
▁during	-8.73709
▁speed	-8.7393
▁david	-8.74037
ah	-8.74094
age	-8.74376
▁whether	-8.74536
▁science	-8.74761
▁hope	-8.74877
▁book	-8.75278
▁local	-8.7538
▁israel	-8.75559
dy	-8.75694
▁yes	-8.75821
per	-8.75934
23	-8.76235
▁remember	-8.76279
▁national	-8.7633
▁systems	-8.76542
▁version	-8.76721
that	-8.76768
▁buy	-8.76847
▁1993	-8.77036
▁already	-8.77283
ro	-8.77419
ci	-8.7742
lo	-8.77468
▁mark	-8.77561
▁answer	-8.77636
ol	-8.77694
▁children	-8.77836
▁?	-8.77924
▁until	-8.77988
-1	-8.78098
▁given	-8.78105
▁times	-8.78156
▁bible	-8.78182
by	-8.78353
▁ask	-8.78377
all	-8.78413
▁getting	-8.78644
▁others	-8.7878
▁president	-8.78873
▁sun	-8.78899
▁25	-8.79062
▁current	-8.79151
mp	-8.79195
mo	-8.79243
▁evidence	-8.79255
ha	-8.79925
▁whole	-8.80136
▁mail	-8.80599
▁full	-8.80709
▁love	-8.80715
27	-8.80732
▁cannot	-8.80764
;6	-8.80902
▁jews	-8.81003
▁info	-8.81317
▁note	-8.81431
▁pc	-8.82196
▁once	-8.82307
▁phone	-8.82605
▁show	-8.82816
▁christian	-8.83
▁ago	-8.83008
▁small	-8.83139
▁change	-8.83159
▁told	-8.83199
▁war	-8.83257
▁bill	-8.83329
lk	-8.83599
ous	-8.8381
tm	-8.83857
this	-8.84194
▁interested	-8.84306
▁13	-8.8443
ine	-8.84503
▁standard	-8.84535
22	-8.84565
▁mind	-8.84656
▁comp	-8.8478
▁opinions	-8.85011
▁price	-8.85235
▁games	-8.85259
ok	-8.85375
wm	-8.85531
ant	-8.85564
end	-8.86104
ad	-8.86118
▁live	-8.86282
▁center	-8.86366
18	-8.87049
▁issue	-8.87063
▁saying	-8.87243
▁came	-8.87316
news	-8.87328
▁mo	-8.87403
▁american	-8.87416
▁access	-8.87784
▁agree	-8.87812
▁ho	-8.87881
▁large	-8.87967
▁based	-8.88122
less	-8.88187
▁side	-8.883
my	-8.88496
40	-8.88728
03	-8.88945
ling	-8.89168
▁cost	-8.89413
▁address	-8.89428
▁check	-8.89637
-#0	-8.89709
ted	-8.8997
gov	-8.90024
▁sp	-8.90034
▁po	-8.90073
▁open	-8.90137
*2	-8.90309
con	-8.90353
▁head	-8.90486
▁important	-8.90576
▁turkish	-8.90605
ance	-8.90629
▁makes	-8.90637
-34	-8.90766
▁net	-8.90965
▁memory	-8.9099
▁feel	-8.91129
▁care	-8.91442
▁color	-8.91457
da	-8.91627
▁running	-8.92034
▁perhaps	-8.92259
op	-8.92306
ate	-8.92456
ism	-8.92461
land	-8.92539
▁source	-8.92572
nd	-8.92669
▁questions	-8.92813
▁understand	-8.92912
▁matter	-8.92936
▁24	-8.92987
▁went	-8.93076
▁technology	-8.93439
▁pretty	-8.93647
▁na	-8.93698
▁sort	-8.93833
▁correct	-8.94162
▁scsi	-8.94513
85	-8.94685
32	-8.94823
)"0	-8.9488
86	-8.951
one	-8.9534
▁news	-8.95425
▁:-)	-8.95494
50	-8.95713
▁da	-8.95865
▁bo	-8.95901
wa	-8.95918
▁30	-8.96158
eg	-8.96227
but	-8.96759
▁season	-8.9684
_/	-8.9684
so	-8.97054
▁disk	-8.97078
▁provide	-8.97081
est	-8.97279
▁ftp	-8.97299
-3	-8.97376
▁april	-8.9742
",	-8.97484
▁encryption	-8.97647
▁mc	-8.97743
▁works	-8.97756
▁truth	-8.98108
tic	-8.98122
ny	-8.98198
nt	-8.98439
▁church	-8.98639
▁consider	-8.98663
pa	-8.98834
ff	-8.98901
▁short	-8.99169
<7%	-8.99171
▁machine	-8.99199
well	-8.99346
44	-8.99416
▁everything	-8.99608
▁ground	-8.9984
▁days	-8.99861
90	-8.99901
▁sin	-8.99995
▁deal	-9.00002
+2	-9.00013
line	-9.00097
▁simply	-9.00456
▁box	-9.00577
7=	-9.0061
bhj	-9.00687
▁xt	-9.00704
▁18	-9.00773
▁comes	-9.01141
▁pay	-9.01144
br	-9.01178
04	-9.01218
▁argument	-9.01231
ler	-9.0134
io	-9.01345
33	-9.01374
▁working	-9.01702
1@	-9.01757
▁claim	-9.01775
lin	-9.01835
can	-9.01873
&1	-9.01994
▁anyway	-9.02143
▁server	-9.02288
/#	-9.02366
▁clear	-9.02406
mc	-9.02431
▁dr	-9.02494
▁everyone	-9.02719
▁often	-9.02866
▁single	-9.02918
mon	-9.03031
▁started	-9.0336
▁wouldn	-9.0352
pe	-9.03558
hp	-9.03826
ner	-9.0396
ated	-9.03974
▁states	-9.04068
▁17	-9.04103
?"	-9.04117
▁experience	-9.04215
oc	-9.04365
▁later	-9.04485
▁guess	-9.04516
ce	-9.04518
ting	-9.04583
▁original	-9.04629
▁ex	-9.04655
hi	-9.04836
▁size	-9.04884
time	-9.04997
▁dos	-9.05135
92	-9.05279
▁low	-9.05328
▁israeli	-9.05347
pi	-9.0535
▁type	-9.0542
▁rights	-9.05539
▁se	-9.05562
out	-9.05637
▁period	-9.05905
▁tried	-9.06006
▁*/	-9.06032
▁white	-9.06272
mit	-9.06308
▁men	-9.06469
ak	-9.06473
▁couple	-9.0663
▁black	-9.06692
▁similar	-9.06736
▁armenian	-9.06776
17	-9.06967
▁package	-9.0732
80	-9.07353
▁/*	-9.07507
▁@	-9.07535
▁certainly	-9.07677
▁cause	-9.0782
▁light	-9.07876
▁fire	-9.07891
tu	-9.07904
what	-9.08004
▁sense	-9.08044
netcom	-9.08058
state	-9.08274
▁le	-9.08365
▁ra	-9.08552
▁display	-9.08707
▁almost	-9.08751
▁major	-9.08792
▁mu	-9.08822
46	-9.08929
▁graphics	-9.09078
▁instead	-9.09083
▁death	-9.0911
▁country	-9.09241
▁sound	-9.09303
▁anybody	-9.09732
▁took	-9.09753
▁video	-9.09755
▁design	-9.09991
▁stuff	-9.10055
12	-9.10093
▁subject	-9.10208
▁week	-9.10218
▁y	-9.10295
ence	-9.10443
rl	-9.10454
gu	-9.10459
2@	-9.11021
▁difference	-9.11039
▁christ	-9.11065
▁faith	-9.11247
▁making	-9.1144
sc	-9.11446
mm	-9.11602
ating	-9.11626
ir	-9.11633
▁di	-9.12072
▁ba	-9.12207
fi	-9.12243
▁en	-9.12261
ley	-9.12311
▁players	-9.12417
ti	-9.12421
▁act	-9.12509
▁face	-9.12557
ap	-9.12686
▁apple	-9.12749
▁anti	-9.12774
▁programs	-9.12801
▁area	-9.12804
▁land	-9.1284
=75	-9.1285
▁ka	-9.12857
ai	-9.13196
▁night	-9.13248
▁unless	-9.13271
9&1	-9.13434
▁simple	-9.13446
!"	-9.1357
▁police	-9.13667
▁nice	-9.13703
▁test	-9.13727
▁hockey	-9.13736
31	-9.13956
▁earth	-9.14251
▁sha	-9.14429
21	-9.14522
va	-9.14668
88	-9.14927
▁posting	-9.15053
▁**	-9.15322
---------------	-9.15457
▁fax	-9.1552
"`@("`@("`@("`@(	-9.15636
▁contact	-9.15708
▁among	-9.15968
▁mine	-9.16055
ial	-9.1606
▁message	-9.16213
▁write	-9.16243
▁red	-9.16261
▁value	-9.16318
▁_/	-9.16339
▁add	-9.16354
▁advance	-9.16445
▁80	-9.16471
ally	-9.16512
off	-9.1653
▁talking	-9.16543
\<	-9.16671
▁press	-9.16805
▁history	-9.17001
▁third	-9.17034
9@	-9.171
ab	-9.17187
▁league	-9.17262
▁32	-9.17285
▁dead	-9.17322
66	-9.17401
ron	-9.17444
84	-9.1749
▁christians	-9.17516
▁division	-9.17525
▁usually	-9.17613
28	-9.17705
▁mi	-9.17727
▁school	-9.17786
▁screen	-9.1795
▁cd	-9.17964
?)	-9.18027
▁application	-9.18111
▁view	-9.18266
▁past	-9.184
▁bike	-9.18426
▁san	-9.18475
▁saw	-9.18633
▁talk	-9.18649
▁dec	-9.1865
▁exist	-9.18817
ub	-9.18876
▁rest	-9.18878
▁private	-9.1888
our	-9.18945
▁including	-9.18967
▁sell	-9.19037
ww	-9.19054
▁certain	-9.19056
▁kill	-9.19086
▁young	-9.19111
47	-9.192
!)	-9.19361
▁stop	-9.19442
are	-9.1947
▁house	-9.1955
att	-9.19605
▁cut	-9.19661
pr	-9.19837
▁moral	-9.19869
▁sub	-9.19892
▁ram	-9.19892
▁court	-9.19895
ig	-9.19956
bu	-9.20013
ba	-9.20063
▁hell	-9.20073
▁asked	-9.20123
▁turn	-9.20152
▁hardware	-9.20228
51	-9.20257
▁likely	-9.20282
▁driver	-9.20283
vi	-9.20309
▁50	-9.20326
▁bar	-9.20347
ard	-9.20433
▁internet	-9.20532
▁particular	-9.2058
ps	-9.2061
▁21	-9.20812
26	-9.20885
ov	-9.2109
72	-9.211
70	-9.21193
▁model	-9.21346
ng	-9.21444
▁four	-9.21547
60	-9.21574
▁special	-9.21581
▁os	-9.21646
her	-9.21674
▁steve	-9.21712
▁fast	-9.2176
tion	-9.2181
▁return	-9.21842
▁cover	-9.2196
▁religion	-9.21991
▁words	-9.22038
ka	-9.22147
▁present	-9.22238
▁within	-9.22255
▁guy	-9.22311
▁ha	-9.22312
nk	-9.22328
▁hold	-9.22688
▁body	-9.22774
▁known	-9.22837
▁vs	-9.22945
▁exactly	-9.22996
rd	-9.23002
▁although	-9.23041
29	-9.23246
▁hear	-9.23311
▁copy	-9.23365
06	-9.2346
▁city	-9.23672
▁position	-9.23753
38	-9.23792
▁al	-9.23821
▁goes	-9.23825
71	-9.23839
cl	-9.23842
bi	-9.23875
▁bus	-9.23915
sun	-9.24146
ists	-9.24166
▁opinion	-9.2418
▁reading	-9.2424
]/3	-9.24459
▁numbers	-9.24505
ip	-9.24551
99	-9.24568
ee	-9.24592
▁thus	-9.24662
='1	-9.24684
don	-9.2475
ph	-9.24946
▁mike	-9.24974
▁health	-9.25
]_?	-9.25121
▁nor	-9.25197
▁taken	-9.25258
37	-9.25417
uc	-9.25676
how	-9.25708
▁include	-9.25816
▁user	-9.25998
▁themselves	-9.26019
▁killed	-9.26038
▁strong	-9.26068
▁expect	-9.26267
ized	-9.26277
▁food	-9.26291
▁vi	-9.26502
▁fine	-9.26728
qu	-9.26808
▁accept	-9.26857
uw	-9.26995
ari	-9.27044
▁project	-9.27094
tor	-9.27138
▁easy	-9.27147
uiuc	-9.27151
mar	-9.27274
7@	-9.27315
▁groups	-9.27334
▁keys	-9.27396
▁offer	-9.27397
che	-9.27434
77	-9.27513
▁move	-9.27628
▁armenians	-9.27745
▁security	-9.27801
▁common	-9.27903
>7	-9.27949
ni	-9.2813
rc	-9.28152
▁happened	-9.28296
▁section	-9.28323
▁hit	-9.28326
▁points	-9.28379
inn	-9.28382
49	-9.2843
▁save	-9.28537
vo	-9.28675
▁interesting	-9.28821
▁close	-9.28827
89	-9.28858
▁personal	-9.29044
▁monitor	-9.29176
▁text	-9.29352
▁network	-9.29492
rg	-9.29559
▁radio	-9.29671
▁discussion	-9.29811
ster	-9.29927
▁format	-9.3008
ier	-9.30163
▁command	-9.30187
pro	-9.3038
▁assume	-9.30413
35	-9.30422
▁dod	-9.30447
▁record	-9.30468
▁cr	-9.3057
▁port	-9.30596
om	-9.30605
▁office	-9.30638
▁myself	-9.30715
▁explain	-9.30968
▁study	-9.30974
▁business	-9.30979
rm	-9.30991
▁build	-9.31041
[>	-9.31202
▁board	-9.31324
like	-9.31541
/2	-9.31582
▁aren	-9.3163
▁jewish	-9.31649
▁soon	-9.31679
05	-9.31709
▁job	-9.31796
pu	-9.31805
▁22	-9.31883
65	-9.31914
++	-9.31927
▁building	-9.32206
95	-9.32238
07	-9.32275
there	-9.32547
ens	-9.32647
ko	-9.32672
74	-9.3276
6%	-9.32973
▁rate	-9.32979
▁situation	-9.33175
()	-9.33197
▁air	-9.33232
▁manager	-9.33246
den	-9.33371
▁result	-9.33474
rn	-9.33478
▁posted	-9.33569
▁su	-9.3358
▁level	-9.33678
▁main	-9.33693
▁drivers	-9.33711
qs	-9.33791
▁z	-9.33808
36	-9.34122
▁especially	-9.34136
1=	-9.34351
▁become	-9.3446
▁friend	-9.34748
▁nasa	-9.34831
ical	-9.3486
▁sl	-9.34863
▁mode	-9.34947
▁worth	-9.35086
=]	-9.35104
▁sa	-9.35134
▁service	-9.3514
▁faq	-9.35257
▁suggest	-9.35268
▁company	-9.35269
▁ne	-9.35313
▁itself	-9.35421
!!	-9.35504
▁tape	-9.35533
02	-9.35552
▁society	-9.35572
▁built	-9.35634
giz	-9.3564
▁happen	-9.35757
rlk	-9.35781
uni	-9.35802
nasa	-9.36096
53	-9.36173
car	-9.36399
▁written	-9.36584
▁lost	-9.36585
ns	-9.36689
▁via	-9.36753
??	-9.36771
king	-9.36786
▁further	-9.36854
which	-9.36857
01	-9.36865
▁near	-9.3705
43	-9.37188
==	-9.37241
▁haven	-9.37397
▁paul	-9.3743
▁multi	-9.37477
▁legal	-9.37477
▁women	-9.37485
▁oh	-9.37516
▁process	-9.37646
▁fall	-9.37649
▁sent	-9.37686
ue	-9.37745
▁except	-9.37803
▁break	-9.37952
▁ten	-9.37995
▁figure	-9.38029
▁coming	-9.38046
▁output	-9.38076
4@	-9.38111
▁leave	-9.38117
▁considered	-9.38243
!!!	-9.38327
▁crime	-9.38329
▁clinton	-9.38488
2.	-9.38512
key	-9.38646
rk	-9.38717
▁statement	-9.38726
ver	-9.3874
▁des	-9.38765
pp	-9.3881
▁road	-9.38923
les	-9.38988
▁40	-9.3903
42	-9.39042
"0	-9.39114
▁---------------	-9.39305
48	-9.39314
set	-9.39567
▁wanted	-9.39858
▁gl	-9.39891
ber	-9.40038
▁hu	-9.40196
▁longer	-9.40234
ish	-9.40317
▁force	-9.40335
▁launch	-9.40372
▁together	-9.40396
tz	-9.40405
▁son	-9.40446
▁york	-9.40449
▁canada	-9.40463
od	-9.40524
▁pass	-9.40697
ell	-9.40699
▁doubt	-9.40728
▁russian	-9.40885
▁pa	-9.40971
name	-9.4108
▁blood	-9.41116
▁pi	-9.41303
▁lines	-9.41343
▁department	-9.41415
▁bob	-9.41428
with	-9.41475
ten	-9.41531
ize	-9.41595
let	-9.41737
▁form	-9.41769
bb	-9.41873
ag	-9.41881
▁whatever	-9.41921
▁upon	-9.42043
▁purpose	-9.42067
ql	-9.42089
▁allow	-9.42103
▁mb	-9.42114
▁sometimes	-9.42148
▁$1	-9.42207
▁rec	-9.42232
▁ok	-9.42252
ology	-9.42286
78	-9.42292
za	-9.423
▁robert	-9.42352
ful	-9.42428
,000	-9.42535
▁wasn	-9.42582
▁due	-9.42606
ik	-9.42612
87	-9.42699
they	-9.42789
▁self	-9.42984
▁app	-9.4305
▁future	-9.4307
▁effect	-9.4311
▁pick	-9.43154
▁final	-9.43375
▁peace	-9.43403
chz	-9.43538
▁ta	-9.43771
8@	-9.43906
gg	-9.43927
▁sorry	-9.43935
▁therefore	-9.4413
▁front	-9.44162
▁million	-9.44179
ud	-9.44181
▁clipper	-9.4428
▁sale	-9.44367
way	-9.44457
mil	-9.44498
nl	-9.44807
▁create	-9.4505
lib	-9.4508
day	-9.4515
ors	-9.45385
▁specific	-9.45419
men	-9.45463
▁bring	-9.45512
▁runs	-9.45538
76	-9.45582
▁request	-9.45634
▁mouse	-9.45909
du	-9.45946
94	-9.4603
sp	-9.46077
\/#	-9.46124
▁yourself	-9.462
▁base	-9.46276
▁administration	-9.4651
63	-9.46539
▁player	-9.46572
▁recently	-9.46602
▁field	-9.46614
▁lo	-9.46681
tro	-9.47089
▁error	-9.47089
▁(1	-9.47167
▁2.	-9.47167
der	-9.47181
▁ny	-9.47211
▁total	-9.47322
▁previous	-9.47426
▁tax	-9.47541
▁necessary	-9.47567
▁early	-9.47607
▁1992	-9.47612
▁taking	-9.47641
▁3.	-9.47654
▁die	-9.4781
rb	-9.47853
▁100	-9.47873
ep	-9.47923
▁child	-9.47926
▁members	-9.47964
▁religious	-9.47986
▁du	-9.48118
▁market	-9.48125
▁along	-9.4815
▁weeks	-9.48158
▁avoid	-9.48278
-4	-9.48495
und	-9.48582
▁ms	-9.48667
▁jim	-9.48703
▁report	-9.48732
▁according	-9.48742
▁protect	-9.48752
▁1)	-9.48798
▁prevent	-9.48971
▁speak	-9.49001
▁------------	-9.49002
mi	-9.49042
mark	-9.49056
81	-9.49172
▁inter	-9.49182
▁follow	-9.49259
ru	-9.49292
▁solution	-9.49352
pt	-9.49375
▁appreciated	-9.4938
64	-9.49411
▁23	-9.49513
▁thinking	-9.49547
▁mass	-9.49566
▁series	-9.49726
david	-9.49824
61	-9.49838
55	-9.49858
▁shall	-9.49963
▁rule	-9.4999
55.0	-9.50148
83	-9.50198
hu	-9.50312
▁van	-9.50358
▁complete	-9.50404
▁60	-9.50432
▁himself	-9.50452
win	-9.50483
▁political	-9.50483
▁murder	-9.50545
cr	-9.5068
▁federal	-9.50783
que	-9.50802
▁military	-9.50804
▁technical	-9.50805
▁various	-9.50805
▁images	-9.50815
▁manual	-9.50827
▁action	-9.50846
▁half	-9.50909
▁class	-9.51002
-=-=-=-=-=-=-=-=	-9.51067
~~~~~~~~~~~~~~~~	-9.51076
app	-9.51194
gy	-9.51298
ious	-9.5132
▁objective	-9.51333
ug	-9.5138
▁michael	-9.51447
▁mentioned	-9.51517
....	-9.51632
just	-9.51674
▁cases	-9.517
96	-9.51715
old	-9.51891
gi	-9.51917
▁knowledge	-9.51963
▁count	-9.51963
▁pe	-9.51966
▁books	-9.52028
uucp	-9.5203
su	-9.52115
▁safety	-9.52296
▁usa	-9.52332
▁guns	-9.52333
cu	-9.524
▁couldn	-9.52415
▁device	-9.52528
▁laws	-9.5254
▁cable	-9.52623
▁behind	-9.52649
▁block	-9.52674
▁defense	-9.52725
▁reply	-9.52736
0-	-9.52794
▁]	-9.52841
▁%	-9.52846
▁cars	-9.52859
▁washington	-9.52905
39	-9.52914
ran	-9.52922
-0	-9.52951
ise	-9.53039
some	-9.53051
▁water	-9.5319
▁involved	-9.53231
▁product	-9.53293
▁station	-9.53305
gun	-9.53417
▁looks	-9.53443
\?'	-9.53561
▁engine	-9.53591
ger	-9.53623
lu	-9.53644
▁algorithm	-9.53658
09	-9.53711
▁needed	-9.53721
red	-9.54005
▁gas	-9.5401
▁reference	-9.54122
6@	-9.54123
:3	-9.54194
▁super	-9.54307
▁plus	-9.54333
▁li	-9.54456
view	-9.54498
73	-9.54563
▁bi	-9.54613
chi	-9.54713
▁needs	-9.54851
▁medical	-9.54921
▁choice	-9.54972
▁age	-9.55057
min	-9.55129
▁dave	-9.55242
▁serial	-9.55296
istic	-9.55297
▁tv	-9.55406
▁input	-9.55418
▁willing	-9.55449
▁months	-9.55481
rutgers	-9.55674
▁nhl	-9.55715
▁cal	-9.55731
▁wire	-9.55818
▁street	-9.56059
5%	-9.56063
▁average	-9.56113
▁2)	-9.56291
▁art	-9.56293
▁ge	-9.56412
▁father	-9.56531
▁voice	-9.56543
62	-9.56627
▁wish	-9.56633
mer	-9.56677
ite	-9.56795
▁mention	-9.56952
▁uses	-9.57053
▁parts	-9.57074
▁inc	-9.57098
ning	-9.57163
gc	-9.5722
▁story	-9.5724
▁vote	-9.57283
▁extra	-9.57287
08	-9.57303
▁outside	-9.57317
▁------	-9.57438
58	-9.57499
▁turks	-9.57575
▁included	-9.57589
acs	-9.5765
▁fi	-9.5778
use	-9.57839
▁judge	-9.58018
▁comment	-9.5803
from	-9.58053
right	-9.58086
▁fo	-9.58115
▁weapons	-9.58182
93	-9.58251
▁greek	-9.58454
▁function	-9.58495
▁entry	-9.58559
52	-9.58622
▁currently	-9.58707
▁directory	-9.58882
ions	-9.58973
des	-9.59394
▁ko	-9.59451
▁motif	-9.59737
▁room	-9.59748
work	-9.59777
▁continue	-9.59873
-5	-9.59912
▁useful	-9.59932
▁otherwise	-9.60022
▁wonder	-9.60027
▁commercial	-9.60037
▁paper	-9.60045
bxn	-9.60052
eng	-9.60256
▁results	-9.60264
med	-9.60375
▁interface	-9.60392
▁appears	-9.60396
▁teams	-9.60425
▁looked	-9.60429
tri	-9.60441
▁jpeg	-9.60519
▁arab	-9.60541
▁***	-9.60583
▁handle	-9.60589
iv	-9.60731
ization	-9.60789
▁controller	-9.60829
windows	-9.60891
▁media	-9.60896
ez	-9.60899
ham	-9.60921
1993	-9.60966
john	-9.60991
^_	-9.61028
ice	-9.61115
▁top	-9.61139
▁development	-9.61222
41	-9.61378
space	-9.61415
▁united	-9.61463
;3	-9.61484
jo	-9.61506
▁te	-9.61581
▁basic	-9.61597
▁baseball	-9.6168
▁institute	-9.61694
▁charge	-9.61731
▁mar	-9.61745
▁smith	-9.61814
▁serious	-9.61876
▁ibm	-9.62048
cho	-9.62059
▁family	-9.62065
82	-9.62111
;=	-9.6215
▁individual	-9.62153
▁goal	-9.62192
▁release	-9.62337
▁respect	-9.6248
67	-9.626
▁step	-9.62605
bc	-9.62608
-7	-9.62608
▁condition	-9.62609
▁clearly	-9.62677
ide	-9.62714
57	-9.62719
▁users	-9.6282
▁turkey	-9.6284
▁widget	-9.62887
▁sign	-9.62903
▁response	-9.62941
▁quality	-9.62942
▁ro	-9.63067
non	-9.6308
5@	-9.63116
isc	-9.63176
val	-9.63232
▁sc	-9.63281
mu	-9.63295
▁gm	-9.63322
▁ni	-9.63327
hl	-9.63331
▁vol	-9.63419
▁belief	-9.63425
▁26	-9.63435
lb	-9.63516
▁details	-9.63624
▁trade	-9.63678
cso	-9.63804
68	-9.63822
54	-9.63896
-6	-9.63912
▁printer	-9.64007
▁safe	-9.64068
▁micro	-9.64183
▁chance	-9.64229
cb	-9.64241
kn	-9.64297
av	-9.64332
ev	-9.6436
▁amount	-9.64421
▁exists	-9.64472
▁fit	-9.64556
han	-9.64644
▁carry	-9.64692
gen	-9.64699
▁range	-9.64767
tl	-9.64774
69	-9.64789
air	-9.64789
▁bought	-9.64918
▁nature	-9.64929
▁stand	-9.65128
▁author	-9.65146
▁sci	-9.65159
▁created	-9.65171
ix	-9.65228
▁thank	-9.65323
▁wa	-9.65362
▁lack	-9.65463
▁peter	-9.65482
ibm	-9.65581
▁below	-9.65667
▁pat	-9.65746
▁page	-9.65748
▁living	-9.65818
▁learn	-9.6598
▁frank	-9.65982
▁ide	-9.66014
bn	-9.66023
▁ideas	-9.66024
▁attack	-9.66173
hr	-9.66188
59	-9.66195
▁north	-9.66302
▁----	-9.66322
bitnet	-9.66355
▁fan	-9.66524
ky	-9.66562
,#`	-9.6659
▁congress	-9.66623
▁ed	-9.6665
▁wait	-9.66784
▁deleted	-9.66803
▁newsgroup	-9.66824
lic	-9.66994
▁cards	-9.6716
56	-9.67258
▁sources	-9.67294
fl	-9.67323
oo	-9.67429
▁ga	-9.67463
▁definition	-9.67518
▁va	-9.67558
▁trust	-9.67593
▁difficult	-9.67711
ring	-9.67819
have	-9.67839
▁27	-9.6787
over	-9.67911
▁refer	-9.67944
▁drives	-9.68062
ld	-9.68107
any	-9.68268
▁none	-9.68306
▁international	-9.68345
▁gave	-9.6848
3@	-9.68542
▁rules	-9.68572
▁interest	-9.68579
▁je	-9.68698
[^_	-9.68716
ec	-9.68738
▁stupid	-9.68752
ii	-9.6877
▁mw	-9.68923
▁completely	-9.68949
▁james	-9.69014
79	-9.69098
ations	-9.69157
▁asking	-9.69163
ux	-9.69208
▁35	-9.69258
▁higher	-9.69298
ack	-9.6931
▁28	-9.69315
▁designed	-9.69338
▁date	-9.69419
▁west	-9.69421
▁`	-9.69422
rom	-9.69468
---	-9.69568
▁chicago	-9.69576
▁shot	-9.6965
▁population	-9.69698
▁christianity	-9.69728
cmu	-9.69819
ities	-9.69819
ach	-9.69863
▁char	-9.69941
▁practice	-9.70102
▁cross	-9.70196
bl	-9.70205
▁ce	-9.70218
▁moon	-9.70243
▁th	-9.70286
~	-9.70328
▁ran	-9.70442
▁term	-9.70483
▁language	-9.70547
▁policy	-9.70547
▁knew	-9.70578
▁gets	-9.70595
▁fbi	-9.70616
▁scientific	-9.70659
▁33	-9.70679
▁round	-9.70691
▁require	-9.7079
▁dc	-9.70831
sol	-9.70832
ew	-9.70891
▁easily	-9.70993
▁risk	-9.70999
▁drug	-9.71011
▁performance	-9.7105
▁ch	-9.71058
▁switch	-9.71135
▁services	-9.71246
ay	-9.71329
▁directly	-9.71566
▁msg	-9.71608
kh	-9.71646
sy	-9.71658
▁md	-9.71758
5)	-9.71775
sys	-9.71796
▁pain	-9.71949
▁lu	-9.72142
nn	-9.72171
▁bear	-9.72267
▁tend	-9.72281
▁inside	-9.72292
▁indeed	-9.72362
▁plan	-9.72369
▁writing	-9.72419
▁chips	-9.72471
▁ob	-9.72502
▁gr	-9.72553
▁fair	-9.72719
4-	-9.72795
▁supply	-9.7284
▁sw	-9.72968
/*	-9.73008
▁||	-9.73227
qq	-9.7332
▁ja	-9.73359
▁required	-9.73364
▁poor	-9.73454
ible	-9.73491
▁supposed	-9.736
▁applications	-9.73685
▁insurance	-9.7375
cj	-9.73854
▁includes	-9.73858
▁mis	-9.74082
▁approach	-9.74111
▁member	-9.74163
▁internal	-9.74181
▁magazine	-9.74205
▁modem	-9.74253
oh	-9.74268
▁__	-9.74275
ucs	-9.74324
sha	-9.74336
led	-9.744
▁increase	-9.74548
▁sounds	-9.7455
▁account	-9.74587
port	-9.74613
▁site	-9.74664
▁freedom	-9.7472
▁devices	-9.74804
light	-9.7485
▁faster	-9.74898
▁orbit	-9.74961
▁secret	-9.75088
▁limit	-9.75096
▁studies	-9.75103
act	-9.75201
▁five	-9.75361
lj	-9.754
▁generally	-9.75522
▁method	-9.75536
\_/	-9.75599
▁excellent	-9.75604
▁civil	-9.75628
▁title	-9.75686
▁reasonable	-9.75687
▁beat	-9.75717
ja	-9.75718
▁finally	-9.75764
▁unit	-9.7579
get	-9.75855
0@	-9.75863
▁watch	-9.7595
▁object	-9.75956
▁produce	-9.76005
▁trial	-9.76103
▁transfer	-9.76133
▁escrow	-9.76164
▁appear	-9.76193
???	-9.76269
98	-9.76305
▁unix	-9.76489
▁lead	-9.76495
vm	-9.76526
^^^^^^^^^^^^^^^^	-9.76601
▁reasons	-9.76697
lan	-9.76718
▁engineering	-9.76741
pc	-9.76751
▁six	-9.76803
zz	-9.76839
▁entire	-9.76846
▁east	-9.76878
yx	-9.76912
▁em	-9.76947
▁70	-9.76999
▁values	-9.77051
▁begin	-9.77121
▁4.	-9.77174
▁basis	-9.77465
▁authority	-9.77494
ek	-9.77572
▁event	-9.77582
link	-9.77624
col	-9.77662
▁late	-9.7778
▁obvious	-9.77801
▁quick	-9.77921
▁decided	-9.7795
fr	-9.78006
bh	-9.78029
7?=	-9.78111
▁apply	-9.78142
▁draw	-9.78149
▁boy	-9.78178
berg	-9.78193
▁ride	-9.78207
▁stay	-9.78268
▁cup	-9.78364
zd	-9.78378
▁lord	-9.78531
▁installed	-9.78607
,#	-9.7861
top	-9.78684
rr	-9.7869
ture	-9.78785
0$	-9.78811
▁mon	-9.78822
int	-9.78831
▁addition	-9.78876
▁comments	-9.78918
▁morality	-9.78956
▁drugs	-9.7898
ney	-9.78984
▁evil	-9.79
▁prove	-9.79082
='	-9.79089
▁heart	-9.79132
▁slow	-9.79203
▁german	-9.79206
▁recall	-9.79313
▁changed	-9.79374
▁community	-9.7939
▁suspect	-9.7939
▁secure	-9.79391
▁alone	-9.79436
#`	-9.79469
▁citizens	-9.7948
▁clean	-9.79519
▁che	-9.79657
▁com	-9.79669
ward	-9.79723
▁el	-9.79776
▁wondering	-9.7979
▁dan	-9.79802
fa	-9.79835
000	-9.79855
▁ball	-9.79987
ult	-9.79988
why	-9.80022
▁terms	-9.80042
see	-9.80069
back	-9.80114
100	-9.80137
uh	-9.80159
/3	-9.8029
▁allowed	-9.8032
berkeley	-9.80368
▁worse	-9.80369
qui	-9.80378
▁~	-9.8038
jj	-9.80424
▁theory	-9.80431
▁matthew	-9.8044
▁si	-9.80545
art	-9.80629
▁->	-9.80639
▁chi	-9.80641
vz	-9.80655
▁park	-9.80657
ray	-9.80673
sion	-9.80697
▁ways	-9.80796
▁wall	-9.80799
▁limited	-9.80817
▁toronto	-9.80829
▁normal	-9.80886
ick	-9.80889
▁tu	-9.80961
2-	-9.80984
▁gif	-9.81027
read	-9.81042
▁takes	-9.81161
▁31	-9.81253
ever	-9.81262
▁486	-9.81271
mk	-9.81306
▁wife	-9.8136
▁phil	-9.8136
hm	-9.81505
ative	-9.81539
▁obviously	-9.81573
▁america	-9.81583
▁meaning	-9.81708
▁ver	-9.81834
▁brought	-9.81853
▁folks	-9.81853
▁worked	-9.81936
▁appropriate	-9.81966
▁sh	-9.82042
▁events	-9.82067
cal	-9.82069
=%	-9.82142
▁fa	-9.82234
▁character	-9.82286
▁___	-9.82296
▁imagine	-9.82353
▁disease	-9.82499
▁option	-9.82648
▁lower	-9.82691
▁cheap	-9.8272
▁cha	-9.82777
▁3.1	-9.82895
sure	-9.82905
mac	-9.82927
ual	-9.82958
▁vga	-9.82959
▁published	-9.82964
unt	-9.82974
▁direct	-9.82979
▁stick	-9.82994
▁lab	-9.8301
tar	-9.83071
▁ve	-9.83089
ator	-9.83143
ify	-9.83147
▁>--	-9.83363
▁upgrade	-9.83363
▁keyboard	-9.83384
▁(--)	-9.83387
▁attempt	-9.8339
▁necessarily	-9.83431
year	-9.83455
▁existence	-9.83509
log	-9.8362
▁happens	-9.83622
side	-9.83623
▁loss	-9.83639
fe	-9.8375
▁communications	-9.83806
▁library	-9.83868
▁enforcement	-9.83873
;&	-9.83897
▁lots	-9.83949
▁king	-9.84007
▁actions	-9.84128
▁reported	-9.843
pub	-9.84303
▁machines	-9.84332
mot	-9.84333
▁joe	-9.8452
▁across	-9.84522
jp	-9.8456
▁organization	-9.84615
low	-9.84711
▁hours	-9.84804
▁appreciate	-9.84855
▁forward	-9.8492
qy	-9.84956
hal	-9.85037
▁nt	-9.85076
▁brain	-9.85083
▁killing	-9.85101
▁jo	-9.85145
▁places	-9.85172
nz	-9.85244
▁wants	-9.85253
▁29	-9.85295
▁received	-9.85313
**	-9.8532
<]	-9.85347
▁choose	-9.85407
▁happy	-9.85407
▁thread	-9.85413
▁beginning	-9.85415
▁california	-9.85427
▁90	-9.85571
par	-9.85677
▁education	-9.85727
▁hp	-9.85744
van	-9.85758
4)	-9.85822
who	-9.85842
▁-----	-9.85854
▁koresh	-9.85925
▁license	-9.85925
▁represent	-9.85927
->	-9.85938
▁alt	-9.8607
")	-9.86073
lot	-9.86359
▁develop	-9.86389
gar	-9.86506
scx	-9.86513
(2$	-9.86611
▁stated	-9.86722
▁ya	-9.86791
7-	-9.86818
▁mq	-9.8686
ile	-9.86876
^?	-9.86877
▁analysis	-9.86969
97	-9.86998
head	-9.87029
▁93	-9.87053
▁context	-9.87069
▁unfortunately	-9.87073
▁month	-9.87183
▁sold	-9.87345
▁related	-9.87399
andrew	-9.8741
▁militia	-9.87495
▁arms	-9.87505
▁neither	-9.87507
▁effective	-9.87507
▁review	-9.87568
▁official	-9.8771
ship	-9.87718
▁recent	-9.87928
▁star	-9.87951
▁died	-9.87952
▁false	-9.88025
oz	-9.88037
▁realize	-9.88039
▁straight	-9.88072
▁nsa	-9.88085
▁western	-9.88104
▁pittsburgh	-9.88104
▁apparently	-9.88109
steve	-9.88116
▁reality	-9.88163
<\	-9.88192
;$	-9.88229
▁volume	-9.88311
▁satellite	-9.88313
▁claims	-9.8832
▁guys	-9.88346
bj	-9.8836
1)	-9.88518
▁companies	-9.88556
▁trouble	-9.88556
▁illegal	-9.88557
fu	-9.88591
▁:)	-9.88659
▁load	-9.88676
▁environment	-9.88714
[*	-9.88715
▁former	-9.8875
▁search	-9.88768
does	-9.88799
91	-9.8883
ory	-9.88831
▁forget	-9.88866
▁brian	-9.88931
▁regular	-9.88951
▁shipping	-9.89092
"?	-9.89137
▁double	-9.89147
▁majority	-9.89155
wt	-9.89336
▁auto	-9.89401
▁convert	-9.89464
▁hot	-9.89696
▁issues	-9.89751
ble	-9.89835
▁gives	-9.89943
▁jobs	-9.90079
▁gone	-9.90131
▁decide	-9.90174
stanford	-9.90213
dx	-9.9025
▁moment	-9.90289
▁whose	-9.90289
▁minutes	-9.90327
aa	-9.9039
post	-9.90483
star	-9.90486
▁reports	-9.90497
ea	-9.90501
▁lock	-9.90738
▁64	-9.90776
▁economic	-9.90796
▁que	-9.90879
▁gain	-9.90965
▁op	-9.91161
▁conference	-9.91259
▁south	-9.91268
3$	-9.91383
-8	-9.91421
pat	-9.91461
▁understanding	-9.916
▁ti	-9.91656
▁mit	-9.91672
wi	-9.91673
aw	-9.91701
800	-9.91703
▁34	-9.91784
▁capital	-9.91809
▁giving	-9.91883
▁party	-9.91948
▁cpu	-9.9195
▁ii	-9.91951
▁bur	-9.92047
45%	-9.92172
▁material	-9.92197
▁wide	-9.9223
when	-9.9231
▁advantage	-9.92361
▁scripture	-9.92363
▁playing	-9.92416
▁somewhere	-9.92441
▁sexual	-9.92442
nb	-9.92591
▁clock	-9.92696
apple	-9.92719
hj	-9.92744
▁tim	-9.92746
▁rocket	-9.92774
▁absolute	-9.92844
600	-9.92867
▁played	-9.9288
file	-9.92908
▁floppy	-9.92917
columbia	-9.92917
▁argue	-9.92919
▁middle	-9.9292
▁club	-9.92928
▁prefer	-9.9299
▁mother	-9.9314
▁eric	-9.93143
▁oil	-9.93161
▁green	-9.93207
[^	-9.93213
▁effort	-9.93344
▁operation	-9.93345
dr	-9.93372
▁separate	-9.93378
▁wo	-9.93408
▁col	-9.93416
pitt	-9.93465
▁picture	-9.93473
:<	-9.93592
▁knows	-9.93615
fer	-9.93682
▁held	-9.93736
▁gra	-9.93858
▁ability	-9.93948
▁document	-9.93991
uunet	-9.94003
▁``	-9.9402
▁structure	-9.94037
▁drop	-9.94104
▁table	-9.94121
ean	-9.9413
mhz	-9.94151
▁somebody	-9.94161
▁lives	-9.94215
..."	-9.94349
▁armenia	-9.94376
▁dangerous	-9.94623
▁atheists	-9.94748
("	-9.94891
▁sex	-9.94983
17.	-9.95072
▁posts	-9.95117
field	-9.95121
▁suppose	-9.95224
▁connection	-9.95251
▁bbs	-9.95295
now	-9.9535
▁5.	-9.95411
▁pts	-9.95436
▁logic	-9.95506
200	-9.95553
__	-9.95589
>`	-9.9561
▁--------	-9.95638
...)	-9.95662
▁heaven	-9.95742
▁surface	-9.95743
▁countries	-9.95746
▁pr	-9.95784
▁treatment	-9.95785
az	-9.95835
gr	-9.95856
▁thomas	-9.95939
gl	-9.95953
war	-9.96057
#$	-9.9608
▁master	-9.96097
▁gu	-9.9614
nu	-9.96141
▁valid	-9.96295
▁respond	-9.96296
1]	-9.96326
▁quote	-9.96348
▁electronic	-9.96354
▁fear	-9.96358
▁turned	-9.96393
ified	-9.964
af	-9.96422
15.1	-9.96446
har	-9.96462
▁tel	-9.96471
▁fairly	-9.96494
▁race	-9.96495
▁0.3	-9.96517
▁shell	-9.96523
▁calls	-9.96615
▁closed	-9.96825
▁perfect	-9.96834
▁concept	-9.9686
uu	-9.96868
▁names	-9.96879
▁college	-9.96895
▁earlier	-9.96895
▁miles	-9.96926
was	-9.96982
cy	-9.97007
▁corp	-9.97031
pg	-9.97115
▁digital	-9.97121
▁richard	-9.97135
_./	-9.9715
▁keith	-9.97214
▁pin	-9.97241
▁bl	-9.97363
▁cla	-9.97402
▁conclusion	-9.97432
▁catholic	-9.97476
▁boston	-9.97494
▁>|	-9.97501
ole	-9.97502
▁meg	-9.97567
ates	-9.97629
mis	-9.97713
2)	-9.97744
real	-9.97798
▁path	-9.97799
▁provided	-9.97817
9%	-9.97829
ear	-9.97869
pin	-9.97896
▁dealer	-9.97908
/8	-9.97941
▁notice	-9.97999
lq	-9.98032
▁equipment	-9.98061
▁amendment	-9.98061
▁modern	-9.98081
▁privacy	-9.98103
ware	-9.98103
gra	-9.98112
▁door	-9.98113
▁roger	-9.98224
rck	-9.9823
▁germany	-9.98299
................	-9.98363
▁soldiers	-9.98424
nc	-9.98466
8<	-9.98475
▁eat	-9.98482
world	-9.98624
▁beyond	-9.98695
▁==	-9.9873
bar	-9.98739
▁americans	-9.98782
▁european	-9.98782
▁social	-9.98819
▁hands	-9.98906
lf	-9.9891
▁>>>>	-9.99038
^1	-9.99048
▁responsible	-9.99241
▁possibly	-9.99324
ki	-9.99347
▁seriously	-9.99444
▁flame	-9.99507
▁doug	-9.99536
zv	-9.99576
▁bra	-9.99665
hh	-9.99704
▁march	-9.99752
▁sal	-9.99784
board	-9.99825
▁escape	-9.99836
▁woman	-9.99876
other	-9.99903
▁0.2	-9.9991
▁lunar	-9.99912
lt	-9.99917
▁doctor	-9.99933
▁minor	-9.99957
▁font	-10.0011
▁fl	-10.0011
▁mt	-10.0013
▁gay	-10.0016
▁areas	-10.0022
9$	-10.0023
len	-10.0026
▁town	-10.0029
▁resources	-10.0031
▁texas	-10.0036
has	-10.0051
▁store	-10.0064
▁mission	-10.0069
ably	-10.0071
lg	-10.01
▁potential	-10.0104
▁accident	-10.0104
▁multiple	-10.0104
▁anonymous	-10.0108
iti	-10.011
▁>(	-10.011
▁bu	-10.0114
▁pp	-10.0125
▁link	-10.0135
▁treat	-10.0136
▁army	-10.0137
▁arm	-10.0142
;<	-10.0151
▁sch	-10.0156
cher	-10.0161
▁expensive	-10.0164
▁programming	-10.0165
▁boot	-10.0169
▁independent	-10.0171
▁sea	-10.0177
▁aware	-10.0178
ition	-10.0179
▁ki	-10.0182
▁soviet	-10.0185
▁billion	-10.0186
yl	-10.0189
+9	-10.0196
ifi	-10.0199
500	-10.0203
iff	-10.0208
▁shows	-10.0211
ans	-10.0212
▁mailing	-10.0215
▁types	-10.0224
▁export	-10.0227
▁panel	-10.0227
▁starting	-10.0233
▁protection	-10.0233
▁spent	-10.0234
▁usenet	-10.0235
mv	-10.0237
▁eye	-10.0244
tek	-10.0245
▁regarding	-10.025
▁firearms	-10.0258
▁ron	-10.0258
▁personally	-10.026
▁386	-10.0265
▁fight	-10.0266
ast	-10.0267
even	-10.0269
▁remain	-10.027
sk	-10.0286
▁remote	-10.0287
cwru	-10.0287
)24	-10.0289
▁border	-10.029
sen	-10.0291
▁views	-10.0291
▁200	-10.0293
▁xterm	-10.0297
rri	-10.0299
▁host	-10.0317
▁maintain	-10.0318
term	-10.0322
2\	-10.0323
▁grant	-10.0325
ken	-10.0335
she	-10.0335
info	-10.0337
▁constitution	-10.034
▁kept	-10.0349
drive	-10.0355
▁greg	-10.0372
▁letter	-10.0375
based	-10.0376
▁tools	-10.0377
\=	-10.0379
▁criminals	-10.0386
▁tra	-10.0404
▁ones	-10.0405
▁fault	-10.0411
▁latest	-10.0414
▁flight	-10.0416
▁expressed	-10.0425
▁resource	-10.0426
▁rep	-10.0427
▁led	-10.0429
most	-10.0429
▁37	-10.0435
rate	-10.0452
300	-10.0454
▁options	-10.0455
▁sad	-10.0456
▁define	-10.0461
▁innocent	-10.0473
▁popular	-10.0473
▁additional	-10.0478
▁determine	-10.048
▁visual	-10.0488
``	-10.0491
rit	-10.0498
▁256	-10.0502
duc	-10.0502
▁particularly	-10.0511
▁cont	-10.0521
part	-10.0529
#0	-10.0529
▁apr	-10.0533
new	-10.0534
▁spirit	-10.0535
▁alternative	-10.0536
harvard	-10.0536
▁george	-10.0541
▁basically	-10.0545
▁yeah	-10.0548
ft	-10.0553
▁ku	-10.0563
▁jeff	-10.0564
▁hate	-10.0567
ef	-10.0574
▁bits	-10.0581
▁errors	-10.0582
▁cl	-10.0587
dec	-10.059
▁committee	-10.0599
display	-10.0601
izing	-10.0602
gh	-10.0602
tom	-10.0604
▁shuttle	-10.0605
===============	-10.0613
lea	-10.0618
kk	-10.0623
▁circuit	-10.0624
^^^^^	-10.0626
:&	-10.0627
fp	-10.0636
late	-10.0639
▁ci	-10.0639
▁fans	-10.0641
▁share	-10.0642
▁models	-10.0644
▁blue	-10.0647
lock	-10.0648
▁throw	-10.0652
str	-10.066
▁disagree	-10.0663
▁motherboard	-10.0663
▁chris	-10.0665
▁edge	-10.0668
▁driving	-10.0671
▁hall	-10.0671
▁greatly	-10.0672
east	-10.0688
▁muslim	-10.0694
▁bos	-10.0712
dd	-10.0715
fo	-10.0717
▁passed	-10.0722
▁brand	-10.0727
▁genocide	-10.0727
▁industry	-10.0727
ung	-10.0729
comp	-10.0736
▁fix	-10.0736
▁print	-10.0739
▁intended	-10.0741
▁mid	-10.0742
▁btw	-10.0752
more	-10.0753
pm	-10.0753
▁student	-10.0756
:\	-10.0765
hy	-10.0768
ification	-10.0769
unc	-10.0772
▁ph	-10.0774
▁suggestions	-10.0774
dan	-10.078
1+	-10.0785
ju	-10.0788
▁corporation	-10.0791
▁proposal	-10.0791
▁stephanopoulos	-10.0791
▁demand	-10.0792
avi	-10.0793
ana	-10.0794
▁par	-10.0799
/&	-10.0801
▁equal	-10.0802
▁rob	-10.0802
▁natural	-10.0806
will	-10.0808
▁products	-10.0812
▁decision	-10.0813
▁atheism	-10.0816
▁spend	-10.0828
▁meet	-10.084
color	-10.0841
▁ice	-10.0841
▁actual	-10.0844
▁default	-10.0844
▁simms	-10.0846
▁cy	-10.0847
▁pen	-10.0856
▁advice	-10.0857
▁bunch	-10.0859
▁expected	-10.086
▁nobody	-10.0863
▁soul	-10.0863
▁shouldn	-10.0868
▁kids	-10.0874
▁entirely	-10.0876
▁et	-10.0882
▁described	-10.0882
▁sports	-10.0885
▁considering	-10.089
host	-10.0897
xx	-10.09
400	-10.09
▁beliefs	-10.0903
lv	-10.0904
▁str	-10.0908
▁buying	-10.0914
▁target	-10.0922
▁admit	-10.0922
uo	-10.0922
▁putting	-10.0931
▁channel	-10.0931
▁requires	-10.0942
▁sy	-10.0946
▁join	-10.0955
▁criminal	-10.0957
▁reach	-10.0969
▁contains	-10.0977
▁creation	-10.0988
▁sales	-10.099
▁standing	-10.0991
toronto	-10.0992
▁sick	-10.1001
<1	-10.1004
▁36	-10.1007
ments	-10.1017
145	-10.1018
phy	-10.1024
vy	-10.1029
▁luck	-10.1039
point	-10.1041
5.1	-10.105
qm	-10.1056
▁mv	-10.1064
nor	-10.1064
▁absolutely	-10.107
sec	-10.1071
▁wings	-10.1078
▁rock	-10.1079
▁failed	-10.108
▁occur	-10.1082
dis	-10.1083
▁select	-10.1088
▁standards	-10.109
gate	-10.1095
▁trans	-10.11
386	-10.1104
▁string	-10.111
▁rates	-10.1113
▁agencies	-10.1121
dos	-10.1125
▁plug	-10.1126
▁features	-10.1132
▁38	-10.1133
▁spot	-10.1143
▁fun	-10.1147
%%	-10.1148
uy	-10.1148
▁totally	-10.115
▁ken	-10.1151
bur	-10.1162
bd	-10.1164
▁75	-10.1166
▁costs	-10.1184
▁holy	-10.1185
▁physical	-10.1186
▁behavior	-10.1188
▁conflict	-10.1188
▁enjoy	-10.1188
▁damage	-10.1188
▁sunday	-10.1191
▁allows	-10.1191
▁1990	-10.1196
your	-10.1203
ake	-10.1205
▁training	-10.1209
uz	-10.1213
▁receive	-10.1213
ient	-10.122
dc	-10.1221
_?	-10.1225
lar	-10.1228
▁jack	-10.123
vent	-10.1234
▁probe	-10.1235
▁individuals	-10.124
/9	-10.1242
▁sequence	-10.1255
▁summer	-10.126
▁contract	-10.1261
caltech	-10.1262
▁interpretation	-10.1263
ned	-10.1285
▁friends	-10.1291
ically	-10.1299
jz	-10.1299
0)	-10.1302
rv	-10.1303
▁answers	-10.1307
▁ham	-10.131
▁europe	-10.1314
▁har	-10.1317
only	-10.1317
eric	-10.1322
▁eternal	-10.1323
▁canadian	-10.1323
▁description	-10.1323
▁proper	-10.1324
▁merely	-10.1324
▁background	-10.1326
would	-10.133
dg	-10.133
▁engineer	-10.1331
ians	-10.1333
look	-10.1336
eq	-10.1338
▁mp	-10.1346
▁ray	-10.1347
▁islam	-10.136
▁attacks	-10.1361
▁arguments	-10.1365
▁weapon	-10.1372
play	-10.1378
▁ke	-10.1381
▁success	-10.139
▁effects	-10.1391
▁rangers	-10.1396
▁//	-10.1397
▁reject	-10.1397
▁direction	-10.1402
▁andrew	-10.1415
▁male	-10.1418
rchz	-10.1418
▁calling	-10.1429
▁(2	-10.1444
▁noticed	-10.1458
▁instance	-10.1461
▁damn	-10.1461
▁specifically	-10.1463
▁cat	-10.1474
▁purchase	-10.1474
vis	-10.1477
type	-10.148
than	-10.1494
rus	-10.1494
▁poster	-10.1497
ij	-10.15
ya	-10.1506
▁vehicle	-10.1507
ure	-10.1508
yes	-10.1518
_*	-10.1523
atho	-10.1528
▁flames	-10.1529
▁favor	-10.1529
▁activities	-10.153
▁management	-10.1531
^/\	-10.1533
▁provides	-10.1534
▁random	-10.1543
▁sites	-10.1544
▁role	-10.1546
his	-10.1546
▁lee	-10.1547
▁semi	-10.156
"`@("`@("`@(	-10.156
▁weight	-10.1565
▁archive	-10.157
▁3)	-10.1571
▁bomb	-10.1575
▁signal	-10.159
gk	-10.1592
▁telephone	-10.16
▁pressure	-10.1602
▁2.0	-10.1605
▁listen	-10.161
▁concerned	-10.1617
▁plane	-10.1623
rmc	-10.1629
▁connect	-10.1634
▁russia	-10.1645
▁feeling	-10.1646
▁scott	-10.1646
map	-10.1648
▁colors	-10.1649
▁myers	-10.1651
▁button	-10.1655
tc	-10.1663
struct	-10.167
2]	-10.1672
▁processing	-10.1672
▁hurt	-10.1676
▁vancouver	-10.1677
▁^	-10.168
access	-10.168
texas	-10.1682
tech	-10.1688
▁crypto	-10.1689
▁born	-10.169
▁mix	-10.1703
astro	-10.1705
▁tri	-10.171
▁weak	-10.1717
▁goals	-10.1729
▁seeing	-10.1733
▁significant	-10.1733
robert	-10.1736
▁nation	-10.1738
7)	-10.1738
▁track	-10.1745
▁1991	-10.1745
▁resolution	-10.1746
press	-10.1748
ces	-10.1748
▁leg	-10.1749
▁added	-10.1754
▁nj	-10.1755
▁7.	-10.1756
▁properly	-10.1756
▁selling	-10.1759
▁ready	-10.176
▁references	-10.176
=7	-10.176
put	-10.1769
▁supported	-10.1774
%!	-10.1783
▁spec	-10.1788
▁muslims	-10.1791
▁motorcycle	-10.1796
▁setting	-10.1799
▁impossible	-10.1813
▁lose	-10.1814
arch	-10.1818
▁paid	-10.182
ob	-10.1821
▁highly	-10.1821
.....	-10.1826
yn	-10.1831
▁---------	-10.1839
▁acts	-10.1852
▁serve	-10.1853
▁developed	-10.1855
▁whom	-10.1857
▁rich	-10.187
▁heat	-10.1871
▁kings	-10.1871
?1	-10.1872
ej	-10.1873
ford	-10.1883
▁traffic	-10.1885
▁draft	-10.1885
[7	-10.1888
▁hd	-10.1891
▁er	-10.1891
▁neutral	-10.1892
▁detroit	-10.1893
▁pull	-10.1894
▁45	-10.1897
▁assuming	-10.1903
▁caused	-10.1909
▁frame	-10.1913
▁perform	-10.1927
='=	-10.1934
▁warrant	-10.1938
▁sk	-10.1945
crypt	-10.1954
]]	-10.1955
▁leafs	-10.1957
▁welcome	-10.1957
▁quadra	-10.1958
▁atheist	-10.1959
free	-10.1962
qr	-10.1968
ohio	-10.197
▁claimed	-10.1983
qv	-10.201
]8	-10.2013
▁66	-10.2018
▁dept	-10.2021
▁laugh	-10.2023
▁thousands	-10.2027
▁functions	-10.203
▁philadelphia	-10.203
▁radar	-10.203
▁became	-10.203
ins	-10.2032
zip	-10.2032
ident	-10.2038
ability	-10.2041
▁blame	-10.2048
▁lie	-10.205
▁----------	-10.206
rf	-10.2065
▁cor	-10.207
(2	-10.2071
▁defend	-10.2072
unix	-10.2075
▁mm	-10.2084
▁bell	-10.2084
▁measure	-10.2084
▁meant	-10.2085
▁bri	-10.2085
rain	-10.2087
cis	-10.209
▁min	-10.2092
▁towards	-10.2098
open	-10.2103
▁eventually	-10.2104
▁mountain	-10.2104
▁solid	-10.2104
▁property	-10.2106
&&	-10.2106
▁jon	-10.2108
bm	-10.2111
▁besides	-10.2115
▁justice	-10.2122
lhz	-10.2123
cha	-10.2131
0.00	-10.2133
▁shown	-10.2134
▁root	-10.2135
▁somehow	-10.2136
▁wave	-10.2137
▁tool	-10.2143
▁scan	-10.2158
▁defined	-10.2169
▁div	-10.2175
▁proceed	-10.2177
▁comparison	-10.2178
▁bre	-10.2181
jim	-10.2183
▁sufficient	-10.2184
+'	-10.2189
thanks	-10.2191
▁match	-10.2191
▁session	-10.2197
&%	-10.22
dle	-10.2202
xt	-10.2207
▁vo	-10.2218
ui	-10.2219
▁follows	-10.2221
▁recommend	-10.2221
▁patients	-10.2234
zy	-10.2243
▁banks	-10.2248
▁sm	-10.2251
▁attitude	-10.2252
▁agency	-10.2253
▁1988	-10.226
▁compare	-10.2276
>%	-10.2283
hand	-10.2289
▁85	-10.2296
sgi	-10.2297
▁changes	-10.2306
0,000	-10.2319
▁positive	-10.2328
ose	-10.2329
▁eyes	-10.2329
▁distribution	-10.2331
▁accepted	-10.2332
nj	-10.2334
▁los	-10.2336
▁brad	-10.2336
bnr	-10.2338
yu	-10.234
▁humans	-10.2341
kin	-10.2349
▁res	-10.2352
▁sta	-10.2354
▁temp	-10.2366
mir	-10.2382
▁map	-10.2385
<4	-10.2391
math	-10.2395
stitution	-10.2401
▁australia	-10.2403
▁visit	-10.2404
▁immediately	-10.2409
ological	-10.2411
▁band	-10.2415
list	-10.2418
chicago	-10.2418
think	-10.2419
▁finding	-10.2421
▁proposed	-10.2422
▁6.	-10.2438
uv	-10.2442
▁300	-10.2442
+\	-10.2442
▁fail	-10.2448
▁animals	-10.2448
uci	-10.245
▁organizations	-10.2451
pet	-10.2453
ect	-10.2456
▁(2)	-10.2457
▁waste	-10.246
▁initial	-10.2471
▁suggested	-10.2477
▁energy	-10.248
▁budget	-10.248
▁morning	-10.248
▁fool	-10.2483
▁disks	-10.2487
▁hello	-10.249
▁roman	-10.2492
power	-10.2495
▁8-	-10.2496
zer	-10.2497
`0	-10.2499
▁missing	-10.2502
▁ye	-10.2507
py	-10.251
---------------+	-10.2513
/93	-10.2526
▁obtain	-10.2526
lm	-10.2527
▁log	-10.2529
og	-10.2535
▁mj	-10.2538
▁nec	-10.2555
▁telling	-10.2555
▁responsibility	-10.2557
▁attention	-10.2557
▁committed	-10.2558
▁everybody	-10.2558
▁pgp	-10.2558
▁spring	-10.2559
▁48	-10.2561
▁seven	-10.257
▁def	-10.2572
good	-10.2579
▁qua	-10.258
▁ep	-10.258
"%	-10.259
▁roll	-10.2594
wn	-10.2596
▁screw	-10.2604
▁rick	-10.2609
▁3-	-10.2613
god	-10.2615
3.1	-10.2631
form	-10.2631
▁apartment	-10.2636
<<	-10.2639
▁generation	-10.2642
▁greater	-10.2651
▁reduce	-10.2657
place	-10.2658
▁disclaimer	-10.2661
▁proof	-10.2667
▁pub	-10.2668
▁client	-10.2668
▁abuse	-10.267
▁score	-10.2671
▁pope	-10.268
▁pages	-10.268
▁fat	-10.2689
%=	-10.2691
▁larger	-10.2693
▁bother	-10.2695
▁facts	-10.2696
long	-10.2697
▁mf	-10.2711
▁hospital	-10.2712
▁medicine	-10.2712
▁speech	-10.2712
▁mx	-10.2719
serv	-10.272
▁cache	-10.2726
▁$2	-10.2741
▁install	-10.2745
▁connected	-10.2746
ou	-10.2751
▁meeting	-10.2753
<'!	-10.2758
▁42	-10.2763
▁fully	-10.2766
▁sho	-10.2766
8\	-10.2768
▁arabs	-10.2781
▁yesterday	-10.2791
▁easier	-10.2791
▁scheme	-10.2791
▁secretary	-10.2794
▁core	-10.2794
▁professional	-10.2796
dal	-10.2798
▁setup	-10.2806
ncr	-10.2811
may	-10.2811
uring	-10.2812
down	-10.2812
ement	-10.2815
▁replace	-10.2816
ium	-10.2817
0<	-10.2825
▁-------	-10.2826
▁marc	-10.2831
▁planet	-10.2845
▁wood	-10.2847
▁experiment	-10.2848
▁destroy	-10.2851
▁ban	-10.2851
▁whi	-10.2853
▁regards	-10.2859
▁feet	-10.2861
▁percent	-10.2869
▁possibility	-10.287
▁complex	-10.287
stratus	-10.287
▁cb	-10.2876
▁comm	-10.2877
▁owners	-10.2878
▁gotten	-10.2878
itive	-10.2878
5%1	-10.2881
▁journal	-10.2882
fj	-10.2884
▁montreal	-10.2885
▁definitely	-10.2886
--------------	-10.2887
▁dark	-10.2893
▁seat	-10.2895
▁sit	-10.2895
box	-10.2901
vx	-10.2902
▁+-----------	-10.2906
gn	-10.2907
stra	-10.2937
▁active	-10.2941
call	-10.2948
▁external	-10.295
▁translation	-10.295
▁deserve	-10.2951
▁foot	-10.2951
▁capable	-10.2954
▁accurate	-10.2958
45%1	-10.2961
▁existing	-10.297
▁74	-10.297
▁detector	-10.2971
▁quickly	-10.2974
471	-10.2985
*+	-10.2987
dige	-10.2993
▁detect	-10.2999
▁burn	-10.3007
qk	-10.3014
ini	-10.3018
▁bank	-10.302
fq	-10.3024
▁tech	-10.3024
▁ticket	-10.3031
▁sample	-10.3031
▁moving	-10.3032
▁angeles	-10.3033
eu	-10.3037
tan	-10.3043
<=	-10.3049
ze	-10.3058
▁released	-10.3059
▁rose	-10.3061
▁rider	-10.3064
3.2	-10.3068
ku	-10.3075
▁trip	-10.3077
900	-10.308
▁azerbaijani	-10.3087
vl	-10.3089
^&	-10.3097
▁compared	-10.3106
(4	-10.3107
▁english	-10.3112
▁libertarian	-10.3112
▁nuclear	-10.3112
▁carried	-10.3112
▁heavy	-10.3112
▁postscript	-10.3114
▁okay	-10.3114
▁professor	-10.3116
sco	-10.3117
▁reaction	-10.312
47=	-10.312
▁discuss	-10.3127
(5	-10.3128
$1	-10.3131
michael	-10.3132
ject	-10.3134
▁cold	-10.3137
6/	-10.3139
▁mk	-10.3149
?7	-10.316
▁louis	-10.3172
ular	-10.3194
▁defensive	-10.3194
▁worship	-10.3194
ski	-10.3198
▁excuse	-10.3202
%<	-10.3205
▁older	-10.3209
load	-10.3209
▁stage	-10.3211
please	-10.3218
▁scale	-10.3219
▁shift	-10.3219
aj	-10.3226
amp	-10.3231
hf	-10.3232
▁showed	-10.3247
▁staff	-10.325
▁plant	-10.3253
▁regard	-10.3254
▁cro	-10.3256
▁44	-10.3261
▁toward	-10.3269
>>	-10.3279
▁status	-10.328
▁flyers	-10.3281
▁anywhere	-10.3289
▁cities	-10.329
1/	-10.3296
▁content	-10.3296
virginia	-10.3298
▁pixel	-10.3298
▁joseph	-10.3299
▁electrical	-10.33
yd	-10.3307
▁cur	-10.3307
▁ps	-10.3309
▁bmw	-10.3311
pan	-10.3314
paul	-10.3316
▁recognize	-10.3319
▁tradition	-10.3321
\/	-10.3345
?%	-10.3347
▁processor	-10.3348
▁exact	-10.3349
▁saved	-10.3351
ich	-10.3355
▁causes	-10.3356
▁collect	-10.336
▁curious	-10.3361
▁pointed	-10.3362
▁happening	-10.3364
▁;	-10.3366
▁winner	-10.3368
vb	-10.3373
▁length	-10.3379
cri	-10.3382
christian	-10.3383
▁92	-10.3385
▁cheaper	-10.3385
lab	-10.3387
▁alive	-10.3396
lie	-10.3398
window	-10.34
▁(1)	-10.3411
▁hill	-10.3415
+@	-10.3419
▁pl	-10.3419
▁hol	-10.342
<5	-10.3429
▁offers	-10.3429
jpl	-10.3437
std	-10.3439
ecs	-10.3441
▁complain	-10.3443
▁[...]	-10.3445
▁compound	-10.3445
▁cubs	-10.3446
▁mary	-10.345
▁encrypted	-10.3457
▁solar	-10.3466
▁cu	-10.3467
▁rid	-10.3467
bus	-10.3471
oj	-10.3471
msu	-10.3476
row	-10.3496
▁photo	-10.3504
tim	-10.351
rob	-10.3511
_|	-10.3511
▁gary	-10.3511
&!	-10.3519
▁pack	-10.3522
▁matt	-10.3524
▁fonts	-10.3526
▁prior	-10.3526
▁cipher	-10.3529
▁helmet	-10.3529
▁legitimate	-10.3529
▁strange	-10.3533
▁massacre	-10.3536
▁gold	-10.3545
,8>'	-10.3553
▁compatible	-10.3554
▁dog	-10.3554
▁stone	-10.3563
6$	-10.3572
▁davidian	-10.3573
▁ze	-10.3573
▁tro	-10.3576
je	-10.3589
▁800	-10.3594
try	-10.3607
▁camp	-10.3608
add	-10.3614
▁universe	-10.3615
pen	-10.3616
▁72	-10.3618
▁motor	-10.362
)=	-10.3632
uww	-10.3634
-10	-10.3635
▁music	-10.3635
▁cop	-10.3636
where	-10.3636
people	-10.3639
▁piece	-10.3651
▁8.	-10.3651
$9	-10.3657
▁keeping	-10.3658
?2	-10.3665
▁raised	-10.3666
atic	-10.367
▁islamic	-10.3673
▁bla	-10.3673
6)	-10.3682
0.1	-10.3687
▁hey	-10.3691
2.1	-10.3693
▁typical	-10.3697
▁villages	-10.3699
4!	-10.37
▁deep	-10.37
▁penalty	-10.3701
▁historical	-10.3701
▁announced	-10.3701
▁motorola	-10.3701
▁wiring	-10.3702
▁mag	-10.3704
▁cancer	-10.3704
▁jose	-10.371
▁wheel	-10.3716
rec	-10.3717
▁bay	-10.372
▁benefit	-10.3723
▁jason	-10.3724
▁\\	-10.373
▁batf	-10.373
usr	-10.373
book	-10.373
umd	-10.3738
km	-10.374
▁68	-10.3744
▁mostly	-10.3756
▁tele	-10.376
&9	-10.376
▁waiting	-10.3768
▁cops	-10.3778
gq	-10.3781
kj	-10.3783
▁custom	-10.3784
bin	-10.3785
▁\/	-10.3787
▁prohibit	-10.3788
▁daughter	-10.3788
▁lebanese	-10.3788
▁rear	-10.3788
▁seemed	-10.3789
▁ottoman	-10.3789
▁laser	-10.3792
gm	-10.3792
▁methods	-10.3793
▁slightly	-10.3795
los	-10.3795
▁supports	-10.3796
▁origin	-10.3801
-(	-10.3805
▁buffer	-10.3807
▁#1	-10.3807
▁--------------	-10.381
pd	-10.3814
▁pal	-10.3814
output	-10.3815
▁cycle	-10.3817
about	-10.3819
▁fra	-10.3837
▁gen	-10.3843
▁jr	-10.3843
▁becomes	-10.3843
▁grow	-10.3847
▁wi	-10.385
▁topic	-10.3852
rz	-10.3857
▁shoot	-10.3857
***	-10.3861
yf	-10.3862
▁500	-10.3868
▁blow	-10.3869
mph	-10.3873
run	-10.3874
▁explanation	-10.3875
▁bottom	-10.3875
▁worry	-10.3875
▁knowing	-10.3876
▁converter	-10.3883
inter	-10.3888
▁movement	-10.3891
▁****	-10.3892
▁solve	-10.3894
▁0.4	-10.3899
▁bm	-10.39
rlhz	-10.3904
▁somewhat	-10.3921
-----------	-10.3926
▁plain	-10.3928
wk	-10.3928
cf	-10.3928
▁nazi	-10.3928
csd	-10.3929
ugh	-10.3931
$$	-10.3933
▁repeat	-10.3934
▁replaced	-10.3937
▁mat	-10.3939
iq	-10.3947
#7	-10.3949
▁jan	-10.3952
▁01	-10.3954
)"6	-10.3956
▁compromise	-10.3964
▁doctrine	-10.3964
▁british	-10.3964
▁consistent	-10.3966
▁coach	-10.3969
▁suck	-10.3973
▁accelerator	-10.3974
▁editor	-10.3974
700	-10.3976
andy	-10.3979
take	-10.3986
▁missed	-10.3988
▁organized	-10.3989
▁>#	-10.3991
chris	-10.3998
▁stream	-10.3999
▁shots	-10.3999
▁associated	-10.3999
▁nearly	-10.4003
▁plot	-10.4008
##	-10.4013
\_./	-10.4014
256	-10.4022
▁det	-10.4034
▁mars	-10.4038
ground	-10.4039
/%	-10.4047
nne	-10.405
▁65	-10.4051
vic	-10.4053
▁forces	-10.4053
▁cambridge	-10.4053
jx	-10.4054
▁compression	-10.4055
▁offense	-10.4057
▁trick	-10.406
vw	-10.4065
mr	-10.4074
▁stephen	-10.408
washington	-10.4081
▁backup	-10.4083
▁ml	-10.4085
▁bytes	-10.4087
▁surprised	-10.4095
mag	-10.4096
____________	-10.41
/'-	-10.4102
freenet	-10.4108
▁0.5	-10.4122
▁cool	-10.4127
▁sur	-10.4132
▁playoffs	-10.4139
▁usual	-10.4141
▁floor	-10.4143
mcgill	-10.4143
▁foreign	-10.4143
▁activity	-10.4144
▁felt	-10.4144
▁brief	-10.4144
▁credit	-10.4144
llo	-10.4144
▁stanley	-10.4144
▁database	-10.4145
▁documentation	-10.4149
▁guide	-10.415
▁eight	-10.4152
▁=============	-10.4155
;7	-10.4155
▁microsoft	-10.4157
▁pray	-10.4163
rich	-10.4167
▁william	-10.4168
▁00	-10.4169
▁4-	-10.417
▁walk	-10.4171
▁henry	-10.4173
wood	-10.4174
define	-10.4175
▁46	-10.4181
▁ahead	-10.4185
▁colorado	-10.4205
▁1024	-10.4205
▁mhz	-10.4206
▁gre	-10.4208
mode	-10.4209
▁lived	-10.4224
ros	-10.4232
▁smoke	-10.4233
▁mod	-10.4234
/\/\/\/\/\/\/\/\	-10.4234
▁;-)	-10.4235
▁firm	-10.4237
▁minority	-10.4239
▁despite	-10.4242
▁decent	-10.4243
▁bat	-10.4244
▁messages	-10.4247
▁interpret	-10.4251
colorado	-10.4264
▁dollars	-10.4268
▁<93	-10.4269
phil	-10.4273
[8	-10.4274
▁lay	-10.4275
9&	-10.428
ace	-10.4282
▁logical	-10.4284
▁versions	-10.4286
.734	-10.4287
▁61	-10.4302
ott	-10.4306
▁41	-10.4308
▁depends	-10.4316
▁ter	-10.4317
qx	-10.4317
.93	-10.4318
▁-------------	-10.4319
▁fly	-10.4321
▁director	-10.4324
▁prophet	-10.4326
▁expansion	-10.4326
▁intelligence	-10.4326
▁relationship	-10.4326
▁spacecraft	-10.4327
▁winning	-10.4331
▁huge	-10.4332
▁flow	-10.4339
▁pit	-10.4342
mf	-10.4345
die	-10.4345
||	-10.4346
▁automatic	-10.4348
▁larry	-10.4349
▁warning	-10.4351
▁employer	-10.4352
▁fer	-10.4353
▁owner	-10.4356
▁bull	-10.4357
▁statements	-10.4358
ties	-10.4359
2/	-10.4371
▁94	-10.4372
gcx	-10.4374
650	-10.4382
ox	-10.4388
char	-10.4394
▁43	-10.4396
▁followed	-10.4404
▁jump	-10.4407
▁counter	-10.4407
▁moved	-10.4411
lis	-10.4414
▁relative	-10.4415
dk	-10.4417
▁century	-10.4418
▁truck	-10.4418
▁computing	-10.4419
▁georgia	-10.4419
▁distance	-10.4419
▁ser	-10.4422
▁remind	-10.4423
▁fuel	-10.4423
▁cap	-10.4427
▁items	-10.4428
▁49	-10.4428
tg	-10.443
▁grand	-10.4433
uq	-10.4439
mann	-10.4441
▁gordon	-10.4444
▁speaker	-10.4446
american	-10.445
▁belong	-10.4465
fb	-10.4468
▁firearm	-10.447
/1	-10.4471
▁menu	-10.4474
▁drink	-10.4479
▁drawing	-10.4483
▁uk	-10.4489
8:	-10.449
▁career	-10.4494
ima	-10.4494
▁lc	-10.4497
▁pitch	-10.4506
▁pop	-10.4507
▁impact	-10.4512
▁branch	-10.4512
▁wiretap	-10.4512
imp	-10.4513
▁stopped	-10.4513
▁copies	-10.4514
▁shut	-10.4514
magnus	-10.4517
image	-10.4524
ries	-10.4525
▁cramer	-10.4529
▁hearing	-10.453
▁mistake	-10.4531
erson	-10.4532
▁culture	-10.4532
9`	-10.4536
▁funds	-10.4538
4%	-10.454
▁bug	-10.455
▁raise	-10.4554
cons	-10.4556
▁ring	-10.4556
▁armed	-10.4562
▁tony	-10.4566
▁1.2	-10.4568
udel	-10.457
▁surely	-10.4571
lee	-10.4571
data	-10.4574
sky	-10.458
write	-10.4581
▁showing	-10.4586
bill	-10.4587
mat	-10.4589
▁rom	-10.4589
%:	-10.4591
ery	-10.4604
▁threat	-10.4605
▁afraid	-10.4606
▁parallel	-10.4606
?=	-10.4608
▁forgot	-10.461
▁tt	-10.4611
▁55	-10.4611
▁para	-10.4613
▁hardly	-10.4614
▁seattle	-10.4615
▁rod	-10.4615
mination	-10.4617
▁51	-10.4618
^^^^^^^^^^^^^^^	-10.4619
=============	-10.4622
▁anymore	-10.4625
▁camera	-10.4625
▁perfectly	-10.4629
exe	-10.4629
▁concerning	-10.4631
▁postings	-10.4636
▁kit	-10.4642
▁remove	-10.4646
pound	-10.4648
▁math	-10.4648
▁nc	-10.4654
mike	-10.4658
▁3.0	-10.4658
rma	-10.4665
say	-10.4667
aq	-10.4669
#!	-10.4669
▁nick	-10.467
▁db	-10.4676
▁honest	-10.4687
17-	-10.4688
high	-10.4693
▁swap	-10.4695
▁pet	-10.4698
lim	-10.4701
▁gateway	-10.4702
▁henrik	-10.4702
=&	-10.4703
▁sentence	-10.4705
▁buck	-10.4707
▁aids	-10.471
16.1	-10.471
▁adam	-10.471
make	-10.4711
▁electronics	-10.4712
gatech	-10.4714
▁shape	-10.4715
▁mono	-10.4716
ram	-10.4717
▁terminal	-10.472
▁gang	-10.4721
ala	-10.4722
▁\_	-10.4726
▁sheet	-10.4726
▁kevin	-10.4726
mate	-10.473
▁shop	-10.4731
draw	-10.4734
ense	-10.474
alt	-10.4753
dea	-10.4753
▁iii	-10.4753
▁fu	-10.4758
aries	-10.4759
pass	-10.4761
▁der	-10.4762
▁religions	-10.4763
▁feed	-10.4786
▁era	-10.4795
know	-10.4796
▁mechanism	-10.4798
▁newspaper	-10.4798
optilink	-10.4798
▁configuration	-10.4798
▁ultra	-10.4798
▁stock	-10.4798
▁crash	-10.4798
▁began	-10.48
▁caught	-10.4801
▁pot	-10.4801
▁frequently	-10.4809
▁cult	-10.4812
▁sleep	-10.4823
▁touch	-10.4823
▁demo	-10.4825
▁exception	-10.4837
scott	-10.4841
▁modes	-10.4845
▁mad	-10.4845
eth	-10.4848
^-)	-10.4849
kjz	-10.486
ese	-10.4864
rose	-10.4864
▁affect	-10.4865
▁bor	-10.487
768	-10.4877
▁hr	-10.4879
▁onto	-10.4881
▁hole	-10.4882
▁virtual	-10.4891
▁lebanon	-10.4895
▁marriage	-10.4895
▁truly	-10.4895
▁stories	-10.4895
▁location	-10.4895
▁focus	-10.4895
▁puck	-10.4895
▁authorities	-10.4896
▁harm	-10.4898
```	-10.49
▁coverage	-10.4901
▁parents	-10.4902
▁fill	-10.491
▁sky	-10.491
▁stats	-10.4911
nal	-10.492
word	-10.4921
▁pad	-10.4922
▁corner	-10.4924
uok	-10.4929
▁dev	-10.4932
▁xlib	-10.4933
▁tear	-10.4939
brian	-10.4941
ants	-10.4952
\5	-10.4955
vol	-10.4955
▁sat	-10.4958
▁desire	-10.496
▁levels	-10.4963
▁watching	-10.4964
>&	-10.4971
ison	-10.4973
ecn	-10.4978
▁***************	-10.4978
▁bush	-10.4985
▁formats	-10.4992
199	-10.4992
▁equivalent	-10.4993
▁revolver	-10.4993
▁gospel	-10.4993
▁danger	-10.4993
▁failure	-10.4993
▁sector	-10.4994
▁honor	-10.4995
▁punishment	-10.4995
*"	-10.5
▁quotes	-10.5004
▁vlb	-10.5004
▁univ	-10.5006
▁fellow	-10.5007
▁domain	-10.5008
▁pair	-10.501
▁parties	-10.5014
▁fee	-10.5015
▁operations	-10.5016
though	-10.5019
nic	-10.503
screen	-10.503
cn	-10.503
stu	-10.503
▁riding	-10.5032
▁involve	-10.5034
+!	-10.5039
rated	-10.5046
rog	-10.5053
▁strip	-10.506
▁leading	-10.5062
▁39	-10.5062
4^	-10.5064
ville	-10.5066
▁wind	-10.5078
▁gar	-10.5086
▁procedure	-10.5092
▁1-800-	-10.5092
▁applied	-10.5092
▁voltage	-10.5092
▁reflect	-10.5092
▁troops	-10.5092
▁travel	-10.5092
▁amiga	-10.5092
▁francisco	-10.5093
▁violation	-10.5094
▁azeri	-10.5095
▁taxes	-10.5111
ign	-10.5111
7?1	-10.5114
#>	-10.5124
▁style	-10.513
▁fixed	-10.5139
kb	-10.5141
here	-10.5146
#=	-10.5147
▁correctly	-10.5159
-"<	-10.5161
▁2.5	-10.517
▁indicate	-10.5174
▁steven	-10.5182
▁island	-10.5183
user	-10.5186
▁cooper	-10.5188
2$	-10.5191
cbnews	-10.5196
▁commit	-10.5196
▁collection	-10.5199
▁sport	-10.5204
dz	-10.5206
]1	-10.5206
nist	-10.5214
yk	-10.5215
▁rev	-10.5215
tle	-10.5219
▁boxes	-10.5221
▁mess	-10.5228
lc	-10.5229
system	-10.5231
▁tre	-10.5231
include	-10.5231
▁prices	-10.5238
▁gear	-10.5242
▁brother	-10.5257
cut	-10.5258
path	-10.5262
▁$100	-10.5263
550	-10.5272
mas	-10.5272
ua	-10.528
▁speaking	-10.5285
▁encourage	-10.5293
▁revelation	-10.5293
▁filter	-10.5293
▁twice	-10.5293
▁mouth	-10.5293
▁imply	-10.5294
fei	-10.5294
▁restrict	-10.5297
▁tie	-10.5298
▁purposes	-10.53
ons	-10.5305
ease	-10.5306
▁central	-10.5307
▁deny	-10.5308
3/	-10.5311
==]	-10.5312
▁efforts	-10.5317
lcs	-10.5318
▁established	-10.5319
▁connector	-10.532
▁tower	-10.5321
▁normally	-10.5322
▁reasoning	-10.5322
▁powerful	-10.5323
hc	-10.5323
level	-10.5332
▁ryan	-10.5333
▁guarantee	-10.5346
▁1/2	-10.5352
▁qui	-10.5357
shell	-10.5368
▁spoke	-10.5369
▁rain	-10.5376
`=	-10.538
▁tank	-10.538
did	-10.5381
oy	-10.5387
▁insist	-10.5387
bert	-10.5391
▁cryptography	-10.5395
▁relevant	-10.5395
▁senior	-10.5395
▁blind	-10.5395
▁crack	-10.5397
▁zone	-10.5401
▁guilty	-10.5402
▁implementation	-10.5403
▁practical	-10.5403
live	-10.5404
stan	-10.5408
^>/	-10.541
▁mor	-10.5413
▁57	-10.5414
▁opposed	-10.5417
;*	-10.5419
tq	-10.5422
jh	-10.5424
▁shooting	-10.5433
▁stars	-10.5434
▁nut	-10.5448
▁ship	-10.5448
▁fighting	-10.545
▁diet	-10.545
)2	-10.5455
cz	-10.5465
▁degree	-10.5467
▁minute	-10.5468
such	-10.5468
/\	-10.5473
▁conditions	-10.5473
law	-10.5475
▁carrying	-10.5476
▁mg	-10.5476
!!!!	-10.5484
▁publication	-10.5489
▁testament	-10.5498
▁laboratory	-10.5498
▁split	-10.5498
▁battle	-10.5498
▁movie	-10.5499
▁girl	-10.5499
▁adult	-10.55
▁train	-10.5503
/$4\	-10.5506
▁/|	-10.5509
nie	-10.5511
▁sending	-10.5511
▁odd	-10.5512
▁patrick	-10.5518
▁colormap	-10.552
5.2	-10.5522
▁$5	-10.5522
▁adams	-10.5528
▁exit	-10.5531
▁physics	-10.5532
fully	-10.5536
size	-10.554
cv	-10.554
lay	-10.5541
▁brown	-10.5542
?!	-10.5544
▁civilians	-10.5545
using	-10.5548
▁pd	-10.555
▁hiv	-10.5557
gif	-10.5557
▁edit	-10.5558
very	-10.5564
8%	-10.5571
▁lists	-10.5572
2=	-10.5592
▁careful	-10.5592
▁region	-10.5594
▁reform	-10.5595
▁helps	-10.5599
▁familiar	-10.5602
▁investigation	-10.5602
▁providing	-10.5602
▁lewis	-10.5602
▁operating	-10.5602
▁braves	-10.5603
▁greeks	-10.5603
▁afford	-10.5603
▁jets	-10.5603
▁starts	-10.5607
▁satan	-10.5608
▁palestine	-10.561
▁essentially	-10.5612
`2	-10.5614
▁officers	-10.5614
▁turbo	-10.5617
_8	-10.5622
▁increased	-10.5622
▁holding	-10.5623
7>%	-10.5625
▁saturn	-10.5628
▁tur	-10.5631
1#	-10.5631
▁examples	-10.5632
▁audio	-10.5635
▁irq	-10.5635
▁fund	-10.5635
.......	-10.5639
▁amp	-10.5642
cit	-10.5644
after	-10.5645
note	-10.5646
▁len	-10.5653
▁consideration	-10.5656
hard	-10.5656
▁flat	-10.5669
▁cs	-10.5674
▁hasn	-10.5677
8+	-10.5688
▁wild	-10.5689
7;	-10.569
▁02	-10.5691
▁ol	-10.5692
3;	-10.5696
▁86	-10.5696
11/	-10.5701
▁pm	-10.5703
▁gt	-10.5707
▁exercise	-10.5707
▁surrender	-10.5707
▁variety	-10.5707
▁achieve	-10.5707
▁association	-10.5707
▁ottawa	-10.5707
▁french	-10.5707
▁stereo	-10.5707
▁ensure	-10.571
▁bound	-10.5711
▁reverse	-10.5712
▁spell	-10.5713
▁winnipeg	-10.5714
;0	-10.5717
ola	-10.5718
▁manner	-10.5719
▁tube	-10.5721
▁advanced	-10.5722
zoo	-10.5725
/-$\	-10.5726
meter	-10.5732
▁adapter	-10.5735
▁ec	-10.5735
=$\	-10.574
▁fired	-10.5745
vms	-10.575
▁push	-10.575
▁foundation	-10.5757
▁ignore	-10.5758
count	-10.5759
▁*****	-10.5766
5]	-10.5768
rop	-10.577
vc	-10.577
tti	-10.5771
";	-10.5773
▁:-	-10.5785
qj	-10.5786
+%	-10.5787
also	-10.5795
▁weren	-10.5798
▁ports	-10.5804
▁roads	-10.5813
▁changing	-10.5814
▁opportunity	-10.5814
▁invest	-10.5814
▁worst	-10.5814
▁greece	-10.5814
▁annual	-10.5814
8&	-10.5817
▁sides	-10.5817
▁glad	-10.582
▁53	-10.5827
▁johnson	-10.583
▁label	-10.5837
▁depth	-10.584
▁atlanta	-10.5845
=2	-10.585
2%	-10.5852
▁metal	-10.5853
▁ven	-10.5855
▁noise	-10.5855
▁5-	-10.5856
▁fpu	-10.5857
▁yo	-10.5858
/$5%	-10.5859
fg	-10.5862
▁73	-10.5866
▁generate	-10.5866
related	-10.587
-------------+	-10.587
ius	-10.5872
ji	-10.5872
▁occurs	-10.5874
hn	-10.5876
gre	-10.5878
etc	-10.5882
never	-10.5896
▁readers	-10.5897
▁smaller	-10.5899
ene	-10.5902
sign	-10.5902
14.1	-10.5912
▁cell	-10.5916
▁extension	-10.5921
▁newsletter	-10.5921
▁platform	-10.5921
▁birth	-10.5921
▁expand	-10.5921
purdue	-10.5922
alaska	-10.5922
▁scoring	-10.5922
▁debate	-10.5922
145%	-10.5926
▁reserve	-10.5928
▁waco	-10.5929
▁edition	-10.5929
▁cheers	-10.5931
▁minnesota	-10.5931
▁presented	-10.5933
fx	-10.5935
▁phrase	-10.5938
▁martin	-10.5943
▁wing	-10.5951
▁fla	-10.5954
kr	-10.596
▁thu	-10.5965
ball	-10.5968
since	-10.597
onian	-10.5979
▁56	-10.5983
biz	-10.5984
▁differences	-10.599
----------	-10.5994
5.00	-10.5997
▁learned	-10.5999
▁scored	-10.5999
pk	-10.6001
=0	-10.6002
▁icon	-10.6004
*"@	-10.6004
server	-10.601
▁feature	-10.6012
▁250	-10.6012
▁constant	-10.6016
-02	-10.6016
▁quoted	-10.6026
mh	-10.6026
▁homosexual	-10.6028
▁challenge	-10.603
▁conclude	-10.603
▁plastic	-10.603
▁toolkit	-10.603
▁visible	-10.603
▁resistance	-10.6031
lp	-10.6033
▁contest	-10.6034
▁stat	-10.6036
▁macintosh	-10.6037
▁handling	-10.604
▁1989	-10.604
▁eli	-10.6042
▁gi	-10.6045
rey	-10.6053
▁bruce	-10.6053
each	-10.6058
▁mil	-10.6059
text	-10.6063
▁/\	-10.6066
▁overall	-10.6066
indiana	-10.6068
▁programmer	-10.6072
acc	-10.608
last	-10.6085
▁pur	-10.6087
sci	-10.6102
temp	-10.6104
▁register	-10.6109
▁91	-10.611
▁leaders	-10.6123
▁fred	-10.6137
▁disappear	-10.614
▁pixmap	-10.614
▁ontario	-10.614
▁statistics	-10.614
▁progress	-10.6143
▁devils	-10.6144
ada	-10.6147
sdpa	-10.615
▁lady	-10.6153
▁prime	-10.6154
▁projects	-10.6163
tel	-10.6163
▁loop	-10.6168
▁pipe	-10.6169
▁$10	-10.6177
rts	-10.6186
clipper	-10.6189
▁convince	-10.6195
duke	-10.6198
ncy	-10.6205
▁km	-10.6208
▁intel	-10.6212
▁factor	-10.622
▁wars	-10.6228
onic	-10.623
▁citizen	-10.6237
▁prison	-10.6247
greg	-10.625
▁attorney	-10.6251
▁economy	-10.6251
▁mirror	-10.6251
▁protocol	-10.6251
▁estimate	-10.6251
▁arrest	-10.6251
▁slot	-10.6252
▁morris	-10.6252
___	-10.6253
▁funny	-10.6253
▁finger	-10.6254
▁believed	-10.6258
▁permit	-10.6258
▁shit	-10.6258
auto	-10.6258
▁extremely	-10.6261
▁returned	-10.6263
▁kid	-10.6265
▁wins	-10.6268
▁broken	-10.6272
▁craig	-10.6276
(>	-10.6276
position	-10.6278
▁tap	-10.628
▁soft	-10.6281
talk	-10.6283
▁76	-10.6285
▁paint	-10.6291
▁wal	-10.6294
▁tests	-10.6295
ccu	-10.6298
▁interests	-10.63
keith	-10.6302
jon	-10.6303
sorry	-10.6303
▁catch	-10.6303
▁officials	-10.6305
usenet	-10.6308
▁update	-10.6309
▁hal	-10.6315
stein	-10.6332
▁lights	-10.6355
▁biblical	-10.6363
▁offensive	-10.6363
▁variable	-10.6363
▁pattern	-10.6363
▁replies	-10.6363
▁honda	-10.6363
▁module	-10.6363
▁horse	-10.6364
▁scientists	-10.6364
▁interview	-10.6366
▁task	-10.6367
▁monitors	-10.6368
▁customer	-10.6368
***************	-10.6369
▁patent	-10.6371
▁unlikely	-10.6372
▁$3	-10.6372
▁hook	-10.6372
ym	-10.6373
:$	-10.6373
▁caps	-10.6374
▁murray	-10.6376
cad	-10.6383
--------	-10.6385
▁echo	-10.6386
▁helpful	-10.6387
mic	-10.6392
vg	-10.6405
@$	-10.6413
▁paying	-10.6418
▁schedule	-10.6421
▁june	-10.643
bat	-10.6437
▁4)	-10.6441
7'	-10.6441
=%%	-10.6442
astate	-10.6451
▁dma	-10.6454
▁71	-10.6458
?;	-10.6458
ao	-10.6463
="	-10.6467
▁110	-10.6467
bz	-10.6467
▁assumption	-10.6467
main	-10.6472
▁february	-10.6477
▁circle	-10.6477
▁chapter	-10.6477
▁survey	-10.6477
▁bodies	-10.6477
▁summary	-10.6478
ade	-10.6484
▁parent	-10.6486
/4	-10.6488
adobe	-10.6498
▁calgary	-10.6498
▁tells	-10.6499
▁passes	-10.6499
3.0	-10.6502
7!	-10.651
▁supposedly	-10.6512
fdz	-10.6516
▁discussed	-10.652
▁##	-10.652
colo	-10.6524
gress	-10.6531
because	-10.6532
▁mask	-10.6536
speed	-10.6537
master	-10.6541
▁tough	-10.6543
7[	-10.6544
▁matters	-10.6544
▁turns	-10.6571
]_	-10.6577
▁120	-10.6586
▁fle	-10.6587
▁alan	-10.6587
▁violent	-10.6592
▁vendor	-10.6592
▁daily	-10.6592
▁exchange	-10.6592
▁repair	-10.6593
jack	-10.6594
▁lift	-10.6597
▁fri	-10.6597
code	-10.6599
▁palestinian	-10.6599
▁offered	-10.6599
▁broadcast	-10.66
hit	-10.66
▁regardless	-10.6601
▁covered	-10.6605
▁hence	-10.6605
▁operate	-10.6609
▁discovered	-10.6609
4.1	-10.661
▁closer	-10.6611
fy	-10.6611
▁latter	-10.6614
▁77	-10.6615
▁bow	-10.6623
▁sandvik	-10.6628
▁pla	-10.6628
▁elements	-10.6635
these	-10.6638
▁88	-10.6639
▁nations	-10.6644
▁improve	-10.6647
james	-10.6647
athena	-10.6647
▁strongly	-10.6649
maybe	-10.665
%&	-10.6655
▁clients	-10.6658
▁prop	-10.6661
▁hide	-10.6663
▁joke	-10.6665
▁lies	-10.6665
tions	-10.6668
%2	-10.667
▁award	-10.6671
*<	-10.6674
*=	-10.6675
▁bios	-10.6676
▁responses	-10.6678
cla	-10.6681
▁6,	-10.6688
▁analog	-10.6692
$!	-10.6697
nh	-10.6699
▁talks	-10.6701
rj	-10.6701
▁lan	-10.6701
▁hundred	-10.6705
▁priest	-10.6708
▁ignorance	-10.6708
▁technologies	-10.6708
▁talent	-10.6709
▁mamma	-10.6709
▁survive	-10.671
▁taste	-10.671
▁planetary	-10.6711
its	-10.6714
▁liar	-10.6716
▁shi	-10.6718
▁officer	-10.6719
▁produced	-10.6729
▁1:	-10.6729
ander	-10.673
rice	-10.6733
▁insert	-10.6734
[]	-10.6734
▁daniel	-10.6736
▁containing	-10.6738
250	-10.6746
-16	-10.6748
wise	-10.6748
▁<>	-10.675
while	-10.6763
buffalo	-10.6764
nus	-10.6764
▁driven	-10.6764
town	-10.6765
44\	-10.6767
dl	-10.6774
table	-10.6774
rick	-10.6776
▁implement	-10.6786
▁hang	-10.6792
▁characters	-10.6794
▁sel	-10.6798
▁establish	-10.6801
????	-10.6803
▁papers	-10.6815
▁steal	-10.6821
▁scientist	-10.6825
▁captain	-10.6826
▁primary	-10.6826
▁substance	-10.6826
▁leaving	-10.6826
▁stolen	-10.6826
▁socket	-10.6826
▁argic	-10.6826
elect	-10.6826
▁contribute	-10.6826
announce	-10.6827
▁workstation	-10.6827
▁favorite	-10.6827
▁sitting	-10.6828
▁reliable	-10.6829
▁luke	-10.683
▁investment	-10.683
▁decrypt	-10.6831
▁1920	-10.6831
▁bigger	-10.6832
▁requirements	-10.6837
▁58	-10.6838
wpi	-10.6838
ncsu	-10.6839
eh	-10.6839
▁cook	-10.6841
ised	-10.6845
psu	-10.6846
▁98	-10.6849
▁whenever	-10.685
▁widgets	-10.6857
▁dry	-10.6861
bob	-10.6864
555	-10.6866
▁writer	-10.6878
"6	-10.6879
▁satellites	-10.688
▁surprise	-10.6889
▁bud	-10.6904
wide	-10.691
[\	-10.6911
rill	-10.692
104	-10.6922
▁del	-10.6926
self	-10.693
▁consist	-10.6936
!1	-10.6937
card	-10.6938
dom	-10.694
▁diamond	-10.6945
▁spiritual	-10.6946
▁smart	-10.6947
▁decade	-10.6947
▁guard	-10.6947
▁village	-10.6948
cup	-10.695
▁hitter	-10.6955
▁kick	-10.6962
▁talked	-10.6963
esse	-10.6974
▁rise	-10.6974
▁suffering	-10.6975
▁apart	-10.6976
2>/	-10.6977
7*	-10.6977
=1	-10.6982
6<	-10.6984
every	-10.6988
▁computers	-10.699
true	-10.6991
▁obtained	-10.6992
home	-10.6993
▁item	-10.6996
chem	-10.6996
▁96	-10.6996
▁gil	-10.6999
▁claiming	-10.7002
graph	-10.7006
smith	-10.7007
▁loaded	-10.7014
human	-10.7017
▁conduct	-10.7018
▁stu	-10.7022
▁manufacture	-10.7029
▁employ	-10.703
▁grad	-10.703
bis	-10.7036
2<	-10.7036
▁mini	-10.7036
▁learning	-10.7038
▁agents	-10.704
▁phones	-10.704
jd	-10.7049
nik	-10.7053
▁2:	-10.7053
cco	-10.7056
▁assert	-10.7056
@(	-10.7059
▁condemn	-10.7065
▁physician	-10.7065
▁entries	-10.7065
▁rumor	-10.7066
▁leads	-10.7067
▁balance	-10.7067
next	-10.7067
▁attend	-10.7068
▁imho	-10.707
▁forever	-10.707
▁expose	-10.7071
▁thousand	-10.7071
▁assertion	-10.7076
▁infant	-10.7076
trac	-10.7078
▁playoff	-10.7079
▁distributed	-10.7081
▁relatively	-10.7084
elli	-10.7085
▁watt	-10.7088
▁pictures	-10.7094
▁depending	-10.7097
-93	-10.71
▁null	-10.7102
▁addresses	-10.7105
uxa	-10.7105
▁pitching	-10.7108
");	-10.7108
mind	-10.7122
actually	-10.7123
itz	-10.7134
value	-10.7134
▁400	-10.7136
11.	-10.7137
▁experts	-10.7137
ished	-10.7139
▁helped	-10.714
▁enter	-10.7141
▁proven	-10.7141
▁+1	-10.7144
▁miss	-10.7147
direct	-10.7148
▁rd	-10.7157
▁printf	-10.7157
▁digit	-10.7159
order	-10.7163
▁gld	-10.7163
▁ear	-10.7166
02.	-10.7171
▁59	-10.7177
▁spin	-10.718
▁biggest	-10.7187
▁cartridge	-10.7187
▁chemical	-10.7187
▁japanese	-10.7188
▁transmission	-10.7188
▁kingdom	-10.7188
▁chief	-10.7189
▁neighbor	-10.7195
▁bond	-10.7197
▁lawrence	-10.7198
▁assault	-10.72
▁throughout	-10.7203
▁sim	-10.7208
▁tree	-10.7209
jv	-10.7211
gene	-10.7213
▁controlled	-10.7214
▁95	-10.7216
umb	-10.7219
▁douglas	-10.7221
▁symptoms	-10.7222
▁plans	-10.7222
3%	-10.7227
thor	-10.7233
▁charles	-10.7234
▁previously	-10.7236
cunix	-10.724
▁gov	-10.7248
israel	-10.7249
first	-10.7249
frank	-10.7249
!!!!!	-10.7253
▁fundamental	-10.7257
graphics	-10.7259
6(	-10.7265
▁graphic	-10.727
,3'$	-10.727
▁students	-10.7271
vt	-10.7274
"<	-10.7278
fij	-10.7288
▁detail	-10.7294
2.2	-10.7295
▁picked	-10.7298
▁prayer	-10.73
▁contradict	-10.73
]'	-10.7304
▁catalog	-10.7311
▁impression	-10.7311
▁contrary	-10.7311
▁jersey	-10.7311
▁quarter	-10.7311
▁ancient	-10.7311
▁presence	-10.7311
▁friday	-10.7312
▁automatically	-10.7312
#5	-10.7315
script	-10.7321
▁suit	-10.7321
▁0.1	-10.7321
▁dream	-10.7322
144	-10.7322
▁eastern	-10.7324
▁acceptable	-10.7326
clock	-10.7327
▁rational	-10.7334
▁justify	-10.7336
penn	-10.7339
▁lucky	-10.7348
kg	-10.7358
-----	-10.7359
then	-10.7359
(:	-10.7365
▁seal	-10.7378
▁bag	-10.7382
▁plate	-10.7383
0'=	-10.7385
$4	-10.7391
▁ski	-10.7393
hood	-10.7393
▁4/2	-10.7395
▁drag	-10.7396
▁04	-10.7401
▁rbi	-10.7406
((	-10.7406
"`	-10.7408
▁03	-10.7408
▁===============	-10.7412
▁depend	-10.7414
▁protected	-10.7417
▁:>	-10.742
▁1000	-10.7421
prop	-10.7422
▁seek	-10.7422
-12	-10.7425
media	-10.7425
▁rape	-10.7425
▁pens	-10.7428
▁slave	-10.7435
▁propulsion	-10.7436
▁judas	-10.7436
▁negative	-10.7436
▁examine	-10.7436
▁amateur	-10.7436
▁southern	-10.7436
▁idiot	-10.7436
▁dozen	-10.7438
▁combination	-10.7439
▁livesey	-10.744
#4	-10.7441
plan	-10.7443
^2	-10.7443
▁$25	-10.7445
▁installation	-10.7445
4+	-10.7446
▁liberal	-10.745
▁communication	-10.7451
lone	-10.7459
▁tested	-10.7462
▁sets	-10.7464
aff	-10.7466
▁silver	-10.7467
▁83	-10.7468
▁tanks	-10.7476
▁withdraw	-10.7477
▁crimes	-10.7479
______	-10.7479
▁gal	-10.7483
▁burned	-10.7485
vf	-10.7507
▁awful	-10.7512
▁allen	-10.7517
▁appeared	-10.7517
init	-10.7521
[5	-10.7527
▁-----------	-10.7532
<?'	-10.7539
▁israelis	-10.754
▁classic	-10.7542
bad	-10.7546
cover	-10.755
▁millions	-10.7554
▁sec	-10.7556
▁literature	-10.7562
▁houston	-10.7562
▁quebec	-10.7562
▁maximum	-10.7562
▁polygon	-10.7562
▁affair	-10.7562
▁sweden	-10.7562
▁centris	-10.7562
▁discussions	-10.7563
▁desktop	-10.7563
▁crowd	-10.7563
waterloo	-10.7563
▁senate	-10.7564
▁revolution	-10.7564
▁dodge	-10.7565
▁quiet	-10.7565
▁spread	-10.7566
▁davis	-10.7566
▁vram	-10.7567
▁objects	-10.7568
life	-10.7569
▁eisa	-10.7569
▁weekend	-10.757
&$	-10.7578
▁manufacturers	-10.7587
4$	-10.7587
▁sam	-10.7588
▁est	-10.7596
▁'92	-10.7597
ban	-10.7604
▁performed	-10.7616
▁instructions	-10.7616
psych	-10.7618
▁tx	-10.762
▁techniques	-10.7623
▁traditional	-10.7623
▁1.0	-10.7626
&^	-10.7626
=======	-10.7629
▁newsgroups	-10.7629
6//	-10.7634
lite	-10.7635
▁promise	-10.7635
▁removed	-10.7637
▁originally	-10.7642
▁developing	-10.7643
&0	-10.7648
spec	-10.7657
▁contain	-10.7661
xl	-10.7669
▁concern	-10.7672
hd	-10.7682
▁consult	-10.7688
▁dynamic	-10.7691
▁baltimore	-10.7691
▁believing	-10.7691
▁plenty	-10.7691
▁wisdom	-10.7691
▁empty	-10.7691
▁paragraph	-10.7691
case	-10.7691
nrhj	-10.7691
▁planned	-10.7692
▁film	-10.7692
vice	-10.7693
▁taught	-10.7693
▁vesa	-10.7693
▁54	-10.7693
▁bobby	-10.7697
▁battery	-10.7698
▁judgement	-10.7706
▁threaten	-10.7708
lig	-10.7708
quit	-10.7712
ologist	-10.7712
▁production	-10.7715
113	-10.7715
^[	-10.7715
called	-10.7716
▁dogs	-10.7722
▁index	-10.7722
]0	-10.7724
&;"	-10.7727
sig	-10.773
▁funding	-10.7732
▁miller	-10.7732
▁portion	-10.7734
▁dx	-10.7737
▁simm	-10.774
▁nine	-10.7741
▁hmmm	-10.7744
▁hour	-10.7745
#1	-10.7748
▁82	-10.7753
ulation	-10.7753
▁han	-10.7754
▁assist	-10.7755
▁suffer	-10.7757
rochester	-10.7758
▁abc	-10.7764
para	-10.7768
▁130	-10.7769
/',\	-10.7775
▁nazis	-10.778
brad	-10.7783
▁hat	-10.7788
▁150	-10.7792
stat	-10.7792
*>	-10.7793
1.2	-10.7796
1$	-10.7804
their	-10.7807
▁shared	-10.7808
ssi	-10.7814
▁witness	-10.7815
%0	-10.7815
165	-10.7819
del	-10.782
▁regulation	-10.782
▁strength	-10.782
carleton	-10.7821
wwiz	-10.7821
▁titan	-10.7822
▁conversion	-10.7822
kent	-10.7822
▁lawyer	-10.7823
▁zero	-10.7823
▁submit	-10.7826
verse	-10.7828
rh	-10.7828
▁northern	-10.7834
▁lib	-10.7834
▁highest	-10.7834
▁poly	-10.7836
▁espn	-10.7836
▁components	-10.7838
▁lemieux	-10.7839
▁teach	-10.7842
▁'93	-10.7842
hzv	-10.7855
clh	-10.7858
▁ordered	-10.7865
test	-10.7874
▁stan	-10.7875
▁5.0	-10.7888
including	-10.789
believe	-10.789
▁checked	-10.7891
2&	-10.7896
▁3:	-10.7898
class	-10.7898
1;	-10.7899
7%	-10.79
although	-10.7903
▁stands	-10.7904
nei	-10.7907
big	-10.7913
▁breaker	-10.7915
▁express	-10.7916
▁virginia	-10.7919
▁finish	-10.7922
▁beast	-10.7924
▁dare	-10.7926
corp	-10.7927
▁letters	-10.793
▁agreed	-10.7932
01.	-10.794
▁gp	-10.794
▁successful	-10.7941
had	-10.7948
▁homicide	-10.7952
▁august	-10.7952
▁avenue	-10.7952
▁philosophy	-10.7952
▁primarily	-10.7952
▁violence	-10.7952
▁fallacy	-10.7952
▁strike	-10.7952
▁gonna	-10.7952
▁brake	-10.7957
▁pitcher	-10.7957
▁islanders	-10.7958
▁ext	-10.7964
▁chosen	-10.7968
umn	-10.7968
▁units	-10.797
▁compete	-10.7973
▁fourth	-10.7976
12.	-10.798
▁config	-10.7983
▁kinds	-10.799
edit	-10.7993
▁agent	-10.7994
mine	-10.7996
=4	-10.7996
▁managed	-10.7999
gging	-10.7999
▁specs	-10.7999
▁vision	-10.7999
▁...!	-10.8006
,<3$	-10.801
▁viewer	-10.8015
▁spending	-10.802
source	-10.802
kp	-10.802
▁relations	-10.8022
▁99	-10.8023
ipped	-10.8025
▁unable	-10.8029
sound	-10.8031
\4	-10.8042
nkjz	-10.8046
▁carl	-10.8046
▁routines	-10.8047
][	-10.8047
▁/_	-10.8058
_(	-10.8067
▁duo	-10.8067
dave	-10.808
▁doctors	-10.8082
▁extermination	-10.8085
▁florida	-10.8085
▁crazy	-10.8085
▁critical	-10.8085
▁identical	-10.8085
▁acknowledge	-10.8086
▁svga	-10.8086
▁infection	-10.8086
born	-10.8088
▁percentage	-10.8088
:9$	-10.809
▁improvement	-10.8092
prove	-10.8093
▁grab	-10.8097
▁stack	-10.8098
house	-10.8102
event	-10.8107
ico	-10.8111
▁outlets	-10.8116
misc	-10.8117
&+	-10.8118
▁patient	-10.8119
▁#>	-10.8131
hk	-10.8132
480	-10.8132
▁remark	-10.8136
uwo	-10.8143
▁0.0	-10.8144
......	-10.8148
▁granted	-10.8152
▁leader	-10.8159
navy	-10.8163
hold	-10.8166
request	-10.817
▁blues	-10.8173
▁uucp	-10.8176
140	-10.8177
▁diseases	-10.8183
4.2	-10.8186
metric	-10.8186
args	-10.8189
~~~~~~~~~~~~~~	-10.8189
▁spa	-10.8194
jhu	-10.82
▁78	-10.8202
3`	-10.8205
▁cry	-10.8206
defaults	-10.8207
jy	-10.8214
▁packages	-10.822
▁illinois	-10.8221
▁interrupt	-10.8221
▁ourselves	-10.8221
▁resurrection	-10.8221
▁symbol	-10.8221
▁permanent	-10.8221
▁serdar	-10.8221
▁announcement	-10.8221
▁maynard	-10.8221
▁severe	-10.8221
▁phase	-10.8221
▁july	-10.8222
▁classified	-10.8222
▁ted	-10.8222
▁utility	-10.8223
▁referred	-10.8223
▁compass	-10.8224
▁hundreds	-10.8225
▁grace	-10.8226
▁replacement	-10.8228
▁1982	-10.823
ette	-10.8232
▁cursor	-10.8235
▁bright	-10.8235
▁republican	-10.8236
▁accounts	-10.8236
rcim	-10.8237
▁acid	-10.8241
▁grave	-10.8243
0%	-10.8246
+=	-10.825
▁documents	-10.825
sim	-10.8254
▁pointer	-10.8258
▁slower	-10.8262
abo	-10.8266
▁sony	-10.827
lw	-10.827
▁specification	-10.8275
ched	-10.8276
iate	-10.828
usc	-10.8281
▁selected	-10.8283
▁reached	-10.8284
▁buf	-10.8284
▁mn	-10.8288
pit	-10.829
▁treated	-10.8291
]7	-10.8291
something	-10.8296
computer	-10.8296
▁authors	-10.8305
lowell	-10.8306
bed	-10.8307
▁rely	-10.8313
▁listed	-10.8314
base	-10.8315
▁gene	-10.8315
ftp	-10.8319
▁situations	-10.832
▁render	-10.8324
▁wayne	-10.8328
cept	-10.833
▁adl	-10.8334
▁intend	-10.8335
▁bd	-10.8336
▁commands	-10.8339
▁placed	-10.8341
▁misc	-10.8344
▁sb	-10.8347
ghj	-10.8349
▁import	-10.8356
skepticism	-10.8357
▁registration	-10.8357
▁saturday	-10.8357
▁terrible	-10.8357
▁january	-10.8358
▁salvation	-10.8358
▁france	-10.8358
▁capability	-10.8358
▁resident	-10.8358
▁explained	-10.836
▁tcp	-10.836
▁divine	-10.836
qvf	-10.8361
▁sgi	-10.8361
▁flash	-10.8363
6.0	-10.8363
▁mount	-10.8364
▁hitting	-10.8365
▁baby	-10.8366
▁1983	-10.8368
▁52	-10.837
▁disc	-10.837
▁attribute	-10.8372
▁patch	-10.8372
▁incident	-10.8372
▁fell	-10.8376
▁extended	-10.8379
▁colon	-10.838
▁aid	-10.838
▁classes	-10.8382
▁magic	-10.8391
▁32-	-10.8395
▁routine	-10.8397
really	-10.8401
▁aside	-10.8402
▁trap	-10.8403
▁poll	-10.8406
uj	-10.8408
6#	-10.8409
▁continued	-10.8411
▁suggestion	-10.8412
▁thoughts	-10.8416
▁observations	-10.8417
^.*	-10.8424
▁89	-10.8428
▁69	-10.8433
▁skin	-10.844
▁associate	-10.8441
9/3	-10.8442
road	-10.8443
▁vice	-10.8444
vj	-10.845
4<	-10.845
nuy	-10.8455
▁named	-10.8458
action	-10.8459
▁wise	-10.8461
▁predict	-10.8462
▁purchased	-10.8468
▁#2	-10.8481
▁apparent	-10.8482
▁describe	-10.8485
▁??	-10.8486
▁neighbors	-10.8487
print	-10.8488
▁missions	-10.849
-+	-10.8494
▁facility	-10.8496
▁ignorant	-10.8496
▁opposite	-10.8496
▁increasing	-10.8496
▁hebrew	-10.8496
▁applies	-10.8496
▁sharks	-10.8496
▁operator	-10.8497
▁hartford	-10.8497
▁motto	-10.8497
▁transmit	-10.8497
▁sight	-10.8498
▁glass	-10.8499
▁copyright	-10.85
▁stuck	-10.85
nate	-10.8502
285	-10.8502
signed	-10.8508
▁600	-10.8508
▁fails	-10.8509
▁selection	-10.851
▁influence	-10.8512
▁$4	-10.8512
▁hair	-10.8515
▁publish	-10.8516
▁carefully	-10.8517
▁dale	-10.8518
▁occupied	-10.8518
2^1	-10.8518
15.2	-10.8521
▁mill	-10.8536
▁scores	-10.8539
isa	-10.854
▁reli	-10.8546
▁$50	-10.8547
▁incorrect	-10.8555
uga	-10.8555
++++++++++++++++	-10.8557
under	-10.8559
faq	-10.8561
▁punish	-10.8565
▁chain	-10.8566
natural	-10.8575
▁sep	-10.8576
white	-10.8577
▁holes	-10.8577
np	-10.8583
kz	-10.8583
▁wear	-10.8588
▁checking	-10.859
▁teachings	-10.859
▁87	-10.8591
check	-10.8595
san	-10.86
]2	-10.86
▁ideal	-10.8604
too	-10.8607
▁remains	-10.8609
mont	-10.8614
▁union	-10.8615
▁eating	-10.8615
▁determined	-10.8621
$5	-10.8628
750	-10.8631
▁bikes	-10.8632
▁protest	-10.8633
▁convenient	-10.8637
▁penguins	-10.8637
▁suicide	-10.8637
▁acquire	-10.8637
▁encounter	-10.8637
102	-10.8639
▁bosnia	-10.864
▁shaft	-10.8642
▁suddenly	-10.8643
▁becoming	-10.8648
▁lying	-10.8653
▁typically	-10.866
*************	-10.8661
▁notion	-10.8662
▁significantly	-10.8665
face	-10.8668
burn	-10.8668
▁jew	-10.8668
-25	-10.8669
▁finished	-10.867
▁turning	-10.8671
newton	-10.8678
▁sys	-10.8682
▁traded	-10.8685
body	-10.8694
▁rub	-10.8694
▁trace	-10.8695
=`	-10.8697
175	-10.8698
▁thi	-10.8702
:<?'	-10.8705
▁centers	-10.8709
control	-10.8718
standard	-10.8718
~~~~~~~~~~~~~	-10.8719
program	-10.8719
▁67	-10.8719
-35	-10.872
▁teaching	-10.8721
~~	-10.8723
without	-10.8723
▁chances	-10.8733
trans	-10.8743
▁97	-10.8748
▁electric	-10.8751
<!	-10.8753
pmf	-10.8755
▁broke	-10.8756
▁bun	-10.8758
-20	-10.8759
▁ended	-10.8763
#(	-10.8764
▁republic	-10.8768
(]	-10.8772
▁_______________	-10.8779
▁essential	-10.8779
▁astronomy	-10.878
▁absurd	-10.878
▁participate	-10.878
▁policies	-10.878
▁segment	-10.878
▁silly	-10.878
▁specify	-10.8781
▁mormon	-10.8782
\^?	-10.8784
▁hitler	-10.8787
▁^^^	-10.8792
▁aspects	-10.8792
▁motion	-10.8796
nan	-10.88
ati	-10.8802
▁differ	-10.8803
▁mh	-10.8804
▁wires	-10.8806
mod	-10.881
▁contrib	-10.8815
▁fish	-10.8815
shz	-10.8818
two	-10.882
nec	-10.8821
bro	-10.8826
▁rush	-10.8827
▁conversation	-10.8831
ridge	-10.8832
▁destroyed	-10.8835
▁handgun	-10.8838
▁passage	-10.8839
▁cdt	-10.884
def	-10.8846
▁???	-10.8847
^=8	-10.8853
▁positions	-10.8853
▁sum	-10.8855
▁generated	-10.8855
(&	-10.8857
144\	-10.8861
ece	-10.8861
should	-10.8863
▁ahl	-10.887
▁header	-10.8873
▁iran	-10.8881
2.0	-10.8883
moral	-10.8892
▁deliver	-10.8895
marc	-10.8897
trw	-10.8897
▁4:	-10.8898
▁jet	-10.89
▁displays	-10.8908
040	-10.8913
arc	-10.8914
▁thru	-10.8916
▁adjust	-10.8917
▁tomorrow	-10.8925
▁prepared	-10.8925
▁storage	-10.8925
▁sensor	-10.8925
▁cruel	-10.8925
hey	-10.8925
▁tactic	-10.8925
▁dropped	-10.8926
▁candidate	-10.8927
▁intent	-10.8929
▁shock	-10.8931
umich	-10.8933
▁allowing	-10.8933
▁duty	-10.8934
▁hung	-10.8937
▁understood	-10.894
plus	-10.8946
via	-10.8947
uic	-10.895
▁warn	-10.8953
▁crap	-10.8954
fan	-10.8967
▁churches	-10.8968
▁degrees	-10.8969
^]	-10.8972
ington	-10.8974
▁instrument	-10.8981
▁principle	-10.8981
▁horn	-10.8982
▁usage	-10.8984
▁rsa	-10.8987
▁closely	-10.8995
(7	-10.8996
fred	-10.8999
▁2000	-10.9002
▁stein	-10.9008
brown	-10.9011
plain	-10.9012
except	-10.9013
&(	-10.9024
▁answered	-10.9032
▁tonight	-10.9032
yj	-10.9034
princeton	-10.904
lated	-10.9041
▁geo	-10.905
▁640	-10.9056
▁dear	-10.9059
▁nose	-10.9059
▁launched	-10.9061
bea	-10.9064
peter	-10.9065
&]	-10.9069
▁fulfill	-10.9072
▁miracle	-10.9072
▁cyprus	-10.9072
▁financial	-10.9072
▁trigger	-10.9072
▁december	-10.9073
▁river	-10.9073
\13	-10.9075
psuvm	-10.9075
xte	-10.9075
geneva	-10.9082
▁corrupt	-10.9084
▁clone	-10.9084
cornell	-10.9086
tct	-10.909
▁jumper	-10.9091
▁cash	-10.9092
vnet	-10.9095
utk	-10.9095
▁sox	-10.9098
$*	-10.9104
▁equally	-10.9104
bradley	-10.9108
▁height	-10.9108
▁num	-10.911
/$5	-10.911
▁effectively	-10.9112
▁agreement	-10.9113
▁vary	-10.9119
fire	-10.9128
]?7	-10.9129
▁expert	-10.9133
▁animal	-10.9133
sport	-10.9142
▁rochester	-10.9143
portal	-10.9143
▁violate	-10.9151
▁128	-10.9152
0&	-10.9153
▁senator	-10.9153
▁tar	-10.9158
could	-10.916
▁principles	-10.9164
root	-10.9165
copy	-10.917
▁opening	-10.9171
▁supporting	-10.9172
green	-10.9173
▁attempts	-10.9174
▁5:	-10.9183
▁"...	-10.9191
ucsd	-10.9193
elle	-10.921
▁$20	-10.922
_____	-10.922
▁intellect	-10.922
▁collaborat	-10.9221
▁cylinder	-10.9221
▁dictionary	-10.9221
▁facilities	-10.9221
▁liberty	-10.9221
▁sumgait	-10.9221
▁global	-10.9221
▁identify	-10.9221
▁fifth	-10.9221
▁appeal	-10.9221
▁superior	-10.9221
▁immoral	-10.9222
▁saving	-10.9222
▁cryptosystem	-10.9222
▁adaptec	-10.9222
▁japan	-10.9222
monash	-10.9222
▁permission	-10.9223
](	-10.9224
▁colour	-10.9224
▁everywhere	-10.9226
▁settle	-10.9226
▁loud	-10.9226
usa	-10.9228
▁chasti	-10.9232
_./\	-10.9232
▁graph	-10.9237
▁snow	-10.9239
▁perry	-10.9241
▁conductor	-10.9243
▁pan	-10.9247
▁located	-10.9249
lho	-10.925
▁gut	-10.9251
▁cam	-10.9252
5%145%145%145%14	-10.9258
\>1	-10.9259
▁dick	-10.9262
▁circumstances	-10.9267
made	-10.927
965	-10.927
▁rot	-10.9273
▁figures	-10.9277
▁dia	-10.928
▁persons	-10.9282
▁pulled	-10.9285
%/#	-10.9285
▁62	-10.9289
door	-10.93
#3	-10.9302
poly	-10.9306
▁bugs	-10.931
cleveland	-10.9311
certain	-10.9311
better	-10.9312
▁timing	-10.9312
science	-10.9313
stuff	-10.9313
reason	-10.9316
love	-10.9317
▁roy	-10.9321
optim	-10.9326
▁rc	-10.9328
jur	-10.9331
lud	-10.934
▁fields	-10.934
^$	-10.9346
7=`	-10.9347
▁earn	-10.9347
▁gift	-10.9356
▁extreme	-10.9359
▁mile	-10.9362
▁records	-10.9364
dale	-10.9365
▁possess	-10.9366
]/9	-10.9367
person	-10.937
▁advocate	-10.9373
▁assembly	-10.9373
▁comprehensive	-10.9373
▁council	-10.9373
▁jerusalem	-10.9373
▁perspective	-10.9373
▁selanne	-10.9373
▁eliminate	-10.9373
▁initiative	-10.9373
▁messiah	-10.9373
▁nubus	-10.9373
▁uniform	-10.9373
▁amazing	-10.9373
▁rifle	-10.9373
informatik	-10.9373
▁animation	-10.9373
▁chamber	-10.9373
▁dialog	-10.9374
▁capture	-10.9374
▁minister	-10.9374
▁assistance	-10.9374
\^	-10.9376
ously	-10.9377
▁divide	-10.9377
▁slaughter	-10.9378
▁bitmap	-10.9378
▁delay	-10.9378
▁chair	-10.9379
▁venus	-10.938
-50	-10.9384
▁jones	-10.9387
▁subjective	-10.9389
▁robb	-10.9389
▁risc	-10.9393
%145	-10.9396
midway	-10.9396
▁signed	-10.9401
▁farm	-10.9404
▁nl	-10.9405
▁prize	-10.9411
▁spare	-10.9411
west	-10.9412
▁kent	-10.9415
320	-10.9425
qvg	-10.9431
▁experienced	-10.9435
▁starter	-10.945
week	-10.9452
▁rockets	-10.9461
research	-10.9465
richard	-10.9467
gram	-10.9469
jn	-10.9471
▁decisions	-10.9474
▁dip	-10.9478
create	-10.948
ufl	-10.949
▁receiver	-10.9496
▁0.6	-10.9501
▁forced	-10.9507
$%	-10.951
▁boards	-10.9511
6=	-10.9512
▁category	-10.9527
▁holocaust	-10.9527
▁numerous	-10.9527
▁female	-10.9527
▁substantial	-10.9527
▁minimum	-10.9527
▁england	-10.9527
▁creating	-10.9527
▁alomar	-10.9527
▁parameter	-10.9527
▁ciphertext	-10.9527
rag	-10.9528
▁tyre	-10.9528
▁breath	-10.9529
▁occurred	-10.9529
▁planning	-10.9529
▁extent	-10.953
▁1.5	-10.9533
▁broad	-10.9533
ben	-10.9533
▁750	-10.9536
▁diego	-10.9536
▁square	-10.9539
]]'1	-10.9541
joe	-10.9546
▁signature	-10.9552
▁shield	-10.9552
used	-10.9553
boeing	-10.9555
210	-10.9558
▁hanging	-10.957
▁observ	-10.9572
rising	-10.9573
▁profit	-10.9577
▁lake	-10.9586
▁_____	-10.9587
▁losing	-10.9599
▁sand	-10.9602
+3	-10.9602
▁dealing	-10.9606
matt	-10.9606
▁printing	-10.9607
128	-10.9608
+&	-10.961
▁drawn	-10.9612
apc	-10.9615
rock	-10.9619
▁scorer	-10.9619
widget	-10.9621
especially	-10.9621
stream	-10.9621
▁*******	-10.9625
▁passages	-10.9627
▁refuse	-10.9627
▁dean	-10.9639
entry	-10.9643
water	-10.9646
▁650	-10.9652
-15	-10.9655
87=	-10.9677
▁chinese	-10.9683
▁destruction	-10.9683
▁ordinary	-10.9683
▁penalties	-10.9683
▁receiving	-10.9683
▁surveillance	-10.9683
▁tobacco	-10.9683
▁famous	-10.9683
urartu	-10.9683
▁stretch	-10.9683
▁gfci	-10.9683
▁smooth	-10.9683
▁shameful	-10.9683
▁$15	-10.9684
▁membership	-10.9685
▁furthermore	-10.9685
▁restrain	-10.9685
▁causing	-10.9686
▁sparc	-10.9686
▁packet	-10.9687
mask	-10.9689
▁genetic	-10.9689
▁download	-10.9689
213	-10.9689
▁dump	-10.9691
▁glock	-10.9691
▁slide	-10.9692
zh	-10.9694
▁followers	-10.9702
▁realized	-10.9704
▁labor	-10.9712
xtgc	-10.9719
▁angle	-10.9727
▁algorithms	-10.9731
▁rf	-10.974
-33	-10.9741
▁useless	-10.9747
▁feds	-10.9751
▁ger	-10.9754
vmk	-10.9754
ibility	-10.9756
large	-10.9759
▁deaths	-10.976
▁manage	-10.9761
▁kg	-10.9762
▁glove	-10.9765
cnet	-10.9765
▁nra	-10.9765
▁sig	-10.9775
ryan	-10.9776
▁84	-10.9779
probably	-10.978
objective	-10.9781
second	-10.9781
jeff	-10.9783
▁handguns	-10.9785
▁demonstrate	-10.9786
blue	-10.9787
▁gau	-10.9792
▁reduced	-10.9796
▁wil	-10.9803
012	-10.9804
force	-10.9806
byte	-10.9817
▁inform	-10.9822
▁resist	-10.9829
20.0	-10.9833
cost	-10.9834
autos	-10.9836
▁16-	-10.9838
hou	-10.9839
▁arrogant	-10.9842
▁introduction	-10.9842
▁expense	-10.9842
▁arguing	-10.9842
▁weather	-10.9842
▁lindros	-10.9842
sponsor	-10.9842
▁promote	-10.9842
▁bruins	-10.9842
▁ati	-10.9843
▁specified	-10.9843
▁torture	-10.9843
▁scene	-10.9844
▁scanner	-10.9845
▁sister	-10.9846
▁gainey	-10.9847
▁decode	-10.985
▁conclusions	-10.9854
▁contradiction	-10.9855
▁anderson	-10.9859
▁slots	-10.9863
▁ethnic	-10.9864
▁enable	-10.9866
▁sake	-10.9866
▁hopefully	-10.9867
cadre	-10.987
igc	-10.9874
oops	-10.988
▁widely	-10.9882
▁wonderful	-10.9885
▁wip	-10.989
▁testing	-10.9892
ural	-10.9893
▁victims	-10.9894
▁dual	-10.9902
ctr	-10.9906
225	-10.9912
▁tip	-10.9913
▁rating	-10.9916
sail	-10.992
▁convinced	-10.9922
▁79	-10.9923
▁technique	-10.9927
▁unusual	-10.9927
▁opened	-10.9927
▁mvp	-10.9933
▁similarly	-10.9938
▁47	-10.9938
arizona	-10.9941
▁instruments	-10.9941
interest	-10.9944
style	-10.9947
▁bal	-10.9948
▁amounts	-10.995
font	-10.9954
▁forms	-10.9958
4='	-10.996
▁pieces	-10.9965
157	-10.9969
▁bases	-10.9971
seas	-10.9973
▁houses	-10.9982
ata	-10.9983
gap	-10.9985
▁angels	-10.9989
#<	-10.9989
($	-10.9999
▁irrelevant	-11.0003
▁territory	-11.0003
▁baalke	-11.0003
▁empire	-11.0003
▁gilmour	-11.0003
▁spencer	-11.0003
▁dallas	-11.0003
▁universal	-11.0003
▁passing	-11.0003
▁fruit	-11.0003
▁cellular	-11.0003
▁utilities	-11.0003
▁scroll	-11.0004
▁column	-11.0004
▁importance	-11.0005
▁albert	-11.0005
▁cast	-11.0007
▁stealth	-11.001
▁obey	-11.001
▁witnesses	-11.0011
▁massive	-11.0015
▁1987	-11.0016
▁giant	-11.0018
▁tiff	-11.0018
dseg	-11.0019
buf	-11.002
▁1980	-11.0021
▁dealers	-11.0021
▁'91	-11.0023
▁twin	-11.0024
▁wilson	-11.0025
▁gmt	-11.0026
^3	-11.0027
▁clinical	-11.003
cii	-11.0035
▁income	-11.0036
many	-11.0039
meg	-11.004
▁factors	-11.0042
▁hits	-11.0052
▁azerbaijan	-11.0054
▁settings	-11.0055
▁eff	-11.006
.735	-11.0062
▁pitt	-11.0062
ajz	-11.0064
▁cc	-11.0065
thunder	-11.0074
gizw	-11.0077
▁mainly	-11.0078
▁updated	-11.0084
▁converted	-11.0096
▁civilian	-11.01
▁row	-11.01
dev	-11.0103
step	-11.0105
atheism	-11.0105
center	-11.0106
▁conversations	-11.0108
market	-11.0116
7?==	-11.0124
("`@(	-11.0124
▁benefits	-11.0124
▁adapt	-11.0124
▁served	-11.013
"`@(	-11.0131
▁gro	-11.0132
▁flag	-11.0136
▁gather	-11.0137
▁contents	-11.0137
hzd	-11.0146
\$	-11.0146
▁bullets	-11.0149
bhi	-11.0149
▁gui	-11.015
▁blast	-11.0152
7=%	-11.0155
quest	-11.0159
,3&'	-11.0166
▁rig	-11.0167
csc	-11.0167
advertise	-11.0167
▁scratch	-11.0167
▁temperature	-11.0167
▁injury	-11.0167
▁linux	-11.0168
/$7=	-11.0168
▁modify	-11.0168
▁gaza	-11.0171
▁homosexuality	-11.0171
▁jacket	-11.0172
▁route	-11.0173
▁2.2	-11.0178
▁2.1	-11.018
▁flu	-11.0181
▁greatest	-11.0185
▁pure	-11.0191
ula	-11.0194
sfu	-11.02
▁orbital	-11.02
▁pool	-11.0203
▁prince	-11.0203
▁measures	-11.0205
▁detailed	-11.0208
▁repeated	-11.021
▁robin	-11.021
▁regularly	-11.021
▁81	-11.0219
acns	-11.022
▁sco	-11.0228
start	-11.0232
▁tail	-11.0232
vela	-11.0232
scribe	-11.0233
▁recommended	-11.0235
▁thrown	-11.0235
▁vehicles	-11.0237
yale	-11.0237
▁joint	-11.0239
ssd	-11.025
▁county	-11.0256
▁eof	-11.0262
▁instruction	-11.0263
▁5)	-11.0264
▁upper	-11.0265
error	-11.0266
▁observation	-11.0267
▁teacher	-11.0268
▁recognized	-11.0278
150	-11.0279
great	-11.0281
room	-11.0282
motif	-11.0282
eck	-11.0283
▁topics	-11.0285
▁<<	-11.0294
-40	-11.0297
▁105	-11.0298
▁ratio	-11.0298
sigh	-11.03
▁rent	-11.0304
src	-11.0307
▁bru	-11.0308
▁____	-11.0311
_7	-11.0311
▁ohio	-11.0316
▁______	-11.0317
/-%%	-11.0319
▁stored	-11.0321
147=	-11.0323
bhjn	-11.0326
9000	-11.0329
▁diff	-11.033
▁beach	-11.0331
active	-11.0332
101	-11.0332
▁ethernet	-11.0334
▁husband	-11.0334
▁restaurant	-11.0334
▁ought	-11.0334
▁psalm	-11.0334
▁mutual	-11.0334
▁cultural	-11.0334
▁prompt	-11.0334
▁netters	-11.0334
▁shareware	-11.0335
▁monday	-11.0336
▁construction	-11.0337
▁clue	-11.0338
▁circu	-11.0339
▁coast	-11.034
▁commitment	-11.0344
-80	-11.0348
▁attached	-11.0352
▁holland	-11.0353
▁portable	-11.0354
+#4	-11.0356
▁neat	-11.0357
▁harder	-11.0359
▁1-2	-11.0361
▁consumer	-11.0365
rest	-11.0368
▁nyi	-11.0371
▁:-(	-11.0373
▁clayton	-11.0374
▁warranty	-11.0379
▁adding	-11.0383
▁compile	-11.0393
▁levi	-11.0398
▁~~~~~~~~~~	-11.0403
▁burning	-11.0405
design	-11.0408
▁listening	-11.0413
▁representative	-11.0436
>>>	-11.0437
350	-11.0439
▁goalie	-11.0439
▁24-	-11.044
question	-11.045
▁|__	-11.0451
▁restrictions	-11.0452
▁describes	-11.0452
rows	-11.0452
▁ama	-11.0453
▁environmental	-11.0463
▁newer	-11.0471
▁6.0	-11.0477
▁raid	-11.048
mming	-11.0484
▁ames	-11.0487
▁atmosphere	-11.0503
▁complicated	-11.0503
▁edmonton	-11.0503
▁frequency	-11.0503
▁orthodox	-11.0503
▁propaganda	-11.0503
▁ridiculous	-11.0503
▁bishop	-11.0503
▁gravity	-11.0503
▁antenna	-11.0503
▁leadership	-11.0504
▁interactive	-11.0504
▁steel	-11.0504
▁construct	-11.0504
▁scope	-11.0505
▁payload	-11.0506
▁referring	-11.0506
▁loose	-11.0506
▁saint	-11.0507
▁elsewhere	-11.0507
▁appearance	-11.0508
▁suitable	-11.0508
▁slight	-11.0513
▁centre	-11.0516
walter	-11.0517
▁tight	-11.052
dsl	-11.0521
▁logo	-11.0522
▁abortion	-11.0529
ahf	-11.0529
▁adopt	-11.0531
▁286	-11.0541
▁reno	-11.0542
▁wearing	-11.0544
▁approved	-11.0551
1=%%	-11.0551
▁script	-11.0554
▁politics	-11.0557
▁.5	-11.0557
▁landing	-11.0561
▁$6	-11.0561
▁0.7	-11.0562
▁pins	-11.0563
5.0	-11.0565
▁educational	-11.0568
▁signals	-11.0571
[#	-11.0572
▁discussing	-11.0573
▁cleveland	-11.0573
▁archives	-11.0573
▁observer	-11.0577
]_?>	-11.0583
both	-11.0584
nih	-11.0588
pack	-11.059
grad	-11.0592
▁vast	-11.0593
fall	-11.0596
ami	-11.0597
`7	-11.0605
▁canon	-11.0606
125	-11.0608
toxic	-11.0609
public	-11.0611
▁dollar	-11.0611
▁element	-11.0612
austin	-11.0613
charles	-11.0615
▁rat	-11.0628
rix	-11.063
___|	-11.0639
\/-	-11.0646
8+"	-11.0647
▁heck	-11.0656
360	-11.066
▁intention	-11.0662
▁marketing	-11.0664
slav	-11.0672
site	-11.0673
▁occupation	-11.0675
▁prophecy	-11.0675
▁mathematical	-11.0675
▁pocket	-11.0675
▁denver	-11.0676
▁secular	-11.0676
▁aircraft	-11.0676
▁apostle	-11.0676
▁hoping	-11.0676
▁brook	-11.0677
:4+"	-11.0677
▁dyer	-11.0677
▁hammer	-11.0678
▁========	-11.0678
panix	-11.0679
▁crew	-11.0682
▁tires	-11.0685
▁palestinians	-11.0686
▁highway	-11.0687
▁wright	-11.0694
▁curve	-11.0694
▁outlaw	-11.0697
▁tan	-11.0697
qvei	-11.0704
▁rough	-11.0705
▁mechanical	-11.0706
▁mets	-11.0708
▁confused	-11.0713
▁gall	-11.0717
cause	-11.0718
▁implemented	-11.0721
kill	-11.0721
hanus	-11.0721
hole	-11.0724
124	-11.0724
▁merit	-11.0726
▁compiler	-11.0736
ahak	-11.0737
steven	-11.074
▁walking	-11.0741
▁reader	-11.0741
being	-11.0749
rpi	-11.0751
lance	-11.0751
clear	-11.0751
▁printed	-11.0759
neu	-11.0759
▁fame	-11.0761
▁presentation	-11.0765
▁mistakes	-11.0768
4000	-11.077
▁forgive	-11.0775
▁chu	-11.0775
15.0	-11.0776
▁gee	-11.0788
▁online	-11.0788
cci	-11.0789
perhaps	-11.0789
multi	-11.079
however	-11.0793
processor	-11.0797
again	-11.0798
kpc	-11.0802
103	-11.0806
chen	-11.0806
found	-11.0808
anti	-11.0809
▁remarks	-11.081
1='=	-11.0813
240	-11.0819
▁assumed	-11.0827
▁900	-11.0844
▁campaign	-11.0851
▁michigan	-11.0851
▁clutch	-11.0851
▁supreme	-11.0851
▁valuable	-11.0851
▁shadow	-11.0851
▁margin	-11.0851
▁television	-11.0851
9\7%	-11.0851
▁yankees	-11.0851
▁alleged	-11.0851
▁declare	-11.0852
▁employee	-11.0853
▁virus	-11.0854
▁callison	-11.0855
▁species	-11.0856
safe	-11.0856
▁wrap	-11.0858
312	-11.0859
#&'	-11.0859
▁patches	-11.0859
soft	-11.0862
%=]	-11.0864
▁predictions	-11.0867
▁jupiter	-11.0867
▁switches	-11.0876
▁measurement	-11.0877
▁weird	-11.0879
▁letting	-11.0881
221	-11.0883
▁xfree	-11.0883
▁burst	-11.0885
▁suite	-11.0889
(1)	-11.0895
+,<	-11.0895
▁chuck	-11.09
▁doors	-11.09
treat	-11.0901
wang	-11.0903
▁materials	-11.0903
utkv	-11.0904
▁gray	-11.0928
ching	-11.0935
▁remaining	-11.0946
▁1.1	-11.0947
▁huh	-11.0958
group	-11.0966
disclaimer	-11.0968
thomas	-11.0968
before	-11.0968
▁victim	-11.0971
bird	-11.0976
▁vat	-11.0977
▁circuits	-11.0983
232	-11.0986
450	-11.0991
▁6:	-11.0998
180	-11.1009
▁aero	-11.1013
▁immediate	-11.1015
btw	-11.1021
much	-11.1024
ocal	-11.1027
▁appressian	-11.1029
▁assemble	-11.1029
▁exploration	-11.1029
▁extensive	-11.1029
▁opponent	-11.1029
▁revenue	-11.1029
dwyer	-11.103
▁unique	-11.103
wustl	-11.103
▁availability	-11.103
▁threw	-11.103
-#3%	-11.103
▁drunk	-11.103
▁tiger	-11.1033
▁quicktime	-11.1034
▁rotation	-11.1035
▁tommy	-11.1036
▁iraq	-11.1037
▁fed	-11.1039
▁unlike	-11.1042
▁roughly	-11.1044
▁renew	-11.1045
:<<	-11.1048
▁efficient	-11.1049
▁virtually	-11.1055
^-[	-11.1059
▁unknown	-11.1059
▁cnn	-11.106
logic	-11.1065
fyn	-11.1065
▁compress	-11.1068
▁terrorists	-11.1076
▁$12	-11.1076
17,\	-11.1086
▁filled	-11.1086
uicv	-11.1091
▁cage	-11.1093
▁refused	-11.1094
uta	-11.1094
rhe	-11.1097
▁representatives	-11.1102
▁papa	-11.1104
fusion	-11.1113
igel	-11.1117
▁rm	-11.1133
sync	-11.1135
acad	-11.1135
▁senators	-11.1138
oooo	-11.1139
▁watched	-11.1147
cell	-11.1149
▁lang	-11.1149
euro	-11.115
current	-11.115
▁^^^^	-11.115
course	-11.1151
either	-11.1151
▁corn	-11.1154
anyone	-11.1155
phone	-11.1159
park	-11.1163
▁scholars	-11.1166
2#	-11.1167
bell	-11.1168
201	-11.1171
▁melk	-11.1184
gary	-11.1196
▁fre	-11.12
▁aspi	-11.1207
▁entitled	-11.1211
▁sacrifice	-11.1211
▁sleeve	-11.1211
▁toyota	-11.1211
▁injuries	-11.1211
▁1919)	-11.1212
▁blank	-11.1212
▁weaver	-11.1212
▁utter	-11.1212
▁election	-11.1212
▁desert	-11.1212
▁storm	-11.1213
▁harley	-11.1214
▁delta	-11.1215
ramsey	-11.1216
▁explicitly	-11.1217
▁byte	-11.1218
watson	-11.1219
\>_	-11.122
▁insult	-11.122
▁growth	-11.1221
prism	-11.1222
▁simon	-11.1225
[_'	-11.1232
-17	-11.1232
▁1986	-11.1234
173	-11.1238
▁mental	-11.124
▁proved	-11.124
▁homosexuals	-11.1245
must	-11.1251
bony	-11.1259
▁grey	-11.1266
▁serves	-11.1268
answers	-11.1269
▁>|>>	-11.1272
▁brothers	-11.1276
rlj	-11.1289
rite	-11.1291
▁cent	-11.1297
eos	-11.1302
▁guaranteed	-11.1312
------------+	-11.1316
qtm	-11.1319
'/8	-11.1329
build	-11.133
mission	-11.1334
soviet	-11.1335
%/-	-11.1335
connect	-11.1337
cycle	-11.134
version	-11.1343
rud	-11.1345
those	-11.1347
vision	-11.1348
▁lin	-11.1359
disc	-11.1366
▁murdered	-11.1366
▁issued	-11.1375
0(5	-11.1376
night	-11.1381
▁protecting	-11.1383
0$!	-11.1383
▁cite	-11.1385
▁recover	-11.1388
▁rip	-11.1393
▁bone	-11.1393
▁executive	-11.1396
▁interference	-11.1396
▁knife	-11.1396
▁milwaukee	-11.1396
▁presumably	-11.1396
▁terrorism	-11.1396
▁rookie	-11.1396
▁gentile	-11.1396
▁finland	-11.1397
▁married	-11.1397
▁automobile	-11.1397
▁capabilities	-11.1397
▁horizontal	-11.1397
▁jury	-11.1397
▁ctrl	-11.1397
▁norris	-11.1398
dod	-11.1402
▁rap	-11.1406
▁launcher	-11.1408
▁freely	-11.141
▁alcohol	-11.141
▁assumptions	-11.1412
▁evolution	-11.1418
▁revealed	-11.1426
▁arrived	-11.1426
▁alex	-11.143
game	-11.1435
▁lb	-11.1437
him	-11.1439
▁suffered	-11.144
▁sometime	-11.1447
▁carter	-11.1447
%1=	-11.1458
rave	-11.1468
range	-11.1471
_-8	-11.148
tele	-11.1486
▁fuse	-11.1486
141	-11.149
admin	-11.1494
disk	-11.15
230	-11.1506
still	-11.1507
`@(	-11.151
"`@("`@("	-11.1511
▁bro	-11.1512
boy	-11.1521
▁rare	-11.1522
friend	-11.1523
normal	-11.1526
▁nic	-11.1528
▁sar	-11.1528
170	-11.1532
▁160	-11.1546
▁============	-11.1548
umble	-11.1549
▁stl	-11.1551
cub	-11.1553
▁wit	-11.1556
▁terrorist	-11.1559
▁cure	-11.1561
------	-11.1568
engin	-11.1568
ouch	-11.157
▁transport	-11.1583
laurentian	-11.1585
▁calculation	-11.1585
▁disappoint	-11.1585
▁pseudo	-11.1585
pyramid	-11.1585
▁artificial	-11.1585
▁capacity	-11.1585
▁distinguish	-11.1585
▁exhibit	-11.1585
▁libraries	-11.1585
▁politician	-11.1585
▁impressive	-11.1585
▁karina	-11.1585
▁liquid	-11.1585
timothy	-11.1585
▁contribution	-11.1585
▁invasion	-11.1585
▁phillies	-11.1585
<7'2	-11.1585
▁bias	-11.1585
▁drove	-11.1585
▁theoretical	-11.1585
▁russell	-11.1586
bxom	-11.1586
▁trend	-11.1588
▁trash	-11.1593
▁concealed	-11.1594
▁habit	-11.1597
▁hints	-11.1598
▁proud	-11.1598
msdos	-11.1599
best	-11.1609
▁==============	-11.1609
▁hawks	-11.1611
jsc	-11.1611
▁oname	-11.1613
▁1/4	-11.1618
▁oak	-11.1619
▁1915	-11.162
164	-11.1621
▁reset	-11.1625
▁neuro	-11.1625
▁util	-11.1626
ksu	-11.1638
▁handler	-11.1639
▁winter	-11.1649
▁walked	-11.165
▁indicates	-11.1651
itude	-11.1653
▁austin	-11.1654
▁neck	-11.1658
▁eh	-11.166
agged	-11.1663
▁verse	-11.1669
▁span	-11.1673
nyx	-11.1674
fnal	-11.1674
3-4	-11.1686
▁$300	-11.1688
bsd	-11.1697
▁lit	-11.1698
-36	-11.17
160	-11.1703
rush	-11.1705
▁kot	-11.1706
henry	-11.1716
information	-11.1716
=1=	-11.172
cock	-11.1721
jpeg	-11.1722
▁busy	-11.1725
▁emm	-11.1727
legal	-11.1727
▁sean	-11.1728
▁reveal	-11.1747
▁concerns	-11.1749
▁warm	-11.1749
▁domi	-11.1754
▁dreams	-11.1761
21.0	-11.1761
----	-11.177
▁integra	-11.1775
▁behaviour	-11.1777
▁democracy	-11.1777
▁spectrum	-11.1777
▁uuencode	-11.1777
▁syndrome	-11.1777
▁thorough	-11.1777
▁november	-11.1777
▁orientation	-11.1778
▁behanna	-11.1778
▁joystick	-11.1778
▁pirates	-11.1778
▁preserve	-11.1778
▁dispute	-11.1778
▁mapping	-11.1778
/$71	-11.1778
▁partners	-11.1778
▁fresh	-11.178
▁revision	-11.1783
ecq	-11.1785
▁aimed	-11.1787
▁maple	-11.1788
▁preach	-11.1789
▁graduate	-11.1793
▁francis	-11.1796
▁uunet	-11.1798
kir	-11.1798
▁fur	-11.1798
▁reward	-11.1799
▁drain	-11.1801
▁1985	-11.1801
▁lau	-11.1805
ography	-11.1807
:5'1	-11.1807
▁outlet	-11.1807
/)9	-11.1807
▁santa	-11.181
__________	-11.181
6(_	-11.1814
/\/\	-11.1822
▁contained	-11.1824
("`@("`@("`@(	-11.1826
▁objection	-11.1829
▁disciples	-11.1829
▁pushed	-11.1833
%`	-11.1841
▁coat	-11.1842
▁flying	-11.1849
▁photograph	-11.1861
▁legally	-11.1866
]'1	-11.1868
▁improved	-11.1871
▁4.0	-11.1888
bsu	-11.1893
▁directed	-11.1896
____	-11.1899
handed	-11.19
politics	-11.1911
major	-11.1912
frame	-11.1912
black	-11.1915
▁hmm	-11.1917
▁emotional	-11.1919
▁axe	-11.1934
▁deter	-11.1936
▁clinic	-11.1941
ection	-11.1943
▁extend	-11.1945
pay	-11.1947
-60	-11.1951
▁indicat	-11.1952
\^>/	-11.1954
@("	-11.1955
roll	-11.1955
▁za	-11.1958
versa	-11.1961
132	-11.1966
%16	-11.197
▁badly	-11.1971
▁conviction	-11.1974
▁darren	-11.1974
▁sabbath	-11.1974
▁continent	-11.1974
▁ministry	-11.1974
▁decrease	-11.1974
▁lunch	-11.1974
▁denning	-11.1974
▁pagan	-11.1974
▁minimal	-11.1974
▁injured	-11.1974
jpwu	-11.1974
▁aerospace	-11.1974
▁ownership	-11.1975
▁subscribe	-11.1975
▁minorities	-11.1976
<=+2	-11.1977
▁firing	-11.1977
▁sharp	-11.1979
********	-11.1979
▁yeast	-11.1979
▁reasonably	-11.198
▁carries	-11.1981
▁surrounding	-11.1987
▁resulting	-11.1989
final	-11.199
▁combined	-11.1993
ngu	-11.1994
laughter	-11.1994
▁restore	-11.1996
▁dumb	-11.2001
fact	-11.2006
▁analogy	-11.2007
▁skills	-11.201
▁humanity	-11.201
▁dram	-11.2014
▁quit	-11.2014
;_'	-11.2015
▁rank	-11.2016
▁naturally	-11.2017
▁translate	-11.2021
▁experimental	-11.203
▁beating	-11.2038
▁walker	-11.2038
\_-8	-11.2045
dpy	-11.2054
`0$	-11.2057
tool	-11.2058
▁commonly	-11.2071
▁grounding	-11.2075
▁responded	-11.2079
berlin	-11.2098
sandvik	-11.2111
interpret	-11.2112
physics	-11.2112
install	-11.2112
religion	-11.2112
▁*********	-11.2118
1=$\	-11.2119
armenian	-11.2123
nki	-11.2128
0000	-11.2139
▁confirm	-11.2143
▁encrypt	-11.2143
120	-11.2145
▁skill	-11.2154
▁orbiter	-11.2158
▁mau	-11.2162
▁enhance	-11.2166
▁formal	-11.2168
▁electro	-11.2173
▁academic	-11.2174
▁communities	-11.2174
▁explosive	-11.2174
▁supplied	-11.2174
▁thursday	-11.2174
▁tuesday	-11.2174
▁confusing	-11.2174
▁resolve	-11.2174
kelvin	-11.2174
▁chronic	-11.2174
▁ozone	-11.2174
▁tampa	-11.2174
▁denied	-11.2174
▁campbell	-11.2174
▁pump	-11.2174
▁consent	-11.2175
▁defect	-11.2175
▁fancy	-11.2177
▁stalin	-11.2178
▁raster	-11.2182
▁1542	-11.2186
super	-11.2189
%13	-11.2191
▁victory	-11.2192
▁randy	-11.2193
▁defenseman	-11.2194
▁manufacturer	-11.2195
▁react	-11.2196
▁graham	-11.2208
▁63	-11.221
],3$	-11.2211
inder	-11.2213
▁handy	-11.2221
▁whoever	-11.2223
▁verses	-11.2226
▁tune	-11.2227
mitre	-11.2227
▁registered	-11.223
▁edward	-11.2232
horus	-11.2245
6-2	-11.2253
▁100%	-11.2254
▁(3)	-11.2254
79@	-11.2262
lang	-11.2262
keep	-11.2266
▁pulling	-11.2267
45%14	-11.2268
wesley	-11.2272
▁fewer	-11.2275
▁buffalo	-11.2281
)3$	-11.2281
▁1:1	-11.2301
psi	-11.2306
13.1	-11.2309
▁catcher	-11.2314
stephen	-11.2316
defense	-11.2316
wrong	-11.2317
▁desk	-11.2319
erik	-11.2322
▁zo	-11.2322
season	-11.2324
strom	-11.2326
▁512	-11.2328
▁discover	-11.2331
rcj	-11.2334
omen	-11.2334
▁$30	-11.2342
null	-11.2354
ccw	-11.2356
printf	-11.2359
lecommunications	-11.2378
wolverine	-11.2378
▁accuracy	-11.2378
▁aluminum	-11.2378
▁beautiful	-11.2378
▁centuries	-11.2378
▁families	-11.2378
▁hamilton	-11.2378
▁impressed	-11.2378
▁intelligent	-11.2378
▁legislation	-11.2378
▁liberties	-11.2378
▁testimony	-11.2378
▁britain	-11.2378
▁pistol	-11.2378
▁murphy	-11.2378
▁headache	-11.2378
▁champs	-11.2378
▁vertical	-11.2379
▁modified	-11.2379
▁venture	-11.2379
▁rubber	-11.2379
▁intellectual	-11.2379
abiding	-11.2379
▁password	-11.2379
▁mileage	-11.238
▁dicta	-11.2381
deletion	-11.2382
%6\5	-11.2382
bxlt	-11.2382
▁alter	-11.2384
▁whereas	-11.2385
▁jays	-11.2385
jan	-11.2387
▁teaches	-11.2388
▁bolt	-11.239
▁gross	-11.2392
▁spy	-11.2395
bear	-11.2395
▁weiss	-11.2396
▁temple	-11.2397
▁lifetime	-11.2398
▁largest	-11.2399
▁till	-11.2402
▁annoying	-11.2406
▁constitutional	-11.2411
▁launches	-11.2418
▁click	-11.2418
556	-11.2422
▁blah	-11.2427
▁entering	-11.2434
stroke	-11.2434
▁tired	-11.2435
fast	-11.2443
▁royal	-11.2453
▁meta	-11.2453
▁cooling	-11.2454
▁loan	-11.2454
▁mario	-11.2467
arbor	-11.2482
oregon	-11.2487
▁tb	-11.2505
▁ansi	-11.2509
width	-11.2524
little	-11.2524
7.6	-11.2527
▁compute	-11.255
▁syria	-11.255
▁prof	-11.255
▁component	-11.2558
▁lane	-11.2559
around	-11.2561
specific	-11.2562
▁=========	-11.2565
aren	-11.2577
18.1	-11.258
▁acceleration	-11.2586
▁apologize	-11.2586
▁conservative	-11.2586
▁criticism	-11.2586
▁diagnose	-11.2586
▁district	-11.2586
▁implication	-11.2586
▁migraine	-11.2586
▁motivation	-11.2586
▁negotiation	-11.2586
▁prejudice	-11.2586
▁removing	-11.2586
▁territories	-11.2586
▁wednesday	-11.2586
▁adequate	-11.2586
▁identified	-11.2586
▁infinite	-11.2586
▁mitchell	-11.2586
▁silicon	-11.2586
▁surprising	-11.2586
▁binaries	-11.2586
▁quantum	-11.2586
▁typing	-11.2586
▁passenger	-11.2586
▁silent	-11.2586
▁kurds	-11.2586
▁emergency	-11.2586
spdcc	-11.2586
▁plaintext	-11.2587
▁fanatic	-11.2588
-,7%	-11.2589
▁shotgun	-11.259
▁garage	-11.259
▁theories	-11.2591
hydra	-11.2593
uwa	-11.2599
collins	-11.2599
▁extract	-11.26
▁hawk	-11.2602
▁jake	-11.2608
▁dial	-11.261
ivity	-11.2611
ntze	-11.2615
▁approaches	-11.2615
convex	-11.262
;7-	-11.2628
▁harris	-11.2639
▁executed	-11.2641
▁viewing	-11.2641
,3(	-11.2642
tail	-11.2644
▁slip	-11.2647
▁biased	-11.2648
▁compiled	-11.2656
uvm	-11.2661
shot	-11.2663
▁arizona	-11.2667
▁roby	-11.2668
▁difficulty	-11.2683
▁bombing	-11.2686
▁maintained	-11.269
=]%	-11.2691
round	-11.2698
▁pose	-11.271
▁***********	-11.2711
▁hart	-11.2712
\/9	-11.2712
4??	-11.2716
▁attempting	-11.2725
1024	-11.2733
▁$200	-11.2733
▁healthy	-11.2735
▁^^^^^^^^^^^^	-11.2735
▁scare	-11.2735
atlanta	-11.2737
compatible	-11.2737
▁attacked	-11.2738
shift	-11.2738
▁largely	-11.2739
▁execute	-11.2743
mulate	-11.276
▁anger	-11.2764
▁mph	-11.2775
▁victor	-11.2779
▁wound	-11.2781
▁tire	-11.2785
▁belt	-11.279
▁/__	-11.2791
▁clemens	-11.2799
▁egypt	-11.2799
▁fashion	-11.2799
▁horrible	-11.2799
▁industrial	-11.2799
▁leather	-11.2799
▁sensitive	-11.2799
▁volunteer	-11.2799
▁crystal	-11.2799
▁whatsoever	-11.2799
▁gibson	-11.2799
▁abandon	-11.2799
▁binding	-11.2799
▁seperate	-11.2799
▁hidden	-11.2799
▁variation	-11.2799
▁junk	-11.2799
▁stove	-11.2799
▁democratic	-11.2799
▁subsequent	-11.28
▁$20.00	-11.28
spot	-11.28
gsfc	-11.28
▁visualization	-11.2801
▁allocate	-11.2801
xxkc	-11.2802
▁burden	-11.2803
▁proposition	-11.2803
▁clip	-11.2803
▁organ	-11.2805
▁float	-11.2806
aurora	-11.2806
agate	-11.2808
▁literally	-11.2809
228	-11.2809
▁protestant	-11.2809
▁cabin	-11.281
▁followup	-11.2812
▁norton	-11.2813
far	-11.2813
▁admitted	-11.2814
fill	-11.2814
107	-11.2816
▁london	-11.282
▁mob	-11.2821
▁tab	-11.2826
▁tied	-11.2827
▁mathew	-11.2832
rlis	-11.2834
rfw	-11.2836
eagle	-11.2845
47!1	-11.2846
▁entered	-11.2853
▁macro	-11.2857
▁mistaken	-11.2859
▁pete	-11.287
close	-11.2888
nkh	-11.289
▁dur	-11.2893
▁esp	-11.2901
▁ignored	-11.2912
▁addressed	-11.2916
▁consequences	-11.2918
=/#	-11.2918
eee	-11.2929
▁edm	-11.2933
▁champions	-11.2934
33@	-11.2942
graphic	-11.2952
nick	-11.2953
profit	-11.2954
complete	-11.2954
author	-11.2958
613	-11.2978
preferably	-11.2988
▁chose	-11.2992
▁shout	-11.2995
▁aspect	-11.3
▁prediction	-11.3003
▁requirement	-11.3008
ester	-11.301
▁nyr	-11.3015
▁infrastructure	-11.3016
▁succeed	-11.3016
▁telescope	-11.3016
▁exhaust	-11.3016
▁zoroastrian	-11.3016
▁replied	-11.3016
▁canucks	-11.3016
▁equation	-11.3016
▁(301)	-11.3016
▁nonsense	-11.3016
▁sweep	-11.3016
▁binary	-11.3016
cactus	-11.3016
▁championship	-11.3016
hawaii	-11.3017
▁transaction	-11.3017
▁commission	-11.3017
▁relief	-11.3017
▁intercept	-11.3017
reilly	-11.3018
1000	-11.302
▁pilot	-11.302
▁baku	-11.302
826	-11.302
▁approximately	-11.3021
▁steam	-11.3022
▁contend	-11.3022
▁+/-	-11.3023
▁breaking	-11.3023
▁powerbook	-11.3023
▁invade	-11.3023
▁enforce	-11.3024
exist	-11.3025
option	-11.3025
▁campus	-11.3027
keller	-11.3028
2803	-11.3031
▁bb	-11.3035
%145%	-11.3036
adam	-11.3037
turn	-11.3037
▁karabakh	-11.3037
▁neil	-11.3039
▁overhead	-11.304
techni	-11.3041
▁grass	-11.3041
227	-11.3041
▁fold	-11.3045
▁dennis	-11.3046
▁$500	-11.3047
▁wishes	-11.3053
▁magi	-11.3053
▁justified	-11.3054
▁ascii	-11.306
nazi	-11.3061
rwing	-11.3062
▁nowhere	-11.3064
cua	-11.3065
▁factory	-11.3067
@("`	-11.3078
▁funded	-11.3081
▁blown	-11.3082
correct	-11.3083
maine	-11.31
▁1-0	-11.3104
ucsc	-11.3105
▁promised	-11.3112
▁sync	-11.3116
▁navy	-11.3123
▁scheduled	-11.3124
390	-11.3134
ptr	-11.3134
1/#	-11.3144
▁searching	-11.3154
feld	-11.3167
▁clark	-11.3176
hockey	-11.3177
nothing	-11.3178
16.2	-11.3179
rocket	-11.318
claim	-11.3184
▁delete	-11.3185
▁accomplish	-11.3208
once	-11.3209
scsi	-11.3224
▁xtapp	-11.3237
▁investigator	-11.3238
▁jurisdiction	-11.3238
▁massachusetts	-11.3238
▁motivate	-11.3238
▁refresh	-11.3238
▁retrieve	-11.3238
▁strategy	-11.3238
▁struggle	-11.3238
▁worried	-11.3238
▁deficit	-11.3238
▁explore	-11.3238
▁moncton	-11.3238
▁(415)	-11.3238
▁comparing	-11.3238
▁wagon	-11.3239
▁agenda	-11.3239
▁cardinal	-11.3239
▁riot	-11.3239
▁properties	-11.3239
▁wealth	-11.3239
=]'=	-11.324
▁stress	-11.324
▁confusion	-11.3241
▁hint	-11.3241
▁oppress	-11.3241
[0]	-11.3242
▁viewpoint	-11.3242
1]]	-11.3244
▁jackson	-11.3246
ericsson	-11.3246
▁cooperation	-11.3247
▁possession	-11.3248
▁foul	-11.325
▁regime	-11.3253
▁cdc	-11.3255
▁carolina	-11.3256
▁native	-11.3257
27=)	-11.3258
▁1994	-11.3258
▁filename	-11.3259
▁xdm	-11.326
▁chipset	-11.3263
▁arthur	-11.3269
▁existed	-11.3272
▁justification	-11.3273
▁lamp	-11.3274
▁680	-11.3276
▁gathered	-11.328
▁tract	-11.329
▁rack	-11.3296
▁displayed	-11.33
▁emotion	-11.33
▁fox	-11.3303
▁wage	-11.3305
hyp	-11.3306
▁affected	-11.3309
▁mega	-11.3323
▁believers	-11.3326
2.3	-11.3327
▁thumb	-11.3328
earth	-11.3333
gnv	-11.3333
vdz	-11.3336
clarkson	-11.3337
morgan	-11.334
▁______________	-11.3355
▁leo	-11.3362
roy	-11.3372
▁======	-11.3393
tarian	-11.34
douglas	-11.3404
government	-11.3404
gordon	-11.3404
through	-11.3408
▁propose	-11.3411
trust	-11.3413
4!`	-11.3418
string	-11.3423
scale	-11.3433
▁accord	-11.3433
same	-11.3435
stead	-11.3436
kind	-11.3437
mino	-11.3441
486	-11.3448
▁tea	-11.3452
*+\	-11.3457
▁_/_/_/	-11.3465
gnostic	-11.3465
▁consensus	-11.3466
▁manipulation	-11.3466
▁persecution	-11.3466
▁stimulus	-11.3466
▁stomach	-11.3466
▁abstract	-11.3466
▁comparable	-11.3466
▁intervention	-11.3466
▁lucifer	-11.3466
▁jordan	-11.3466
▁cloud	-11.3466
▁museum	-11.3466
▁ninja	-11.3466
▁guidelines	-11.3466
▁nsmca	-11.3466
bellcore	-11.3466
▁fascist	-11.3466
▁architecture	-11.3466
hydro	-11.3466
▁marina	-11.3466
▁exposure	-11.3466
▁illness	-11.3466
▁invoke	-11.3466
▁constitute	-11.3467
▁1992-93	-11.3467
▁hatred	-11.3467
2>-)	-11.3468
▁verify	-11.3468
corn	-11.3468
▁alarm	-11.3468
▁ruin	-11.3469
▁commandments	-11.3469
▁maryland	-11.3469
▁devil	-11.3469
▁complaints	-11.3471
▁dying	-11.3471
/)8\	-11.3472
▁cruise	-11.3472
▁void	-11.3476
universit	-11.3478
racy	-11.3479
▁expression	-11.348
▁yard	-11.3482
▁uart	-11.3483
▁powerpc	-11.3483
▁allah	-11.3486
▁hotel	-11.3488
▁steering	-11.3488
▁conventional	-11.349
edward	-11.3498
▁shouting	-11.3501
▁phoenix	-11.3504
▁atlas	-11.351
6000	-11.3511
▁veal	-11.3512
▁regulated	-11.3512
▁predicted	-11.3516
scholar	-11.3524
▁lately	-11.3534
▁upset	-11.3542
▁sir	-11.3545
▁squa	-11.3553
▁limitation	-11.3558
▁friendly	-11.357
▁pun	-11.3583
129.	-11.359
-91	-11.3596
▁desired	-11.3597
▁$150	-11.36
standing	-11.3614
`0$!	-11.3616
atory	-11.3622
process	-11.3623
4.0	-11.3631
oakland	-11.3636
origin	-11.3636
escrow	-11.3636
security	-11.3636
limited	-11.3637
might	-11.3637
number	-11.3637
programmer	-11.3637
[5-3	-11.3642
▁swing	-11.3643
++\	-11.3644
▁attacking	-11.3646
▁expos	-11.3653
session	-11.3657
▁950	-11.3663
fsu	-11.3666
efer	-11.3676
▁ultimate	-11.3684
▁publicly	-11.3687
▁physi	-11.3693
14.2	-11.3695
strnlght	-11.3698
▁convincing	-11.3698
▁criteria	-11.3698
▁disregard	-11.3698
▁domestic	-11.3698
▁exclude	-11.3698
▁hypothesis	-11.3698
▁implies	-11.3698
▁investigate	-11.3698
▁psychological	-11.3698
▁switzerland	-11.3698
▁continuous	-11.3698
▁kratz	-11.3698
▁manifest	-11.3698
▁mathematics	-11.3698
▁psychology	-11.3698
▁(617)	-11.3698
▁radius	-11.3698
▁5.25"	-11.3698
▁wanna	-11.3698
▁wwii	-11.3698
▁stood	-11.3698
▁sensing	-11.3698
▁sweet	-11.3698
▁triangle	-11.3699
aught	-11.3699
▁xxxx	-11.3699
▁reliability	-11.3699
▁carrier	-11.3699
▁imaging	-11.3699
▁opposition	-11.3699
fidonet	-11.37
▁alias	-11.37
hamburg	-11.3701
▁proceedings	-11.3701
▁transmitted	-11.3701
▁creed	-11.3701
mantis	-11.3702
▁radical	-11.3703
maker	-11.3705
▁viking	-11.3706
▁jerk	-11.3708
▁paris	-11.3709
▁tenn	-11.3712
▁reich	-11.3717
0'?=	-11.3717
▁purely	-11.3718
▁regional	-11.3719
▁1970	-11.3721
=/-	-11.3724
▁corresponding	-11.3724
commun	-11.3726
▁tries	-11.3731
▁wounded	-11.3732
▁fisher	-11.3735
▁3.5"	-11.3739
▁apollo	-11.3743
▁qur	-11.3746
:<>1	-11.3753
▁gerald	-11.3754
expo	-11.3757
&8+	-11.3764
quality	-11.3784
orbit	-11.3786
▁bothered	-11.3792
osis	-11.3793
xxi	-11.3794
▁bio	-11.3803
<%%	-11.3805
▁seeking	-11.3806
bake	-11.3816
▁lips	-11.3827
▁nicely	-11.383
▁responding	-11.3835
ember	-11.3838
store	-11.3842
ifas	-11.3845
▁stayed	-11.3849
find	-11.3853
▁lean	-11.3857
▁workers	-11.3871
joseph	-11.3874
william	-11.3874
pixel	-11.3874
consider	-11.3875
kevin	-11.3875
chuck	-11.3875
clark	-11.3877
strong	-11.3878
sleep	-11.3889
proof	-11.3893
1200	-11.3894
▁hind	-11.3896
▁annoy	-11.3904
demon	-11.3916
bike	-11.392
<%%1	-11.3922
▁700	-11.3924
scenario	-11.3936
▁advertising	-11.3936
▁demonstration	-11.3936
▁describing	-11.3936
▁mercury	-11.3936
▁opportunities	-11.3936
▁pacific	-11.3936
▁sustain	-11.3936
▁throttle	-11.3936
▁vaccine	-11.3936
-#2+	-11.3936
authentic	-11.3936
▁contrast	-11.3936
▁perceive	-11.3936
▁exceed	-11.3936
▁struck	-11.3936
▁inspection	-11.3936
▁kaldis	-11.3936
▁samuel	-11.3936
▁disaster	-11.3936
▁irrational	-11.3936
▁urban	-11.3937
▁ruling	-11.3937
▁versus	-11.3937
▁resort	-11.3937
▁angry	-11.3938
▁$15.00	-11.3938
▁proclaim	-11.3938
▁layout	-11.394
▁discount	-11.394
▁16550	-11.394
▁methodology	-11.394
▁habs	-11.3942
▁1.40	-11.3942
▁distinction	-11.3944
▁tribe	-11.3946
▁precisely	-11.3947
▁nearby	-11.3948
▁phi	-11.3948
%?/	-11.3951
-=-=-=-=-=-=-=-	-11.3952
mun	-11.3953
▁unto	-11.3954
▁dependent	-11.396
▁1984	-11.3961
"_"	-11.3961
▁wake	-11.3962
"`@("`@(	-11.3967
658.	-11.397
imag	-11.3983
▁plo	-11.3984
▁processes	-11.3985
▁delivered	-11.3987
▁mounted	-11.399
2000	-11.3993
pres	-11.3995
▁separately	-11.3997
▁conducted	-11.3998
▁officially	-11.4001
▁kan	-11.4004
28.1	-11.4005
▁width	-11.4008
▁xview	-11.4021
(:&	-11.4022
▁needles	-11.4027
▁bird	-11.4028
▁screwed	-11.4032
226	-11.4036
▁static	-11.4036
▁stating	-11.4037
733	-11.4041
clean	-11.4044
</#	-11.4044
▁defending	-11.4046
▁dust	-11.4048
▁viola	-11.4053
odak	-11.4056
*<\	-11.4081
▁val	-11.4084
batman	-11.4088
▁rice	-11.4097
▁grade	-11.4101
▁\___	-11.4101
roger	-11.4116
assuming	-11.4118
scientific	-11.4118
follow	-11.4118
jewish	-11.4118
truth	-11.4119
flame	-11.4119
existence	-11.412
bach	-11.412
518	-11.412
&7%	-11.4121
whatever	-11.4124
hint	-11.4137
doug	-11.414
▁josh	-11.4153
▁convention	-11.4154
▁strict	-11.4167
19.0	-11.4169
186	-11.4171
▁speculat	-11.4174
▁entertain	-11.418
▁approval	-11.418
▁boulder	-11.418
▁conspiracy	-11.418
▁emphasis	-11.418
▁glutamate	-11.418
▁inexpensive	-11.418
▁inhabitants	-11.418
▁molecular	-11.418
▁oklahoma	-11.418
▁garbage	-11.418
▁einstein	-11.418
▁hazard	-11.418
▁zealand	-11.418
]/=+2	-11.418
enterprise	-11.418
▁bureau	-11.418
▁derived	-11.418
▁bayonet	-11.418
▁nelson	-11.418
▁heavily	-11.418
▁frost	-11.418
clarinet	-11.418
▁interior	-11.418
▁presume	-11.418
▁pretend	-11.418
▁sternlight	-11.418
▁twist	-11.4181
▁barrel	-11.4181
ignoring	-11.4181
68882	-11.4181
▁citizenship	-11.4181
▁readily	-11.4182
\/3$	-11.4182
▁warren	-11.4183
▁luther	-11.4184
▁assistant	-11.4185
▁retir	-11.4186
▁terry	-11.4186
▁athens	-11.4189
▁quack	-11.419
▁3000	-11.4191
▁callback	-11.4191
▁bulletin	-11.4197
▁jail	-11.4198
tamu	-11.4202
▁3.5	-11.4205
6(^/	-11.4211
▁constantly	-11.4212
▁lind	-11.4213
▁introduced	-11.4216
▁impose	-11.4217
▁confirmed	-11.4218
▁alpha	-11.4218
224	-11.4219
▁oct	-11.4222
▁genesis	-11.4225
▁observed	-11.4228
▁igor	-11.4228
▁rally	-11.423
▁physically	-11.4232
lehigh	-11.4235
model	-11.4238
wave	-11.4239
▁610	-11.424
▁compuserve	-11.424
/-'=	-11.4244
287	-11.4247
▁triple	-11.425
vak	-11.4251
▁pinch	-11.4252
▁scar	-11.4271
▁maria	-11.4273
ella	-11.4282
hill	-11.4285
4+9	-11.4294
▁stronger	-11.431
owing	-11.4311
anger	-11.432
888	-11.4325
▁wow	-11.4329
▁attempted	-11.433
▁switched	-11.435
▁rome	-11.4358
function	-11.4368
business	-11.4368
remember	-11.4368
▁radia	-11.4369
contrib	-11.4369
silver	-11.4369
saturn	-11.4369
jesus	-11.4369
effective	-11.437
visual	-11.4371
▁engage	-11.4374
voice	-11.4374
internet	-11.4375
▁oppose	-11.4375
larry	-11.4376
wire	-11.4379
craft	-11.438
4#=	-11.4382
another	-11.4387
personal	-11.4387
quick	-11.4389
▁040	-11.4396
▁worthy	-11.4397
rough	-11.4419
-+-+-+-+-+-+-+-+	-11.4424
chess	-11.4427
unce	-11.4429
sequent	-11.4429
▁arbitrary	-11.443
▁arrogance	-11.443
▁capacitor	-11.443
▁cigarette	-11.443
▁cryptanalysis	-11.443
▁helicopter	-11.443
▁calculate	-11.443
▁commerce	-11.443
▁enemies	-11.443
▁stadium	-11.443
▁studied	-11.443
▁taylor	-11.443
▁fiction	-11.443
▁lciii	-11.443
▁pioneer	-11.443
▁scream	-11.443
▁confess	-11.443
▁statistical	-11.443
▁yellow	-11.443
handheld	-11.443
▁prospect	-11.443
▁competing	-11.443
▁digest	-11.443
▁invalid	-11.443
▁alexander	-11.443
▁sanderson	-11.4431
▁depriv	-11.4431
▁nerve	-11.4431
▁feedback	-11.4432
▁68040	-11.4432
▁array	-11.4433
bloom	-11.4433
▁comfortable	-11.4433
▁configure	-11.4434
▁sphere	-11.4434
▁attract	-11.4435
▁consultant	-11.4436
▁bryan	-11.4437
▁indication	-11.4438
▁peak	-11.444
bank	-11.4441
▁occasionally	-11.4442
▁golden	-11.4446
▁leak	-11.4448
▁repeatedly	-11.4452
micro	-11.4459
▁startup	-11.4465
▁accomplished	-11.4465
▁oracle	-11.4466
▁nichols	-11.4472
▁compressed	-11.4473
▁engaged	-11.4486
▁________	-11.4502
▁slowly	-11.4504
▁1.00	-11.4504
▁dsp	-11.4507
cription	-11.4511
▁drinking	-11.4521
▁stable	-11.4525
▁reporter	-11.453
▁grew	-11.453
▁installing	-11.4538
1471	-11.4541
▁cape	-11.4542
▁payment	-11.4545
▁kim	-11.4555
/'-%	-11.4559
580	-11.4573
beck	-11.4582
▁var	-11.4587
national	-11.4594
▁ucc	-11.4597
▁fatal	-11.4617
compuserve	-11.4624
clayton	-11.4624
▁000	-11.4625
support	-11.4625
harris	-11.4625
▁confuse	-11.4631
height	-11.4635
..............	-11.4641
<>1	-11.4644
▁formula	-11.4645
▁africa	-11.466
hhr	-11.4666
angle	-11.4681
▁virgin	-11.4684
▁adirondack	-11.4687
▁applicable	-11.4687
▁choosing	-11.4687
▁gretzky	-11.4687
▁hendricks	-11.4687
▁lyuda	-11.4687
▁purchasing	-11.4687
▁schneider	-11.4687
▁september	-11.4687
▁temporary	-11.4687
▁cluster	-11.4687
▁hughes	-11.4687
▁keenan	-11.4687
▁horror	-11.4687
▁reagan	-11.4687
▁trivial	-11.4687
▁nixon	-11.4687
▁enemy	-11.4687
▁rkba	-11.4687
▁racist	-11.4687
▁vessel	-11.4687
▁simulation	-11.4687
▁_/_/_/_/	-11.4688
▁cmos	-11.4689
▁foolish	-11.4689
▁rabbi	-11.4691
▁smokeless	-11.4691
▁voting	-11.4692
▁schism	-11.4692
▁guest	-11.4693
▁sharing	-11.4694
▁openwindows	-11.4696
▁telnet	-11.4696
▁worthless	-11.4698
▁communicate	-11.4699
▁cutting	-11.4701
title	-11.4706
▁rarely	-11.4706
▁lung	-11.4706
▁oilers	-11.4707
▁[1]	-11.471
▁geometry	-11.4712
▁african	-11.4713
▁vcr	-11.4715
rade	-11.4716
################	-11.4718
▁angel	-11.4719
▁holder	-11.472
elix	-11.4728
▁tall	-11.4733
▁linear	-11.4739
▁authorized	-11.4742
1100	-11.4744
▁hudson	-11.4745
bull	-11.4745
21.1	-11.4747
7.0	-11.4749
pnei	-11.4751
▁1280	-11.4752
▁spoken	-11.4754
▁researchers	-11.4755
mount	-11.4767
▁cited	-11.4773
ecp	-11.4774
▁demonstrated	-11.4778
cray	-11.4808
▁turk	-11.4808
122	-11.4832
▁manes	-11.4836
cern	-11.485
packard	-11.4853
semi	-11.4854
05@	-11.4859
▁loser	-11.486
8.5	-11.4875
picture	-11.4888
speak	-11.4889
gerald	-11.4889
desire	-11.489
22.1	-11.4892
worthy	-11.4899
protect	-11.4899
▁relate	-11.4918
▁govern	-11.4935
▁thin	-11.4936
▁frequent	-11.4936
▁inherent	-11.4936
▁+------	-11.4946
7,\	-11.4949
▁accelerate	-11.495
▁chemistry	-11.495
▁denizen	-11.495
▁heterosexual	-11.495
▁istanbul	-11.495
▁smuggle	-11.495
▁velocity	-11.495
benedikt	-11.495
▁computation	-11.495
▁moslem	-11.495
▁(408)	-11.495
▁narrow	-11.495
▁ariane	-11.495
▁covington	-11.495
▁00-00	-11.495
▁inevitabl	-11.495
pegasus	-11.495
eskimo	-11.495
▁muscle	-11.495
▁cherry	-11.495
▁barrier	-11.495
alchemy	-11.495
▁revised	-11.4951
▁$25.00	-11.4951
▁educate	-11.4951
▁valley	-11.4951
▁missile	-11.4951
▁springfield	-11.4951
▁biological	-11.4952
▁seminar	-11.4952
▁evaluation	-11.4953
▁mankind	-11.4953
▁jagr	-11.4953
▁discrimination	-11.4954
▁directories	-11.4955
▁cdrom	-11.4956
▁mandate	-11.4958
▁thick	-11.4959
▁establishment	-11.496
▁parity	-11.4962
▁franchise	-11.4964
▁1979	-11.4966
▁bullet	-11.4967
▁stupidity	-11.4967
stone	-11.4968
▁barry	-11.497
▁homeland	-11.4974
▁differential	-11.4977
▁3.50	-11.4979
▁accused	-11.4987
▁easter	-11.5006
▁businesses	-11.5007
ency	-11.5007
746	-11.5012
▁rendering	-11.5014
▁craft	-11.5016
▁7.1	-11.5019
▁pushing	-11.5034
▁demon	-11.5037
354	-11.5068
centerline	-11.507
larc	-11.5095
▁layer	-11.5108
ksand	-11.5117
601	-11.5132
▁chase	-11.5132
ibly	-11.5141
▁excel	-11.5143
+44	-11.5149
kjr	-11.5149
automatic	-11.5158
appropriate	-11.5158
change	-11.5158
problem	-11.5158
product	-11.5159
general	-11.5163
runner	-11.5165
▁consume	-11.5169
▁mechanic	-11.5173
286	-11.5175
---|	-11.5178
help	-11.5201
▁dimension	-11.5215
▁proportion	-11.522
practicing	-11.522
▁consortium	-11.522
▁execution	-11.522
▁involving	-11.522
▁surgery	-11.522
▁widespread	-11.522
▁yalcin	-11.522
▁immune	-11.522
▁summarize	-11.522
▁whalers	-11.522
▁functionality	-11.522
▁suppress	-11.522
▁swedish	-11.522
▁vietnam	-11.522
▁austria	-11.522
▁jaeger	-11.522
▁providence	-11.522
▁zionist	-11.522
▁smythe	-11.522
▁pascal	-11.522
▁personnel	-11.522
▁inspire	-11.522
▁revolt	-11.522
▁bandwidth	-11.522
▁neighborhood	-11.522
▁mariner	-11.5221
▁stopping	-11.5221
▁audience	-11.5221
▁insight	-11.5221
▁disarm	-11.5221
▁worthwhile	-11.5222
▁lyme	-11.5222
▁wolf	-11.5223
▁glory	-11.5225
▁addict	-11.5226
▁orange	-11.5226
▁tiny	-11.5228
▁norway	-11.5228
"`@("`@("`@("`	-11.523
▁fuck	-11.523
▁drew	-11.5231
enzo	-11.5232
▁dress	-11.5233
▁governor	-11.5234
team	-11.5234
▁korea	-11.5234
▁stamp	-11.5234
▁roof	-11.5236
▁novell	-11.5236
▁integration	-11.5236
earson	-11.5242
▁inches	-11.5244
▁hatch	-11.5247
621	-11.5248
▁khan	-11.5249
▁successfully	-11.525
xwoc	-11.5252
▁oriented	-11.5256
▁sunos	-11.5256
▁hunter	-11.5261
▁1923	-11.5261
▁lds	-11.5271
husc	-11.5274
▁peaceful	-11.5282
▁oakland	-11.5295
▁liter	-11.5303
▁runner	-11.5316
break	-11.532
aoj	-11.5324
factor	-11.5324
▁characterize	-11.5331
stick	-11.5332
util	-11.534
▁moderate	-11.5345
ripping	-11.5347
▁bass	-11.5359
responsi	-11.5368
trace	-11.5373
▁lesson	-11.5374
▁joy	-11.5376
▁ethic	-11.5379
▁shoe	-11.5393
▁publisher	-11.5398
▁india	-11.5399
▁summ	-11.5401
nwu	-11.5406
full	-11.5417
1-5	-11.5424
▁philip	-11.5424
niels	-11.5429
small	-11.543
hudson	-11.5435
craig	-11.5436
length	-11.5436
different	-11.5436
manager	-11.5436
against	-11.5439
accept	-11.5443
▁pink	-11.5444
jason	-11.5451
throw	-11.5453
dark	-11.5456
▁1200	-11.5463
▁attach	-11.5469
mouse	-11.5471
format	-11.5483
▁occasion	-11.5487
iowa	-11.549
cube	-11.5495
democrat	-11.5495
▁affirm	-11.5498
▁allergic	-11.5498
▁anatolia	-11.5498
▁canadiens	-11.5498
▁disturb	-11.5498
▁incredible	-11.5498
▁incredibly	-11.5498
▁independence	-11.5498
▁judaism	-11.5498
▁memorial	-11.5498
▁mozumder	-11.5498
▁pasadena	-11.5498
▁separation	-11.5498
▁stewart	-11.5498
▁generator	-11.5498
146008	-11.5498
▁nevertheless	-11.5498
malcolm	-11.5498
▁survivor	-11.5498
▁evident	-11.5498
▁dirty	-11.5498
▁afternoon	-11.5498
▁isaiah	-11.5498
▁kansas	-11.5498
▁observatory	-11.5498
▁mystery	-11.5498
▁sincerely	-11.5498
▁solely	-11.5499
▁lunatic	-11.5499
▁vital	-11.5499
▁intentionally	-11.55
▁clement	-11.55
▁derek	-11.5501
▁bounce	-11.5501
▁16,00	-11.5501
▁provision	-11.5501
argv	-11.5501
theodore	-11.5501
▁disorder	-11.5502
▁hayes	-11.5502
▁outcome	-11.5504
fido	-11.5505
▁alien	-11.5507
///	-11.5507
▁bench	-11.5509
▁baud	-11.551
"`@("`	-11.5513
▁leap	-11.5513
▁marty	-11.5513
▁ultimately	-11.5515
▁clothing	-11.5515
known	-11.5518
▁cobb	-11.5518
▁arise	-11.5521
▁recovery	-11.5528
▁1975	-11.5545
▁syrian	-11.5546
..........	-11.5546
owitz	-11.5551
▁informed	-11.5553
save	-11.5558
▁shame	-11.5564
▁monthly	-11.5574
opped	-11.5583
▁chest	-11.5587
3.5	-11.5587
▁195	-11.5596
zeus	-11.5608
allen	-11.5624
▁fundamentalist	-11.5648
(:<	-11.565
("`@("`@(	-11.5676
▁milk	-11.5682
cellar	-11.5716
daniel	-11.5722
condition	-11.5722
software	-11.5723
buffer	-11.5723
front	-11.5726
weight	-11.5738
return	-11.5739
article	-11.574
▁thrust	-11.5745
button	-11.5746
▁flee	-11.5748
▁colleague	-11.5783
▁competition	-11.5783
▁convicted	-11.5783
▁dedicated	-11.5783
▁goaltender	-11.5783
▁guerilla	-11.5783
▁happiness	-11.5783
▁negotiate	-11.5783
▁netherlands	-11.5783
▁obscure	-11.5783
▁october	-11.5783
▁puzzle	-11.5783
▁satisfied	-11.5783
▁supplement	-11.5783
▁tragedy	-11.5783
▁administrator	-11.5784
▁enormous	-11.5784
▁universities	-11.5784
▁atlantic	-11.5784
▁bullshit	-11.5784
▁hernlem	-11.5784
▁trunk	-11.5784
▁ralph	-11.5784
▁bottle	-11.5784
▁racism	-11.5784
▁statute	-11.5784
▁racial	-11.5784
vincent	-11.5784
%6]	-11.5784
▁therapy	-11.5784
▁rushdie	-11.5784
▁buried	-11.5784
▁nasty	-11.5784
▁entity	-11.5784
▁evans	-11.5785
▁excessive	-11.5785
▁ugly	-11.5786
▁liability	-11.5786
▁brett	-11.5786
hst	-11.5788
▁rgb	-11.5789
▁salary	-11.5791
wwhj	-11.5793
▁overwhelming	-11.5794
▁rapidly	-11.5795
▁scout	-11.5796
▁strictly	-11.58
▁ltd	-11.5801
▁1968	-11.5802
▁sword	-11.5803
▁defeated	-11.5804
▁trail	-11.5804
▁jonathan	-11.581
▁righteous	-11.581
▁prevention	-11.5811
▁1960	-11.5812
▁cease	-11.5812
▁mobile	-11.5814
▁booster	-11.5824
▁fluid	-11.5825
▁secondary	-11.5829
▁deeply	-11.5831
▁lineup	-11.5832
▁fallen	-11.5836
galaxy	-11.5839
▁**************	-11.5841
intel	-11.5842
▁(198	-11.5846
▁hacker	-11.5856
rider	-11.5857
▁rash	-11.5868
getting	-11.5892
▁gnu	-11.5896
▁2.10	-11.5905
▁1914	-11.5916
▁******	-11.5945
4"%	-11.5946
-3[>	-11.5948
aaaa	-11.5956
1.7	-11.597
▁audi	-11.5981
snap	-11.6014
written	-11.6016
culture	-11.6016
fight	-11.6016
father	-11.6017
begin	-11.6018
peace	-11.602
▁locate	-11.6022
▁evaluate	-11.6023
someone	-11.6027
▁socialist	-11.6029
converter	-11.6036
wayne	-11.6042
▁correspond	-11.6044
6-9	-11.6055
male	-11.6055
▁guilt	-11.6059
▁candida	-11.6074
5%145%145%	-11.6074
synchronous	-11.6078
▁coordinate	-11.6078
▁cypriot	-11.6078
▁excerpt	-11.6078
▁hernandez	-11.6078
▁hewlett	-11.6078
▁judgment	-11.6078
▁laboratories	-11.6078
▁manufacturing	-11.6078
▁tutorial	-11.6078
▁twenty	-11.6078
▁yield	-11.6078
▁reduction	-11.6078
▁homeopath	-11.6078
▁moscow	-11.6078
▁producing	-11.6078
▁lopez	-11.6078
▁kendig	-11.6078
▁praise	-11.6078
▁balloon	-11.6078
▁utica	-11.6078
▁crawl	-11.6078
▁probable	-11.6078
+`9&1	-11.6078
▁misunderstand	-11.6078
▁cryptographic	-11.6078
▁substitute	-11.6078
▁benchmark	-11.6078
tasking	-11.6079
▁batteries	-11.6079
+,?'	-11.608
▁devote	-11.608
▁discipline	-11.6081
strasse	-11.6081
▁poison	-11.6082
▁batting	-11.6083
lusive	-11.6083
▁flyby	-11.6083
▁svr	-11.6083
▁instant	-11.6083
▁recchi	-11.6084
▁retail	-11.6085
▁conform	-11.6086
▁harry	-11.6087
▁thou	-11.6089
▁geoff	-11.6089
▁iranian	-11.6089
courtesy	-11.609
++++++++++++	-11.6092
▁acceptance	-11.6092
▁_/_/	-11.6092
▁fastest	-11.6092
▁urge	-11.6093
▁elias	-11.6094
▁dislike	-11.6095
<=(]	-11.6096
▁lowest	-11.6097
▁meaningful	-11.6099
▁wales	-11.6102
▁dragon	-11.6103
▁1974	-11.6104
▁1977	-11.6105
▁reactor	-11.6107
▁plea	-11.6107
▁kenneth	-11.6111
▁italy	-11.6122
intentional	-11.6122
▁telecom	-11.6132
nkhf	-11.6141
▁nail	-11.6141
▁dash	-11.6141
louisville	-11.6159
%=7	-11.6162
▁$60	-11.6163
morph	-11.6215
+!34	-11.6232
8.3	-11.6293
▁cheat	-11.6298
document	-11.6319
bruce	-11.6319
example	-11.6319
anyway	-11.6325
▁lamb	-11.6329
145%14	-11.6331
royal	-11.6333
)"2	-11.6349
unless	-11.6354
▁combin	-11.6359
▁hack	-11.636
▁precise	-11.6367
▁distinct	-11.6371
▁abort	-11.6373
trumpet	-11.6381
▁astronaut	-11.6381
▁dramatically	-11.6381
▁erzurum	-11.6381
▁implied	-11.6381
▁infectious	-11.6381
▁omniscient	-11.6381
▁pennsylvania	-11.6381
▁recognition	-11.6381
▁sensitivity	-11.6381
▁skipjack	-11.6381
▁suspension	-11.6381
▁terribly	-11.6381
▁thompson	-11.6381
▁welfare	-11.6381
▁corporate	-11.6381
▁cryptology	-11.6381
▁decenso	-11.6381
▁goverment	-11.6381
▁smoking	-11.6381
▁vague	-11.6381
▁identity	-11.6381
▁undefined	-11.6381
▁communist	-11.6381
▁finance	-11.6381
▁congressional	-11.6381
▁felon	-11.6381
▁(205)	-11.6381
▁jerry	-11.6381
▁|_____|	-11.6381
▁diagram	-11.6381
▁intrinsics	-11.6381
▁humor	-11.6381
▁loving	-11.6381
▁babylon	-11.6382
▁utah	-11.6382
▁serving	-11.6382
▁sandberg	-11.6382
▁contradictory	-11.6382
▁orchid	-11.6382
▁generic	-11.6382
▁advise	-11.6382
yigal	-11.6383
▁bundle	-11.6383
radio	-11.6383
▁integrated	-11.6383
▁palmer	-11.6383
▁encode	-11.6384
ubvms	-11.6384
▁swear	-11.6384
▁persist	-11.6384
▁clothes	-11.6384
▁insulation	-11.6386
▁tempest	-11.6386
▁blew	-11.6386
▁ssto	-11.6388
▁enhancement	-11.6392
\_-.	-11.6393
gtoal	-11.6395
▁batch	-11.6395
▁relay	-11.6397
▁alice	-11.6398
▁innings	-11.64
▁1981	-11.6404
▁certainty	-11.6405
▁pants	-11.6406
6/-8	-11.6407
▁xwd	-11.6408
curtis	-11.6414
▁bread	-11.6414
▁resistor	-11.6417
▁upload	-11.6418
▁proton	-11.6422
▁honestly	-11.6426
▁hyper	-11.6441
▁misuse	-11.646
▁automat	-11.6461
▁discriminat	-11.6481
figuring	-11.6501
▁ethical	-11.6515
quant	-11.652
18.0	-11.6547
rule	-11.6556
▁rotate	-11.6568
▁............	-11.6576
▁hunting	-11.6579
▁iris	-11.6613
▁$35	-11.6631
built	-11.6632
concern	-11.6633
colormap	-11.6633
always	-11.6633
martin	-11.6635
hiram	-11.6644
▁luna	-11.6668
▁profess	-11.6682
▁literal	-11.669
*=*=*=*=*=*=*=*=	-11.6693
olchowy	-11.6693
▁affiliate	-11.6693
▁amplifier	-11.6693
▁anecdotal	-11.6693
▁arithmetic	-11.6693
▁categories	-11.6693
▁concentrate	-11.6693
▁evangelical	-11.6693
▁galileo	-11.6693
▁imagination	-11.6693
▁paranoid	-11.6693
▁primitive	-11.6693
▁prophecies	-11.6693
▁province	-11.6693
▁seizure	-11.6693
▁uranium	-11.6693
▁verdict	-11.6693
▁messenger	-11.6693
▁zionism	-11.6693
yalanci	-11.6693
▁vector	-11.6693
▁bastard	-11.6693
▁constrain	-11.6693
▁czech	-11.6693
▁creative	-11.6693
▁relating	-11.6693
covingt	-11.6693
▁blessed	-11.6693
▁palette	-11.6694
▁altitude	-11.6694
nriz	-11.6694
▁insane	-11.6694
▁wordperfect	-11.6694
``````	-11.6694
▁combat	-11.6695
▁charlie	-11.6696
▁recommendations	-11.6696
▁tissue	-11.6697
▁coprocessor	-11.6697
▁berry	-11.6697
▁christmas	-11.6698
▁preferred	-11.6698
▁patrol	-11.6699
▁involvement	-11.67
▁aaron	-11.67
▁danny	-11.6702
▁spray	-11.6702
▁meaningless	-11.6702
▁keyword	-11.6702
▁compact	-11.6704
▁fitting	-11.6705
-+-+-+-+-+-+	-11.6705
▁grip	-11.6705
▁exclusively	-11.6706
▁hulk	-11.6708
▁singer	-11.6708
evil	-11.6709
oulu	-11.671
▁charter	-11.671
▁federalist	-11.6711
▁compell	-11.6713
▁herring	-11.6716
▁janet	-11.6716
▁deeds	-11.6719
gwu	-11.672
▁discovery	-11.6724
▁clarke	-11.6732
▁kiss	-11.6738
%<2	-11.6746
4*%	-11.675
85`	-11.6756
ixie	-11.6758
emory	-11.6766
motorcycles	-11.6768
956	-11.6785
yang	-11.6793
mnemo	-11.6879
='1]_?	-11.6893
karabagh	-11.6895
▁$45	-11.6906
arab	-11.6908
45%145%1	-11.6915
effect	-11.6952
apollo	-11.6953
homosexual	-11.6954
muslim	-11.6954
available	-11.6954
machine	-11.6954
deleted	-11.6954
compared	-11.6954
faith	-11.6954
authorized	-11.6955
transfer	-11.6955
patrick	-11.6955
▁organize	-11.6962
physical	-11.6962
miller	-11.6967
terminal	-11.6972
ctive	-11.6974
/-'1	-11.698
lord	-11.6992
▁=====	-11.6996
▁comfort	-11.7012
▁occasional	-11.7013
▁xtsetarg	-11.7016
▁arromdee	-11.7016
▁enlighten	-11.7016
sabretooth	-11.7016
▁astronomical	-11.7016
▁atrocities	-11.7016
▁bacteria	-11.7016
▁concentration	-11.7016
▁discharge	-11.7016
▁elaborate	-11.7016
▁empirical	-11.7016
▁finnish	-11.7016
▁obedience	-11.7016
▁pregnancy	-11.7016
▁satisfy	-11.7016
▁soderstrom	-11.7016
▁unnecessary	-11.7016
▁vitamin	-11.7016
▁yamaha	-11.7016
▁coffee	-11.7016
▁higgins	-11.7016
▁veteran	-11.7016
▁(703)	-11.7016
▁baerga	-11.7016
▁paradise	-11.7016
▁survival	-11.7016
▁centaur	-11.7016
▁rutledge	-11.7016
▁irvine	-11.7016
$"%``4``(`"`	-11.7016
▁absence	-11.7016
▁reducing	-11.7016
▁armored	-11.7016
▁denial	-11.7016
▁dismiss	-11.7016
▁pulse	-11.7016
▁otto	-11.7016
molitor	-11.7016
▁distant	-11.7016
▁motive	-11.7016
cochran	-11.7017
▁medium	-11.7017
▁swiss	-11.7017
bgsu	-11.7018
▁zoom	-11.7018
▁miami	-11.7018
▁hostile	-11.7019
▁ruth	-11.7019
▁pluto	-11.7021
▁endorse	-11.7022
tammy	-11.7023
▁polar	-11.7023
▁popup	-11.7023
▁<9304	-11.7024
▁weakness	-11.7024
▁bridge	-11.7025
▁speculation	-11.7026
▁prisoners	-11.7028
▁drill	-11.7031
▁china	-11.7031
utzoo	-11.7035
▁babb	-11.7037
calvin	-11.704
apologies	-11.7043
▁repost	-11.7048
▁dogma	-11.7055
▁scary	-11.7056
145%145%14	-11.7058
▁exec	-11.7065
▁transformer	-11.7066
▁punch	-11.7081
▁boil	-11.7088
latter	-11.7096
usually	-11.711
extra	-11.7111
army	-11.7114
!!!!!!!	-11.7138
▁deposit	-11.714
▁********	-11.7157
norman	-11.7181
▁psycho	-11.7213
handle	-11.7251
ibble	-11.7273
incoming	-11.7275
present	-11.7286
religious	-11.7287
health	-11.7287
montreal	-11.7288
video	-11.7289
calgary	-11.7289
service	-11.7292
issue	-11.7292
islam	-11.7293
click	-11.7295
taking	-11.7314
▁steer	-11.7322
feel	-11.7339
<7$9	-11.7348
abilities	-11.7349
hobgoblin	-11.7349
▁arrangement	-11.7349
▁binghamton	-11.7349
▁cincinnati	-11.7349
▁criticize	-11.7349
▁frequencies	-11.7349
▁implicit	-11.7349
▁magellan	-11.7349
▁manipulate	-11.7349
▁odometer	-11.7349
▁parliament	-11.7349
▁phenomenon	-11.7349
▁principal	-11.7349
▁promiscuous	-11.7349
▁proprietary	-11.7349
▁requiring	-11.7349
///////////////	-11.7349
bskendig	-11.7349
▁necessity	-11.7349
▁roussel	-11.7349
▁aggressive	-11.7349
▁autoexec	-11.7349
▁grenade	-11.7349
claremont	-11.7349
quotation	-11.7349
▁(919)	-11.7349
▁deliberately	-11.7349
▁mandatory	-11.7349
▁reputation	-11.7349
▁stefan	-11.7349
▁grateful	-11.7349
ficiency	-11.7349
▁descend	-11.7349
▁instinct	-11.7349
▁halifax	-11.7349
▁unfair	-11.7349
▁flavor	-11.7349
▁retain	-11.7349
````````````````	-11.7349
▁liefeld	-11.735
▁madison	-11.735
▁guitar	-11.735
▁invented	-11.7351
▁optical	-11.7351
▁shipped	-11.7351
▁805/	-11.7351
▁banned	-11.7351
lockheed	-11.7352
▁attractive	-11.7353
▁torque	-11.7354
$1$1	-11.7354
▁editorial	-11.7354
▁brutal	-11.7354
▁indians	-11.7354
▁slick	-11.7356
▁transportation	-11.7356
▁olson	-11.7357
▁esdi	-11.7357
▁keycode	-11.7358
▁valve	-11.736
▁priority	-11.7361
▁preference	-11.7361
brandeis	-11.7362
▁feb	-11.7362
▁duff	-11.7363
▁toilet	-11.7363
▁hallam	-11.7365
▁existance	-11.7367
▁inherently	-11.7367
umass	-11.7368
▁pickup	-11.7371
▁atoms	-11.7372
▁100,000	-11.7376
▁rpm	-11.7383
▁yell	-11.7394
given	-11.744
▁tale	-11.745
▁hunt	-11.7457
▁+61	-11.7458
▁restriction	-11.7464
'$9@	-11.7468
hawk	-11.7482
rational	-11.7588
genesis	-11.7632
object	-11.7632
blood	-11.7632
anything	-11.7632
cramer	-11.7632
baseball	-11.7633
running	-11.7635
piece	-11.7635
random	-11.7636
▁arrive	-11.7639
seems	-11.7641
heart	-11.7655
encies	-11.7655
$!`0	-11.7662
▁rebel	-11.7667
▁exclusive	-11.768
▁definite	-11.768
▁unfortunate	-11.768
left	-11.7683
having	-11.7684
▁avail	-11.7691
murdoch	-11.7694
ludicrous	-11.7694
▁beauchaine	-11.7694
▁collapse	-11.7694
▁continuing	-11.7694
▁encyclopedia	-11.7694
▁fantasy	-11.7694
▁flexible	-11.7694
▁floppies	-11.7694
▁ghetto	-11.7694
▁hopkins	-11.7694
▁motorcycling	-11.7694
▁neglect	-11.7694
▁oxygen	-11.7694
▁participants	-11.7694
▁prevalence	-11.7694
▁significance	-11.7694
▁twelve	-11.7694
▁distortion	-11.7694
▁incentive	-11.7694
▁medication	-11.7694
▁rebound	-11.7694
▁sabres	-11.7694
muenchen	-11.7694
▁genuine	-11.7694
▁inspector	-11.7694
▁probability	-11.7694
▁abolish	-11.7694
▁premium	-11.7694
valentine	-11.7694
▁intimidat	-11.7694
▁lobby	-11.7694
▁creator	-11.7694
▁oliver	-11.7694
▁protein	-11.7694
▁ocean	-11.7694
▁mutlu	-11.7694
▁entities	-11.7694
>7@,#`	-11.7694
▁pyron	-11.7694
▁tolerance	-11.7694
infected	-11.7694
▁pleasure	-11.7695
▁$1.50	-11.7695
▁afterwards	-11.7695
▁interfere	-11.7695
▁pursue	-11.7695
▁aviation	-11.7695
stderr	-11.7695
▁confidential	-11.7695
▁microwave	-11.7695
▁davidsson	-11.7695
▁football	-11.7695
amherst	-11.7695
▁tartar	-11.7695
▁jefferson	-11.7696
▁modification	-11.7696
▁dominate	-11.7696
▁ireland	-11.7696
▁intergraph	-11.7696
▁gerard	-11.7696
▁assessment	-11.7697
▁gazans	-11.7697
▁$10.00	-11.7698
montana	-11.7698
▁molest	-11.7698
▁pride	-11.7698
▁persian	-11.7699
▁housing	-11.7699
▁authorization	-11.77
yoyo	-11.7701
▁legend	-11.7701
▁herself	-11.7702
▁breton	-11.7702
▁selfish	-11.7703
bailey	-11.7703
▁collective	-11.7705
circa	-11.7707
castle	-11.7708
▁jimmy	-11.7709
▁outbreak	-11.7709
▁rapid	-11.7719
▁conception	-11.772
-;\	-11.7726
qrpl	-11.7728
ursa	-11.7736
▁fake	-11.7739
▁hassle	-11.7742
initialize	-11.7747
piration	-11.7752
[-_	-11.7761
fraser	-11.7791
▁panic	-11.7794
▁$2.5	-11.7836
gang	-11.788
"`@("`@("`	-11.7899
hostname	-11.7902
`@``	-11.793
chrom	-11.7945
▁weigh	-11.7951
blaze	-11.7951
tronic	-11.7956
yua	-11.7962
context	-11.7978
electronic	-11.7989
recognize	-11.7989
application	-11.7989
million	-11.7989
wheel	-11.799
▁hype	-11.799
controlled	-11.7991
rather	-11.7992
▁faithful	-11.8015
▁pittsburg	-11.8029
▁sudden	-11.8037
▁batter	-11.8042
obfuscate	-11.8051
@@@@@@@@@@@@@@@	-11.8051
champaign	-11.8051
disadvantage	-11.8051
▁altogether	-11.8051
▁atmospheric	-11.8051
▁compatibility	-11.8051
▁countersteering	-11.8051
▁diagnosis	-11.8051
▁feasible	-11.8051
▁gonorrhea	-11.8051
▁headquarter	-11.8051
▁hojali	-11.8051
▁impulse	-11.8051
▁maintenance	-11.8051
▁occupying	-11.8051
▁opposing	-11.8051
▁persecute	-11.8051
▁plausible	-11.8051
▁possibilities	-11.8051
▁quoting	-11.8051
▁vacuum	-11.8051
▁voyager	-11.8051
▁wisconsin	-11.8051
▁bethesda	-11.8051
▁infallible	-11.8051
▁microcircuits	-11.8051
dartmouth	-11.8051
▁porsche	-11.8051
▁favour	-11.8051
▁disgust	-11.8051
▁respectively	-11.8051
▁essence	-11.8051
▁nissan	-11.8051
▁archie	-11.8051
▁closing	-11.8051
▁integer	-11.8051
▁spider	-11.8051
%%%%%%%%%%%%%%%%	-11.8051
▁flaming	-11.8051
▁kidding	-11.8052
▁nejm	-11.8052
▁behalf	-11.8052
▁$35.00	-11.8052
toshiba	-11.8052
▁mercy	-11.8052
▁simmons	-11.8052
▁democrats	-11.8053
▁knee	-11.8053
▁organism	-11.8053
▁teeth	-11.8054
▁garden	-11.8055
!@8&	-11.8055
▁buzz	-11.8055
▁chelios	-11.8055
▁convertible	-11.8055
▁tongue	-11.8055
▁outrage	-11.8055
▁smell	-11.8056
▁shutout	-11.8056
▁bulb	-11.8056
▁68030	-11.8056
▁refugees	-11.8057
▁slavery	-11.8057
▁flesh	-11.8058
▁handbook	-11.8058
▁copper	-11.8058
▁airport	-11.8058
▁barbar	-11.8058
34["	-11.8059
boomer	-11.8059
▁knight	-11.8059
nswc	-11.8061
bhkc	-11.8061
▁rebuild	-11.8061
▁rockies	-11.8062
▁sedan	-11.8062
▁lightning	-11.8063
▁jude	-11.8066
embry	-11.8067
6/./	-11.8069
▁validity	-11.8069
mangoe	-11.8072
georgetown	-11.8074
▁prong	-11.808
▁harmful	-11.8084
▁meyer	-11.8088
sdsu	-11.8088
total	-11.8104
▁emerge	-11.8117
answer	-11.8119
vertex	-11.8139
3$,8>'	-11.8169
flush	-11.8182
▁shelf	-11.8227
▁slug	-11.823
undergrad	-11.8237
26.1	-11.826
shirt	-11.8299
▁transform	-11.8345
reference	-11.8356
nichols	-11.8359
phoenix	-11.8359
signature	-11.8359
shield	-11.8359
weapon	-11.8359
develop	-11.836
civil	-11.836
writing	-11.836
shoot	-11.8361
yeah	-11.8361
mentioned	-11.8365
45%145%	-11.8377
choice	-11.8378
connor	-11.8392
▁excess	-11.8419
▁deliberat	-11.8421
▁ammunition	-11.8421
▁bathroom	-11.8421
▁chrysler	-11.8421
▁emphasize	-11.8421
▁episode	-11.8421
▁equipped	-11.8421
▁ezekiel	-11.8421
▁fortunately	-11.8421
▁hussein	-11.8421
▁industries	-11.8421
▁judging	-11.8421
▁monochrome	-11.8421
▁replacing	-11.8421
▁simultaneously	-11.8421
▁symposium	-11.8421
▁tavares	-11.8421
▁technician	-11.8421
▁triumph	-11.8421
dortmund	-11.8421
▁abraham	-11.8421
▁absorb	-11.8421
▁analyst	-11.8421
▁competitor	-11.8421
▁magnetic	-11.8421
liverpool	-11.8421
▁pollution	-11.8421
semitism	-11.8421
▁identification	-11.8421
interlaced	-11.8421
panasonic	-11.8421
▁lecture	-11.8421
%*%*%*%*%*%*%*	-11.8421
▁bullock	-11.8421
▁silence	-11.8421
▁yassin	-11.8421
▁honour	-11.8422
▁trident	-11.8422
▁omni	-11.8422
▁geoffrey	-11.8422
▁summaries	-11.8422
||||||||	-11.8422
▁jfif	-11.8422
▁kelly	-11.8422
▁polish	-11.8422
▁circular	-11.8422
leonard	-11.8422
▁corpses	-11.8423
▁moore	-11.8423
▁zoolog	-11.8423
▁olney	-11.8424
▁templeton	-11.8425
▁reproduce	-11.8425
▁supra	-11.8425
▁borrow	-11.8425
▁diskette	-11.8425
▁coding	-11.8427
xerox	-11.8427
▁replica	-11.8428
▁quran	-11.8429
▁shafer	-11.8429
▁interval	-11.8431
▁debt	-11.8431
,000,000	-11.8432
/'.6	-11.8434
yuma	-11.8437
jamie	-11.8438
snake	-11.8438
▁overlap	-11.8443
guild	-11.8447
▁illustrate	-11.8511
raider	-11.8527
▁champion	-11.8564
▁soldier	-11.8574
▁$400	-11.8575
=-=-=-=-=-=-=-=	-11.8579
%!04	-11.8592
forged	-11.8687
06.1	-11.87
definitely	-11.8744
official	-11.8744
unfortunately	-11.8744
according	-11.8744
enough	-11.8744
judge	-11.8745
freedom	-11.8745
watch	-11.8747
graham	-11.8749
index	-11.8749
▁introduce	-11.875
drug	-11.8754
#############	-11.8764
▁novel	-11.879
cipriani	-11.8806
▁acquisition	-11.8806
▁carpenter	-11.8806
▁decipher	-11.8806
▁envelope	-11.8806
▁executable	-11.8806
▁exploit	-11.8806
▁explosion	-11.8806
▁gehrels	-11.8806
▁magnitude	-11.8806
▁muhammad	-11.8806
▁obsolete	-11.8806
▁sophisticated	-11.8806
▁throat	-11.8806
▁treasury	-11.8806
▁unreasonable	-11.8806
▁virtue	-11.8806
▁qualified	-11.8806
▁reboot	-11.8806
▁deskjet	-11.8806
▁exciting	-11.8806
▁kennedy	-11.8806
▁tulsa	-11.8806
ulysses	-11.8806
▁livermore	-11.8806
▁preparation	-11.8806
▁+---+	-11.8806
▁flood	-11.8806
▁marshall	-11.8806
▁ritual	-11.8806
▁orioles	-11.8806
▁jayne	-11.8806
lecoint	-11.8806
▁managing	-11.8806
▁harvey	-11.8806
▁bumper	-11.8806
▁(206)	-11.8806
evangeli	-11.8806
▁obfuscated	-11.8806
▁boggs	-11.8806
▁injection	-11.8807
▁plague	-11.8807
▁abroad	-11.8807
<7$9&1	-11.8808
▁spanish	-11.8808
▁brewer	-11.8808
▁civic	-11.8808
▁interaction	-11.8808
▁fuhr	-11.8809
solomon	-11.881
concert	-11.881
▁toplevel	-11.881
▁rauser	-11.8811
▁straw	-11.8811
pizza	-11.8811
oxford	-11.8812
▁pardon	-11.8812
studio	-11.8813
▁stephan	-11.8813
▁electricity	-11.8814
▁fulk	-11.8814
▁considerably	-11.8814
▁7.50	-11.8816
▁roster	-11.8816
▁halat	-11.8817
▁russ	-11.8818
▁harsh	-11.8818
▁effectiveness	-11.8819
▁wingate	-11.8822
▁settlement	-11.8831
▁adjustment	-11.8836
-=-=-=	-11.8841
5'1	-11.8867
armory	-11.887
sodium	-11.8874
enforc	-11.8911
kimba	-11.8939
barely	-11.896
config	-11.9028
5]17	-11.904
4%!0	-11.9048
▁conscious	-11.9065
knowledge	-11.9144
occupied	-11.9144
journal	-11.9144
george	-11.9144
economic	-11.9144
suppose	-11.9144
exactly	-11.9144
turkish	-11.9144
microsoft	-11.9144
clinton	-11.9144
phrase	-11.9145
assisted	-11.9148
special	-11.9148
alpha	-11.915
audio	-11.915
▁accuse	-11.9151
jews	-11.9151
▁approve	-11.9151
york	-11.9167
understand	-11.9177
paint	-11.9179
▁refuge	-11.92
▁assess	-11.9206
motorcyclist	-11.9206
▁bizarre	-11.9206
▁celebrate	-11.9206
▁celebration	-11.9206
▁comparative	-11.9206
▁convenience	-11.9206
▁incorporated	-11.9206
▁investigating	-11.9206
▁kurdish	-11.9206
▁lefebvre	-11.9206
▁lincoln	-11.9206
▁maneuver	-11.9206
▁melbourne	-11.9206
▁neighbour	-11.9206
▁philosopher	-11.9206
▁preliminary	-11.9206
▁schmidt	-11.9206
▁compensation	-11.9206
▁desirable	-11.9206
▁omitted	-11.9206
▁removal	-11.9206
▁tremendous	-11.9206
umanitoba	-11.9206
▁clarify	-11.9206
▁91109	-11.9206
camelot	-11.9206
defamation	-11.9206
▁activist	-11.9206
▁laptop	-11.9206
▁richmond	-11.9206
▁pennant	-11.9206
▁(510)	-11.9206
▁snail	-11.9206
▁fraction	-11.9206
▁inference	-11.9206
▁unwilling	-11.9206
▁variant	-11.9206
▁babies	-11.9206
,3`\/#	-11.9206
▁mexico	-11.9206
▁fischer	-11.9206
▁ignite	-11.9206
▁grayscale	-11.9206
▁amazed	-11.9206
▁squid	-11.9206
;!(2$	-11.9206
▁disabled	-11.9207
▁schismatic	-11.9207
▁mustang	-11.9207
▁atomic	-11.9207
▁trading	-11.9207
▁baker	-11.9207
▁microphone	-11.9207
▁$30.00	-11.9208
▁radiation	-11.9208
▁recieve	-11.9208
▁submission	-11.9208
▁mortal	-11.9209
▁tragic	-11.9209
▁confront	-11.9209
▁duties	-11.921
▁banning	-11.921
mathemati	-11.9211
▁fortran	-11.9211
▁reconcile	-11.9211
▁resume	-11.9212
-(6%	-11.9212
▁brute	-11.9213
▁texture	-11.9213
▁intersection	-11.9213
▁rockwell	-11.9214
▁pict	-11.9216
<]$\	-11.922
▁serbia	-11.9222
jenks	-11.9224
▁transformation	-11.9229
▁+========	-11.9235
▁sugar	-11.9254
<]@\	-11.9266
joshua	-11.9268
------+---------	-11.929
5!86%	-11.9302
default	-11.9324
spike	-11.9349
▁freeze	-11.9351
lipping	-11.9409
▁skate	-11.9437
/-@\	-11.9496
philli	-11.9504
-------+	-11.9511
stitute	-11.9527
convert	-11.9532
fellow	-11.9561
obviously	-11.9561
children	-11.9561
weird	-11.9561
everything	-11.9561
matthew	-11.9561
western	-11.9561
hardware	-11.9563
unknown	-11.9564
mathew	-11.9565
▁distribute	-11.9567
▁uncle	-11.9574
flag	-11.9581
_______|	-11.9581
ologies	-11.9588
▁immuniz	-11.9588
../.././	-11.9623
▁542-03	-11.9623
▁wuarchive	-11.9623
inflammatory	-11.9623
lafayette	-11.9623
▁acronym	-11.9623
▁antibiotic	-11.9623
▁archbishop	-11.9623
▁christopher	-11.9623
▁concrete	-11.9623
▁confidence	-11.9623
▁discredit	-11.9623
▁disobedience	-11.9623
▁fredericton	-11.9623
▁hizbollah	-11.9623
▁mcconkie	-11.9623
▁oscillator	-11.9623
▁participating	-11.9623
▁persuade	-11.9623
▁photoshop	-11.9623
▁recognise	-11.9623
▁sarcasm	-11.9623
▁scrutiny	-11.9623
▁strawberry	-11.9623
▁sunnyvale	-11.9623
▁sutherland	-11.9623
▁unbreakable	-11.9623
▁winbench	-11.9623
▁wrench	-11.9623
▁appointed	-11.9623
▁denomination	-11.9623
▁nutrition	-11.9623
▁ordnance	-11.9623
▁ozzie	-11.9623
▁divorce	-11.9623
▁generating	-11.9623
▁thirty	-11.9623
svoboda	-11.9623
▁belfour	-11.9623
▁courage	-11.9623
▁ducati	-11.9623
▁(503)	-11.9623
▁cordless	-11.9623
▁sampling	-11.9623
▁savior	-11.9623
▁upgrading	-11.9623
▁metaboli	-11.9623
▁fifty	-11.9623
catbyte	-11.9623
dtmedin	-11.9623
▁inclined	-11.9623
▁fetus	-11.9623
▁servant	-11.9623
▁diagnostic	-11.9623
▁daryl	-11.9623
▁dinner	-11.9623
▁regret	-11.9623
widgetclass	-11.9623
▁bedroom	-11.9623
▁minimize	-11.9623
▁charging	-11.9624
▁eager	-11.9624
▁simtel	-11.9624
▁comics	-11.9624
▁68070	-11.9625
▁alternate	-11.9625
:8:1	-11.9625
0,#7	-11.9625
;$,8>'	-11.9625
almanac	-11.9625
▁clever	-11.9627
▁divert	-11.9627
▁gulf	-11.9627
▁polite	-11.9628
▁latin	-11.9628
▁blanket	-11.9628
▁hiding	-11.9628
▁permitted	-11.9629
▁proverb	-11.9631
▁68000	-11.9631
▁overcome	-11.9631
▁jeep	-11.9631
▁denis	-11.9631
staff	-11.9638
▁tolerate	-11.9649
existent	-11.9664
4[`9	-11.9675
hopin	-11.9699
▁impo	-11.9753
▁guru	-11.976
anchor	-11.9761
ressive	-11.979
hellman	-11.9805
▁consequence	-11.9816
omaha	-11.9819
▁3:1	-11.9865
linkne	-11.9905
▁thankful	-11.992
approved	-11.9995
hopefully	-11.9995
lemieux	-11.9995
central	-11.9995
oracle	-11.9995
channel	-11.9996
destroy	-11.9996
digital	-11.9996
necessarily	-11.9996
switch	-11.9996
private	-11.9996
similar	-11.9996
evidence	-11.9996
average	-11.9996
possibly	-11.9996
subject	-11.9996
release	-11.9996
require	-11.9996
respect	-11.9997
insert	-11.9998
ethnic	-11.9998
greek	-11.9999
atlas	-12
senator	-12.0001
▁defeat	-12.0027
▁explicit	-12.0043
▁confident	-12.0056
helsinki	-12.0057
▁adventure	-12.0057
▁counsel	-12.0057
▁cripple	-12.0057
▁dishonest	-12.0057
▁dorothy	-12.0057
▁exterminate	-12.0057
▁iniquity	-12.0057
▁precedent	-12.0057
▁prosecution	-12.0057
▁shostack	-12.0057
▁tournament	-12.0057
▁balcony	-12.0057
▁desperate	-12.0057
▁determining	-12.0057
▁laserwriter	-12.0057
▁perception	-12.0057
▁taiwan	-12.0057
▁knives	-12.0057
▁poverty	-12.0057
▁pentium	-12.0057
▁taurus	-12.0057
▁(713)	-12.0057
▁02238	-12.0057
▁analyze	-12.0057
▁exempt	-12.0057
▁>[...]	-12.0058
▁crisis	-12.0058
▁advisor	-12.0058
▁microsystems	-12.0058
elevator	-12.0058
▁initiated	-12.0058
▁kuwait	-12.0058
▁blatant	-12.0058
▁streak	-12.0058
▁negev	-12.0058
▁agdam	-12.0058
▁concise	-12.0058
▁fragment	-12.0058
▁(212)	-12.0058
▁mazda	-12.0058
delphi	-12.0058
▁casual	-12.0058
▁riley	-12.0058
▁retract	-12.0058
+#7'	-12.0058
chevron	-12.0059
▁sheath	-12.0059
▁rescue	-12.0059
▁facing	-12.0059
▁demers	-12.0059
▁consciousness	-12.0059
:9''	-12.006
▁breast	-12.0061
▁bookstore	-12.0061
▁scrap	-12.0061
▁household	-12.0061
▁fixture	-12.0061
▁latch	-12.0062
▁framework	-12.0062
taoism	-12.0062
▁subtle	-12.0063
▁owen	-12.0064
▁hollow	-12.0064
fungal	-12.0064
julie	-12.0067
▁aclu	-12.0068
▁stern	-12.0074
/'/1	-12.0076
2.80	-12.0076
/92)	-12.0084
warrior	-12.0086
forsale	-12.0114
macweek	-12.0116
painful	-12.0147
▁relation	-12.0272
alternat	-12.028
formerly	-12.0298
charley	-12.0319
cross	-12.0357
▁illustrat	-12.0402
worth	-12.0433
perfect	-12.0448
giving	-12.0449
arthur	-12.045
possible	-12.045
biased	-12.045
criminal	-12.045
belief	-12.045
student	-12.045
dennis	-12.045
besides	-12.0451
doctor	-12.0451
sexual	-12.0452
somebody	-12.0453
yrto	-12.0453
3150101	-12.0512
chhabra	-12.0512
constellation	-12.0512
▁affiliation	-12.0512
▁basketball	-12.0512
▁compartment	-12.0512
▁consumption	-12.0512
▁covenant	-12.0512
▁creature	-12.0512
▁fractal	-12.0512
▁hierarchy	-12.0512
▁luxury	-12.0512
▁mcdonnell	-12.0512
▁misleading	-12.0512
▁practitioner	-12.0512
▁precision	-12.0512
▁privilege	-12.0512
▁smuggling	-12.0512
▁suspicious	-12.0512
▁yeltsin	-12.0512
▁bedouin	-12.0512
▁clarification	-12.0512
▁ehrlich	-12.0512
▁nervous	-12.0512
▁snyder	-12.0512
biochemistry	-12.0512
▁excited	-12.0512
▁infringed	-12.0512
▁teenage	-12.0512
▁fought	-12.0512
▁livni	-12.0512
▁quantity	-12.0512
▁dominance	-12.0512
▁moderator	-12.0512
▁paradox	-12.0512
▁lazaru	-12.0512
▁nylander	-12.0512
▁density	-12.0512
▁disguise	-12.0512
▁animated	-12.0512
cassels	-12.0512
▁jacob	-12.0512
▁cousin	-12.0512
▁saddam	-12.0512
▁munich	-12.0512
▁dixon	-12.0512
▁omran	-12.0512
▁panther	-12.0512
▁beauty	-12.0512
incremental	-12.0512
romulu	-12.0512
\(6%	-12.0512
▁shopping	-12.0513
▁flawed	-12.0513
▁conquer	-12.0513
▁girlfriend	-12.0513
neoucom	-12.0513
-7415	-12.0513
▁grabbed	-12.0513
▁tendency	-12.0513
nrizwt	-12.0513
▁prophethood	-12.0513
▁isolated	-12.0513
▁syquest	-12.0513
▁blvd	-12.0513
▁asshole	-12.0514
rahul	-12.0514
▁proving	-12.0515
@=;6	-12.0515
▁noisy	-12.0515
▁transition	-12.0515
▁ballot	-12.0516
hulman	-12.0516
▁sweat	-12.0517
▁:^)	-12.0517
dimensional	-12.0521
agree	-12.0522
▁rude	-12.0523
▁arrow	-12.0527
>>>>>>>>>>>>>>>>	-12.0544
0.-)	-12.0549
casper	-12.0618
▁.........	-12.0635
0@("`@("`@("`@(	-12.064
#1=1	-12.0645
5%06%	-12.0669
708-	-12.0746
▁boost	-12.0922
oriented	-12.0926
walker	-12.0926
driving	-12.0926
suggest	-12.0926
family	-12.0927
murder	-12.0927
wonder	-12.0927
music	-12.0929
living	-12.093
quote	-12.0933
photo	-12.0944
▁surround	-12.0956
``(`"`	-12.0988
hrivnak	-12.0988
▁abstinence	-12.0988
▁administrative	-12.0988
▁caligiuri	-12.0988
▁cassette	-12.0988
▁curiosity	-12.0988
▁darryl	-12.0988
▁declaration	-12.0988
▁discourage	-12.0988
▁distributor	-12.0988
▁easiest	-12.0988
▁encouraging	-12.0988
▁hercules	-12.0988
▁illusion	-12.0988
▁interrogation	-12.0988
▁kovalev	-12.0988
▁legislative	-12.0988
▁lindbergh	-12.0988
▁mercedes	-12.0988
▁napoleon	-12.0988
▁olympic	-12.0988
▁paranoia	-12.0988
▁phenomena	-12.0988
▁safeguard	-12.0988
▁supplier	-12.0988
▁turkiye	-12.0988
▁upstairs	-12.0988
tektronix	-12.0988
▁compliance	-12.0988
▁credibility	-12.0988
▁inductive	-12.0988
▁qualify	-12.0988
▁rectangle	-12.0988
▁technological	-12.0988
▁infinity	-12.0988
▁prevail	-12.0988
▁airplane	-12.0988
▁cocaine	-12.0988
▁dashnak	-12.0988
▁courtyard	-12.0988
▁gardner	-12.0988
▁generous	-12.0988
▁ricardo	-12.0988
▁dominant	-12.0988
▁savard	-12.0988
applause	-12.0988
▁approx	-12.0988
▁promoting	-12.0988
/''/'	-12.0988
▁pertain	-12.0988
xclrp	-12.0988
▁historian	-12.0988
▁wicked	-12.0988
leuven	-12.0988
dresden	-12.0989
▁martian	-12.0989
▁allergy	-12.0989
▁megabyte	-12.0989
▁winmarks	-12.0989
▁ioccc	-12.0989
▁tesla	-12.0989
▁ninth	-12.0989
▁diameter	-12.0989
!``#	-12.0989
▁inflated	-12.0989
▁plugged	-12.0989
violet	-12.0989
▁crunch	-12.0989
▁ripken	-12.0989
▁sceptic	-12.0989
▁padres	-12.099
▁bullpen	-12.099
▁thief	-12.099
▁feat	-12.0992
3$,3&'	-12.0992
▁gentle	-12.0994
rtfm	-12.0996
canberra	-12.0997
▁archiv	-12.0998
ugged	-12.1062
determination	-12.1068
marita	-12.1093
______________|	-12.1171
abortion	-12.1426
palestinian	-12.1426
absolute	-12.1426
individual	-12.1426
commercial	-12.1426
political	-12.1426
therefore	-12.1426
prime	-12.1427
turbo	-12.1427
social	-12.1428
third	-12.1428
wilson	-12.1428
owner	-12.143
simple	-12.1433
typical	-12.1436
short	-12.1439
incidentally	-12.1441
admittedly	-12.1466
▁appreci	-12.1486
▁horizon	-12.1487
▁kibbutz	-12.1488
+49-40-54715-22	-12.1488
▁administer	-12.1488
▁alabama	-12.1488
▁alignment	-12.1488
▁aspartame	-12.1488
▁automotive	-12.1488
▁bernoulli	-12.1488
▁certified	-12.1488
▁corinthian	-12.1488
▁correlation	-12.1488
▁debugger	-12.1488
▁entrance	-12.1488
▁espionage	-12.1488
▁experiencing	-12.1488
▁hypotheses	-12.1488
▁immaculate	-12.1488
▁improving	-12.1488
▁inflatable	-12.1488
▁irregular	-12.1488
▁marijuana	-12.1488
▁mediocre	-12.1488
▁microdistrict	-12.1488
▁nagorno	-12.1488
▁obligation	-12.1488
▁peripheral	-12.1488
▁philosophical	-12.1488
▁plaintiffs	-12.1488
▁refusal	-12.1488
▁relevance	-12.1488
▁ribbon	-12.1488
▁secrecy	-12.1488
▁shanahan	-12.1488
▁societies	-12.1488
▁soundblaster	-12.1488
▁suffice	-12.1488
▁tulkarm	-12.1488
▁unacceptable	-12.1488
▁vegetable	-12.1488
▁vulnerable	-12.1488
▁arranged	-12.1488
▁humanitarian	-12.1488
▁likelihood	-12.1488
▁nowadays	-12.1488
▁proponent	-12.1488
▁therapies	-12.1488
▁translator	-12.1488
▁xputimage	-12.1488
▁(214)4	-12.1488
▁coalition	-12.1488
▁neptun	-12.1488
▁phillips	-12.1488
▁rawlins	-12.1488
nicholls	-12.1488
▁accusation	-12.1488
▁contributor	-12.1488
▁garrett	-12.1488
▁justifiable	-12.1488
'/''/''/''/''/'	-12.1488
▁blackhawks	-12.1488
▁credible	-12.1488
▁vatican	-12.1488
▁ermeni	-12.1488
▁ignition	-12.1488
▁crucial	-12.1488
▁deputy	-12.1488
▁grammar	-12.1488
▁trinity	-12.1488
▁savage	-12.1488
▁inflict	-12.1488
▁grief	-12.1488
▁sacred	-12.1488
▁tvtwm	-12.1488
▁vacation	-12.1488
libxmu	-12.1489
▁pissed	-12.1489
▁bronx	-12.1489
▁robust	-12.1489
▁casualties	-12.1489
▁paraphrase	-12.1489
▁waiver	-12.1489
▁geographic	-12.1489
quayle	-12.1489
meister	-12.1489
]#(>'	-12.1489
uupcb	-12.1489
▁sought	-12.1489
▁copied	-12.1489
▁beckman	-12.1489
▁kitchen	-12.1489
▁priesthood	-12.1489
terminator	-12.1489
▁ditto	-12.1489
grubb	-12.1489
▁attain	-12.1489
▁override	-12.149
jarvis	-12.1491
louray	-12.1491
albeit	-12.1492
▁wierd	-12.1493
prefix	-12.1495
▁console	-12.1501
▁thorn	-12.1505
▁hernia	-12.1508
raising	-12.153
megatek	-12.1565
▁merge	-12.1587
retard	-12.1603
philips	-12.1637
▁glori	-12.168
itchy	-12.1831
=-=-=-=-=-=	-12.1858
phigs	-12.1898
evolution	-12.1947
regulated	-12.1952
terrorist	-12.1953
detroit	-12.1953
pretty	-12.1953
provide	-12.1953
murray	-12.1953
basically	-12.1953
happen	-12.1953
threat	-12.1955
▁cloth	-12.1983
leigh	-12.1984
▁communica	-12.1988
erfilesearchpath	-12.2015
pythagor	-12.2015
▁525-36	-12.2015
▁accomodat	-12.2015
▁brilliant	-12.2015
▁chocolate	-12.2015
▁collision	-12.2015
▁conceivable	-12.2015
▁congregation	-12.2015
▁consecration	-12.2015
▁cryptologia	-12.2015
▁erzincan	-12.2015
▁explode	-12.2015
▁facilitate	-12.2015
▁fifteen	-12.2015
▁hennessy	-12.2015
▁imperial	-12.2015
▁kulikauskas	-12.2015
▁lexicon	-12.2015
▁manhattan	-12.2015
▁molecule	-12.2015
▁receptacle	-12.2015
▁scramble	-12.2015
▁sorenson	-12.2015
▁sparcstation	-12.2015
▁sphinx	-12.2015
▁steroid	-12.2015
▁stockholm	-12.2015
▁strategic	-12.2015
▁suspicion	-12.2015
▁territorial	-12.2015
feustel	-12.2015
▁composite	-12.2015
▁journey	-12.2015
▁junction	-12.2015
▁nystatin	-12.2015
▁elderly	-12.2015
▁humiliat	-12.2015
▁sniper	-12.2015
▁structural	-12.2015
▁resemble	-12.2015
▁(508)	-12.2015
▁laserjet	-12.2015
gibbons	-12.2015
▁/____/	-12.2015
▁forecast	-12.2015
▁invisible	-12.2015
▁pleasant	-12.2015
ecclesia	-12.2015
waikato	-12.2015
▁depressed	-12.2015
▁evolve	-12.2015
▁nielsen	-12.2015
impaired	-12.2015
▁chancellor	-12.2015
▁(512)	-12.2015
▁(604)	-12.2015
▁margoli	-12.2015
▁gamma	-12.2015
&7'2	-12.2015
▁cubic	-12.2015
▁deciding	-12.2015
▁ceiling	-12.2015
▁particles	-12.2015
▁subaru	-12.2015
▁imperfect	-12.2015
▁ruff	-12.2015
▁climb	-12.2015
keown	-12.2015
▁adress	-12.2015
▁cohen	-12.2015
▁knox	-12.2015
▁vapor	-12.2015
▁$2.00	-12.2015
▁zinc	-12.2016
▁denies	-12.2016
▁choke	-12.2016
[7@.9	-12.2016
▁bauer	-12.2016
gideon	-12.2016
▁inherit	-12.2016
missouri	-12.2016
▁sdio	-12.2016
bissda	-12.2017
ilateral	-12.2017
</3$	-12.2018
▁intestin	-12.202
>7@.9	-12.2021
▁verbal	-12.2025
observable	-12.2053
▁scriptura	-12.2124
kenneth	-12.2508
francis	-12.2508
efficient	-12.2508
contain	-12.2508
accelerator	-12.2508
organized	-12.2508
performance	-12.2508
argument	-12.2508
whether	-12.2508
technology	-12.2508
address	-12.2508
launch	-12.2509
relative	-12.2509
engineer	-12.2509
liberal	-12.2514
yankee	-12.2569
~^~^~^~^~^~^~^	-12.257
▁sovereign	-12.257
cunyvm	-12.257
mohammad	-12.257
responsibilities	-12.257
▁1-202-456-	-12.257
▁algorythm	-12.257
▁announcing	-12.257
▁applicant	-12.257
▁appointment	-12.257
▁baptism	-12.257
▁corvette	-12.257
▁diplomats	-12.257
▁emulator	-12.257
▁entropy	-12.257
▁examining	-12.257
▁exclusion	-12.257
▁frustrating	-12.257
▁hampshire	-12.257
▁happily	-12.257
▁imprisonment	-12.257
▁inferior	-12.257
▁ingredient	-12.257
▁intrinsically	-12.257
▁licensing	-12.257
▁misrepresent	-12.257
▁occupant	-12.257
▁participation	-12.257
▁propoganda	-12.257
▁satisfactory	-12.257
▁schematic	-12.257
▁skeptical	-12.257
▁struggling	-12.257
▁suspended	-12.257
▁trajectory	-12.257
▁unregistered	-12.257
629-70	-12.257
▁calendar	-12.257
▁depression	-12.257
▁escort	-12.257
▁gradually	-12.257
▁improper	-12.257
▁prototype	-12.257
▁quantization	-12.257
▁symmetric	-12.257
▁ultrix	-12.257
▁wizard	-12.257
▁incapable	-12.257
▁inclination	-12.257
▁intensity	-12.257
▁kinsey	-12.257
▁speedometer	-12.257
▁terziogl	-12.257
▁cynical	-12.257
▁uranus	-12.257
!!!!!!!!!!!!!!!!	-12.257
▁ancestor	-12.257
▁gadget	-12.257
▁friedman	-12.257
▁trillion	-12.257
bcstec	-12.257
▁bargain	-12.257
▁carcinogen	-12.257
▁exotic	-12.257
▁heritage	-12.257
▁preempt	-12.257
▁caliber	-12.257
▁arcade	-12.257
▁refrain	-12.257
▁warfare	-12.257
▁mullen	-12.257
▁unaware	-12.257
▁finite	-12.257
▁spook	-12.257
scharfy	-12.257
▁(216)	-12.257
▁inquiry	-12.257
▁tamper	-12.257
▁sloan	-12.257
▁omissions	-12.257
capitol	-12.257
4%!04%!0	-12.257
▁lawsuit	-12.257
▁awesome	-12.257
▁sspx	-12.2571
▁absent	-12.2571
tangible	-12.2571
▁shelter	-12.2571
▁mosque	-12.2571
▁corolla	-12.2571
▁wreck	-12.2571
cousineau	-12.2571
▁beleive	-12.2571
▁ssrt	-12.2571
▁admire	-12.2571
▁accumulat	-12.2571
▁quaker	-12.2573
▁slope	-12.2573
▁michel	-12.2573
▁condone	-12.2576
powder	-12.258
albany	-12.2582
dammit	-12.2588
--------+-------	-12.2596
▁unplug	-12.2612
<<<<<<<<<<<<<<<<	-12.2617
%;<5	-12.2631
webster	-12.2665
russia	-12.272
legge	-12.2766
produce	-12.3095
mobile	-12.3095
understood	-12.3096
attribute	-12.3096
northern	-12.3096
assault	-12.3096
virtual	-12.3096
neutral	-12.3096
experience	-12.3096
measure	-12.3096
between	-12.3097
