<unk>	0
<s>	0
</s>	0
▁the	-3.16565
,	-3.27752
.	-3.37149
s	-3.54978
▁in	-3.714
▁of	-3.81421
▁and	-3.86312
▁a	-3.97867
▁to	-4.38216
▁was	-4.63374
▁he	-4.72051
-	-4.76824
▁for	-4.93447
▁	-4.96458
▁as	-5.04314
▁is	-5.07037
▁(	-5.1183
▁at	-5.18343
▁with	-5.19519
▁on	-5.22114
▁his	-5.26005
'	-5.27392
)	-5.40473
▁by	-5.50595
▁from	-5.5288
ed	-5.57378
ing	-5.65291
▁an	-5.6534
d	-5.67911
e	-5.76856
▁that	-5.84561
▁she	-5.95641
▁"	-5.99221
a	-6.01117
▁it	-6.02087
in	-6.16255
▁her	-6.17126
er	-6.2079
:	-6.21725
o	-6.23428
y	-6.24735
t	-6.25926
▁first	-6.2616
▁also	-6.28899
n	-6.29181
▁university	-6.30954
▁has	-6.36137
▁which	-6.37381
▁or	-6.38535
c	-6.39243
ly	-6.39288
▁be	-6.42821
▁new	-6.45372
i	-6.45617
"	-6.47885
▁after	-6.4907
r	-6.52167
al	-6.63572
▁who	-6.63952
m	-6.67559
▁had	-6.68236
▁de	-6.68395
th	-6.70001
▁one	-6.75383
▁were	-6.76203
;	-6.76388
▁are	-6.77255
▁american	-6.77377
),	-6.80575
b	-6.83158
es	-6.85768
▁school	-6.86288
l	-6.87466
k	-6.87815
▁but	-6.8807
▁league	-6.89265
on	-6.89813
▁two	-6.90205
▁this	-6.90315
▁born	-6.92111
▁its	-6.94557
▁where	-6.95682
p	-6.96152
g	-6.97818
▁not	-6.9821
▁their	-6.99325
).	-6.99884
▁team	-7.00558
▁co	-7.0089
en	-7.02238
▁made	-7.02526
▁became	-7.04633
▁season	-7.05114
▁national	-7.06044
▁company	-7.06317
▁re	-7.06864
▁united	-7.08769
▁during	-7.09109
born	-7.09352
▁–	-7.10409
h	-7.10837
▁when	-7.11179
▁car	-7.11486
▁been	-7.12438
▁world	-7.14014
re	-7.14313
▁states	-7.16575
the	-7.18452
/	-7.19151
▁years	-7.19321
▁career	-7.20296
▁year	-7.20992
le	-7.21549
z	-7.21646
▁time	-7.22296
f	-7.22302
▁other	-7.22623
▁may	-7.22676
▁known	-7.22929
▁all	-7.23466
▁played	-7.24041
man	-7.24131
▁under	-7.24645
▁member	-7.24763
▁later	-7.25884
▁over	-7.25946
or	-7.27863
▁baseball	-7.28377
▁film	-7.28378
▁b	-7.28838
▁court	-7.29814
▁then	-7.30671
▁they	-7.32083
▁have	-7.33911
▁s	-7.34573
▁up	-7.35046
▁work	-7.35075
▁c	-7.35921
na	-7.36122
ic	-7.36663
▁york	-7.37101
to	-7.37249
u	-7.37548
v	-7.3784
▁u	-7.39099
▁e	-7.4042
▁v	-7.40523
▁music	-7.41052
▁d	-7.41267
an	-7.4264
▁professor	-7.43501
▁him	-7.43623
▁three	-7.44079
▁st	-7.44117
▁into	-7.4433
▁served	-7.45068
▁used	-7.46018
▁can	-7.46567
▁law	-7.46735
ta	-7.46807
▁until	-7.4703
▁series	-7.47497
▁m	-7.4756
▁la	-7.47571
▁more	-7.4795
w	-7.48914
it	-7.49093
▁including	-7.49153
x	-7.49657
ra	-7.49879
▁international	-7.4995
▁no	-7.50324
▁such	-7.5065
▁most	-7.50739
▁before	-7.51134
▁second	-7.51172
▁research	-7.52235
st	-7.52737
▁out	-7.53858
▁3	-7.54115
▁18	-7.54257
▁major	-7.54437
▁high	-7.54525
▁science	-7.54883
▁only	-7.5583
us	-7.5609
▁state	-7.5634
▁well	-7.56845
▁began	-7.56894
ion	-7.57031
▁while	-7.57205
ne	-7.57206
▁club	-7.57279
de	-7.57519
▁1	-7.57864
▁(19	-7.58491
▁received	-7.58558
ation	-7.58863
▁director	-7.59888
ma	-7.60435
▁group	-7.60713
▁college	-7.60812
te	-7.61233
–	-7.61451
▁i	-7.61574
▁t	-7.61642
▁won	-7.6175
▁-	-7.62301
▁l	-7.62631
▁g	-7.62758
▁home	-7.63678
ton	-7.63892
is	-7.64347
ro	-7.64665
▁august	-7.64785
▁professional	-7.65047
▁since	-7.65242
▁city	-7.6564
▁17	-7.66155
▁january	-7.66179
é	-7.66436
▁french	-7.66603
2	-7.67539
▁fashion	-7.68345
▁p	-7.68437
▁part	-7.6907
▁2	-7.69819
▁june	-7.69939
▁four	-7.70252
se	-7.70571
▁worked	-7.70766
▁would	-7.71121
▁hospital	-7.72084
▁family	-7.72155
ist	-7.72596
el	-7.72806
▁september	-7.73561
▁against	-7.73781
▁so	-7.73811
▁being	-7.74473
▁former	-7.74689
▁march	-7.74809
▁name	-7.74823
▁july	-7.75466
▁championship	-7.75626
▁r	-7.76074
▁father	-7.76093
▁both	-7.76243
▁joined	-7.76828
▁president	-7.76836
▁health	-7.77171
▁between	-7.77296
".	-7.77711
▁there	-7.78701
ar	-7.78929
▁best	-7.79162
ri	-7.79174
da	-7.79527
co	-7.80246
▁5	-7.80768
▁moved	-7.80854
▁age	-7.81049
▁le	-7.81101
▁many	-7.81615
▁o	-7.81985
▁than	-7.82431
ul	-7.82628
li	-7.82653
▁business	-7.82899
▁some	-7.83663
▁october	-7.8378
▁engine	-7.83874
▁4	-7.84399
ian	-7.84491
1	-7.84708
▁f	-7.8525
▁through	-7.85958
no	-7.86053
▁italian	-7.86421
▁model	-7.86616
▁n	-7.87031
▁november	-7.87527
▁december	-7.87575
▁john	-7.87734
▁early	-7.87971
he	-7.88162
ch	-7.88468
la	-7.88559
lo	-7.88786
▁california	-7.89055
▁april	-7.89253
▁racing	-7.89616
▁several	-7.89788
il	-7.90569
▁called	-7.90998
▁computer	-7.9158
▁award	-7.91719
▁institute	-7.91759
▁k	-7.91809
▁war	-7.91924
▁system	-7.92224
▁player	-7.92255
▁j	-7.92674
▁german	-7.92883
▁following	-7.92947
ers	-7.93258
ia	-7.93458
me	-7.93649
▁un	-7.93994
ry	-7.94092
▁w	-7.94499
ter	-7.94527
▁debut	-7.95566
▁&	-7.95658
▁games	-7.95787
son	-7.95904
ge	-7.96306
▁di	-7.96588
▁6	-7.96993
ine	-7.97364
j	-7.97405
▁about	-7.97476
at	-7.97557
▁left	-7.97823
ga	-7.98092
▁man	-7.98132
▁h	-7.98412
▁february	-7.98608
▁started	-7.98957
▁design	-7.98991
▁public	-7.99669
▁based	-8.00574
▁academy	-8.00615
▁medical	-8.00799
▁founded	-8.01153
▁use	-8.01161
as	-8.01215
▁degree	-8.01372
▁do	-8.02078
5	-8.02295
▁named	-8.02357
▁al	-8.02696
ke	-8.02856
ni	-8.03468
mo	-8.03733
ca	-8.04475
▁released	-8.0474
▁party	-8.04766
ment	-8.04995
▁women	-8.05525
’	-8.05886
▁same	-8.06082
▁10	-8.06099
mi	-8.07041
▁list	-8.07173
▁london	-8.07214
▁political	-8.07216
▁south	-8.07454
go	-8.07524
▁san	-8.07961
ity	-8.08098
▁ba	-8.08287
di	-8.08476
be	-8.08847
▁con	-8.09231
▁signed	-8.09535
▁general	-8.11431
com	-8.11537
▁life	-8.11866
am	-8.12002
▁center	-8.12503
▁sa	-8.1251
▁2013	-8.1278
▁top	-8.13738
▁paris	-8.13932
▁studied	-8.13934
ba	-8.1398
▁went	-8.14119
▁development	-8.14138
▁held	-8.14294
▁production	-8.14303
▁however	-8.14432
▁department	-8.14478
▁show	-8.14783
▁british	-8.15637
▁france	-8.16348
ti	-8.16471
▁ka	-8.16515
▁back	-8.16791
ur	-8.1685
▁race	-8.17348
▁16	-8.17515
ent	-8.17521
um	-8.17775
▁end	-8.17779
ie	-8.17838
▁five	-8.18002
▁died	-8.18047
▁contract	-8.18215
▁ma	-8.18388
▁did	-8.1854
do	-8.18734
ce	-8.18899
▁motorcycle	-8.19166
▁people	-8.19684
",	-8.19751
▁bar	-8.19786
▁head	-8.19882
▁mother	-8.19934
▁attended	-8.20044
able	-8.20392
▁side	-8.20396
▁own	-8.21421
▁number	-8.21457
▁pro	-8.21749
▁children	-8.21781
ies	-8.22045
3	-8.22438
▁me	-8.22446
4	-8.22583
▁include	-8.22681
▁district	-8.22698
8	-8.23007
▁mar	-8.23017
▁produced	-8.23109
land	-8.23394
▁mo	-8.24037
▁north	-8.24048
▁son	-8.24155
▁elected	-8.2417
ive	-8.24736
▁manager	-8.24818
▁sold	-8.25157
tic	-8.25339
un	-8.25421
▁12	-8.25421
ley	-8.25433
▁8	-8.25494
▁7	-8.26268
▁studies	-8.26694
▁led	-8.26715
▁role	-8.26762
▁third	-8.26774
▁house	-8.26798
."	-8.27009
▁20	-8.27073
▁official	-8.2712
▁took	-8.27214
▁million	-8.27503
ck	-8.27707
▁15	-8.27834
▁ca	-8.2786
▁royal	-8.27895
▁pre	-8.27907
cc	-8.27971
▁brand	-8.27977
▁government	-8.28141
▁society	-8.28445
▁appeared	-8.28616
pe	-8.28787
▁playing	-8.2902
▁appointed	-8.29099
▁returned	-8.29233
ism	-8.29402
▁na	-8.29424
▁post	-8.29523
▁grand	-8.29542
ha	-8.2961
▁se	-8.29639
▁bo	-8.29782
ner	-8.29872
▁working	-8.29964
▁graduated	-8.30083
▁due	-8.30228
▁play	-8.30406
▁vi	-8.30877
▁will	-8.31353
et	-8.31403
ler	-8.31543
▁main	-8.31579
▁history	-8.31783
▁9	-8.31822
▁position	-8.31871
▁go	-8.31975
▁us	-8.3202
▁association	-8.32577
up	-8.32739
▁case	-8.33317
▁sciences	-8.33562
▁win	-8.33702
▁ha	-8.33763
nd	-8.34104
▁long	-8.34114
▁order	-8.34465
▁technology	-8.35042
▁cup	-8.35106
▁service	-8.35147
ant	-8.35399
ted	-8.35427
▁available	-8.3553
▁football	-8.35581
▁six	-8.35844
▁game	-8.35868
▁published	-8.35884
pa	-8.36185
▁red	-8.3642
ho	-8.36645
–19	-8.36855
▁per	-8.36873
ate	-8.36895
0	-8.36932
▁board	-8.37294
ac	-8.37547
▁orchestra	-8.37637
▁young	-8.37907
▁book	-8.37967
▁2004	-8.37993
per	-8.38787
▁1980	-8.39405
▁x	-8.39619
▁among	-8.40106
▁supreme	-8.40356
▁place	-8.40709
▁fellow	-8.40736
▁social	-8.40878
6	-8.4096
▁english	-8.41102
▁minor	-8.41189
▁day	-8.41391
▁runs	-8.41484
▁11	-8.41538
▁now	-8.42198
▁these	-8.42307
sh	-8.4289
▁class	-8.42959
▁en	-8.43119
▁single	-8.43646
va	-8.43676
▁developed	-8.43725
bo	-8.43794
▁full	-8.43837
▁information	-8.43885
▁like	-8.4403
ber	-8.44114
▁japan	-8.44145
▁website	-8.44619
▁last	-8.44664
▁them	-8.45188
time	-8.45397
▁death	-8.45495
▁european	-8.45606
▁free	-8.4561
▁organization	-8.46197
▁2003	-8.46399
▁ra	-8.4658
ka	-8.47041
one	-8.47181
▁front	-8.47188
▁coach	-8.47202
▁white	-8.47605
▁version	-8.47912
ad	-8.47922
der	-8.48016
▁came	-8.48059
▁currently	-8.48175
▁earned	-8.48339
▁spent	-8.48464
ary	-8.48483
▁14	-8.48646
▁west	-8.48705
▁often	-8.48748
▁education	-8.48799
ty	-8.48899
id	-8.48939
ki	-8.49257
▁record	-8.49454
▁black	-8.49607
ir	-8.49655
▁because	-8.49774
ut	-8.5025
▁found	-8.50293
▁lo	-8.50347
▁late	-8.50457
▁become	-8.50499
▁local	-8.50559
vi	-8.50623
▁small	-8.50641
▁japanese	-8.50772
bi	-8.50946
▁2009	-8.51037
▁robert	-8.51182
▁da	-8.51337
▁art	-8.51402
▁times	-8.51411
▁food	-8.51421
year	-8.51448
▁13	-8.51544
▁2001	-8.51675
▁television	-8.51698
▁could	-8.51698
▁chief	-8.51722
▁included	-8.51935
ko	-8.52491
▁power	-8.52533
▁engineering	-8.5266
▁ho	-8.52767
▁finished	-8.52787
▁married	-8.52855
mp	-8.53251
▁harvard	-8.53439
▁chicago	-8.53585
▁committee	-8.53585
▁2007	-8.53589
▁du	-8.53618
▁works	-8.53648
▁popular	-8.53775
▁1970	-8.53887
▁any	-8.53986
▁los	-8.54085
▁announced	-8.54406
age	-8.54735
▁project	-8.54744
▁america	-8.54792
▁2008	-8.54882
ated	-8.54923
▁run	-8.551
▁right	-8.55267
▁minister	-8.55663
▁motor	-8.55931
▁field	-8.55951
▁ri	-8.56023
▁different	-8.5617
den	-8.56385
▁ta	-8.56423
▁line	-8.56649
▁2010	-8.56686
▁another	-8.56764
ten	-8.56861
▁paul	-8.57088
▁short	-8.5712
au	-8.57287
▁arts	-8.57386
-19	-8.57389
▁study	-8.57425
▁'	-8.57532
▁market	-8.57562
ja	-8.57702
▁various	-8.58006
▁england	-8.58543
▁judge	-8.58543
▁david	-8.58547
▁po	-8.58603
▁chinese	-8.58754
▁opened	-8.58822
▁final	-8.58867
▁prize	-8.58873
▁around	-8.58933
▁church	-8.59102
▁1990	-8.592
▁seasons	-8.59223
▁mid	-8.59257
ve	-8.59432
▁2014	-8.59532
▁2011	-8.59959
▁council	-8.6009
ci	-8.60161
po	-8.60289
ard	-8.60328
▁star	-8.60411
▁set	-8.60594
▁2012	-8.60643
lin	-8.60722
and	-8.6095
os	-8.60968
▁dr	-8.61003
▁executive	-8.61382
▁designer	-8.61411
▁division	-8.61439
▁established	-8.61511
▁act	-8.61827
▁hit	-8.62096
sa	-8.62156
▁although	-8.62284
▁master	-8.623
que	-8.62347
▁office	-8.62513
tion	-8.62546
▁hall	-8.62595
▁having	-8.62723
▁2015	-8.62941
▁brother	-8.63119
▁pa	-8.63469
gu	-8.63528
▁century	-8.63783
▁make	-8.63812
ig	-8.64168
▁honda	-8.64254
9	-8.64259
▁built	-8.64422
ting	-8.64661
▁men	-8.64699
▁non	-8.65051
ver	-8.65115
▁open	-8.65173
▁ph	-8.65388
▁management	-8.65401
▁assistant	-8.65403
▁2006	-8.65431
▁festival	-8.65478
▁program	-8.65512
▁senior	-8.65561
▁ii	-8.65784
▁19	-8.65791
▁medicine	-8.65826
▁we	-8.65827
▁using	-8.65851
▁along	-8.65963
▁serie	-8.65977
▁round	-8.66085
▁inter	-8.66108
▁original	-8.66177
wa	-8.66207
▁hu	-8.66282
▁30	-8.66394
ham	-8.66404
ex	-8.66436
▁william	-8.66483
]	-8.66805
▁z	-8.66828
line	-8.66883
▁off	-8.67062
▁designed	-8.67219
by	-8.67304
▁again	-8.67345
▁radio	-8.6748
▁air	-8.67688
car	-8.67924
▁angeles	-8.68091
cy	-8.68143
▁band	-8.68374
▁philosophy	-8.68414
▁washington	-8.68665
ling	-8.6881
▁central	-8.69032
▁dis	-8.69053
▁directed	-8.69242
▁cars	-8.69243
▁app	-8.69554
▁germany	-8.69677
▁old	-8.69978
▁federal	-8.70038
▁james	-8.70063
gen	-8.70105
▁human	-8.70126
ru	-8.70161
gi	-8.70273
▁down	-8.70445
su	-8.70455
io	-8.70721
ger	-8.70725
▁introduced	-8.71018
▁religious	-8.71099
▁restaurant	-8.71114
▁mi	-8.71261
ier	-8.71283
▁created	-8.71525
▁author	-8.71621
ol	-8.71698
▁east	-8.71941
▁very	-8.72187
ance	-8.72298
▁foundation	-8.7232
▁making	-8.7243
▁jean	-8.72456
▁software	-8.72753
▁su	-8.72805
▁2005	-8.73111
▁term	-8.73157
▁road	-8.73163
▁form	-8.73279
▁if	-8.73295
▁still	-8.73327
we	-8.73391
▁members	-8.73587
▁el	-8.73721
▁awarded	-8.7379
ized	-8.73991
lu	-8.74048
▁just	-8.74066
▁2016	-8.74267
▁magazine	-8.74273
ang	-8.74283
▁similar	-8.74294
▁saint	-8.74366
▁gu	-8.7438
▁1960	-8.74465
▁texas	-8.74544
ku	-8.74771
▁pe	-8.74776
ure	-8.74855
▁period	-8.74997
▁ko	-8.74997
▁models	-8.7502
ina	-8.75048
▁li	-8.75119
ous	-8.75172
▁continued	-8.75436
ot	-8.75535
▁title	-8.75566
▁italy	-8.75737
chi	-8.75993
▁systems	-8.76248
▁union	-8.76265
á	-8.76295
▁competition	-8.76368
▁great	-8.76679
▁sp	-8.76698
▁ni	-8.76701
▁footballer	-8.76818
▁super	-8.76992
▁control	-8.77098
ll	-8.77185
▁bank	-8.77213
for	-8.77223
▁launched	-8.77342
ph	-8.77548
▁2017	-8.77881
▁scored	-8.77975
▁common	-8.77999
▁body	-8.78015
hi	-8.78053
▁firm	-8.78097
▁sports	-8.78101
▁those	-8.78132
em	-8.7821
▁george	-8.78248
▁care	-8.78384
▁rear	-8.78569
▁land	-8.78909
fa	-8.79434
▁fa	-8.795
▁(18	-8.79565
▁lu	-8.79598
ial	-8.79686
▁ar	-8.7974
▁theory	-8.79749
▁europe	-8.79777
▁justice	-8.80032
▁conductor	-8.80042
▁next	-8.80119
ster	-8.80123
▁what	-8.80184
mer	-8.80304
che	-8.80305
▁street	-8.80345
▁african	-8.80369
▁prix	-8.80616
▁2018	-8.80793
▁ver	-8.80941
▁deal	-8.81227
▁county	-8.81328
pi	-8.81334
▁don	-8.81363
con	-8.81435
▁my	-8.81437
▁services	-8.81439
▁station	-8.81744
▁seven	-8.8177
▁press	-8.81917
20	-8.81986
▁24	-8.82069
▁concept	-8.82071
▁ten	-8.82428
im	-8.82556
▁within	-8.82615
▁large	-8.82765
▁community	-8.82929
▁each	-8.82977
▁hand	-8.83123
ak	-8.83155
▁louis	-8.83196
▁2000	-8.83438
▁cu	-8.8344
za	-8.83457
▁good	-8.83749
▁modern	-8.83856
▁youth	-8.84006
▁cc	-8.84026
▁track	-8.84136
▁album	-8.84159
mar	-8.84261
▁featured	-8.84342
▁media	-8.84359
based	-8.84413
▁gi	-8.84427
▁sch	-8.84566
▁met	-8.84575
ness	-8.84615
ville	-8.84617
▁summer	-8.84824
▁catholic	-8.85014
dy	-8.85315
vo	-8.85393
▁special	-8.85419
▁parents	-8.8547
▁china	-8.85783
▁ga	-8.85786
▁[	-8.86026
▁practice	-8.86172
ini	-8.86201
rd	-8.8626
▁without	-8.86349
▁water	-8.86365
tra	-8.86437
▁wife	-8.8664
bu	-8.86838
▁25	-8.87029
▁opera	-8.87075
▁performance	-8.87131
ff	-8.8716
▁legal	-8.87322
▁chairman	-8.87409
▁van	-8.87551
ng	-8.87564
fi	-8.87654
▁ne	-8.87821
▁considered	-8.88061
▁christian	-8.88067
▁scientist	-8.88382
▁way	-8.88447
▁child	-8.88557
les	-8.88606
▁ro	-8.88687
men	-8.88903
▁1,	-8.89042
50	-8.8907
▁2019	-8.89218
▁1950	-8.89233
▁together	-8.89364
▁real	-8.89389
▁country	-8.89437
▁green	-8.89494
▁politician	-8.8953
▁bachelor	-8.89846
▁process	-8.89851
▁500	-8.89881
▁founder	-8.89937
▁charles	-8.90063
▁2002	-8.90122
▁park	-8.90204
▁election	-8.90248
▁winning	-8.90307
om	-8.904
▁how	-8.90401
ite	-8.90496
▁del	-8.90532
,000	-8.90569
▁21	-8.90727
▁private	-8.90737
op	-8.90806
▁support	-8.90902
min	-8.91003
tu	-8.91121
▁“	-8.91367
est	-8.91368
▁michael	-8.91482
▁wrote	-8.91492
▁style	-8.91545
▁bi	-8.91574
ish	-8.91634
▁king	-8.91683
▁area	-8.91868
tor	-8.91916
cu	-8.91938
▁boston	-8.91989
▁piano	-8.91993
▁store	-8.92468
▁match	-8.9265
out	-8.92657
▁site	-8.92766
▁appearances	-8.92798
▁said	-8.92802
her	-8.92884
▁1983	-8.93013
▁1989	-8.93131
▁actor	-8.93151
▁ja	-8.93355
field	-8.93492
▁y	-8.93536
▁vice	-8.9355
▁success	-8.93607
▁product	-8.93686
▁tu	-8.93929
▁originally	-8.93979
sen	-8.94056
ology	-8.94335
▁pi	-8.94358
han	-8.94414
▁leading	-8.94428
▁races	-8.94462
▁officer	-8.94655
▁given	-8.94781
▁dish	-8.94818
▁1985	-8.94868
▁circuit	-8.94945
ft	-8.95034
▁isbn	-8.95043
ey	-8.95049
▁auto	-8.95065
ud	-8.95171
▁inc	-8.95183
▁associate	-8.95253
▁video	-8.95264
00	-8.95625
▁network	-8.9569
.3	-8.96052
▁em	-8.96239
▁thomas	-8.96267
▁sub	-8.96314
▁plays	-8.96546
so	-8.96569
▁decision	-8.96599
▁daughter	-8.96611
▁addition	-8.96794
▁grew	-8.96845
ji	-8.97167
▁mathematics	-8.9739
▁richard	-8.97399
▁1984	-8.97427
▁sc	-8.97441
▁entered	-8.97492
▁rights	-8.9765
ung	-8.97732
▁average	-8.97732
off	-8.97821
▁1998	-8.97964
▁fe	-8.97996
▁journal	-8.98035
▁prior	-8.98251
▁according	-8.98414
▁love	-8.98418
▁test	-8.98439
▁completed	-8.98509
ana	-8.98514
▁light	-8.98651
▁2014,	-8.98786
▁industry	-8.98993
▁1978	-8.99007
▁total	-8.99267
▁mc	-8.99303
▁movement	-8.99474
▁peter	-8.99482
▁town	-8.99509
▁himself	-8.9958
less	-8.99692
▁ben	-8.9984
▁previously	-9.00059
si	-9.00061
▁natural	-9.00155
berg	-9.00169
if	-9.00502
q	-9.00529
ell	-9.00534
▁1986	-9.0075
10	-9.00769
▁driver	-9.00806
▁collection	-9.00842
▁commission	-9.01032
▁label	-9.01055
7	-9.01178
ization	-9.01265
30	-9.01319
▁retired	-9.01347
▁written	-9.01401
▁1988	-9.01404
▁base	-9.01609
reference	-9.01661
%	-9.01676
▁even	-9.01721
▁des	-9.01739
▁much	-9.01876
ab	-9.0207
▁22	-9.02157
▁standard	-9.02184
▁cha	-9.02242
▁ex	-9.02279
ating	-9.02472
▁raised	-9.02588
▁chain	-9.02618
▁roman	-9.02685
▁chi	-9.02771
▁speed	-9.02797
mann	-9.02848
ü	-9.02876
kin	-9.02888
tz	-9.0291
▁parliament	-9.02937
▁lead	-9.03084
▁goal	-9.03117
ally	-9.03272
▁mark	-9.0339
▁1996	-9.03405
▁brown	-9.03484
▁eight	-9.03658
▁martin	-9.0369
▁op	-9.03735
ford	-9.03736
▁massachusetts	-9.0384
▁ceo	-9.0399
▁musical	-9.04027
▁throughout	-9.04127
▁physics	-9.04192
▁interest	-9.04287
▁financial	-9.04326
ah	-9.04378
sta	-9.04389
▁global	-9.0457
▁23	-9.04572
▁formed	-9.04575
▁take	-9.04748
▁si	-9.04966
▁fc	-9.05114
▁policy	-9.05182
▁ru	-9.05322
▁2018,	-9.05422
▁congress	-9.05428
▁range	-9.05458
▁training	-9.05563
”	-9.05576
▁economics	-9.05586
▁jo	-9.05621
▁campaign	-9.05921
▁countries	-9.05924
ful	-9.06087
▁che	-9.06324
▁upon	-9.06379
▁2008,	-9.06416
▁films	-9.06434
▁decided	-9.06481
▁2015,	-9.0649
sch	-9.06598
ya	-9.06664
▁2009,	-9.06732
▁blue	-9.06796
▁1995	-9.0682
▁half	-9.0695
▁2012,	-9.07002
▁chair	-9.07161
▁involved	-9.07234
▁low	-9.07268
▁100	-9.07288
▁few	-9.07297
ino	-9.073
▁student	-9.07328
▁traditional	-9.07353
▁2017,	-9.07354
ix	-9.07441
▁1974	-9.07452
▁ed	-9.07503
▁ran	-9.0758
▁subsequently	-9.07585
▁active	-9.07701
▁level	-9.07704
▁faculty	-9.07794
▁2011,	-9.07795
▁era	-9.07816
▁big	-9.0784
▁2019,	-9.07884
▁1977	-9.07893
▁followed	-9.08018
▁cuisine	-9.08046
▁eventually	-9.08061
ek	-9.08074
▁1979	-9.08088
▁woman	-9.08287
▁books	-9.08553
▁1999	-9.0857
▁taught	-9.08807
▁kw	-9.08896
ny	-9.0891
▁spanish	-9.09021
ag	-9.09054
▁1973	-9.09063
▁mon	-9.09223
▁actress	-9.09319
▁though	-9.09479
▁clothing	-9.09749
▁1969	-9.09842
▁start	-9.09907
res	-9.10053
▁starting	-9.10084
▁important	-9.10094
ze	-9.10353
ence	-9.10748
▁sal	-9.10868
▁serving	-9.1087
ai	-9.10879
▁composer	-9.10883
▁chef	-9.10944
▁features	-9.10952
▁sales	-9.10988
qui	-9.11071
▁goals	-9.11287
ring	-9.11298
▁successful	-9.11363
▁owned	-9.11433
▁usually	-9.11459
▁western	-9.11496
▁1972	-9.11709
▁live	-9.1201
▁data	-9.12039
▁joseph	-9.12077
▁products	-9.12163
▁months	-9.12199
mon	-9.12211
▁loan	-9.12315
ach	-9.12461
fe	-9.12566
▁character	-9.12618
mb	-9.12991
▁becoming	-9.13101
▁awards	-9.13259
▁1994	-9.13301
▁near	-9.13372
▁im	-9.1348
▁champion	-9.13495
▁2010,	-9.13509
▁ke	-9.13582
—	-9.13606
jo	-9.13607
▁1997	-9.13623
▁1975	-9.13746
40	-9.13774
▁selected	-9.13888
▁economic	-9.13941
60	-9.14036
▁2016,	-9.14165
▁independent	-9.14167
▁2007,	-9.14186
▁person	-9.14194
▁price	-9.14336
rs	-9.14507
▁florida	-9.14577
▁result	-9.14778
zi	-9.14834
▁producer	-9.15111
▁companies	-9.15113
▁28	-9.15169
ker	-9.15337
▁graduate	-9.15355
ik	-9.15388
▁michigan	-9.15521
▁doctor	-9.15637
▁wa	-9.15726
▁batted	-9.1573
▁drive	-9.15737
▁editor	-9.15752
▁gold	-9.15896
12	-9.15958
▁fi	-9.15977
▁never	-9.15981
▁27	-9.16008
hu	-9.16011
ical	-9.16014
▁replaced	-9.16037
▁capital	-9.16067
▁corporation	-9.16203
▁canada	-9.16231
▁anti	-9.16239
▁mary	-9.16255
ria	-9.16258
▁described	-9.16283
net	-9.16307
▁stage	-9.16319
▁uk	-9.16401
▁you	-9.16531
ong	-9.1661
▁statistics	-9.16615
▁middle	-9.16619
▁plant	-9.16717
▁return	-9.16732
▁civil	-9.17131
she	-9.17165
▁1968	-9.17219
▁pan	-9.17264
ö	-9.17362
▁pitcher	-9.17365
gg	-9.17382
▁god	-9.17437
▁soon	-9.17504
▁ti	-9.17534
tal	-9.17563
tt	-9.17616
▁acquired	-9.1762
▁foreign	-9.18002
▁am	-9.18045
pro	-9.18057
▁spring	-9.18063
▁mu	-9.18394
iv	-9.18506
▁located	-9.18561
▁days	-9.1857
▁smith	-9.18686
19	-9.18796
▁mac	-9.18854
▁stock	-9.18907
way	-9.19073
▁draft	-9.19245
▁ju	-9.19521
▁further	-9.19544
star	-9.19564
▁bur	-9.19604
▁language	-9.19761
▁others	-9.19822
▁review	-9.19894
uff	-9.19913
▁km	-9.19991
american	-9.2005
▁ever	-9.20159
▁ball	-9.20167
pp	-9.20176
▁cast	-9.20179
▁1966	-9.20266
▁help	-9.20278
▁managed	-9.20373
▁speedway	-9.20415
▁type	-9.20431
ub	-9.20456
▁double	-9.20564
▁centre	-9.20596
▁remained	-9.20654
ep	-9.20669
▁scientific	-9.20714
▁yamaha	-9.20833
▁example	-9.20833
▁bill	-9.20883
▁vol	-9.20932
▁performed	-9.20977
▁oil	-9.20997
▁ya	-9.21063
ica	-9.21152
ct	-9.21161
▁et	-9.21197
▁sox	-9.21262
ano	-9.21289
▁26	-9.21417
▁sport	-9.21447
back	-9.21543
▁teaching	-9.21773
elli	-9.21821
▁academic	-9.21843
▁instead	-9.21855
80	-9.21929
▁point	-9.21959
!	-9.21988
▁southern	-9.21989
▁teacher	-9.22097
shi	-9.22105
▁1993	-9.22143
▁offered	-9.2218
▁heart	-9.22269
▁word	-9.22311
ron	-9.22353
▁commercial	-9.22598
▁current	-9.22606
▁records	-9.22637
▁little	-9.22643
side	-9.22721
▁personal	-9.22729
▁berlin	-9.22775
▁manufactured	-9.22956
don	-9.23079
ita	-9.23095
▁gave	-9.23115
▁der	-9.23203
▁far	-9.23228
▁mobile	-9.23234
▁hp	-9.233
▁generation	-9.23323
▁action	-9.23411
ill	-9.23413
gan	-9.23455
▁te	-9.23632
▁numerous	-9.23746
▁tra	-9.23763
")	-9.23777
▁cur	-9.23864
▁fourth	-9.24022
▁profile	-9.24114
▁imdb	-9.24191
▁democratic	-9.24276
▁phone	-9.24278
▁attorney	-9.24339
nt	-9.24389
port	-9.24427
▁wi	-9.24593
▁racer	-9.24598
▁gra	-9.24877
▁ci	-9.24949
▁lee	-9.24982
▁29	-9.25014
val	-9.25088
▁sister	-9.25123
tro	-9.25134
well	-9.25166
all	-9.25169
▁francisco	-9.25261
▁initially	-9.25335
▁present	-9.2536
▁secretary	-9.25394
ator	-9.25408
(	-9.25596
bb	-9.25653
▁2020,	-9.25786
▁helped	-9.25788
▁columbia	-9.25837
▁ford	-9.25919
ou	-9.25928
ven	-9.25941
▁dress	-9.25988
▁mer	-9.25997
▁find	-9.26136
▁despite	-9.26186
▁put	-9.26206
▁release	-9.26407
▁cross	-9.26462
▁phd	-9.26468
▁sometimes	-9.2651
▁ge	-9.26538
▁pennsylvania	-9.26595
▁priest	-9.26598
▁singer	-9.26645
▁(1	-9.26729
▁hard	-9.26804
▁get	-9.26815
▁engineer	-9.26941
over	-9.26984
ping	-9.26994
▁tv	-9.27034
▁va	-9.27108
▁factory	-9.27121
▁1971	-9.27246
▁har	-9.27385
▁1992	-9.27397
▁points	-9.27617
sco	-9.27621
▁treatment	-9.27691
ving	-9.27778
▁2006,	-9.27804
▁cancer	-9.27851
▁africa	-9.27879
▁nine	-9.27998
▁affairs	-9.28079
▁experience	-9.28096
▁bro	-9.28125
▁graduating	-9.28127
▁less	-9.28139
▁promoted	-9.28154
▁platform	-9.28165
ts	-9.28211
▁hot	-9.28217
▁once	-9.28226
▁building	-9.28442
ee	-9.28486
unt	-9.28592
▁symphony	-9.28747
lan	-9.28866
▁away	-9.28992
▁trade	-9.29055
▁hi	-9.29095
after	-9.29176
ow	-9.29203
▁rome	-9.29206
▁1967	-9.2933
▁1991	-9.29355
▁military	-9.29371
▁politics	-9.29371
▁1930	-9.2955
▁meat	-9.29632
▁laboratory	-9.29685
70	-9.29816
▁oxford	-9.29841
▁batting	-9.30232
▁agent	-9.30232
▁leader	-9.30287
ap	-9.3033
▁comp	-9.3036
▁competed	-9.30528
▁(2	-9.30543
▁whom	-9.30687
▁1948	-9.30798
ius	-9.30855
90	-9.30934
▁added	-9.30995
▁does	-9.3121
▁philadelphia	-9.31424
▁deputy	-9.31425
▁trans	-9.31581
▁jr	-9.31611
▁india	-9.31634
▁automobile	-9.31637
▁50	-9.31646
▁religion	-9.31744
▁cambridge	-9.31746
▁limited	-9.31757
▁illinois	-9.31905
▁lawyer	-9.31932
▁night	-9.31948
▁winner	-9.31975
nie	-9.32007
▁administration	-9.32065
▁1955	-9.32075
▁seat	-9.32154
▁australia	-9.32397
▁regional	-9.32426
▁par	-9.32474
▁indicate	-9.32549
▁obtained	-9.32639
key	-9.32739
▁appearance	-9.32778
zo	-9.3285
▁chamber	-9.32872
red	-9.32984
25	-9.33004
▁poor	-9.33042
▁fer	-9.33076
▁bri	-9.33159
▁future	-9.33196
▁1949	-9.33206
ological	-9.3324
ran	-9.33278
▁bike	-9.33449
▁staff	-9.3349
▁rock	-9.33513
▁1964	-9.33639
▁1976	-9.33664
▁writer	-9.33678
▁partner	-9.33775
ations	-9.33782
▁carolina	-9.33852
▁sha	-9.33904
▁related	-9.33937
▁army	-9.34023
od	-9.34057
tes	-9.34069
ev	-9.3419
ese	-9.34225
▁fire	-9.34238
end	-9.34275
&	-9.34305
▁applied	-9.3434
▁rice	-9.34399
▁song	-9.34401
let	-9.34469
▁henry	-9.34511
▁bra	-9.3452
▁job	-9.34834
▁mexico	-9.34834
▁web	-9.34882
with	-9.34908
▁taking	-9.35017
▁artist	-9.35121
▁stanford	-9.35169
▁sent	-9.35353
old	-9.35368
▁farm	-9.35406
nce	-9.35468
act	-9.35489
▁see	-9.35511
cl	-9.35522
ities	-9.35552
▁android	-9.35667
▁got	-9.35725
lli	-9.3583
▁2020	-9.35879
▁medal	-9.36089
mit	-9.36135
▁1961	-9.36206
ura	-9.36346
▁recorded	-9.36397
qu	-9.36411
▁pioneer	-9.36499
▁ve	-9.36614
▁create	-9.36686
▁island	-9.36771
zz	-9.36797
▁must	-9.36843
▁manufacturer	-9.36899
oc	-9.37125
▁sy	-9.37128
▁wood	-9.37156
▁cat	-9.37164
▁je	-9.37168
▁alongside	-9.37194
cha	-9.37249
▁includes	-9.37309
▁across	-9.37317
ren	-9.3742
▁mm	-9.37428
▁chemistry	-9.3744
▁lower	-9.37539
▁1965	-9.37572
▁should	-9.3763
fl	-9.37634
11	-9.37704
ide	-9.37728
▁os	-9.37769
ux	-9.37825
du	-9.37941
▁dan	-9.37988
15	-9.38012
▁northern	-9.38023
▁region	-9.38065
▁milan	-9.38126
▁trial	-9.3819
▁brothers	-9.38246
▁indian	-9.38265
▁2005,	-9.38282
▁taken	-9.38331
▁multi	-9.38334
▁brought	-9.38364
▁change	-9.38379
ette	-9.38451
▁students	-9.38485
▁commonly	-9.3867
▁2,	-9.38682
▁fu	-9.38686
▁culture	-9.38712
▁1956	-9.38723
ise	-9.38819
▁mor	-9.3883
▁regular	-9.38886
▁fast	-9.38949
▁ended	-9.38957
▁restaurants	-9.38982
▁lost	-9.39
▁bre	-9.39023
▁key	-9.3909
▁1987	-9.39146
gue	-9.39154
hr	-9.39175
▁bay	-9.39217
of	-9.39378
tri	-9.39437
▁call	-9.39439
▁1982	-9.3956
▁edward	-9.39581
▁stores	-9.3964
▁tour	-9.39655
▁drama	-9.39809
fer	-9.39861
▁conference	-9.39922
▁electric	-9.40004
99	-9.40013
▁giants	-9.40101
▁1940	-9.40112
▁boy	-9.40161
▁ama	-9.40331
▁1957	-9.40449
▁virginia	-9.40578
▁space	-9.40589
▁lap	-9.40593
▁1962	-9.40602
ue	-9.40615
▁color	-9.40638
▁feature	-9.40763
und	-9.40771
ari	-9.40781
▁composition	-9.40789
▁analysis	-9.40963
ice	-9.41029
▁mit	-9.41034
▁security	-9.41195
▁rider	-9.41245
▁cut	-9.41291
▁sisters	-9.41319
tre	-9.41374
row	-9.41451
▁vehicle	-9.41466
500	-9.41675
▁subject	-9.41849
▁kingdom	-9.41852
▁1963	-9.41859
▁250	-9.41881
gar	-9.42001
▁event	-9.42056
▁scholar	-9.42192
▁principal	-9.422
▁money	-9.42246
▁fame	-9.42307
▁sun	-9.42405
▁fo	-9.42426
▁kar	-9.42474
▁1946	-9.4257
▁living	-9.42626
lt	-9.42653
uch	-9.42805
▁effects	-9.42829
▁female	-9.42914
▁cover	-9.43018
▁31	-9.43082
▁hill	-9.43084
ney	-9.43208
ok	-9.43246
pl	-9.43249
▁bio	-9.43321
▁jewish	-9.43329
vin	-9.43335
▁overall	-9.43357
rt	-9.4339
▁week	-9.43429
▁beginning	-9.43457
▁disease	-9.43485
ov	-9.43537
can	-9.43571
▁tax	-9.43577
fu	-9.43588
▁contributions	-9.43672
▁story	-9.43709
▁unit	-9.4372
▁behind	-9.43814
▁come	-9.43827
▁imp	-9.43886
wood	-9.43994
▁assembly	-9.44175
▁primary	-9.44183
▁changed	-9.44258
▁fall	-9.44288
▁frank	-9.4434
form	-9.44375
▁famous	-9.44413
▁organ	-9.44447
▁maria	-9.4452
16	-9.4456
nes	-9.44563
▁republic	-9.44667
▁edition	-9.44721
ves	-9.44827
▁pay	-9.4487
▁2011.	-9.45023
▁jersey	-9.45087
21	-9.45097
▁finish	-9.45161
ec	-9.45241
97	-9.45319
▁ch	-9.45328
▁events	-9.45488
▁every	-9.45499
▁text	-9.4551
cher	-9.45555
day	-9.45616
house	-9.45641
▁especially	-9.45694
▁friend	-9.45699
▁owner	-9.46028
▁risk	-9.46057
▁native	-9.46068
bar	-9.46185
95	-9.46292
▁sam	-9.46328
eu	-9.46363
ologist	-9.46407
ction	-9.46432
▁mat	-9.46622
▁mph	-9.46636
ps	-9.46687
▁museum	-9.46747
▁voice	-9.46758
▁gar	-9.46761
▁saw	-9.46768
led	-9.46816
?	-9.46933
▁worn	-9.46936
ize	-9.47006
▁acting	-9.47031
ium	-9.47129
▁allowed	-9.4718
▁writing	-9.4724
▁za	-9.47395
▁gt	-9.47463
▁bishop	-9.47494
ning	-9.47586
use	-9.47726
04	-9.47731
▁course	-9.47779
▁mental	-9.47927
▁founding	-9.48051
ble	-9.48081
▁parts	-9.48087
ible	-9.4812
▁formula	-9.48151
▁complete	-9.48165
▁russian	-9.48176
▁lived	-9.48194
tur	-9.482
▁transmission	-9.48248
▁cap	-9.48251
▁125	-9.48338
▁1959	-9.48418
▁vote	-9.48487
▁nu	-9.48541
▁cook	-9.48573
▁today	-9.48607
▁account	-9.48624
art	-9.4869
▁husband	-9.48814
▁structure	-9.48872
▁2015.	-9.48882
▁variety	-9.49004
▁mlb	-9.49054
▁1981	-9.49086
▁1952	-9.49205
▁$1	-9.49391
▁fair	-9.49572
▁comedy	-9.49593
24	-9.4966
▁joining	-9.49679
je	-9.49694
▁spain	-9.49733
+	-9.49769
van	-9.49958
▁hits	-9.49969
our	-9.50077
▁shop	-9.50197
ship	-9.50277
▁specific	-9.50378
▁hol	-9.50487
▁either	-9.50539
▁1947	-9.50552
▁carl	-9.50607
▁reported	-9.50626
▁port	-9.50674
my	-9.50759
89	-9.50866
▁blood	-9.5093
▁travel	-9.50935
▁treat	-9.50959
▁1920	-9.50961
king	-9.51106
long	-9.51314
▁code	-9.51378
▁bell	-9.51478
▁salt	-9.51482
ez	-9.51494
▁previous	-9.51537
28	-9.51556
▁ab	-9.51679
▁dar	-9.51688
▁google	-9.51705
▁ku	-9.51729
ella	-9.51794
▁jack	-9.51848
tan	-9.51881
▁guest	-9.51931
▁40	-9.51965
ani	-9.52134
▁value	-9.52309
▁via	-9.52323
▁sea	-9.52522
▁conducted	-9.52664
▁1951	-9.52687
▁turn	-9.52769
▁entrepreneur	-9.52769
▁2010.	-9.52804
▁relationship	-9.52887
▁self	-9.52986
▁close	-9.52987
▁ki	-9.5308
▁berkeley	-9.53083
▁primarily	-9.53083
eg	-9.53108
▁particular	-9.53114
▁roll	-9.53241
▁arm	-9.53242
▁cal	-9.53279
▁rather	-9.53287
è	-9.53387
▁plan	-9.5339
▁application	-9.53414
▁eastern	-9.53431
bert	-9.53457
▁police	-9.53488
▁stars	-9.53506
cylinder	-9.53582
yo	-9.53608
▁micro	-9.53673
wi	-9.53677
▁swedish	-9.53679
ett	-9.53728
▁ham	-9.53783
cia	-9.53792
▁cases	-9.53795
▁studio	-9.53828
▁rest	-9.53963
▁provided	-9.5399
▁bu	-9.54097
▁starring	-9.54107
ski	-9.54113
▁mal	-9.54278
▁represented	-9.54304
▁strong	-9.54313
▁online	-9.54386
▁amendment	-9.5448
▁article	-9.5451
yl	-9.54597
ris	-9.54686
▁focus	-9.54737
▁ban	-9.54756
▁2009.	-9.54833
▁chicken	-9.54883
▁fifth	-9.54883
▁canadian	-9.54928
▁physical	-9.5503
35	-9.55053
▁netherlands	-9.55085
▁ohio	-9.5509
▁detroit	-9.55287
▁associated	-9.553
▁pen	-9.55329
85	-9.55336
▁distinguished	-9.55349
▁er	-9.55358
ade	-9.5536
ire	-9.55453
í	-9.55468
mor	-9.55479
hl	-9.55488
▁players	-9.55519
26	-9.55547
handed	-9.55614
speed	-9.55854
ever	-9.55858
▁patent	-9.55922
▁display	-9.56108
ward	-9.56115
▁matches	-9.56117
▁0	-9.5614
▁force	-9.56161
▁section	-9.56278
▁annual	-9.5631
▁1954	-9.56315
▁means	-9.56337
▁hours	-9.564
▁holds	-9.56465
▁method	-9.56506
▁dutch	-9.56511
▁1945	-9.56524
▁fuel	-9.56575
▁cor	-9.56635
▁roles	-9.56685
▁coast	-9.56724
▁senate	-9.56729
▁jazz	-9.56732
▁deep	-9.56733
▁movie	-9.56753
▁teams	-9.56754
▁fund	-9.56798
ns	-9.57034
▁min	-9.57068
▁move	-9.57113
▁property	-9.57133
ju	-9.5725
▁notable	-9.57305
▁card	-9.57313
▁better	-9.57337
ries	-9.57344
▁internet	-9.5737
▁cost	-9.57387
rie	-9.57439
▁georgia	-9.57448
▁nominated	-9.57541
▁serve	-9.57544
▁dishes	-9.57553
wear	-9.57594
96	-9.57695
vis	-9.57713
▁machine	-9.57782
▁doctorate	-9.57794
23	-9.57836
hy	-9.57847
13	-9.57892
▁camera	-9.57923
▁daniel	-9.57965
98	-9.58036
▁mag	-9.58101
▁den	-9.5811
▁source	-9.58132
▁1958	-9.58138
oni	-9.5817
▁sauce	-9.58187
▁2012.	-9.58236
▁generally	-9.58265
▁referred	-9.58379
▁problems	-9.58607
low	-9.58626
ó	-9.58669
▁page	-9.58809
▁moving	-9.5883
▁friends	-9.58969
▁technical	-9.59003
▁han	-9.5903
tte	-9.59102
lie	-9.59105
▁focused	-9.59189
▁mass	-9.59192
▁hat	-9.59214
▁queen	-9.59278
ola	-9.59285
his	-9.59336
ions	-9.59363
▁screen	-9.5937
▁2014.	-9.59382
▁reserve	-9.59439
▁ren	-9.59441
▁temple	-9.59482
▁tri	-9.59496
▁separate	-9.59636
pt	-9.5967
des	-9.59699
ye	-9.59707
▁outside	-9.59715
▁influence	-9.59719
ō	-9.59775
az	-9.59817
sc	-9.59821
▁riding	-9.59852
die	-9.59907
29	-9.59959
del	-9.60039
93	-9.60193
ä	-9.6032
bra	-9.60333
14	-9.6034
gel	-9.60368
rin	-9.60427
▁leg	-9.60566
▁q	-9.60595
▁fact	-9.60598
shire	-9.60674
▁challenge	-9.60699
▁users	-9.6071
▁fried	-9.60848
▁biology	-9.60939
▁date	-9.61012
▁access	-9.61121
▁kansas	-9.61129
▁particularly	-9.61139
stein	-9.61211
uk	-9.61335
tin	-9.61589
83	-9.61618
▁sign	-9.61643
▁cell	-9.61778
▁latin	-9.61792
▁gained	-9.61814
▁look	-9.61815
▁widely	-9.61922
▁leaving	-9.61991
01	-9.62074
▁cro	-9.62136
▁direct	-9.62147
not	-9.62167
▁2017.	-9.62182
▁purchased	-9.62188
▁trust	-9.62216
▁theatre	-9.62245
▁jones	-9.62279
▁pra	-9.62399
75	-9.62429
▁provide	-9.6243
▁interview	-9.62433
▁finance	-9.62433
▁von	-9.62466
▁noted	-9.62483
46	-9.6256
▁prevent	-9.62608
▁digital	-9.62643
▁exchange	-9.62646
▁1938	-9.62656
▁opening	-9.62705
▁2008.	-9.62739
▁largest	-9.62774
▁gas	-9.62788
▁venture	-9.62868
nn	-9.62878
▁cam	-9.62982
▁finishing	-9.63063
▁bought	-9.63081
▁male	-9.63172
▁thus	-9.63205
lam	-9.63217
mate	-9.6323
▁certain	-9.633
▁host	-9.63313
ado	-9.63327
▁developing	-9.63408
work	-9.63482
ough	-9.63497
–2	-9.63651
▁camp	-9.63708
▁elections	-9.63727
pri	-9.63747
ole	-9.63838
uri	-9.63947
▁apple	-9.63951
▁johnson	-9.63959
▁junior	-9.63961
▁multiple	-9.63964
tsu	-9.64035
▁volume	-9.64035
94	-9.64074
▁patients	-9.6414
▁paper	-9.64159
▁candidate	-9.64182
▁rose	-9.64191
▁1937	-9.64196
22	-9.6423
now	-9.64262
▁bal	-9.64332
▁mis	-9.64378
hn	-9.64413
▁1953	-9.64488
▁2019.	-9.64503
▁scoring	-9.64627
▁individual	-9.64669
founder	-9.64706
▁michel	-9.64833
▁computing	-9.64849
88	-9.64885
▁ger	-9.64915
ane	-9.64926
set	-9.64946
▁approach	-9.64957
▁presented	-9.64967
lon	-9.65035
▁stand	-9.65074
▁ram	-9.65089
▁material	-9.65128
bel	-9.65222
▁2007.	-9.65314
▁nor	-9.65334
▁operating	-9.65335
▁ce	-9.65387
kh	-9.65409
ara	-9.65411
ira	-9.65443
▁purpose	-9.65573
0,000	-9.65605
part	-9.65626
founded	-9.65628
ors	-9.65665
▁fr	-9.65737
▁mayor	-9.65764
▁serves	-9.65924
▁dean	-9.65925
▁required	-9.65939
▁almost	-9.65984
▁tigers	-9.66006
▁studying	-9.6611
▁able	-9.66156
▁fish	-9.66213
▁kim	-9.66273
▁wall	-9.66274
ré	-9.66364
▁investment	-9.66422
▁charge	-9.66475
ens	-9.66508
▁disc	-9.6651
▁inspired	-9.66523
mal	-9.66568
▁sale	-9.66574
▁changes	-9.66608
▁attack	-9.66651
tel	-9.66656
▁database	-9.66723
▁knowledge	-9.66876
▁designs	-9.6697
▁ob	-9.67024
▁1939	-9.67117
▁scott	-9.67154
▁higher	-9.67178
03	-9.67235
▁2006.	-9.67284
▁2002,	-9.67298
▁sweet	-9.67332
▁superbike	-9.67336
▁typically	-9.67392
par	-9.67416
▁wear	-9.6748
27	-9.67538
▁2018.	-9.6771
▁2013.	-9.67726
▁cleveland	-9.6779
▁franchise	-9.6779
▁agreement	-9.67799
itch	-9.67874
▁(17	-9.67927
▁dodgers	-9.68025
▁governor	-9.68051
▁hospitals	-9.68061
▁jan	-9.68202
▁frame	-9.68206
mes	-9.68247
▁operations	-9.68255
53	-9.68293
▁williams	-9.68298
▁semi	-9.68315
▁sound	-9.68334
▁join	-9.68384
ay	-9.68441
ore	-9.68444
▁pianist	-9.68482
▁pu	-9.68524
ston	-9.68553
vel	-9.68583
▁seen	-9.68669
▁nature	-9.68727
▁location	-9.68745
▁15,	-9.68869
▁view	-9.68942
▁cheese	-9.68962
▁australian	-9.68977
▁river	-9.68999
59	-9.69127
и	-9.69177
▁contemporary	-9.69177
▁construction	-9.6919
▁santa	-9.6919
▁lb	-9.69215
▁stra	-9.69234
▁para	-9.69237
▁past	-9.69339
stra	-9.6941
▁hitting	-9.69463
▁wheel	-9.69465
sky	-9.6951
▁solo	-9.69559
▁suspension	-9.69644
▁suit	-9.69707
▁latter	-9.69879
ea	-9.69888
▁mel	-9.69898
▁2016.	-9.69932
▁reached	-9.70074
▁gal	-9.70087
▁agency	-9.70114
▁pole	-9.70134
▁sugar	-9.70135
▁concert	-9.70217
▁loss	-9.70335
▁joint	-9.70337
gra	-9.70476
▁4,	-9.70691
▁motorcycles	-9.70731
▁develop	-9.70753
91	-9.70767
92	-9.70768
▁going	-9.70823
gh	-9.70889
▁col	-9.70909
▁issues	-9.70938
cho	-9.70996
▁scholarship	-9.71067
▁programming	-9.71073
▁running	-9.71089
17	-9.71107
▁yo	-9.7113
ified	-9.71139
af	-9.71189
▁pope	-9.71346
▁marie	-9.71388
air	-9.71546
▁rich	-9.71582
▁sir	-9.71587
▁victory	-9.71623
▁claimed	-9.71665
86	-9.71743
▁promotion	-9.7179
▁recognized	-9.71837
▁larger	-9.71902
а	-9.72006
▁motocross	-9.72012
nc	-9.72028
▁selling	-9.7203
▁stated	-9.72127
▁engines	-9.72146
▁kg	-9.72153
▁thought	-9.7219
▁relations	-9.72196
rn	-9.72257
og	-9.72271
▁classical	-9.72278
▁protection	-9.72302
▁lab	-9.72412
▁earlier	-9.72498
▁yu	-9.72502
▁prime	-9.72554
▁uses	-9.72626
▁rbi	-9.72676
ile	-9.72688
▁researcher	-9.7273
lar	-9.72733
▁sedan	-9.72753
81	-9.72765
▁markets	-9.72808
mmer	-9.72818
▁reform	-9.72847
▁box	-9.72853
▁8,	-9.7293
▁bon	-9.72942
ale	-9.72972
▁province	-9.72974
▁ireland	-9.72974
▁worldwide	-9.72993
▁crime	-9.73017
▁shape	-9.73093
▁premier	-9.73208
▁library	-9.73216
▁sell	-9.73284
▁twin	-9.73404
▁closed	-9.73639
nu	-9.73645
tru	-9.73694
▁silver	-9.73717
▁guide	-9.73722
▁girl	-9.73911
▁energy	-9.73946
▁claim	-9.7401
77	-9.74048
▁build	-9.74103
▁pierre	-9.74149
▁francis	-9.74157
▁pursue	-9.74196
▁majority	-9.74225
▁/	-9.74248
▁significant	-9.74267
ef	-9.74475
▁debuted	-9.74496
▁placed	-9.74502
ative	-9.74643
oli	-9.74648
▁expanded	-9.74668
▁industrial	-9.74681
cent	-9.74687
▁search	-9.74699
18	-9.7482
née	-9.74837
▁uefa	-9.74928
▁launch	-9.75042
▁additional	-9.75046
▁step	-9.75066
▁quality	-9.75077
▁7,	-9.75078
▁cho	-9.7509
▁vo	-9.75094
zu	-9.75132
36	-9.75152
▁collaboration	-9.752
▁photo	-9.75208
▁pacific	-9.75222
▁meeting	-9.75249
▁locations	-9.75251
▁effect	-9.75266
▁bou	-9.75295
▁wide	-9.75303
▁cause	-9.75361
▁substitute	-9.75422
▁indianapolis	-9.75422
win	-9.75517
illa	-9.7558
▁2005.	-9.75599
burg	-9.75609
▁indians	-9.75611
ack	-9.75636
▁squad	-9.7567
▁participated	-9.7578
▁consist	-9.75785
▁moto	-9.75839
door	-9.75843
sha	-9.75849
▁internal	-9.75852
▁16,	-9.75909
▁evidence	-9.75919
▁pat	-9.75926
▁cl	-9.75961
47	-9.76029
▁chemical	-9.76057
▁3,	-9.76115
▁attention	-9.76168
▁val	-9.76174
bre	-9.76202
har	-9.76205
▁brazilian	-9.76259
▁classic	-9.76267
▁compete	-9.76339
ug	-9.76407
▁thesis	-9.7641
▁criminal	-9.76418
▁mexican	-9.76418
▁captain	-9.76429
▁electrical	-9.76437
qua	-9.76598
▁materials	-9.76606
iz	-9.7662
▁already	-9.76669
▁opinion	-9.76669
▁toronto	-9.7667
▁fresh	-9.76693
ip	-9.76816
▁keep	-9.76838
▁retirement	-9.76924
▁prominent	-9.76927
▁1941	-9.76935
▁entire	-9.77005
▁2000,	-9.77013
▁need	-9.77149
▁ps	-9.77178
▁1935	-9.77194
▁hong	-9.77216
▁novel	-9.77244
▁initial	-9.77263
▁zo	-9.77306
▁areas	-9.77364
▁1999,	-9.77372
▁mission	-9.77418
▁arizona	-9.77424
tive	-9.77563
▁21,	-9.77624
▁educated	-9.77677
▁und	-9.77679
▁device	-9.77874
▁businessman	-9.77929
▁leagues	-9.77931
▁responsible	-9.77931
▁(3	-9.78113
▁simon	-9.78127
▁discovered	-9.78159
▁twice	-9.78186
▁kind	-9.7822
▁transfer	-9.78228
▁sur	-9.78268
ato	-9.78355
▁receive	-9.78357
07	-9.78378
▁fine	-9.78427
▁rookie	-9.78441
▁dia	-9.78458
▁die	-9.78462
▁drag	-9.78474
▁assist	-9.78476
▁bread	-9.78502
▁listed	-9.78507
▁break	-9.78563
▁starred	-9.78631
▁idea	-9.7868
▁safety	-9.78712
▁holding	-9.78718
▁es	-9.78771
▁mostly	-9.78794
▁pop	-9.78796
▁ray	-9.78801
ori	-9.78872
▁gri	-9.78904
▁wisconsin	-9.78953
▁injury	-9.78954
▁hired	-9.78969
▁60	-9.79004
▁mil	-9.79008
▁score	-9.7901
bl	-9.79013
duc	-9.79027
▁older	-9.79053
from	-9.79065
▁foods	-9.79105
▁recording	-9.79152
▁photographer	-9.79157
45	-9.79159
▁conducting	-9.79222
▁publications	-9.7928
▁hal	-9.79364
rr	-9.79367
▁pirates	-9.79468
xi	-9.79468
▁1942	-9.79484
▁shows	-9.79488
▁triple	-9.79551
▁cultural	-9.7958
cle	-9.79787
tr	-9.79953
▁terms	-9.79985
▁tro	-9.80006
▁bases	-9.80031
▁coming	-9.80055
▁mill	-9.80089
len	-9.80123
▁marketing	-9.80145
▁bring	-9.80226
▁facility	-9.80245
▁couple	-9.80247
▁least	-9.8026
▁ty	-9.80368
84	-9.80373
▁pitched	-9.80383
las	-9.80449
▁ingredients	-9.80577
mel	-9.8061
▁tre	-9.8066
▁6,	-9.80724
▁report	-9.8074
▁user	-9.80754
▁minnesota	-9.80766
▁failed	-9.8085
season	-9.80859
▁max	-9.80988
law	-9.81012
▁houston	-9.81028
ick	-9.81033
▁pepper	-9.81048
▁devices	-9.81088
ique	-9.8109
uck	-9.81278
▁leadership	-9.81303
▁physician	-9.81332
sis	-9.81394
tle	-9.81514
ā	-9.81554
37	-9.8165
▁pittsburgh	-9.81818
▁driving	-9.81818
▁1933	-9.81834
lia	-9.81872
73	-9.81906
▁institution	-9.81922
68	-9.81942
▁asia	-9.81943
▁12,	-9.81977
▁learning	-9.82011
▁comes	-9.82012
78	-9.82015
▁medication	-9.8212
▁lives	-9.82133
05	-9.82149
▁birth	-9.82161
▁baseman	-9.82244
ken	-9.82265
hon	-9.82285
▁200	-9.82307
76	-9.82316
▁pr	-9.82322
-1	-9.82331
▁cru	-9.82348
▁les	-9.82451
▁ground	-9.82453
▁albert	-9.82467
–18	-9.82471
ric	-9.82501
▁drug	-9.82515
▁theater	-9.82538
▁eye	-9.82568
fo	-9.82585
▁midfielder	-9.82614
▁advanced	-9.82614
▁ship	-9.82679
▁korean	-9.82697
▁walk	-9.82748
var	-9.8275
▁forward	-9.82759
▁:	-9.82782
▁girls	-9.82833
▁accident	-9.8288
▁activities	-9.8288
▁producing	-9.8288
▁miller	-9.82898
cing	-9.82967
▁returning	-9.83029
▁effective	-9.83093
rio	-9.83099
▁turned	-9.83135
▁corn	-9.83142
▁alexander	-9.83149
▁transferred	-9.83158
▁partnership	-9.8316
▁custom	-9.83179
▁applications	-9.83236
▁ber	-9.83256
▁ser	-9.83351
▁room	-9.83369
gre	-9.83407
▁toyota	-9.83417
minors	-9.83461
▁itself	-9.83491
ox	-9.83495
ón	-9.83573
▁fre	-9.83669
▁23,	-9.83673
▁atlanta	-9.83686
also	-9.83717
dor	-9.83797
▁violin	-9.83903
▁titled	-9.83957
▁grant	-9.83991
74	-9.83998
▁younger	-9.84004
▁honor	-9.84046
▁hy	-9.84103
▁yale	-9.84111
▁drafted	-9.8414
▁songs	-9.84142
▁tur	-9.8416
▁methods	-9.84172
▁electronic	-9.84205
▁performing	-9.84205
▁28,	-9.84233
▁dy	-9.84259
▁village	-9.84373
mat	-9.84397
fr	-9.84408
▁employees	-9.84425
▁news	-9.84444
▁cooking	-9.84456
▁usa	-9.84494
57	-9.84535
▁estate	-9.84563
lle	-9.84676
▁char	-9.84677
▁meet	-9.84695
▁content	-9.84774
ien	-9.84804
▁—	-9.84821
▁outfielder	-9.84828
▁programs	-9.84883
pped	-9.84936
▁wild	-9.85029
▁14,	-9.85043
▁yankees	-9.85051
mm	-9.85056
ory	-9.85246
▁conservatory	-9.85313
▁1944	-9.85329
ock	-9.85376
▁beach	-9.85387
style	-9.85479
▁10,	-9.85506
▁leave	-9.8551
ace	-9.85534
▁basic	-9.85541
▁indiana	-9.85549
▁mike	-9.85619
87	-9.85627
▁diego	-9.85644
bil	-9.85854
82	-9.85864
▁ride	-9.85922
▁baker	-9.8594
▁brands	-9.85948
▁catcher	-9.85992
▁gene	-9.85995
56	-9.86026
▁1997,	-9.86097
▁amateur	-9.86138
▁sat	-9.86165
▁reg	-9.86165
▁rule	-9.86166
▁roger	-9.86185
▁finally	-9.8619
head	-9.86204
▁1996,	-9.86206
▁cr	-9.86271
▁13,	-9.86377
▁surgery	-9.86413
▁chassis	-9.86414
bon	-9.86489
▁tim	-9.86656
▁baltimore	-9.8669
▁manufacturing	-9.8669
▁potential	-9.8669
▁maryland	-9.86744
▁cre	-9.86814
gle	-9.86823
48	-9.86888
▁pla	-9.86948
▁microsoft	-9.86968
ille	-9.86987
▁flour	-9.86993
▁sl	-9.87042
▁spa	-9.87043
▁il	-9.87047
▁block	-9.87052
▁brook	-9.87215
▁elizabeth	-9.87246
▁complex	-9.87247
▁crash	-9.87301
▁2021	-9.87303
▁exist	-9.87359
▁brain	-9.87361
▁nations	-9.87369
▁tradition	-9.87382
▁cum	-9.87384
▁ye	-9.87485
33	-9.87488
▁pur	-9.87499
▁appointment	-9.87526
▁brooklyn	-9.87526
▁1943	-9.8754
▁1936	-9.87545
▁projects	-9.87615
eur	-9.87645
dia	-9.87668
tar	-9.87741
79	-9.87785
▁clinical	-9.87791
▁suzuki	-9.87806
ging	-9.87815
▁visiting	-9.87856
▁michelin	-9.87899
▁1998,	-9.87947
▁27,	-9.87955
dra	-9.87959
49	-9.87977
▁sand	-9.87988
log	-9.88029
▁2.	-9.88044
▁wing	-9.88051
▁revolution	-9.88069
▁asylum	-9.88088
▁versions	-9.88094
▁basis	-9.88132
▁month	-9.88137
▁cra	-9.88275
▁christ	-9.88299
▁2020.	-9.88327
▁brazil	-9.8833
non	-9.88371
▁fla	-9.88384
▁choir	-9.88393
▁spell	-9.88452
▁25,	-9.88465
stone	-9.88468
▁tar	-9.88476
▁allen	-9.88513
▁license	-9.88594
▁matter	-9.88605
▁andrew	-9.88669
09	-9.88689
sk	-9.88768
▁nickname	-9.8878
44	-9.88848
pan	-9.88912
▁spiritual	-9.88934
▁diploma	-9.88935
://	-9.88937
▁allow	-9.88941
▁scene	-9.8895
▁princeton	-9.88979
new	-9.8902
org	-9.89039
▁featur	-9.89058
▁ji	-9.89074
▁22,	-9.89098
▁increase	-9.89163
light	-9.89165
▁nascar	-9.89221
):	-9.89245
▁draw	-9.89268
▁buy	-9.89272
▁traded	-9.89275
▁bla	-9.89382
▁fan	-9.89408
▁bear	-9.89447
hor	-9.89472
hrew	-9.89528
▁11,	-9.89535
etti	-9.8954
▁our	-9.89553
▁broadcast	-9.89725
▁24,	-9.89753
▁rev	-9.89753
▁document	-9.89768
▁smartphone	-9.8979
▁episode	-9.89799
08	-9.89804
rich	-9.89819
bri	-9.89859
aki	-9.8987
pu	-9.89907
▁artists	-9.89921
▁mp	-9.89983
02	-9.89986
ender	-9.90008
▁19,	-9.90016
42	-9.90018
▁defense	-9.90076
▁nomination	-9.90076
▁weight	-9.9008
▁wanted	-9.90095
▁fastest	-9.90099
▁é	-9.90137
31	-9.90208
▁musician	-9.90273
app	-9.9029
▁possible	-9.90363
ington	-9.90463
▁korea	-9.90464
▁origin	-9.90508
▁recently	-9.90512
▁br	-9.90548
ming	-9.9064
▁bob	-9.90645
▁winter	-9.90649
▁marriage	-9.90651
▁childhood	-9.9066
▁environment	-9.90664
▁results	-9.90668
▁hans	-9.90686
▁howard	-9.9073
▁appeals	-9.90796
▁wil	-9.90826
▁ter	-9.90929
▁philosopher	-9.90979
▁lack	-9.91025
▁90	-9.91041
▁philharmonic	-9.9123
▁whether	-9.91231
▁1929	-9.91253
▁scout	-9.91265
▁lan	-9.91273
67	-9.91312
38	-9.91315
▁add	-9.91344
mic	-9.91357
▁29,	-9.91361
▁critical	-9.91375
▁highest	-9.9138
55	-9.91467
о	-9.91518
▁eli	-9.91525
▁creative	-9.91527
▁talent	-9.91527
▁articles	-9.91574
aka	-9.91603
uc	-9.9166
wer	-9.91686
▁bad	-9.917
zy	-9.9173
fin	-9.91743
▁renamed	-9.91839
62	-9.91849
pen	-9.91925
▁clear	-9.91929
65	-9.92015
▁1.	-9.92023
án	-9.92042
top	-9.92097
▁reason	-9.92157
▁meaning	-9.92219
▁("	-9.92278
wheel	-9.92285
▁shi	-9.92332
▁fruit	-9.92398
▁1932	-9.92413
ms	-9.92476
▁duke	-9.92477
dr	-9.92493
▁hotel	-9.92508
▁parliamentar	-9.92542
▁status	-9.92712
▁anna	-9.92782
mie	-9.92838
41	-9.92922
▁bass	-9.92954
gy	-9.9296
▁expert	-9.92982
▁ministry	-9.92987
▁christmas	-9.92992
▁honorary	-9.9301
hol	-9.93011
nat	-9.93049
▁steve	-9.93161
▁rec	-9.93215
▁laws	-9.93226
more	-9.9328
▁32	-9.93317
haus	-9.93322
▁miss	-9.93333
pre	-9.93336
era	-9.93451
ised	-9.93456
▁accepted	-9.93541
▁bundestag	-9.93579
▁tournament	-9.93579
▁permanent	-9.9358
63	-9.9359
▁1931	-9.93598
▁mini	-9.93601
▁1927	-9.93602
ned	-9.93627
▁shortly	-9.9364
▁quickly	-9.93649
▁supported	-9.93746
▁reference	-9.93877
▁fabric	-9.93881
▁cardinals	-9.93898
▁davis	-9.93912
▁passed	-9.93924
▁26,	-9.93932
etta	-9.93936
▁dor	-9.93979
▁earning	-9.94021
▁mus	-9.94053
▁visit	-9.94055
▁cincinnati	-9.94176
▁interior	-9.94176
▁healthcare	-9.94176
nch	-9.9419
▁tall	-9.94193
▁lake	-9.94216
▁longer	-9.94271
▁mcc	-9.94276
▁advisor	-9.94282
lp	-9.94349
▁2000.	-9.94451
72	-9.94455
▁1934	-9.94491
▁tom	-9.94549
▁phil	-9.94552
med	-9.94578
▁broad	-9.94588
▁filed	-9.94677
▁classes	-9.94697
▁fl	-9.94717
▁parties	-9.94736
▁skin	-9.94766
▁managing	-9.94776
▁issue	-9.94776
-20	-9.94778
▁creating	-9.94789
▁compact	-9.94792
▁highly	-9.94818
▁vehicles	-9.94819
▁increased	-9.94834
lock	-9.94853
▁attempt	-9.94857
▁starts	-9.94876
▁produce	-9.94988
▁powered	-9.95058
▁capacity	-9.95077
▁steel	-9.95089
▁joe	-9.95099
▁hor	-9.95176
39	-9.9518
ello	-9.95232
cer	-9.95266
à	-9.95288
stroke	-9.9529
▁offer	-9.95351
▁officially	-9.95371
▁corporate	-9.95379
▁wilson	-9.95419
▁direction	-9.95489
▁zi	-9.95589
▁innings	-9.956
▁appearing	-9.95656
▁dead	-9.95659
▁gre	-9.95659
▁ken	-9.95678
▁tokyo	-9.95686
▁dream	-9.95719
ero	-9.95732
▁eaten	-9.95737
▁size	-9.9583
▁face	-9.95831
enberg	-9.95877
▁save	-9.95906
▁shirt	-9.95996
▁provides	-9.96014
▁fellowship	-9.96021
▁valley	-9.96025
▁touring	-9.96027
poli	-9.96105
▁door	-9.96137
▁cake	-9.96169
▁bl	-9.96175
▁walter	-9.962
ability	-9.96235
ada	-9.96237
sp	-9.96241
▁mathematical	-9.9629
▁always	-9.96293
▁greek	-9.96303
▁impact	-9.96306
▁plate	-9.96306
▁kong	-9.96338
▁1999.	-9.9641
▁euro	-9.96418
▁9,	-9.96448
▁give	-9.96488
ret	-9.96538
▁introduction	-9.96596
▁gun	-9.96607
▁peace	-9.96614
▁mad	-9.9665
rk	-9.96665
▁minutes	-9.96671
▁cb	-9.96804
war	-9.96812
▁constitution	-9.96841
▁simply	-9.96903
▁vienna	-9.96903
▁counsel	-9.96904
▁murder	-9.96916
▁molecular	-9.96958
▁prepared	-9.97034
▁lar	-9.97068
▁prince	-9.97074
known	-9.97097
town	-9.9712
mlb	-9.97136
▁hip	-9.97168
▁ven	-9.97239
▁rate	-9.97246
▁jackson	-9.9727
▁flat	-9.97295
▁dog	-9.97324
▁rap	-9.97339
250	-9.97347
▁amount	-9.97391
▁championships	-9.97506
▁ze	-9.9753
▁cubs	-9.97533
▁wheels	-9.97563
▁shot	-9.97568
▁suffered	-9.9759
▁vision	-9.97611
place	-9.97633
gon	-9.97663
▁mr	-9.97665
ena	-9.97684
▁attend	-9.97738
▁luxury	-9.97829
▁composed	-9.9783
ists	-9.97884
▁30,	-9.97898
char	-9.97928
▁liga	-9.97949
tta	-9.97956
izing	-9.97967
▁milk	-9.98015
eo	-9.98018
▁combined	-9.98024
▁mah	-9.98066
▁1995,	-9.98077
▁economy	-9.9814
▁ol	-9.98145
▁var	-9.98183
▁share	-9.98218
▁authority	-9.9825
▁gro	-9.98257
like	-9.98275
elle	-9.98287
istic	-9.9839
nia	-9.98393
▁motors	-9.98415
▁loaned	-9.98415
▁object	-9.98428
▁rode	-9.98445
gal	-9.98449
▁receiving	-9.98451
▁phillies	-9.98451
▁clark	-9.98463
▁neu	-9.98508
▁nation	-9.98748
▁combination	-9.98781
▁operation	-9.98813
▁ann	-9.98848
▁luc	-9.98978
▁protect	-9.98984
▁marketed	-9.99069
⋅	-9.99077
▁1928	-9.99105
▁jim	-9.99135
pr	-9.99231
▁alex	-9.9924
▁shared	-9.99279
▁read	-9.99339
71	-9.99373
▁workers	-9.99391
▁intended	-9.99392
▁sh	-9.99394
▁golden	-9.99421
▁motorsports	-9.99432
▁credited	-9.99442
▁ir	-9.99484
chen	-9.99538
▁rou	-9.99565
iff	-9.99594
ˈ	-9.99628
▁zu	-9.99648
▁runner	-9.99677
▁channel	-9.9971
▁bbc	-9.99714
▁gear	-9.99756
mont	-9.99784
▁cd	-9.9984
▁stone	-9.99977
е	-10.0002
▁1924	-10.0005
▁socialist	-10.0009
▁20,	-10.0009
▁raced	-10.0015
ama	-10.0015
▁cylinder	-10.0018
wing	-10.0023
worth	-10.0029
▁congregation	-10.0034
▁dedicated	-10.0034
▁influential	-10.0034
▁taylor	-10.0034
▁anne	-10.0035
▁mont	-10.0043
▁begin	-10.0047
▁beat	-10.005
lla	-10.0052
bury	-10.0064
▁bmw	-10.0066
▁newly	-10.0073
▁youngest	-10.0073
til	-10.0073
▁asked	-10.0075
▁#	-10.0081
eb	-10.0084
▁eu	-10.0084
200	-10.0085
▁ny	-10.0087
▁signing	-10.0087
▁2002.	-10.0097
▁literature	-10.0098
▁assigned	-10.0098
▁17,	-10.01
ain	-10.0107
av	-10.0117
tti	-10.0118
zer	-10.0121
▁recognition	-10.013
▁rpm	-10.013
▁talk	-10.0133
eau	-10.0138
▁sk	-10.014
▁dance	-10.0142
yan	-10.0143
class	-10.016
р	-10.0162
▁print	-10.0163
▁irish	-10.0164
▁train	-10.0166
wick	-10.0168
▁nearly	-10.017
▁your	-10.0172
▁succeeded	-10.0173
ky	-10.0179
06	-10.0182
▁recent	-10.0192
▁environmental	-10.0193
▁economist	-10.0194
▁seattle	-10.0195
▁pieces	-10.0205
▁2003.	-10.0212
press	-10.0217
french	-10.0222
▁cla	-10.0231
▁http	-10.0237
▁gain	-10.0238
kar	-10.0238
▁lord	-10.024
34	-10.024
▁1994,	-10.0241
▁labor	-10.0241
lé	-10.0246
▁operated	-10.0246
wan	-10.0251
met	-10.0253
▁twenty	-10.0259
▁munich	-10.0259
▁bernard	-10.0263
ert	-10.0264
▁eric	-10.0264
▁pick	-10.0275
ase	-10.0276
▁hold	-10.0278
bal	-10.028
▁bat	-10.0281
▁hair	-10.0281
▁claims	-10.0281
▁pl	-10.0286
▁hop	-10.0289
▁response	-10.0292
▁arthur	-10.0292
▁choice	-10.0293
52	-10.0293
▁truck	-10.0294
▁1926	-10.0295
▁henri	-10.0296
▁antonio	-10.0297
▁types	-10.0297
▁pressure	-10.0297
▁aged	-10.0302
▁billion	-10.0305
ular	-10.0307
ification	-10.0307
▁shown	-10.0312
▁organizations	-10.0314
▁lewis	-10.0325
▁percentage	-10.0325
▁colorado	-10.0326
▁enroll	-10.0326
▁(4	-10.0331
cin	-10.0331
▁wal	-10.0334
▁creation	-10.0334
▁$2	-10.0335
▁contributed	-10.0344
▁butter	-10.0346
rad	-10.0348
ware	-10.035
graph	-10.0352
▁consumer	-10.0357
▁britain	-10.0357
▁undergraduate	-10.0358
▁bru	-10.0359
▁documentary	-10.036
▁credit	-10.0361
▁formal	-10.0363
mond	-10.037
▁mol	-10.0373
gr	-10.0383
▁intelligence	-10.039
▁missouri	-10.039
▁invited	-10.0391
▁portuguese	-10.0396
lor	-10.0397
ben	-10.0409
▁tt	-10.041
▁berg	-10.0416
▁pass	-10.0419
ei	-10.0424
▁growth	-10.043
▁wins	-10.043
ici	-10.0437
▁fight	-10.0442
▁successor	-10.0451
may	-10.0453
▁equipment	-10.0456
▁samsung	-10.0456
▁soccerway	-10.0457
▁spread	-10.0457
▁chart	-10.046
▁fifa	-10.046
dale	-10.046
▁jury	-10.0465
▁lecturer	-10.0466
vir	-10.0473
ray	-10.0477
▁designers	-10.0483
▁iii	-10.0485
▁fit	-10.0486
▁cooked	-10.0489
▁stephen	-10.049
▁alternative	-10.049
▁fields	-10.0501
▁rod	-10.0509
▁ip	-10.0513
▁measure	-10.052
▁1921	-10.0528
▁stay	-10.0528
▁partners	-10.0531
▁kill	-10.0531
▁est	-10.0534
▁coat	-10.0547
▁tr	-10.0549
▁80	-10.0552
▁metal	-10.0556
▁emeritus	-10.0556
▁respectively	-10.0556
▁contact	-10.0556
▁alliance	-10.0556
▁count	-10.0559
▁bus	-10.0579
▁windows	-10.058
▁branch	-10.0581
▁cycle	-10.0586
▁hay	-10.0591
▁cream	-10.0594
▁dur	-10.0604
▁agreed	-10.0605
nor	-10.0606
▁communications	-10.0609
mu	-10.061
▁know	-10.0612
▁represent	-10.0613
▁1992,	-10.0614
▁newspaper	-10.0623
▁ancient	-10.0624
▁manual	-10.0624
▁dun	-10.0628
▁gl	-10.0631
▁audio	-10.0635
▁russia	-10.0639
▁prison	-10.0649
▁directly	-10.065
▁ec	-10.0651
campeonato	-10.0657
▁hollywood	-10.0657
▁mai	-10.0659
69	-10.066
▁1923	-10.066
pic	-10.066
▁beef	-10.0681
32	-10.069
▁steven	-10.069
ū	-10.0691
▁oklahoma	-10.0691
▁pattern	-10.0691
▁derived	-10.0691
▁dual	-10.0693
bro	-10.0695
▁bor	-10.0703
▁pitching	-10.0708
aud	-10.0719
▁guitar	-10.072
▁whole	-10.0723
▁occur	-10.0724
▁visual	-10.0725
800	-10.0728
▁killed	-10.0731
hard	-10.0739
▁battle	-10.0741
ably	-10.0746
rat	-10.0754
▁defeat	-10.0756
▁liquid	-10.0759
▁stolen	-10.076
▁ill	-10.0763
▁5,	-10.0769
43	-10.0774
▁safe	-10.0777
▁clause	-10.0794
▁forced	-10.0795
▁rank	-10.0795
▁positions	-10.0796
maker	-10.0801
▁...	-10.0802
ery	-10.0809
▁lin	-10.0809
▁conditions	-10.0816
▁ep	-10.0825
cal	-10.0828
▁enterprise	-10.0828
▁oregon	-10.0828
▁sixth	-10.0828
58	-10.0831
▁computational	-10.0832
▁motion	-10.084
▁fra	-10.0853
cra	-10.0854
italian	-10.0857
▁kat	-10.0861
▁resident	-10.0862
▁adult	-10.0862
▁simple	-10.0863
▁18,	-10.0865
▁equal	-10.0866
▁1910	-10.0867
▁standing	-10.0873
llo	-10.0878
ich	-10.0897
▁lincoln	-10.0897
▁kan	-10.0898
ense	-10.09
▁fm	-10.09
▁sar	-10.0902
iti	-10.0902
▁herself	-10.0905
▁interests	-10.091
▁70	-10.0913
san	-10.092
▁net	-10.0932
▁split	-10.0932
▁psychology	-10.0932
▁extra	-10.0934
▁1922	-10.0934
▁1925	-10.0935
▁1919	-10.0936
▁panel	-10.0943
ctor	-10.0949
▁anderson	-10.0955
▁row	-10.0961
54	-10.0964
▁wei	-10.0966
▁regularly	-10.0966
▁birmingham	-10.0967
▁caused	-10.0967
▁cornell	-10.097
arch	-10.0975
▁shin	-10.0975
lio	-10.0978
▁granted	-10.0982
▁fox	-10.0983
▁elements	-10.0991
▁influenced	-10.0994
▁cy	-10.0998
▁kra	-10.1001
▁ensemble	-10.1002
▁request	-10.1002
▁therefore	-10.1002
▁ability	-10.1012
▁inside	-10.1016
are	-10.103
▁spin	-10.1032
▁target	-10.1037
itz	-10.1037
▁languages	-10.1039
▁1914	-10.1039
▁problem	-10.104
▁limit	-10.104
▁laude	-10.1044
ico	-10.1046
ban	-10.1046
▁achieved	-10.1055
kan	-10.1055
▁1998.	-10.1056
ika	-10.1057
ata	-10.106
61	-10.1061
▁retail	-10.1062
▁recipe	-10.1069
▁figure	-10.1069
▁advocate	-10.1072
▁sweden	-10.1072
races	-10.1075
);	-10.1075
▁true	-10.1076
ito	-10.1078
▁1991,	-10.108
nel	-10.1081
▁notably	-10.1081
▁tun	-10.1086
tie	-10.1092
sur	-10.1102
▁function	-10.1107
▁aid	-10.1109
▁1913	-10.111
▁pie	-10.1112
▁fly	-10.1136
▁gen	-10.1137
▁israel	-10.114
▁surface	-10.1143
▁publication	-10.1147
▁lou	-10.1148
▁bol	-10.1148
2.	-10.1149
▁constitutional	-10.115
ene	-10.1151
yama	-10.1151
▁presidential	-10.1159
mc	-10.116
▁extended	-10.1161
▁historical	-10.1169
cio	-10.1175
▁mathematician	-10.1178
lf	-10.118
▁cer	-10.118
▁formerly	-10.118
▁nat	-10.1183
▁done	-10.1186
▁sol	-10.1187
▁want	-10.1191
ave	-10.1193
▁fat	-10.1195
▁lady	-10.1199
▁bag	-10.1213
▁behavior	-10.1214
▁bundesliga	-10.1214
vent	-10.1221
oma	-10.1228
cht	-10.1231
▁tank	-10.1239
▁believed	-10.1244
▁sto	-10.1249
▁prototype	-10.125
▁superior	-10.125
▁entry	-10.125
▁entertainment	-10.1251
▁iron	-10.1251
▁solid	-10.1254
▁task	-10.1257
▁tech	-10.1258
▁harry	-10.1258
▁valve	-10.1262
▁fri	-10.1265
▁refer	-10.1271
▁feet	-10.1274
zar	-10.1274
▁length	-10.1275
right	-10.1281
▁address	-10.1286
▁jesus	-10.1286
▁sons	-10.1286
▁giving	-10.1289
▁sexual	-10.1295
ima	-10.1299
▁briefly	-10.1302
▁link	-10.1305
▁defender	-10.1306
▁secret	-10.132
▁kawasaki	-10.1322
▁manchester	-10.1322
▁entitled	-10.1322
▁2001.	-10.135
▁weeks	-10.1353
mus	-10.1353
▁cape	-10.1353
ç	-10.1354
▁karl	-10.1357
col	-10.1357
▁cathedral	-10.1358
▁donald	-10.1358
▁1993,	-10.1359
▁freedom	-10.136
▁ruled	-10.1369
▁adopted	-10.1371
$	-10.1375
▁wind	-10.1379
▁soft	-10.1384
▁switzerland	-10.1394
▁relative	-10.1394
▁dec	-10.1397
ight	-10.1397
▁unique	-10.1401
hen	-10.1409
▁bond	-10.141
▁speaker	-10.1415
▁pin	-10.1418
▁bold	-10.1423
▁biography	-10.1432
▁hearing	-10.1435
ida	-10.1445
▁photography	-10.1446
▁athletics	-10.1446
▁essential	-10.1451
64	-10.1452
▁levels	-10.1455
▁mechanical	-10.1458
▁performances	-10.1459
▁etc	-10.1464
ː	-10.1468
▁samuel	-10.1468
bin	-10.1469
▁35	-10.1471
▁needed	-10.1487
▁carried	-10.1505
▁serious	-10.1505
▁immediately	-10.151
mid	-10.1512
burn	-10.1512
▁2004.	-10.1524
▁secondary	-10.1533
▁dj	-10.1537
augh	-10.154
▁confirmed	-10.1541
▁quarter	-10.1542
▁depend	-10.1543
▁groups	-10.1544
▁enough	-10.1545
▁elder	-10.155
▁fur	-10.156
ij	-10.1564
▁advisory	-10.1565
▁esp	-10.157
▁marc	-10.1571
▁reds	-10.1578
▁speech	-10.1578
▁organisation	-10.1579
▁scottish	-10.1581
▁sole	-10.1583
sign	-10.159
▁journalist	-10.1595
▁ur	-10.1597
▁tony	-10.1598
▁growing	-10.16
▁trip	-10.1609
▁kit	-10.161
▁foot	-10.1614
▁dissertation	-10.1615
▁honour	-10.1616
▁sm	-10.1618
tus	-10.1619
put	-10.1621
▁trained	-10.1622
▁frequently	-10.1625
▁cdu	-10.1629
▁gla	-10.1632
-5	-10.1632
▁hart	-10.1636
▁brief	-10.1638
▁institutions	-10.164
▁swiss	-10.1653
moto	-10.1654
▁purchase	-10.1656
▁interested	-10.1657
▁kn	-10.1659
▁towards	-10.1665
▁concerto	-10.1669
▁showed	-10.1676
▁developer	-10.1687
▁contest	-10.1688
▁allows	-10.1689
▁anthony	-10.169
▁consecutive	-10.169
▁memorial	-10.169
▁garden	-10.1695
▁daily	-10.17
eng	-10.1702
▁processing	-10.1703
▁sim	-10.1715
▁pri	-10.1723
▁respect	-10.1728
▁drink	-10.1729
ect	-10.1734
▁domin	-10.1737
▁communication	-10.1744
▁geo	-10.1753
ora	-10.1758
.7	-10.1759
tom	-10.1765
▁chris	-10.1765
▁admitted	-10.1766
▁graduation	-10.1766
▁mind	-10.1769
▁path	-10.177
▁experiment	-10.1773
▁perform	-10.1779
ova	-10.178
▁representative	-10.1784
▁map	-10.1795
▁parent	-10.1798
▁400	-10.1802
▁consultant	-10.1803
▁facilities	-10.1803
▁solution	-10.1803
▁protein	-10.1803
▁alfred	-10.1804
▁improve	-10.1804
▁xi	-10.1813
▁pp	-10.1813
▁31,	-10.1819
▁flu	-10.182
▁appeal	-10.1823
ati	-10.1825
▁wolf	-10.1825
▁note	-10.1834
▁refers	-10.1836
▁maintain	-10.1839
▁distribution	-10.1841
▁competing	-10.1841
▁option	-10.1846
▁specialize	-10.1847
▁root	-10.1849
▁sr	-10.1851
sport	-10.1855
▁spec	-10.1859
▁string	-10.1859
▁sin	-10.1865
▁asian	-10.1875
ala	-10.1879
▁argentina	-10.188
▁resigned	-10.188
▁faith	-10.188
▁complet	-10.188
sey	-10.1881
▁1911	-10.1884
point	-10.1889
▁angels	-10.1889
▁investigation	-10.189
▁takes	-10.1899
▁tan	-10.1899
▁2021,	-10.1902
vy	-10.1904
▁core	-10.1906
nell	-10.1911
▁sen	-10.1913
▁storage	-10.1918
▁eleven	-10.1919
▁demand	-10.1919
▁approximately	-10.1919
▁architecture	-10.1919
▁descent	-10.192
▁sex	-10.1922
▁offering	-10.1927
bul	-10.1937
66	-10.1943
▁appear	-10.1943
vol	-10.1948
dom	-10.195
▁bir	-10.1956
▁jurisdiction	-10.1956
▁technologies	-10.1956
www	-10.1957
▁planning	-10.1958
▁reading	-10.1961
ros	-10.1968
rey	-10.1982
▁od	-10.1986
ele	-10.1993
▁austin	-10.1995
▁fun	-10.1997
▁braves	-10.1997
mil	-10.1998
▁attending	-10.2
▁françois	-10.2005
▁dark	-10.2006
▁employed	-10.2013
ash	-10.2024
nny	-10.2028
▁cabinet	-10.2034
list	-10.2034
▁statute	-10.2034
dan	-10.2035
▁1915	-10.2038
▁wo	-10.204
▁universal	-10.204
▁riders	-10.2043
▁plans	-10.2045
▁broadway	-10.2049
▁albums	-10.2056
▁letter	-10.2064
▁advertising	-10.2073
▁communist	-10.2073
▁federation	-10.2073
▁polish	-10.2074
cat	-10.2078
▁discovery	-10.209
▁makes	-10.2098
gor	-10.2103
▁file	-10.2111
▁approved	-10.2112
▁restrict	-10.2112
▁vogue	-10.2113
▁spirit	-10.2114
▁ligue	-10.2115
▁1916	-10.2115
▁supporting	-10.2124
▁establish	-10.2131
▁regarded	-10.2134
100	-10.2147
sson	-10.2151
▁empire	-10.2151
▁kennedy	-10.2151
▁orioles	-10.2151
ball	-10.2153
▁1906	-10.2153
▁require	-10.2153
▁rob	-10.2158
▁matt	-10.2162
▁table	-10.2171
▁artistic	-10.2173
matic	-10.2175
▁holy	-10.2178
▁contain	-10.2185
ا	-10.219
sia	-10.2191
▁1997.	-10.2202
▁pair	-10.221
▁(20	-10.2211
inch	-10.2215
▁poly	-10.2221
▁smaller	-10.2222
▁tea	-10.2224
▁pal	-10.2229
▁tennessee	-10.223
ska	-10.2232
▁knight	-10.2233
-4	-10.2233
▁mir	-10.2234
▁defendant	-10.2235
later	-10.2245
ax	-10.2247
▁twins	-10.2251
▁graphic	-10.2259
▁harris	-10.2262
▁bull	-10.2262
zel	-10.2264
cchi	-10.2266
▁papers	-10.2269
▁manhattan	-10.2269
▁ltd	-10.2271
▁1908	-10.2272
▁worth	-10.2276
cooled	-10.228
▁glass	-10.2283
▁organist	-10.2284
▁programme	-10.2285
▁lit	-10.2288
▁mari	-10.2298
hop	-10.2299
▁standards	-10.2304
▁alan	-10.2305
▁alabama	-10.2309
▁automotive	-10.2309
▁ordained	-10.2309
▁zealand	-10.2309
▁1907	-10.2312
▁damage	-10.2312
iva	-10.2317
chinese	-10.232
▁rules	-10.2331
▁normal	-10.2334
▁funding	-10.2338
-3	-10.234
▁format	-10.2342
▁ag	-10.2344
kov	-10.2345
▁ferrari	-10.2349
▁flavor	-10.235
▁image	-10.2351
▁convert	-10.2351
▁expand	-10.2354
▁believe	-10.2356
▁resources	-10.2357
▁distributed	-10.2358
arm	-10.2363
▁ross	-10.2367
▁consists	-10.2368
ii	-10.2378
▁question	-10.2386
▁milwaukee	-10.2389
▁moscow	-10.2389
2)	-10.2393
▁schools	-10.2395
ates	-10.2395
▁nobel	-10.24
tech	-10.2404
▁paid	-10.2404
▁ron	-10.2405
▁dough	-10.2405
▁names	-10.2408
▁palm	-10.2409
▁write	-10.241
gin	-10.2425
▁architect	-10.2428
▁amsterdam	-10.243
▁provincial	-10.243
▁passenger	-10.243
▁population	-10.243
▁above	-10.243
ram	-10.2434
▁rival	-10.2435
▁affiliate	-10.2436
▁earth	-10.2449
yer	-10.2453
▁cold	-10.2454
ces	-10.2459
ø	-10.247
ú	-10.247
▁retrieved	-10.247
▁leather	-10.247
▁straight	-10.2471
▁gall	-10.2472
nal	-10.2473
▁category	-10.2475
▁continue	-10.2476
400	-10.2476
▁clean	-10.2477
league	-10.2481
▁traditionally	-10.2486
▁cash	-10.2487
gate	-10.2488
made	-10.2495
▁customers	-10.2499
▁progress	-10.2508
▁favor	-10.2511
▁conflict	-10.2511
▁pronunciation	-10.2511
▁providing	-10.2511
▁iowa	-10.2511
ges	-10.2511
▁avoid	-10.2512
avi	-10.2515
▁nun	-10.2518
▁efforts	-10.2518
▁mountain	-10.2521
▁len	-10.2521
▁publishing	-10.2522
▁baby	-10.2526
bird	-10.2526
▁mou	-10.2527
▁forms	-10.2527
▁rapid	-10.2531
▁argued	-10.2539
▁remains	-10.2539
▁kid	-10.2548
▁nippon	-10.2552
▁beyond	-10.2552
▁galaxy	-10.2552
▁canon	-10.2553
▁outstanding	-10.2554
▁1909	-10.2554
▁dry	-10.2555
▁offers	-10.2567
▁teammate	-10.2569
▁1996.	-10.257
▁pain	-10.2576
tis	-10.2588
▁baron	-10.2593
▁pizza	-10.2593
▁clerk	-10.2593
▁achievement	-10.2595
dis	-10.2598
▁neuro	-10.2603
-0	-10.2609
▁stop	-10.2613
▁4-	-10.2614
gna	-10.2616
rant	-10.262
▁gui	-10.2626
▁egg	-10.2628
▁mans	-10.2628
level	-10.2629
▁physicist	-10.2634
▁memory	-10.2634
▁shortstop	-10.2634
▁pictures	-10.2642
during	-10.2645
▁wr	-10.2647
fried	-10.2648
▁appears	-10.2651
▁helping	-10.2654
ob	-10.2658
▁qu	-10.2662
▁dam	-10.2668
▁36	-10.267
▁scar	-10.2673
▁recipient	-10.2675
▁provision	-10.2677
▁monte	-10.2684
▁selection	-10.2685
▁jacques	-10.2685
▁watch	-10.2688
cci	-10.2688
▁cle	-10.2689
▁whit	-10.2691
▁boys	-10.2691
▁boot	-10.2697
▁anton	-10.27
▁eth	-10.2702
▁pot	-10.2708
▁duo	-10.2709
▁tam	-10.2709
any	-10.2712
▁chile	-10.2713
▁stadium	-10.2717
▁surgeon	-10.2717
▁lawrence	-10.2717
▁nokia	-10.2717
room	-10.2717
▁1905	-10.2719
▁mix	-10.2727
▁leaders	-10.2733
▁fell	-10.2735
gli	-10.2741
ious	-10.2743
▁arab	-10.2743
▁fred	-10.275
ucci	-10.275
▁diseases	-10.2751
▁que	-10.2752
▁fee	-10.2754
▁hitter	-10.2754
▁julie	-10.2755
▁connecticut	-10.2758
▁strategy	-10.2758
▁themselves	-10.2758
▁square	-10.2758
▁injuries	-10.2758
▁sought	-10.2758
▁failure	-10.2759
▁initiative	-10.2759
▁colour	-10.276
feld	-10.276
▁doing	-10.2765
▁setting	-10.2768
▁seventh	-10.277
▁things	-10.2772
▁collaborated	-10.2776
▁battery	-10.2778
▁vir	-10.2781
stan	-10.2784
▁pun	-10.2789
▁fal	-10.2794
cap	-10.2796
▁lock	-10.2796
▁cent	-10.2797
▁innovation	-10.28
▁inducted	-10.28
▁domain	-10.2801
dio	-10.2803
▁kon	-10.2806
▁steam	-10.2808
▁christopher	-10.2812
▁republican	-10.2814
▁1992.	-10.2821
▁33	-10.2838
olo	-10.2842
▁bristol	-10.2842
▁replacing	-10.2842
▁triumph	-10.2842
▁atlantic	-10.2842
▁philosophical	-10.2843
ui	-10.2843
▁activity	-10.2844
▁patient	-10.2849
lay	-10.2854
▁understanding	-10.2863
▁chance	-10.2869
▁consider	-10.2871
▁sla	-10.2872
▁mixed	-10.2881
▁ker	-10.2888
▁1904	-10.2888
▁mas	-10.289
▁clubs	-10.289
▁output	-10.2891
▁tenure	-10.2893
▁mau	-10.2895
aro	-10.2905
eri	-10.2911
▁revenue	-10.2927
▁batter	-10.294
▁enter	-10.2955
▁din	-10.2956
▁sho	-10.2957
-2	-10.2959
▁lie	-10.2961
▁fully	-10.2965
▁basketball	-10.2969
▁positive	-10.2969
▁nhs	-10.2972
▁biological	-10.2973
rick	-10.2973
▁ky	-10.2975
▁miles	-10.2976
ivity	-10.2977
▁notice	-10.2986
▁1993.	-10.2999
▁spot	-10.3004
▁au	-10.3007
▁judicial	-10.3012
▁dropped	-10.3012
▁trading	-10.3012
▁coupe	-10.3013
▁uncle	-10.3014
▁morris	-10.3015
▁patrick	-10.3015
▁lor	-10.3017
▁1912	-10.3018
▁math	-10.3018
▁peak	-10.302
▁proposed	-10.302
▁conduct	-10.3022
ending	-10.3024
▁condition	-10.3027
cri	-10.3027
▁com	-10.3029
▁urban	-10.3031
▁slow	-10.3032
▁pit	-10.3036
▁(5	-10.3041
▁(16	-10.3042
▁discover	-10.3043
▁guy	-10.3045
▁critic	-10.3047
▁andré	-10.3049
▁tele	-10.3052
▁sv	-10.3052
▁philip	-10.3054
▁montreal	-10.3055
▁transition	-10.3055
▁reaction	-10.3055
▁costume	-10.3055
▁modified	-10.3056
▁torque	-10.3056
▁originated	-10.3058
▁unlike	-10.306
▁manage	-10.3064
▁chosen	-10.3073
mark	-10.3085
▁techniques	-10.3086
▁spoke	-10.3092
▁chevrolet	-10.3098
▁buffalo	-10.3098
▁italics	-10.3098
▁pounds	-10.3098
pha	-10.31
▁bel	-10.3101
▁1918	-10.3101
▁lyon	-10.3102
▁here	-10.3105
▁sense	-10.3107
▁pad	-10.3112
▁rick	-10.3119
600	-10.3119
rill	-10.3122
▁yet	-10.3127
▁learned	-10.3132
▁domestic	-10.3141
▁mets	-10.3143
▁musik	-10.3144
1.	-10.3149
ava	-10.315
▁ward	-10.3156
▁replace	-10.316
1)	-10.3164
▁iv	-10.3166
к	-10.3185
с	-10.3185
▁disorder	-10.3185
▁theoretical	-10.3185
hm	-10.3186
▁grandfather	-10.3186
▁accept	-10.3191
▁morgan	-10.3191
▁taste	-10.3192
▁customer	-10.3193
–3	-10.3193
rup	-10.3204
▁doctoral	-10.3204
▁gross	-10.3207
▁clo	-10.3219
▁mé	-10.3227
▁increasing	-10.3229
▁properties	-10.3229
▁oakland	-10.323
road	-10.3233
▁recommended	-10.3236
▁300	-10.3243
▁crown	-10.3244
hal	-10.3253
▁profit	-10.3254
enti	-10.3258
▁say	-10.3259
▁temp	-10.3259
▁jacob	-10.3261
▁experimental	-10.3264
▁vocal	-10.3267
▁victoria	-10.3268
▁flo	-10.327
▁rep	-10.3272
▁encourage	-10.3272
▁edinburgh	-10.3272
▁twelve	-10.3272
▁porsche	-10.3272
▁trim	-10.3274
-18	-10.3274
▁greater	-10.328
▁reality	-10.3286
▁mount	-10.3287
rid	-10.3297
mun	-10.3309
▁let	-10.331
mag	-10.3311
▁improved	-10.3312
mas	-10.3313
cus	-10.3316
▁nut	-10.3317
000	-10.3319
▁1917	-10.332
ants	-10.3323
750	-10.3324
high	-10.3327
▁revealed	-10.3335
▁parish	-10.3344
body	-10.3346
▁rad	-10.3349
▁1994.	-10.3356
▁belgian	-10.3361
▁retiring	-10.3361
▁interface	-10.3362
▁1903	-10.3364
▁ideas	-10.3367
hara	-10.3368
▁são	-10.3368
▁grill	-10.3385
▁variant	-10.3386
gno	-10.3387
aid	-10.3388
▁resulted	-10.3397
▁ice	-10.3399
▁educational	-10.34
aff	-10.3403
▁frankfurt	-10.3405
▁unveiled	-10.3405
▁shift	-10.3408
▁ios	-10.3409
▁theology	-10.3415
iel	-10.3416
▁1900	-10.3417
bach	-10.3426
▁blog	-10.3434
▁meal	-10.3441
march	-10.3443
▁cel	-10.345
▁marshall	-10.345
▁pilot	-10.3452
▁specifically	-10.3453
▁popularity	-10.3469
hin	-10.347
▁drove	-10.3478
bol	-10.3483
who	-10.3484
▁factor	-10.3484
▁kal	-10.3485
iro	-10.3492
ches	-10.3493
▁1995.	-10.3497
▁replacement	-10.3498
▁exhibition	-10.3498
▁shrine	-10.35
▁daughters	-10.3505
▁jeff	-10.3507
▁jane	-10.351
▁lang	-10.3511
▁mono	-10.3512
chan	-10.3523
▁told	-10.3524
▁carlo	-10.3524
nam	-10.3527
▁marcel	-10.3529
▁margaret	-10.354
▁navy	-10.3543
▁establishment	-10.3543
▁ranked	-10.3545
▁reduce	-10.3546
▁buck	-10.3558
▁dynamic	-10.356
▁qua	-10.3561
down	-10.3572
▁promote	-10.3576
▁belgium	-10.3585
▁reflect	-10.3585
▁stress	-10.3586
▁bow	-10.3586
▁context	-10.3586
▁grade	-10.3588
▁gill	-10.3589
▁tools	-10.359
▁acid	-10.3591
ali	-10.3591
▁plus	-10.3593
tha	-10.3596
cop	-10.3599
▁rein	-10.3612
pon	-10.3613
▁comm	-10.3613
▁units	-10.3618
▁1982,	-10.3625
▁mechanism	-10.363
▁reputation	-10.363
▁employment	-10.3632
▁stint	-10.3632
phy	-10.3639
▁connection	-10.3641
▁attempted	-10.3642
inger	-10.3644
▁arrived	-10.3645
▁plea	-10.3645
▁0-	-10.3651
▁ready	-10.3659
otti	-10.3675
▁legislature	-10.3676
▁scotland	-10.3676
▁transaction	-10.3676
▁louisiana	-10.3676
▁miami	-10.3676
att	-10.3679
▁items	-10.368
▁reach	-10.3682
▁desire	-10.3684
▁switch	-10.3684
▁drivers	-10.369
source	-10.369
▁minute	-10.3691
▁thi	-10.3697
aj	-10.3697
which	-10.3698
heim	-10.37
▁honors	-10.3702
▁degrees	-10.3715
▁bun	-10.3719
▁transport	-10.372
▁soccer	-10.3721
▁headquarters	-10.3722
▁pregnancy	-10.3722
▁constant	-10.3722
▁styling	-10.3722
▁josé	-10.3722
▁angel	-10.3727
▁phase	-10.3727
▁rain	-10.3728
▁stayed	-10.3728
▁leon	-10.3738
ssel	-10.3744
ula	-10.3747
aire	-10.3748
state	-10.3749
▁preserv	-10.3751
▁counter	-10.3758
▁effort	-10.376
▁gay	-10.3762
▁formation	-10.3764
▁trump	-10.3765
oid	-10.3766
▁procedure	-10.3768
▁might	-10.3775
aw	-10.3775
▁cited	-10.3776
hill	-10.378
▁à	-10.3782
▁starter	-10.3782
▁champions	-10.3784
▁conf	-10.3784
cell	-10.3785
▁bench	-10.3789
lot	-10.3793
bor	-10.3797
ische	-10.38
▁largely	-10.3801
▁stan	-10.3803
▁rot	-10.3807
aries	-10.3811
▁broke	-10.3813
▁slightly	-10.3814
▁supersport	-10.3816
▁chapter	-10.3818
▁horn	-10.3818
▁processes	-10.3818
▁comment	-10.382
▁meta	-10.3821
jan	-10.3825
rian	-10.3828
▁bruno	-10.3835
▁designated	-10.3836
▁directors	-10.3841
▁think	-10.3842
rel	-10.3852
hood	-10.386
▁emergency	-10.3861
▁mississippi	-10.3861
▁volkswagen	-10.3861
▁abroad	-10.3862
yu	-10.3864
vest	-10.3867
itt	-10.3867
▁hometown	-10.3868
▁gy	-10.3876
nan	-10.3882
▁hope	-10.3885
▁mile	-10.3885
▁pap	-10.3886
▁words	-10.3887
▁delivered	-10.3888
▁qui	-10.3888
▁1987,	-10.3908
т	-10.3908
▁für	-10.3908
▁youtube	-10.3908
▁automatic	-10.3908
▁components	-10.391
▁clinic	-10.391
▁juice	-10.3911
▁marco	-10.3913
▁bridge	-10.3914
▁greatest	-10.3915
▁inches	-10.3922
▁jay	-10.3934
hold	-10.3937
illo	-10.3942
▁hil	-10.3946
▁doubles	-10.3948
▁manufacturers	-10.3951
nuclear	-10.3955
▁something	-10.3955
eff	-10.3956
▁1902	-10.3957
▁severe	-10.3958
▁sw	-10.396
▁ruling	-10.3961
master	-10.3963
▁lil	-10.3966
▁cass	-10.398
▁spending	-10.3981
drive	-10.3994
▁artificial	-10.4002
▁preparation	-10.4002
▁soviet	-10.4002
▁exhaust	-10.4002
▁orange	-10.4006
▁relief	-10.4007
▁powerful	-10.4009
cas	-10.4014
▁exp	-10.402
base	-10.4021
▁chan	-10.4024
▁ash	-10.403
650	-10.4034
via	-10.4036
▁touch	-10.4041
▁subsidiary	-10.4049
▁exposure	-10.405
▁kept	-10.4052
▁clothes	-10.4055
▁rangers	-10.4055
erson	-10.4058
vic	-10.4077
▁coll	-10.4078
▁mario	-10.4091
▁fin	-10.4093
▁difficult	-10.4094
▁photograph	-10.4095
▁translation	-10.4097
▁planned	-10.4098
mile	-10.4098
▁upper	-10.4099
▁licensed	-10.4106
▁$3	-10.4109
▁charity	-10.4111
▁gb	-10.4118
▁wales	-10.4119
▁mode	-10.4125
▁logic	-10.4126
▁instrument	-10.4131
▁bern	-10.4132
▁forces	-10.4132
eck	-10.4138
bit	-10.4138
▁barbara	-10.4145
▁gearbox	-10.4145
▁gordon	-10.4145
▁operates	-10.4146
▁illness	-10.4147
▁1991.	-10.4147
▁cri	-10.4153
▁income	-10.4156
3)	-10.4157
▁ali	-10.4158
▁defined	-10.4161
▁investigat	-10.4162
▁learn	-10.4168
profit	-10.4169
▁wave	-10.4173
▁kick	-10.4182
▁strip	-10.4187
ple	-10.4193
▁ultimately	-10.4193
▁activist	-10.4193
▁historian	-10.4193
▁sky	-10.4193
▁mentor	-10.4202
mme	-10.4203
▁dick	-10.4206
rol	-10.4206
▁finding	-10.4209
▁registered	-10.4215
▁raw	-10.4221
▁1981,	-10.4236
▁instructor	-10.4241
▁injection	-10.4241
▁stood	-10.4242
▁blo	-10.4243
▁burger	-10.4248
▁crew	-10.4248
▁goods	-10.4261
▁vegetables	-10.4266
nning	-10.4283
▁pol	-10.4288
▁parallel	-10.4289
▁portrait	-10.4289
▁merged	-10.429
▁ibm	-10.429
▁goalkeeper	-10.429
▁vincent	-10.429
sie	-10.4291
▁cinema	-10.4292
▁copa	-10.4293
▁leonard	-10.4293
▁moore	-10.4297
▁businesses	-10.4298
▁wait	-10.4304
▁carbon	-10.4306
▁poland	-10.4308
lk	-10.4312
erie	-10.4318
omi	-10.432
ila	-10.432
▁chap	-10.4323
▁ratio	-10.4325
▁flow	-10.4328
▁oliver	-10.4331
▁bart	-10.4332
quin	-10.4334
▁servant	-10.4338
▁andrea	-10.4339
▁argument	-10.4341
▁gil	-10.435
▁recordings	-10.435
▁nan	-10.4354
▁sec	-10.4355
▁incorporated	-10.4361
▁diet	-10.4362
▁brian	-10.4366
▁ear	-10.4367
▁follow	-10.4368
▁subsequent	-10.4371
lau	-10.4372
▁gang	-10.4373
brand	-10.4374
ée	-10.4378
▁id	-10.4384
▁daytona	-10.4387
▁carry	-10.4388
▁networks	-10.4393
▁vel	-10.4397
▁georg	-10.44
▁nar	-10.44
▁italia	-10.441
▁too	-10.4426
lum	-10.4434
▁mouth	-10.4434
ي	-10.4437
š	-10.4437
▁benjamin	-10.4437
▁competitive	-10.4437
▁opportunity	-10.4437
▁situation	-10.4437
▁podium	-10.4437
▁belief	-10.4437
▁escape	-10.4437
▁representing	-10.4439
▁aim	-10.4439
▁evolution	-10.4444
▁assumed	-10.4447
▁cf	-10.445
▁jen	-10.445
rated	-10.4455
▁focuses	-10.4465
august	-10.4466
▁eighth	-10.447
▁150	-10.4473
▁below	-10.4476
dri	-10.4479
▁costs	-10.4482
▁metropolitan	-10.4486
л	-10.4486
▁shanghai	-10.4486
▁motogp	-10.4486
▁florence	-10.4487
▁morning	-10.4489
▁testing	-10.4489
▁gender	-10.4498
▁employee	-10.4499
▁horse	-10.45
▁johnny	-10.4502
▁austrian	-10.4504
▁34	-10.4526
gro	-10.4528
▁temperature	-10.4536
▁sleep	-10.4536
▁plastic	-10.4536
▁robinson	-10.4539
▁titles	-10.4539
▁issued	-10.4544
▁collections	-10.4545
▁broadcasting	-10.4547
▁adam	-10.4549
▁technique	-10.455
▁eat	-10.455
▁fil	-10.4551
▁stream	-10.4553
▁liberal	-10.4554
▁swa	-10.4554
▁cities	-10.4556
▁internationally	-10.4557
lett	-10.4565
=	-10.4567
▁rise	-10.4568
sburg	-10.4574
▁remain	-10.4576
▁cher	-10.4577
ott	-10.4585
▁charlotte	-10.4586
▁practical	-10.4586
▁couture	-10.4586
▁mazda	-10.4589
▁species	-10.4589
roy	-10.4601
cut	-10.461
▁fab	-10.4612
▁decades	-10.4617
▁ei	-10.4618
▁austria	-10.4618
arian	-10.4619
▁brad	-10.462
since	-10.4631
▁instruments	-10.4634
▁hundred	-10.4636
▁hybrid	-10.4636
▁qualified	-10.4636
rate	-10.4636
▁clinton	-10.4636
▁colleague	-10.4637
▁cousin	-10.4637
▁dried	-10.4637
▁labour	-10.4638
▁felt	-10.4641
▁commissioner	-10.4651
▁removed	-10.4653
▁eggs	-10.4654
▁pic	-10.4663
▁unable	-10.467
▁350	-10.4671
litre	-10.468
▁walker	-10.468
▁orleans	-10.4687
▁interaction	-10.4687
▁taiwan	-10.4687
▁dispute	-10.4687
▁cells	-10.469
▁inventor	-10.469
▁sony	-10.4695
▁1890	-10.4703
▁stu	-10.4705
▁chu	-10.4705
ela	-10.4707
▁decade	-10.4707
▁senator	-10.4707
fc	-10.4711
▁command	-10.4716
▁paulo	-10.4717
lat	-10.4721
▁thin	-10.4727
hra	-10.4728
▁chose	-10.4731
▁45	-10.4733
▁siblings	-10.4737
inter	-10.4738
▁specialist	-10.4738
▁stewart	-10.4738
▁organic	-10.4738
▁otto	-10.474
▁premiered	-10.4741
▁recipes	-10.4742
▁jon	-10.4744
▁drop	-10.4747
▁wh	-10.4752
▁helen	-10.4752
▁jun	-10.4754
ising	-10.4755
▁marque	-10.4756
▁rai	-10.4758
▁1990.	-10.4764
▁trace	-10.4772
ili	-10.4774
▁select	-10.478
▁5-	-10.4781
cot	-10.4783
elected	-10.4785
▁cm	-10.4787
▁acquisition	-10.4788
▁leipzig	-10.4788
▁snack	-10.4788
▁ninth	-10.4789
▁turkey	-10.479
▁indy	-10.4791
▁declared	-10.4796
▁bowl	-10.4798
pur	-10.4799
▁settled	-10.4803
lop	-10.4805
▁update	-10.4806
▁kil	-10.4807
▁regulation	-10.481
▁victor	-10.4813
▁tribe	-10.4821
president	-10.4822
ural	-10.4824
▁hosted	-10.4827
▁bush	-10.4829
▁cool	-10.483
▁tried	-10.483
▁musicians	-10.4837
▁sacred	-10.484
run	-10.4841
▁brakes	-10.4846
ets	-10.4848
some	-10.485
▁refused	-10.485
▁lecture	-10.4851
▁barr	-10.4851
▁designing	-10.4853
▁kr	-10.4854
lav	-10.4859
▁leaves	-10.4861
▁client	-10.4863
hiro	-10.4864
▁ft	-10.4867
▁arrested	-10.4869
kel	-10.487
▁resulting	-10.4871
▁soup	-10.4878
▁tool	-10.488
where	-10.4881
pat	-10.4881
▁jar	-10.4886
ɛ	-10.4891
▁avenue	-10.4891
▁compared	-10.4891
▁quartet	-10.4891
hel	-10.4892
▁supervision	-10.4893
125	-10.4893
▁export	-10.4896
▁‘	-10.4899
▁hon	-10.4908
▁height	-10.4915
term	-10.4915
other	-10.4917
▁lev	-10.4938
▁equipped	-10.4943
▁école	-10.4943
▁survey	-10.4943
▁ryan	-10.4951
▁acm	-10.4951
cor	-10.4954
▁kin	-10.4958
fre	-10.4959
▁exc	-10.4965
pin	-10.4967
▁bul	-10.497
four	-10.4975
dorf	-10.4982
▁dresses	-10.4982
▁villa	-10.4988
▁wish	-10.4989
▁mod	-10.4992
team	-10.4993
▁reviews	-10.4995
▁injured	-10.4995
▁arabic	-10.4997
ute	-10.4998
▁kevin	-10.4998
▁roma	-10.5002
▁passion	-10.5007
▁salad	-10.5008
ome	-10.5023
▁citizen	-10.5023
▁1976,	-10.5028
▁critics	-10.5029
▁mechanics	-10.5031
▁additionally	-10.5036
▁hamburg	-10.5042
▁farmer	-10.5046
▁expansion	-10.5047
▁malaysia	-10.5047
▁madrid	-10.5048
▁skills	-10.5057
▁wy	-10.5058
▁soul	-10.5062
▁soldier	-10.5065
900	-10.5067
aya	-10.5068
▁convention	-10.5068
▁folk	-10.5071
▁moral	-10.5077
▁senators	-10.508
▁genetic	-10.5083
▁advance	-10.5089
▁tire	-10.5092
under	-10.5093
▁archive	-10.5093
ault	-10.5098
▁franco	-10.5099
▁gabriel	-10.51
▁predict	-10.5101
▁1987.	-10.5101
▁continues	-10.5102
▁gor	-10.5106
osa	-10.511
▁contains	-10.5113
▁existing	-10.5114
▁commerce	-10.5116
▁defend	-10.5118
▁hero	-10.5126
▁1985.	-10.513
–17	-10.5131
rov	-10.5135
including	-10.5137
▁1989.	-10.5137
iness	-10.514
▁garment	-10.5141
▁lines	-10.5144
▁sor	-10.5144
▁sum	-10.5146
▁tree	-10.5146
ão	-10.5146
▁bach	-10.5148
cip	-10.515
design	-10.5154
range	-10.516
▁dollar	-10.5161
▁courses	-10.5162
but	-10.5169
ès	-10.5175
▁electro	-10.5177
▁(15	-10.5184
ienne	-10.5187
▁sources	-10.5192
related	-10.5193
▁bit	-10.5199
phone	-10.5202
mini	-10.5204
oka	-10.5205
▁turkish	-10.5206
▁marine	-10.5207
▁gp	-10.521
▁1988.	-10.5215
▁actually	-10.5216
▁suggest	-10.5222
▁dirt	-10.5222
tv	-10.5226
▁bert	-10.5228
kle	-10.5236
▁grave	-10.5243
january	-10.5244
chief	-10.5251
ère	-10.5253
llen	-10.5253
▁acted	-10.5254
▁accessories	-10.526
▁fundamental	-10.526
▁giovanni	-10.526
▁essay	-10.526
▁nbc	-10.526
▁(2008)	-10.526
▁bureau	-10.5261
▁manufacture	-10.5264
▁rosa	-10.5266
▁spo	-10.5267
how	-10.5268
ière	-10.5269
▁owners	-10.5272
ić	-10.5274
▁scale	-10.5278
▁menu	-10.5281
▁connect	-10.5283
▁piece	-10.5285
▁therapy	-10.5289
nett	-10.5295
▁jung	-10.5296
▁trials	-10.5297
century	-10.5298
box	-10.5305
▁guard	-10.5311
▁apply	-10.5312
cam	-10.5313
▁ambassador	-10.5313
▁mixture	-10.5313
▁calcul	-10.5313
▁package	-10.5315
gs	-10.5318
zan	-10.5319
▁sector	-10.5319
▁flight	-10.5322
▁express	-10.5323
▁personality	-10.5325
▁neck	-10.5332
▁functional	-10.5334
▁broken	-10.5336
▁drum	-10.5337
ago	-10.534
play	-10.5342
▁1000	-10.5344
▁lex	-10.5346
ridge	-10.535
▁schu	-10.5356
▁individuals	-10.5357
▁medicines	-10.5358
н	-10.5366
ı	-10.5367
▁imperial	-10.5367
▁equity	-10.5367
▁matthew	-10.5367
▁ieee	-10.5368
▁committed	-10.5369
▁jimmy	-10.5369
▁maximum	-10.5369
▁specializing	-10.537
▁seem	-10.5373
▁oldest	-10.5376
▁trend	-10.5377
-6	-10.5377
gger	-10.5379
▁bats	-10.5382
▁engaged	-10.5382
▁sab	-10.5383
▁cooper	-10.5392
▁gray	-10.5393
tric	-10.5394
view	-10.5398
present	-10.5398
▁remaining	-10.5406
▁taco	-10.5409
turn	-10.5412
▁ros	-10.5417
▁corner	-10.5417
▁rio	-10.5418
▁communities	-10.5422
▁ducati	-10.5422
▁boutique	-10.5422
▁quantum	-10.5424
▁concerts	-10.5428
▁nearby	-10.5429
▁pet	-10.5431
▁(2002)	-10.5433
cca	-10.5434
▁mur	-10.5435
tier	-10.5439
▁heat	-10.544
atory	-10.5446
2000	-10.5447
zen	-10.5448
▁practices	-10.5451
▁banks	-10.5454
▁arch	-10.5462
▁jobs	-10.5465
▁demo	-10.5466
°	-10.5469
▁wu	-10.5475
▁(7	-10.5476
▁isle	-10.5476
▁democracy	-10.5476
▁respond	-10.5476
▁utah	-10.5477
▁honey	-10.5484
vision	-10.5486
▁ring	-10.5487
gol	-10.5491
hand	-10.5492
▁principles	-10.5497
▁olympics	-10.5497
▁collected	-10.5498
▁produces	-10.5502
▁characters	-10.5502
▁gian	-10.5512
▁indonesia	-10.5513
board	-10.5516
▁picture	-10.5521
▁fifteen	-10.5531
▁liverpool	-10.5531
▁predecessor	-10.5531
▁strength	-10.5531
▁eliminat	-10.5532
▁roast	-10.5532
▁choral	-10.5532
▁collective	-10.5533
▁flash	-10.5539
▁exception	-10.5541
band	-10.5542
▁wore	-10.5552
▁needs	-10.5555
▁dal	-10.556
rest	-10.5563
▁feed	-10.5565
▁rabbi	-10.5568
▁discuss	-10.5574
hua	-10.5579
▁determined	-10.558
▁bin	-10.5582
▁gate	-10.5583
away	-10.5585
▁defensive	-10.5587
▁headquartered	-10.5587
▁merchant	-10.5587
▁contrast	-10.5587
▁puerto	-10.5587
▁ralph	-10.5587
▁uniform	-10.5587
▁danish	-10.5591
▁roy	-10.5593
▁jam	-10.5597
▁epi	-10.5603
▁tend	-10.5603
▁stroke	-10.5603
▁letters	-10.5605
▁978-0	-10.5607
type	-10.5608
▁dave	-10.5611
▁organized	-10.5614
▁regarding	-10.5616
▁wayne	-10.5618
▁sig	-10.5619
▁singles	-10.5621
▁1979.	-10.5627
▁signal	-10.5631
م	-10.5642
▁competitor	-10.5642
▁coffee	-10.5642
▁strikeouts	-10.5642
▁bodies	-10.5642
▁universities	-10.5644
▁sensor	-10.5645
rrell	-10.5649
▁cult	-10.5649
▁johann	-10.565
▁rat	-10.5653
▁comic	-10.5656
▁brake	-10.5659
▁rally	-10.5663
▁argu	-10.5669
▁$5	-10.567
gram	-10.5673
▁180	-10.5677
▁fortune	-10.568
▁profession	-10.5684
▁except	-10.5688
▁switched	-10.5689
▁abs	-10.5689
▁seats	-10.5691
▁municipal	-10.5695
в	-10.5698
▁background	-10.5698
▁external	-10.5698
▁denied	-10.5699
▁message	-10.57
tron	-10.5702
▁rico	-10.5704
anda	-10.5704
▁occupational	-10.5706
▁hunt	-10.571
▁wool	-10.5713
▁stein	-10.5714
▁2021.	-10.5718
llowing	-10.572
▁uni	-10.5721
▁rum	-10.5722
▁bikes	-10.5727
▁leo	-10.5744
sol	-10.5754
▁perfect	-10.5754
▁stefan	-10.5755
▁lessons	-10.5756
▁santos	-10.5756
▁functions	-10.5759
▁vin	-10.5762
▁gift	-10.5763
▁chapel	-10.5778
lim	-10.5779
▁painting	-10.5781
roll	-10.5784
miss	-10.5787
▁tie	-10.579
imp	-10.579
▁42	-10.579
▁poet	-10.5792
▁machines	-10.5795
700	-10.58
▁barcelona	-10.5811
▁jordan	-10.5811
▁supply	-10.5811
▁explore	-10.5811
mbo	-10.5812
ibility	-10.5812
▁integrated	-10.5812
▁biochemistry	-10.5812
chair	-10.5815
▁bonn	-10.582
▁claude	-10.5826
▁liber	-10.5827
▁las	-10.5834
▁genetics	-10.5835
▁proved	-10.5836
▁expos	-10.5841
mbi	-10.5843
vier	-10.5847
bia	-10.5857
▁origins	-10.5861
▁portugal	-10.5868
▁circle	-10.5868
▁hopkins	-10.5868
▁neighborhood	-10.5868
▁afterwards	-10.5869
▁invented	-10.5869
▁padres	-10.5869
▁fen	-10.5871
▁sprint	-10.5874
gni	-10.5878
bed	-10.5882
och	-10.5883
▁sponsor	-10.5886
▁describes	-10.5886
▁geneva	-10.5886
▁kent	-10.5887
▁import	-10.5888
▁lamb	-10.5904
december	-10.5913
.”	-10.5913
▁(6	-10.5913
▁sit	-10.5915
winning	-10.5915
▁places	-10.5921
▁nick	-10.5923
▁douglas	-10.5925
▁throw	-10.5925
▁heavy	-10.5925
▁adventure	-10.5926
▁liter	-10.5926
making	-10.5928
▁1901	-10.5929
▁penn	-10.5935
▁sil	-10.5937
owned	-10.5939
▁striker	-10.594
▁(10	-10.5941
▁anc	-10.5945
rose	-10.5948
▁summa	-10.5955
▁nord	-10.5957
▁regulations	-10.5957
▁maker	-10.5958
▁qualifying	-10.5958
most	-10.5961
▁600	-10.5961
▁orders	-10.5967
▁ahead	-10.5972
▁beans	-10.5977
▁37	-10.5979
▁alcohol	-10.5982
▁volunteer	-10.5982
▁brewers	-10.5982
▁insurance	-10.5982
▁bhp	-10.5982
▁nurse	-10.5983
▁existence	-10.5984
▁animal	-10.5985
▁ruth	-10.5988
kk	-10.5988
▁gary	-10.5989
▁graham	-10.5989
▁wine	-10.5991
▁lotus	-10.5991
bla	-10.5992
▁glove	-10.6006
gio	-10.6012
▁covered	-10.6014
▁styles	-10.6015
▁corps	-10.6017
▁1984.	-10.6025
best	-10.6026
▁pure	-10.6028
▁juris	-10.603
book	-10.6032
▁completely	-10.6034
▁chemist	-10.6036
▁families	-10.604
▁czech	-10.604
▁pav	-10.6042
▁fitted	-10.6044
▁dealer	-10.6045
▁1981.	-10.6047
▁discontinued	-10.6049
▁floor	-10.6051
ante	-10.6051
▁rover	-10.6067
▁ensure	-10.607
aba	-10.6071
▁glen	-10.6075
▁regions	-10.6082
meter	-10.6085
▁shaw	-10.6087
spec	-10.6088
â	-10.6098
▁exercise	-10.6098
▁prestigious	-10.6098
▁traffic	-10.6098
▁involving	-10.6098
▁llc	-10.6099
▁friedrich	-10.6099
▁workshop	-10.6103
german	-10.6104
▁fictional	-10.6106
▁teenager	-10.6108
▁cab	-10.6118
▁affect	-10.6119
dding	-10.6123
▁button	-10.6124
▁bomb	-10.6126
▁walt	-10.6128
phil	-10.6128
▁why	-10.613
tori	-10.6135
▁infections	-10.6138
▁vary	-10.6141
▁1986.	-10.6144
▁automobiles	-10.6147
bur	-10.6149
▁1982.	-10.6152
▁petr	-10.6157
▁resembl	-10.6157
▁opposed	-10.6157
▁legend	-10.6157
▁2-	-10.6158
▁distinction	-10.6164
▁magic	-10.6165
▁jump	-10.6166
▁caps	-10.6169
▁scheme	-10.6175
bet	-10.6181
▁ways	-10.6187
▁shall	-10.6187
▁sharing	-10.6188
▁extensive	-10.6199
eva	-10.6201
table	-10.6201
▁roe	-10.6203
▁joan	-10.6203
uf	-10.6207
assi	-10.621
▁agricultural	-10.6215
▁dublin	-10.6215
_	-10.6215
▁beijing	-10.6215
▁textile	-10.6218
▁jays	-10.6219
▁singing	-10.6221
▁assets	-10.6224
▁1892	-10.6228
▁1899	-10.6233
1000	-10.6237
▁copp	-10.6245
▁ending	-10.6247
▁fans	-10.6247
▁representatives	-10.6247
eller	-10.6253
▁bone	-10.6261
vil	-10.6268
gie	-10.6272
▁catherine	-10.6275
card	-10.6275
▁postdoctoral	-10.6275
▁dé	-10.6278
▁reduced	-10.6282
take	-10.6284
▁handle	-10.6302
size	-10.6303
▁filling	-10.6307
▁moon	-10.6308
▁finishes	-10.6312
july	-10.6313
▁hunter	-10.6316
▁bible	-10.632
night	-10.6321
scription	-10.633
č	-10.6334
▁hamilton	-10.6334
▁horror	-10.6334
▁virtual	-10.6334
▁error	-10.6334
▁conservative	-10.6334
verse	-10.6336
▁negro	-10.6336
getting	-10.6341
post	-10.6342
▁relation	-10.6347
trick	-10.6348
▁1898	-10.6349
▁38	-10.635
position	-10.6351
▁concerned	-10.6352
dre	-10.6355
ona	-10.6357
▁whil	-10.6367
stock	-10.6368
berry	-10.637
▁crystal	-10.6394
▁industries	-10.6394
▁inspiration	-10.6394
▁crisis	-10.6395
▁opposition	-10.6395
▁gather	-10.6396
-8	-10.6396
▁mg	-10.6398
▁hyper	-10.6399
▁franklin	-10.64
▁caus	-10.6402
▁topics	-10.6403
▁kelly	-10.6404
▁identified	-10.6408
▁layer	-10.6409
eve	-10.641
▁pack	-10.641
▁shares	-10.6418
round	-10.6422
▁rosen	-10.6426
etto	-10.6437
▁script	-10.644
bat	-10.6443
▁ownership	-10.6445
built	-10.6445
▁lauren	-10.6447
▁friendly	-10.6449
▁losing	-10.6449
▁carol	-10.6451
▁agriculture	-10.6454
▁carnegie	-10.6454
▁chrysler	-10.6454
▁encyclopedia	-10.6454
▁violence	-10.6454
▁baked	-10.6455
chu	-10.6459
▁sarah	-10.6462
▁payment	-10.6465
▁lot	-10.6469
▁grown	-10.6472
vor	-10.6472
▁driven	-10.6474
▁2–1	-10.6476
▁robin	-10.6476
▁democrat	-10.648
▁norman	-10.6484
▁nazi	-10.6484
▁edited	-10.649
▁suggested	-10.6497
▁liver	-10.6501
▁saying	-10.6504
get	-10.651
▁reports	-10.651
▁protest	-10.6512
▁audi	-10.6514
ê	-10.6515
м	-10.6515
▁división	-10.6515
▁necessary	-10.6515
▁earliest	-10.6515
▁(2004)	-10.6515
▁(2006)	-10.6516
▁trademark	-10.6516
▁[ˈ	-10.6518
▁gown	-10.6519
▁stake	-10.6524
dar	-10.6526
▁commissioned	-10.6529
dig	-10.6529
▁hum	-10.6533
fran	-10.6539
▁qualify	-10.654
▁expected	-10.6541
▁detail	-10.6542
▁publisher	-10.6546
▁monk	-10.6547
▁tru	-10.6562
▁composers	-10.6568
▁sang	-10.6572
▁signature	-10.6576
▁monetary	-10.6576
▁sydney	-10.6576
▁facebook	-10.6576
▁valentin	-10.6577
▁wagon	-10.6578
▁herbert	-10.6581
▁potatoes	-10.6585
▁violinist	-10.6587
▁raceway	-10.6588
▁try	-10.6594
▁princess	-10.6595
▁fielder	-10.6601
▁alleged	-10.6611
▁alone	-10.6611
▁tin	-10.6615
-21	-10.6626
▁gru	-10.6627
generation	-10.6629
yard	-10.6635
▁evening	-10.6637
ʁ	-10.6637
▁intellectual	-10.6637
▁resolution	-10.6637
▁série	-10.6637
▁session	-10.6637
▁flagship	-10.6638
▁(2007)	-10.6638
▁improvement	-10.6642
▁disney	-10.6643
▁1885	-10.6653
▁enjoyed	-10.666
▁citizens	-10.6665
asse	-10.6669
tell	-10.6671
▁1976.	-10.6672
▁pf	-10.6676
▁supports	-10.6677
▁mess	-10.6677
far	-10.6681
▁lay	-10.6685
gne	-10.6685
▁ballet	-10.6692
▁correspond	-10.6696
kawa	-10.6696
ر	-10.6699
▁steering	-10.6699
▁coupé	-10.6699
▁garlic	-10.6699
▁ethics	-10.6699
▁bankruptcy	-10.6699
▁(2005)	-10.67
▁birthday	-10.6701
▁craig	-10.6703
▁foster	-10.6705
common	-10.6706
▁editorial	-10.6706
▁suffering	-10.6712
▁1975.	-10.6713
▁occasions	-10.6716
▁debt	-10.6716
▁bud	-10.6723
▁involve	-10.6724
cast	-10.6732
fil	-10.6734
▁says	-10.674
▁cole	-10.6744
▁dancer	-10.6747
fusion	-10.6748
▁forum	-10.675
metric	-10.6751
▁employer	-10.6753
▁send	-10.6756
ister	-10.6761
▁definition	-10.6761
▁legislative	-10.6761
▁veteran	-10.6761
▁wheat	-10.6761
▁budget	-10.6761
▁audience	-10.6762
▁ski	-10.6766
▁warrant	-10.6767
▁defeated	-10.6768
▁astros	-10.6771
▁drawing	-10.6776
▁campus	-10.6783
▁logo	-10.6785
▁sentence	-10.6794
▁clients	-10.6795
iano	-10.6801
▁hiv	-10.6803
▁ted	-10.6803
▁causes	-10.6805
ovich	-10.6815
ject	-10.6816
friend	-10.6816
▁levi	-10.6817
▁atlético	-10.6823
▁singapore	-10.6823
▁innovative	-10.6823
▁twitter	-10.6823
▁franz	-10.6824
▁cotton	-10.6824
▁turbo	-10.6829
▁bruce	-10.6829
▁intention	-10.6829
▁abuse	-10.6838
▁pork	-10.6838
▁trio	-10.684
▁studios	-10.684
nut	-10.6846
▁ellis	-10.6848
▁heard	-10.6857
▁algorithms	-10.6871
▁grow	-10.6875
▁closely	-10.6877
▁eve	-10.6884
▁productions	-10.6884
▁typical	-10.6886
▁arrangement	-10.6886
▁russell	-10.6886
▁arnold	-10.6886
▁wheelbase	-10.6887
▁(2001)	-10.6887
▁narrow	-10.6887
▁physiology	-10.6888
▁ideal	-10.6888
▁frederick	-10.6889
when	-10.689
▁shock	-10.6891
cel	-10.6891
▁edge	-10.6891
▁statement	-10.6896
twin	-10.6896
▁teen	-10.6899
▁tell	-10.6899
▁por	-10.69
▁provider	-10.6905
▁lemon	-10.6907
boy	-10.691
▁unusual	-10.6911
▁lifetime	-10.6914
▁relie	-10.6915
▁portrayed	-10.6915
▁adding	-10.6923
ography	-10.6924
scale	-10.6933
▁performer	-10.6936
core	-10.6937
ín	-10.694
▁alter	-10.6942
▁pastor	-10.6945
▁quit	-10.6948
▁heavily	-10.695
▁wound	-10.6951
▁characteristic	-10.6952
▁prop	-10.6956
▁earl	-10.6958
▁behalf	-10.6961
▁relocated	-10.6961
▁olive	-10.6964
itis	-10.6966
▁visited	-10.6967
▁retailer	-10.6967
dou	-10.6969
▁soloist	-10.697
water	-10.6972
cott	-10.6974
▁shu	-10.6978
▁bc	-10.6978
ñ	-10.698
▁nicol	-10.6981
▁instrumental	-10.6982
▁fim	-10.6982
▁shell	-10.6985
▁grass	-10.6997
▁becomes	-10.7
april	-10.7003
october	-10.7008
member	-10.7008
▁inaugural	-10.7013
▁kentucky	-10.7013
▁mitchell	-10.7013
▁symbol	-10.7013
▁beauty	-10.7013
▁rhode	-10.7013
▁nissan	-10.7013
▁guild	-10.7014
▁suburb	-10.7014
▁kitchen	-10.7014
▁wedding	-10.7015
▁mack	-10.7021
▁rc	-10.7029
wei	-10.7035
▁mcg	-10.7039
▁gives	-10.7041
▁abc	-10.7042
▁likely	-10.7046
▁electronics	-10.7048
▁perry	-10.7051
▁attract	-10.7053
▁looking	-10.7054
▁java	-10.7061
▁pig	-10.7066
tine	-10.7068
[	-10.7072
build	-10.7073
▁corr	-10.7074
▁episodes	-10.7075
rum	-10.7076
ب	-10.7077
▁convicted	-10.7077
▁doctrine	-10.7077
▁hatchback	-10.7078
▁renault	-10.7078
▁luis	-10.708
▁icon	-10.7082
▁rapper	-10.7083
▁triples	-10.7083
▁kam	-10.7086
▁index	-10.7087
▁nova	-10.7093
nik	-10.7095
▁factors	-10.7097
▁delivery	-10.7097
▁978-	-10.7097
▁lions	-10.7098
▁mentioned	-10.7103
▁requirements	-10.7107
▁filled	-10.7114
▁athletic	-10.7115
path	-10.7116
▁hour	-10.7117
▁2.0	-10.712
▁updated	-10.712
▁turin	-10.7121
▁educator	-10.7142
▁expensive	-10.7142
▁maurice	-10.7142
▁resistance	-10.7142
▁(2003)	-10.7142
▁segment	-10.7142
▁(1997)	-10.7142
russian	-10.7142
▁presence	-10.7142
▁obama	-10.7143
▁stories	-10.7143
▁deutsche	-10.7145
▁harold	-10.7146
▁barry	-10.7146
▁acts	-10.7149
▁deliver	-10.715
▁devoted	-10.7157
▁celebrated	-10.7158
▁1895	-10.716
▁sel	-10.7161
▁views	-10.7162
note	-10.7162
▁jin	-10.7163
hall	-10.7165
▁buildings	-10.7169
▁kre	-10.7174
▁britt	-10.7176
▁wearing	-10.7178
▁arms	-10.7179
▁variations	-10.7179
▁39	-10.7184
mir	-10.7185
hō	-10.7186
▁fielding	-10.7188
▁chen	-10.7198
▁govern	-10.7199
owski	-10.7201
▁weekly	-10.7202
▁charter	-10.7203
▁legislation	-10.7207
▁manuel	-10.7207
▁denmark	-10.7208
▁mariners	-10.7209
▁lawsuit	-10.721
▁stanley	-10.7211
▁fraud	-10.7211
▁gent	-10.7211
▁merger	-10.7214
▁ocean	-10.7217
vit	-10.7218
▁juan	-10.7219
▁roadster	-10.7219
▁susan	-10.7221
organ	-10.7221
borough	-10.7222
ordin	-10.7224
▁mail	-10.7227
▁kha	-10.7234
▁jacket	-10.7237
▁tang	-10.7238
▁achieve	-10.7238
▁castle	-10.7244
▁founders	-10.7246
▁gam	-10.7247
▁principle	-10.7248
pop	-10.7256
▁dna	-10.7259
▁historic	-10.7259
rod	-10.726
rina	-10.7264
▁ré	-10.7267
▁tries	-10.7269
▁stew	-10.7271
ن	-10.7272
▁grandmother	-10.7272
▁hampshire	-10.7272
▁abortion	-10.7272
▁(2009)	-10.7273
▁steal	-10.7274
max	-10.7277
▁lind	-10.728
▁larry	-10.728
▁benefits	-10.7281
▁bryan	-10.7281
▁romantic	-10.7288
▁soap	-10.7291
▁75	-10.7296
vet	-10.7297
▁meant	-10.7307
▁moment	-10.7311
dini	-10.7314
▁stem	-10.7318
glia	-10.7319
▁doi	-10.7326
▁follows	-10.7326
▁funds	-10.7333
general	-10.7336
found	-10.7337
tude	-10.7337
{	-10.7338
*	-10.7338
▁independence	-10.7338
▁perhaps	-10.7338
▁railroad	-10.7338
▁residency	-10.7338
▁strategic	-10.7338
▁apparel	-10.7338
▁witness	-10.7338
▁luci	-10.7343
▁cort	-10.7343
▁regard	-10.7343
read	-10.7344
▁spark	-10.7344
▁describe	-10.7349
▁colon	-10.735
▁successfully	-10.7357
▁modeling	-10.7365
▁variants	-10.7366
rou	-10.7367
city	-10.7374
▁shoe	-10.7375
▁secured	-10.7376
ichi	-10.7378
▁quad	-10.7382
ulu	-10.7392
▁entering	-10.7393
▁ou	-10.7395
▁pull	-10.7397
final	-10.7399
rock	-10.74
▁premiere	-10.7401
world	-10.7401
و	-10.7404
×	-10.7404
ô	-10.7404
▁constituency	-10.7404
▁thousand	-10.7404
▁incident	-10.7404
▁monaco	-10.7404
▁heritage	-10.7404
▁dallas	-10.7405
▁(2000)	-10.7406
▁quant	-10.7407
▁repeat	-10.741
-7	-10.7412
▁eva	-10.7417
▁virgin	-10.7418
▁med	-10.7422
▁rating	-10.7423
nier	-10.7428
▁pinch	-10.7434
2001	-10.7437
▁forbes	-10.7438
▁didn	-10.7439
tique	-10.7449
▁occasion	-10.7451
▁falls	-10.7452
▁reasons	-10.7453
▁exclusive	-10.7454
▁hell	-10.7462
▁inning	-10.7467
▁accompanied	-10.7471
▁argentine	-10.7471
▁departure	-10.7471
▁benedict	-10.7471
▁naples	-10.7471
▁diamond	-10.7472
▁tract	-10.7472
▁serbia	-10.7476
▁paste	-10.748
▁hamburger	-10.748
▁marked	-10.7483
▁forest	-10.7486
wise	-10.7486
▁check	-10.7486
▁philippines	-10.7488
▁trail	-10.749
▁rejected	-10.749
zio	-10.7491
ema	-10.7494
▁npb	-10.7494
▁carter	-10.7498
▁cart	-10.75
▁arrest	-10.7502
▁poll	-10.7504
grand	-10.7505
▁decide	-10.7506
oral	-10.7508
▁alleg	-10.7514
bank	-10.7514
▁strike	-10.752
kl	-10.7522
died	-10.7524
february	-10.7536
▁judgment	-10.7538
▁prohibit	-10.7538
▁statistical	-10.7538
▁victim	-10.7538
▁trouble	-10.7538
▁dessert	-10.7538
▁gallery	-10.7539
▁acute	-10.754
▁smart	-10.7541
▁infielder	-10.7542
▁trustee	-10.7543
▁teach	-10.7547
▁experienced	-10.7552
direct	-10.7555
track	-10.7556
▁noble	-10.7559
▁authored	-10.756
▁collar	-10.756
▁waist	-10.7561
jin	-10.7564
▁retained	-10.7565
▁charged	-10.7572
▁professionally	-10.7575
▁jer	-10.7578
ashi	-10.7581
▁lim	-10.7587
▁spend	-10.7588
▁contribution	-10.7594
-17	-10.7596
ović	-10.76
▁obtain	-10.76
▁approval	-10.7606
▁beethoven	-10.7606
▁diocese	-10.7606
▁extension	-10.7606
▁stockholm	-10.7606
▁temporary	-10.7606
▁trinity	-10.7606
▁happen	-10.7606
▁compiled	-10.7606
▁regulate	-10.7606
▁bottom	-10.7607
▁raymond	-10.7607
▁billboard	-10.7607
▁tube	-10.7608
▁images	-10.7614
▁tailor	-10.7615
▁raise	-10.7615
▁interpretation	-10.7618
▁push	-10.7619
national	-10.7625
▁lib	-10.7637
▁lights	-10.7644
▁vent	-10.7644
▁shoes	-10.7644
▁adams	-10.7645
▁alban	-10.7645
–4	-10.7651
▁uc	-10.7652
▁roberto	-10.7656
▁frequent	-10.7657
▁vall	-10.7657
▁interpret	-10.7662
▁distinct	-10.7663
▁zen	-10.7665
▁jet	-10.7665
▁goes	-10.7671
september	-10.7673
formerly	-10.7673
\	-10.7674
ò	-10.7674
ī	-10.7674
▁1–0	-10.7674
▁luigi	-10.7674
▁prefecture	-10.7674
▁comfort	-10.7674
▁klein	-10.7675
▁fluid	-10.7677
▁costa	-10.7678
▁§	-10.7679
▁runway	-10.7683
▁wealthy	-10.7684
▁1896	-10.7691
2007	-10.7712
▁attracted	-10.7714
ote	-10.7715
▁teachers	-10.7716
▁gm	-10.7716
ppe	-10.7722
▁grounds	-10.7723
life	-10.7724
▁flower	-10.7725
▁physicians	-10.7731
▁toward	-10.7732
▁lega	-10.7735
▁votes	-10.7735
▁processor	-10.7738
▁proceed	-10.7741
▁conservatoire	-10.7742
▁coordinator	-10.7742
▁displacement	-10.7742
▁portfolio	-10.7742
▁download	-10.7742
▁(1998)	-10.7742
▁pharma	-10.7743
▁scholars	-10.7743
▁importance	-10.7744
▁sample	-10.7744
▁dodge	-10.7746
▁bobby	-10.7746
▁thick	-10.7756
▁dai	-10.7759
▁calls	-10.7759
▁hills	-10.776
onic	-10.777
gil	-10.777
▁rei	-10.7771
▁optional	-10.778
▁brass	-10.778
▁47	-10.7783
ë	-10.7785
▁partial	-10.7786
ometer	-10.7789
tia	-10.7791
▁rbis	-10.78
▁benefit	-10.7802
▁grain	-10.7809
▁manner	-10.7811
ل	-10.7811
▁beautiful	-10.7811
▁opposite	-10.7811
▁wilhelm	-10.7811
▁caught	-10.7811
▁assignment	-10.7811
▁column	-10.7811
▁pinyin	-10.7811
▁leiden	-10.7811
▁prospect	-10.7811
▁fau	-10.7812
▁muscle	-10.7813
▁silent	-10.7815
shirt	-10.7815
▁aaron	-10.7818
▁silva	-10.7818
nova	-10.7821
▁pastry	-10.7822
▁alfa	-10.7822
▁hungarian	-10.7827
▁bore	-10.7829
▁$4	-10.7829
▁1897	-10.7831
▁marcus	-10.7839
▁recover	-10.784
▁boss	-10.7841
▁drugs	-10.7842
▁sporting	-10.7842
▁worker	-10.7846
▁neo	-10.7849
▁fill	-10.7851
asso	-10.7855
▁mun	-10.7865
▁kor	-10.7869
▁lg	-10.7871
▁establishing	-10.7874
▁celebrity	-10.7881
▁comparative	-10.7881
▁policies	-10.7881
▁marian	-10.7881
▁trophy	-10.7881
▁beatification	-10.7882
▁rare	-10.7884
▁household	-10.7884
▁beck	-10.7885
▁alpha	-10.7887
▁coaching	-10.7889
▁specialty	-10.7895
▁philippe	-10.7899
▁shut	-10.7901
▁duty	-10.7901
–6	-10.7902
▁correct	-10.7904
lick	-10.7909
bridge	-10.7909
▁oak	-10.791
▁explain	-10.7912
▁secure	-10.7912
▁silk	-10.7913
▁lynn	-10.7914
▁accord	-10.7915
authored	-10.7918
june	-10.7918
▁mills	-10.792
phon	-10.7925
▁curve	-10.7925
pot	-10.7927
▁51	-10.7935
bru	-10.7935
▁cardinal	-10.7946
▁administrative	-10.795
▁continuing	-10.795
▁plaintiff	-10.795
▁responsibility	-10.795
▁scooter	-10.795
psychiatric	-10.7951
▁analytic	-10.7951
▁sixteen	-10.7951
▁eagle	-10.7951
▁charlie	-10.7952
450	-10.7953
▁tsu	-10.7955
auer	-10.7956
▁rural	-10.7957
▁emigrated	-10.7962
▁immigrants	-10.7966
▁exclusively	-10.7968
▁concerning	-10.797
▁1870	-10.7975
▁jason	-10.7975
▁membership	-10.7977
▁controlled	-10.7978
▁beta	-10.798
gt	-10.7981
▁attempts	-10.7984
▁fear	-10.7986
▁bid	-10.7988
£	-10.7991
pol	-10.7997
▁clare	-10.7999
fort	-10.8001
▁jose	-10.8003
omb	-10.8004
lant	-10.8005
isi	-10.8012
usa	-10.8015
▁buddhist	-10.8021
▁chancellor	-10.8021
▁relegated	-10.8021
▁colombia	-10.8021
▁eldest	-10.8021
▁gilbert	-10.8022
patient	-10.8022
▁infant	-10.8025
▁haute	-10.8025
▁percent	-10.8026
▁oh	-10.8027
▁span	-10.8034
▁estimated	-10.8035
▁concerns	-10.804
▁notes	-10.805
▁kate	-10.8054
▁luck	-10.8057
4)	-10.8058
▁py	-10.8067
pie	-10.8068
see	-10.8069
▁credits	-10.8069
pts	-10.8073
▁lane	-10.8077
▁movies	-10.8081
▁49	-10.8085
ically	-10.8089
▁litre	-10.8089
▁physi	-10.809
▁quick	-10.809
▁emphasis	-10.8092
▁equivalent	-10.8092
▁treasure	-10.8092
▁probably	-10.8092
▁dominican	-10.8092
▁fol	-10.8092
▁harvey	-10.8093
▁kro	-10.8093
▁occasionally	-10.8093
])	-10.8094
▁figures	-10.8098
▁pupil	-10.81
▁startup	-10.8106
▁warren	-10.8108
▁1894	-10.8109
▁1880	-10.8118
▁chat	-10.8119
▁catch	-10.8125
▁sick	-10.813
▁evans	-10.8136
5,000	-10.8138
▁programmer	-10.8146
▁route	-10.816
▁arkansas	-10.8163
▁controversial	-10.8163
▁diabetes	-10.8163
▁accused	-10.8163
▁ontario	-10.8163
▁mozart	-10.8163
▁(1999)	-10.8164
▁skirt	-10.8164
▁collins	-10.8164
▁seminary	-10.8176
hebrew	-10.8176
▁lyn	-10.8183
▁stick	-10.8185
▁fixed	-10.8187
series	-10.819
▁chili	-10.8192
iya	-10.8199
author	-10.82
▁pitch	-10.8201
▁1.5	-10.8203
▁scho	-10.8214
2005	-10.8217
sim	-10.8221
▁chips	-10.8225
▁peru	-10.8227
owner	-10.8234
ß	-10.8235
▁adjunct	-10.8235
▁dictionary	-10.8235
▁unsuccessful	-10.8235
▁bologna	-10.8235
▁suicide	-10.8235
▁nelson	-10.8235
▁frozen	-10.8235
▁covid	-10.8236
▁ronald	-10.8236
▁framework	-10.8237
▁occurred	-10.8237
▁hardware	-10.8237
gui	-10.8239
▁drew	-10.824
▁tomatoes	-10.8243
fm	-10.8251
▁roster	-10.8252
▁heath	-10.8254
▁48	-10.8256
▁cran	-10.8256
▁burton	-10.826
▁songwriter	-10.8262
▁41	-10.8268
▁observ	-10.8274
▁portion	-10.828
▁pac	-10.8286
toxic	-10.8288
▁55	-10.829
▁intern	-10.8294
▁dc	-10.8297
big	-10.8301
▁seek	-10.8304
vert	-10.8306
▁substantial	-10.8308
▁analyst	-10.8308
▁compound	-10.8308
▁easy	-10.8308
november	-10.8311
▁victories	-10.8312
▁ucla	-10.8312
▁desert	-10.8316
wich	-10.8321
▁aspects	-10.8322
▁prevention	-10.8325
wald	-10.8333
▁constructed	-10.8337
▁aboard	-10.8338
liga	-10.8338
▁della	-10.8339
enza	-10.8341
▁fisher	-10.8343
▁incorporate	-10.8347
▁rebel	-10.8366
▁alice	-10.8367
hydr	-10.8367
▁banking	-10.8369
▁md	-10.8374
▁administrator	-10.8381
▁securities	-10.8381
▁weapon	-10.8381
▁greece	-10.8381
▁medium	-10.8382
▁claudi	-10.8382
▁border	-10.8386
▁missionary	-10.8387
▁patron	-10.8388
▁mrs	-10.8389
▁calling	-10.839
▁machinery	-10.8393
▁ˈ	-10.8396
▁mall	-10.8396
zia	-10.8398
fen	-10.8398
▁blanc	-10.8399
witt	-10.8403
▁parma	-10.8407
▁determine	-10.8407
free	-10.8411
▁seeking	-10.842
gard	-10.8434
▁tied	-10.8435
▁till	-10.8438
▁pink	-10.8439
▁harm	-10.8444
▁vietnam	-10.8453
▁pel	-10.8454
▁chocolate	-10.8454
▁excellence	-10.8454
▁leicester	-10.8454
▁maternal	-10.8454
▁norwegian	-10.8454
▁sleeve	-10.8454
▁casual	-10.8454
▁universe	-10.8455
▁nathan	-10.8457
▁dinner	-10.8459
▁israeli	-10.846
▁questions	-10.8461
▁authorities	-10.8462
▁dubb	-10.8466
▁wol	-10.8477
▁cello	-10.8479
▁viola	-10.8483
▁1860	-10.8483
▁(11	-10.8501
▁aaa	-10.8505
▁mt	-10.8508
▁tha	-10.851
▁kurt	-10.8513
loss	-10.852
facing	-10.8524
▁speak	-10.8525
▁jeanne	-10.8527
▁abandoned	-10.8528
▁campbell	-10.8528
▁conviction	-10.8528
▁giuseppe	-10.8528
▁climate	-10.8528
▁infirmary	-10.8528
▁housing	-10.8529
▁bour	-10.8529
▁psychological	-10.8529
▁violation	-10.853
▁assistance	-10.8533
japanese	-10.8533
▁differential	-10.8544
▁(13	-10.8544
▁thereafter	-10.855
then	-10.8553
▁ranks	-10.8555
genesis	-10.8555
this	-10.8562
▁extend	-10.8565
▁sentenced	-10.8569
went	-10.857
bot	-10.8576
▁43	-10.8577
▁lace	-10.8581
▁eco	-10.8587
lip	-10.859
▁plain	-10.8597
▁bug	-10.8597
fra	-10.86
▁certificate	-10.8603
▁glasgow	-10.8603
▁instruction	-10.8603
▁participation	-10.8603
▁arbitr	-10.8603
▁gustav	-10.8603
▁sponsorship	-10.8604
▁consulting	-10.8604
▁wallace	-10.8605
father	-10.8606
▁progressive	-10.8608
▁eddie	-10.8608
imo	-10.8608
▁voting	-10.8609
▁otherwise	-10.8611
▁champ	-10.8612
lov	-10.8613
▁nicolas	-10.8618
▁kir	-10.8621
▁melo	-10.8623
▁pul	-10.8628
west	-10.8628
mia	-10.8629
print	-10.8631
▁differences	-10.8633
▁elite	-10.8634
cious	-10.8636
▁options	-10.864
▁wang	-10.8645
▁rud	-10.8645
▁painter	-10.8646
▁shoot	-10.8646
tour	-10.8646
▁cbs	-10.8646
▁boat	-10.8648
▁specialis	-10.8649
engine	-10.8658
▁kirk	-10.8658
▁duck	-10.8659
▁buyer	-10.8665
▁potato	-10.8668
▁sponsored	-10.8673
▁animals	-10.8675
▁tip	-10.8677
æ	-10.8678
▁culinary	-10.8678
▁pediatric	-10.8678
▁bacteria	-10.8678
▁identify	-10.8678
▁struck	-10.8678
▁everything	-10.8678
▁duties	-10.8678
▁outfit	-10.8678
▁murphy	-10.8679
oriented	-10.8679
▁hawks	-10.868
horn	-10.868
▁advancement	-10.8683
lice	-10.8684
▁unknown	-10.8687
▁translated	-10.8692
▁turner	-10.8693
▁investor	-10.8695
▁burke	-10.8696
▁examine	-10.8697
▁plum	-10.8697
▁server	-10.8701
mé	-10.8714
▁promise	-10.8716
anne	-10.8716
▁mounted	-10.872
▁chase	-10.8723
▁flee	-10.8724
▁proper	-10.8733
▁pont	-10.8735
liter	-10.8735
▁focusing	-10.8735
▁earn	-10.8738
▁affiliated	-10.8742
▁photographs	-10.8744
▁discipline	-10.8754
▁relegation	-10.8754
▁retrosheet	-10.8754
▁venue	-10.8756
▁fcc	-10.8761
▁belt	-10.8765
▁kun	-10.8768
▁francesco	-10.877
▁algorithm	-10.8773
▁planet	-10.8774
▁divorced	-10.8779
active	-10.878
▁investigator	-10.8781
▁cow	-10.8782
▁lectures	-10.8791
▁participate	-10.8796
nick	-10.88
yō	-10.8804
corn	-10.8808
▁prove	-10.8822
▁anniversary	-10.883
▁coalition	-10.883
▁geometry	-10.883
▁protocol	-10.883
▁hawaii	-10.883
▁weather	-10.883
▁enhance	-10.883
▁buried	-10.8831
▁antoine	-10.8831
▁supercross	-10.8831
▁paolo	-10.8834
▁44	-10.8836
▁wright	-10.8839
▁operator	-10.884
open	-10.8842
▁radical	-10.8842
–5	-10.8844
isation	-10.8844
harm	-10.8849
▁extensively	-10.8852
▁johannes	-10.8852
bats	-10.8852
▁window	-10.8854
▁warm	-10.8865
▁1850	-10.8869
▁devil	-10.887
▁coached	-10.8871
▁grove	-10.8872
▁entirely	-10.8881
power	-10.8882
mill	-10.8882
▁magna	-10.8883
▁1989)	-10.8885
▁conventional	-10.8886
▁cbr	-10.8889
▁tail	-10.8892
davidson	-10.8903
}	-10.8907
▁favour	-10.8907
▁ludwig	-10.8907
▁thompson	-10.8907
▁strict	-10.8908
▁genoa	-10.8908
▁ladies	-10.8908
▁(2011)	-10.8908
▁cruz	-10.8908
▁norway	-10.8911
▁involvement	-10.8911
▁alessandro	-10.8913
▁headlight	-10.8915
▁pump	-10.8915
▁contributor	-10.8916
▁oscar	-10.8916
▁1958)	-10.8921
▁bound	-10.8926
▁doll	-10.8927
▁element	-10.8929
▁infection	-10.8931
▁guer	-10.8932
▁honored	-10.8939
ña	-10.8948
▁carlos	-10.8949
▁trying	-10.8952
own	-10.8957
▁gulf	-10.8959
▁shar	-10.8964
▁investors	-10.8968
▁petrol	-10.8971
▁mining	-10.8975
ł	-10.8985
▁thirteen	-10.8985
д	-10.8985
▁cologne	-10.8985
▁apartment	-10.8985
▁vegas	-10.8985
▁muslim	-10.8985
▁regime	-10.8986
▁revised	-10.8986
▁nancy	-10.8987
fish	-10.8988
▁jerry	-10.8989
code	-10.8989
▁showing	-10.8991
physics	-10.8993
▁consistent	-10.8993
▁yoshi	-10.8994
▁lucas	-10.8998
▁prisoner	-10.9011
enburg	-10.9015
rome	-10.9015
▁garments	-10.9016
▁bean	-10.9027
▁iran	-10.9031
▁pour	-10.9036
▁genre	-10.9039
▁cord	-10.9039
cock	-10.9044
▁aimed	-10.9052
▁psycho	-10.9056
▁franc	-10.9056
▁apprentice	-10.9062
ş	-10.9063
▁advice	-10.9063
▁identity	-10.9063
▁lieutenant	-10.9063
▁litigation	-10.9063
▁marseille	-10.9063
▁mitsubishi	-10.9063
▁parsons	-10.9063
▁(2013)	-10.9064
▁aircraft	-10.9064
phi	-10.9065
▁venice	-10.9065
▁nothing	-10.9066
▁dozen	-10.9068
▁balance	-10.9069
▁theories	-10.9072
▁extremely	-10.9077
▁highlight	-10.9077
▁divided	-10.9079
▁watt	-10.9082
smith	-10.9089
▁noise	-10.9093
osis	-10.9098
▁gran	-10.9099
▁holder	-10.9099
▁rent	-10.9105
▁tells	-10.9108
▁conte	-10.9109
strom	-10.9114
izz	-10.9115
▁significantly	-10.9117
▁1968)	-10.9117
just	-10.912
▁alberto	-10.9121
mol	-10.9126
▁cad	-10.9128
2006	-10.9133
▁stating	-10.9136
▁traveled	-10.9138
▁maintained	-10.9141
α	-10.9141
▁yellow	-10.9141
▁plymouth	-10.9141
▁depression	-10.9142
▁companion	-10.9142
▁owen	-10.9142
▁calcio	-10.9143
▁answer	-10.9144
▁remainder	-10.9145
▁followers	-10.9148
▁adaptation	-10.915
computer	-10.9151
chy	-10.9152
▁capable	-10.9153
production	-10.9154
▁filmmaker	-10.9157
▁rac	-10.9161
▁1893	-10.9161
▁virus	-10.9162
▁greg	-10.9164
▁sche	-10.918
lang	-10.9182
▁(14	-10.9188
▁prompt	-10.9196
▁prof	-10.9197
▁aesthetic	-10.9221
▁budapest	-10.9221
▁emperor	-10.9221
▁theatrical	-10.9221
▁stuffed	-10.9221
▁spider	-10.9221
▁copyright	-10.9221
▁murray	-10.9222
▁expense	-10.9222
▁chairperson	-10.9222
▁reader	-10.9222
▁creator	-10.9224
▁sunday	-10.9224
develop	-10.9231
▁debate	-10.9232
system	-10.9232
▁naval	-10.9234
dell	-10.9236
market	-10.9237
cycle	-10.9239
▁belle	-10.924
▁recruited	-10.9242
▁weighed	-10.9251
▁breaking	-10.9251
▁dimension	-10.9252
▁spices	-10.9252
▁sharp	-10.9254
▁stats	-10.9259
▁thom	-10.9261
▁suite	-10.9262
▁prepare	-10.9267
▁butler	-10.9284
▁olympi	-10.9284
chel	-10.9287
wall	-10.9293
issa	-10.9294
tino	-10.9295
▁phoenix	-10.9301
▁examination	-10.9301
▁powder	-10.9301
▁divine	-10.9302
▁invention	-10.9302
▁bloom	-10.9303
▁favorite	-10.9304
▁obligation	-10.9308
▁dramatic	-10.9316
▁shoulder	-10.9325
▁observation	-10.9325
▁billy	-10.9329
▁fiat	-10.9339
▁linda	-10.934
▁mali	-10.9343
face	-10.9346
▁1981)	-10.9351
▁lum	-10.936
▁maz	-10.9361
▁65	-10.9365
▁scan	-10.9366
ander	-10.9366
ggio	-10.9369
shaw	-10.9376
▁1969)	-10.9379
tead	-10.9379
▁feel	-10.938
▁celebrities	-10.9381
▁ceremony	-10.9381
▁facelift	-10.9381
▁jonathan	-10.9381
▁nebraska	-10.9381
▁psychiatrist	-10.9381
▁attached	-10.9382
▁brussels	-10.9382
▁eugene	-10.9382
▁abraham	-10.9382
▁categories	-10.9383
▁carrier	-10.9384
vie	-10.9387
▁louise	-10.9388
▁roof	-10.9389
rium	-10.9396
▁1884	-10.9398
▁1888	-10.94
▁survived	-10.9403
▁1964)	-10.9408
▁petition	-10.9414
▁corp	-10.9417
▁54	-10.9417
pel	-10.9418
flu	-10.942
▁vegetable	-10.9421
bou	-10.9426
▁craft	-10.944
▁phillips	-10.9445
▁66	-10.9449
▁chang	-10.9454
▁(188	-10.9456
▁sara	-10.9462
▁appropriate	-10.9463
▁centuries	-10.9463
▁configuration	-10.9463
▁easily	-10.9463
▁2–0	-10.9463
▁nursing	-10.9463
▁(2016)	-10.9463
▁remembered	-10.9463
▁ghana	-10.9463
▁mine	-10.9463
▁neuroscience	-10.9463
▁52	-10.9463
▁htc	-10.9463
▁utiliz	-10.9463
▁stopped	-10.9464
▁1992)	-10.9465
▁rossi	-10.9466
▁holmes	-10.9466
▁tutor	-10.9476
berger	-10.9477
▁zero	-10.9482
▁grace	-10.9488
▁professorship	-10.9488
▁sued	-10.9488
▁toured	-10.9492
▁mul	-10.9497
▁agree	-10.9517
xperia	-10.9519
▁stat	-10.9524
ddle	-10.9531
▁pier	-10.9538
elect	-10.9538
î	-10.9545
▁evolved	-10.9545
▁juventus	-10.9545
▁unanimous	-10.9545
▁endurance	-10.9545
▁negative	-10.9545
▁railway	-10.9545
▁thirty	-10.9545
▁1954)	-10.9545
▁mirror	-10.9545
▁(1993)	-10.9545
▁breast	-10.9545
▁dip	-10.9546
▁preced	-10.9546
▁alto	-10.9547
▁hughes	-10.9554
▁£1	-10.9557
arabic	-10.9558
▁expression	-10.9558
▁handling	-10.9559
happy	-10.9564
ference	-10.9566
▁jacobs	-10.9567
▁ordered	-10.9567
▁mach	-10.9571
▁load	-10.9572
▁nano	-10.9579
▁feeling	-10.9584
▁register	-10.959
▁1972)	-10.9594
▁employ	-10.9596
5)	-10.9598
▁1–1	-10.9601
▁expressed	-10.9603
▁organize	-10.9611
▁oversee	-10.9616
tum	-10.9624
ɔ	-10.9627
▁structural	-10.9627
▁appealed	-10.9627
▁uruguay	-10.9627
ifying	-10.9628
▁jesuit	-10.9628
▁(2014)	-10.9628
▁elementary	-10.963
▁alloy	-10.963
▁saudi	-10.9631
▁tommy	-10.9631
▁measurement	-10.9635
▁abbot	-10.9636
seater	-10.9643
front	-10.9646
▁detect	-10.9646
▁sour	-10.9651
web	-10.9653
▁quint	-10.9653
6)	-10.9656
valve	-10.9656
▁yuan	-10.9657
▁paint	-10.9663
▁rector	-10.9667
▁sau	-10.9668
▁illustrat	-10.9673
▁southeast	-10.9675
▁schedule	-10.9677
ampton	-10.968
▁hood	-10.968
▁gap	-10.969
beck	-10.9691
▁cour	-10.9692
lived	-10.9702
titude	-10.9707
▁convent	-10.9707
western	-10.9708
▁controversy	-10.9711
▁concentrate	-10.9711
▁optical	-10.9711
▁boiled	-10.9711
▁smooth	-10.9711
▁(1996)	-10.9711
▁dennis	-10.9711
▁cookbook	-10.9712
▁proceedings	-10.9712
▁wireless	-10.9712
▁absence	-10.9713
▁petersburg	-10.9713
▁franciscan	-10.9714
▁peer	-10.9714
▁torino	-10.9714
▁cyber	-10.9717
called	-10.9719
▁ukrainian	-10.9725
▁onions	-10.9725
▁installed	-10.9732
▁representation	-10.9734
▁romeo	-10.9742
last	-10.9745
▁implement	-10.9748
tani	-10.9757
▁portray	-10.9759
▁difference	-10.9762
2009	-10.9763
trans	-10.9765
▁syria	-10.9767
▁scorer	-10.9767
▁connected	-10.977
▁750	-10.9772
▁aprilia	-10.979
▁egypt	-10.9791
▁kris	-10.9792
▁algebra	-10.9795
▁discharge	-10.9795
▁eponymous	-10.9795
▁sociology	-10.9795
▁ukraine	-10.9795
▁pocket	-10.9795
▁supervisor	-10.9795
▁suspect	-10.9795
▁assembled	-10.9795
▁ok	-10.9795
▁ktm	-10.9796
▁rochester	-10.9796
▁(2010)	-10.9796
▁citizenship	-10.9796
▁stuart	-10.9796
▁gan	-10.9797
▁northwestern	-10.9797
▁depict	-10.98
▁shan	-10.9801
▁objective	-10.9802
▁meyer	-10.9802
▁crack	-10.9805
njunction	-10.9808
▁1887	-10.9811
▁flute	-10.9812
▁wake	-10.9816
▁blum	-10.9817
illon	-10.9825
▁=	-10.9828
▁opel	-10.983
▁details	-10.9842
▁understand	-10.9844
▁portal	-10.9846
2008	-10.9846
2012	-10.9849
▁batt	-10.9855
▁merit	-10.986
▁angela	-10.9862
▁sheet	-10.9865
▁olympic	-10.9866
mura	-10.987
▁certified	-10.988
▁journey	-10.988
▁nicholas	-10.988
▁pandemic	-10.988
▁supplement	-10.988
▁agencies	-10.988
▁valuable	-10.988
▁illegal	-10.988
▁widow	-10.988
▁abbey	-10.988
▁ernest	-10.988
▁nigeria	-10.9881
▁linux	-10.9882
▁knee	-10.9883
▁chaired	-10.9883
▁gone	-10.9889
▁permit	-10.989
▁1962)	-10.989
▁gel	-10.9891
▁lift	-10.9895
anza	-10.9895
▁plot	-10.9896
brook	-10.9898
▁discussion	-10.99
▁bé	-10.9901
▁cohen	-10.9902
editor	-10.9903
▁bott	-10.9908
▁adapt	-10.9919
link	-10.9921
enko	-10.9921
ility	-10.9938
bike	-10.9939
mine	-10.9939
▁patri	-10.9943
▁1974)	-10.9946
gun	-10.9953
▁differ	-10.9956
▁1963)	-10.9963
▁archbishop	-10.9965
▁astronomy	-10.9965
▁columbus	-10.9965
▁consumption	-10.9965
▁simpson	-10.9965
▁oldsmobile	-10.9965
▁bulgaria	-10.9965
ardi	-10.9965
zhou	-10.9966
▁secular	-10.9966
▁layout	-10.9967
▁linked	-10.997
▁tai	-10.9971
▁passing	-10.9971
kai	-10.9974
▁fourteenth	-10.9974
▁portland	-10.9977
grad	-10.998
▁hang	-10.998
ownership	-10.9982
hart	-10.9984
▁1891	-10.9984
▁1889	-10.9988
▁violated	-10.9992
▁shaft	-10.9993
▁warner	-11.0021
duction	-11.0037
▁scha	-11.0044
▁broker	-11.0045
▁tape	-11.0045
▁thing	-11.0048
▁parker	-11.0048
▁marina	-11.0049
ə	-11.0051
▁advantage	-11.0051
▁identical	-11.0051
▁emerging	-11.0051
▁amazon	-11.0051
▁(1994)	-11.0052
▁segund	-11.0052
▁borrow	-11.0053
▁maría	-11.0054
▁chip	-11.0056
▁adviser	-11.0058
▁enable	-11.0063
▁teaches	-11.0067
▁diver	-11.0067
▁reversed	-11.0075
▁laura	-11.0088
▁58	-11.0089
▁luke	-11.0091
benz	-11.0096
▁sap	-11.0099
▁sz	-11.0103
▁ingredient	-11.0114
▁reaching	-11.0118
vian	-11.012
▁lens	-11.0127
ranging	-11.0134
▁adjust	-11.0136
there	-11.0136
▁mcdonald	-11.0138
▁magistrate	-11.0138
▁mclaren	-11.0138
▁psychiatry	-11.0138
▁clutch	-11.0138
▁dakota	-11.0138
▁penalty	-11.0138
▁globe	-11.0138
▁eighteen	-11.0138
▁invitation	-11.0138
▁(1992)	-11.0139
▁renowned	-11.0139
▁textbook	-11.0139
▁elevat	-11.0142
▁prosecutor	-11.0145
olog	-11.0145
▁idol	-11.0145
▁exact	-11.0146
▁gregory	-11.0151
▁valid	-11.0151
▁rated	-11.0153
▁refine	-11.0154
▁1882	-11.0155
ía	-11.0158
▁rising	-11.0159
▁struggled	-11.0172
igan	-11.0173
▁emma	-11.0177
▁prima	-11.0178
▁obtaining	-11.0184
▁enabled	-11.0188
▁struggle	-11.0192
▁kay	-11.02
▁thinking	-11.0206
▁1978)	-11.0221
▁carburetor	-11.0226
▁intervention	-11.0226
▁wikimedia	-11.0226
▁guidance	-11.0226
▁kenneth	-11.0226
▁watson	-11.0226
▁scandal	-11.0226
self	-11.0227
▁integration	-11.0228
▁cloud	-11.0229
▁criticism	-11.0231
▁colonel	-11.0232
▁emmy	-11.0232
▁bran	-11.0233
▁guardian	-11.0236
▁keith	-11.0238
▁harper	-11.0239
▁sri	-11.024
▁barnes	-11.0242
▁fig	-11.0243
▁truth	-11.0244
▁collaborat	-11.0249
▁declined	-11.0252
icker	-11.0258
▁serge	-11.0258
▁delay	-11.0259
▁justia	-11.0262
tology	-11.027
▁rag	-11.0272
▁expect	-11.0277
connor	-11.0281
igne	-11.0282
▁polo	-11.0282
▁lever	-11.0292
▁bath	-11.0293
▁immigrant	-11.0295
▁gab	-11.0295
▁presentation	-11.0309
wind	-11.0312
▁chelsea	-11.0314
▁medieval	-11.0314
▁nervous	-11.0314
▁sequence	-11.0314
▁holiday	-11.0314
▁saloon	-11.0315
▁attributed	-11.0315
▁keyboard	-11.0316
▁crisp	-11.0318
▁swing	-11.0323
▁picked	-11.033
▁1994)	-11.0335
▁1993)	-11.0339
lich	-11.0339
▁fia	-11.0345
person	-11.0356
cdu	-11.0366
▁reveal	-11.0366
▁dame	-11.0368
▁bend	-11.0373
▁robb	-11.0377
shaped	-11.0388
▁threat	-11.04
▁resource	-11.0403
▁opportunities	-11.0404
▁recurring	-11.0404
▁welfare	-11.0404
▁stuttgart	-11.0404
▁surgical	-11.0404
▁beverage	-11.0404
▁emotion	-11.0404
▁congressional	-11.0404
▁menswear	-11.0404
▁(1991)	-11.0404
▁sequel	-11.0404
▁convertible	-11.0405
▁chopped	-11.0406
▁thailand	-11.0406
▁palace	-11.0408
▁claire	-11.0409
▁exam	-11.041
▁golf	-11.0411
▁thanks	-11.0411
▁bremen	-11.0411
two	-11.0411
▁recommendation	-11.0412
mba	-11.0413
▁1862	-11.0419
petit	-11.042
▁workplace	-11.0422
manager	-11.0425
temp	-11.0425
louis	-11.0425
▁complaint	-11.0426
▁wire	-11.0426
▁winston	-11.0429
▁1967)	-11.0433
▁kla	-11.0434
▁romanian	-11.0447
▁supporter	-11.045
▁rub	-11.0466
▁1965)	-11.0467
▁universit	-11.0472
▁ign	-11.0475
▁occupation	-11.0481
▁promot	-11.0483
▁1991)	-11.0484
▁publicly	-11.0486
▁orchestral	-11.0487
▁containing	-11.0487
▁peugeot	-11.0494
▁rudolf	-11.0494
▁commenced	-11.0494
▁coventry	-11.0494
▁neither	-11.0494
▁miracle	-11.0494
▁iraq	-11.0494
▁ernst	-11.0494
▁screenplay	-11.0495
▁isaac	-11.0496
▁rené	-11.0498
gang	-11.05
▁1990)	-11.0501
▁iphone	-11.0502
▁julia	-11.051
2011	-11.051
▁combine	-11.0512
script	-11.0519
director	-11.0525
▁arabia	-11.0534
▁minority	-11.0537
nard	-11.0549
▁hack	-11.0551
start	-11.0563
▁ivan	-11.0564
▁extreme	-11.0568
▁3.5	-11.057
▁110	-11.0573
▁motorsport	-11.0581
▁1987)	-11.0583
▁negotiat	-11.0584
▁electoral	-11.0585
▁encounter	-11.0585
▁occupied	-11.0585
▁syndrome	-11.0585
▁schmidt	-11.0585
▁yield	-11.0585
▁spencer	-11.0585
▁nineteen	-11.0585
▁defence	-11.0585
▁(1995)	-11.0585
▁lightweight	-11.0586
▁(2015)	-11.0586
▁rational	-11.0587
▁enforcement	-11.0587
▁literary	-11.0588
▁medic	-11.0593
▁implementation	-11.0594
▁garner	-11.0598
▁guitarist	-11.0599
300	-11.06
▁surrounding	-11.0601
▁1986)	-11.0602
screen	-11.0606
▁1875	-11.0606
▁eating	-11.0608
▁mean	-11.0608
▁useful	-11.0609
▁tenth	-11.061
▁myth	-11.0611
▁yorkshire	-11.0612
▁missed	-11.0615
▁1.6	-11.0615
▁casa	-11.0623
para	-11.0625
▁2020)	-11.0627
▁1983)	-11.0629
▁prom	-11.0643
▁kei	-11.0644
▁zone	-11.0646
▁fro	-11.0654
▁1971)	-11.0657
▁mann	-11.0666
▁skill	-11.0667
▁trap	-11.0669
▁concentration	-11.0676
▁exterior	-11.0676
▁participant	-11.0676
▁pharmaceutical	-11.0676
▁vinegar	-11.0676
▁ultra	-11.0677
▁crowd	-11.0677
▁melbourne	-11.0677
▁systematic	-11.0679
▁superstock	-11.0679
▁verona	-11.0679
▁northwest	-11.068
▁metro	-11.0683
▁bright	-11.0685
▁terry	-11.0688
▁tight	-11.0689
▁basil	-11.0692
eastern	-11.0696
while	-11.0699
election	-11.07
▁1988)	-11.0701
break	-11.0701
▁justin	-11.0705
▁120	-11.0708
▁jain	-11.0718
▁essentially	-11.0719
▁nicola	-11.072
▁fled	-11.0728
▁candy	-11.0732
tory	-11.0738
▁exposed	-11.0739
▁rom	-11.0747
▁modest	-11.0749
cola	-11.075
▁sandwich	-11.0758
▁vest	-11.0759
even	-11.076
▁transform	-11.0762
▁tab	-11.0766
oxide	-11.0769
▁cadillac	-11.0769
▁continuous	-11.0769
▁nutrition	-11.0769
▁residence	-11.0769
▁improving	-11.0769
▁sudden	-11.0769
▁(1990)	-11.077
▁beatified	-11.0771
▁commitment	-11.0772
▁algeria	-11.0774
▁pep	-11.0779
uka	-11.078
▁1865	-11.0786
▁praised	-11.079
▁[1]	-11.0793
▁overhead	-11.0793
▁lineup	-11.08
▁musicologist	-11.08
▁xv	-11.0802
▁lime	-11.0808
▁naka	-11.0815
▁biographical	-11.0816
▁mason	-11.0818
olini	-11.0819
seat	-11.0821
▁dell	-11.0826
▁drawn	-11.0828
▁wonder	-11.0839
▁false	-11.0842
odo	-11.0848
▁blend	-11.0848
▁duc	-11.085
▁thur	-11.0852
▁possess	-11.0854
▁taka	-11.0854
▁component	-11.0858
named	-11.0859
ー	-11.0862
▁breakfast	-11.0862
▁comprehensive	-11.0862
▁dynasty	-11.0862
▁varieties	-11.0862
▁{\	-11.0862
▁decrease	-11.0862
▁proposal	-11.0862
▁substance	-11.0862
▁elliott	-11.0862
▁resignation	-11.0862
▁tissue	-11.0862
rhythm	-11.0863
▁phrase	-11.0863
▁wage	-11.0863
▁(2012)	-11.0864
▁tunisia	-11.0864
▁priesthood	-11.0864
▁assessment	-11.0865
verlag	-11.0867
▁sitcom	-11.0868
punk	-11.0868
▁derby	-11.0874
▁1959)	-11.0878
▁(1.8	-11.0879
▁roth	-11.0879
▁font	-11.0882
▁determin	-11.0882
▁1877	-11.0882
▁seeds	-11.0886
▁outfield	-11.0887
▁kur	-11.089
▁flore	-11.0894
▁branches	-11.0895
▁consul	-11.0896
▁hut	-11.0897
▁continental	-11.0897
stadt	-11.0899
▁christi	-11.0899
game	-11.0902
▁changing	-11.0905
month	-11.0905
dō	-11.0908
▁lease	-11.0912
guard	-11.0913
▁vale	-11.0919
half	-11.092
music	-11.0924
child	-11.0925
▁tag	-11.0929
▁denis	-11.0932
▁64	-11.0936
▁1999)	-11.0936
▁actual	-11.094
▁mention	-11.0942
▁tale	-11.0944
▁mori	-11.0945
▁strain	-11.0952
disciplinary	-11.0957
▁aluminum	-11.0957
▁griffith	-11.0957
▁paternal	-11.0957
▁privacy	-11.0957
▁professed	-11.0957
▁dismissed	-11.0957
▁proportion	-11.0957
▁ticket	-11.0957
▁athlete	-11.0957
▁sheffield	-11.0957
▁exceed	-11.0957
▁horsepower	-11.0957
▁(2017)	-11.0958
▁girlfriend	-11.0958
▁repair	-11.0958
▁replica	-11.0965
▁texture	-11.0966
▁mud	-11.0967
▁holland	-11.097
▁basel	-11.0974
▁harrison	-11.0981
first	-11.0983
▁reporter	-11.0984
you	-11.0986
▁collect	-11.0995
7)	-11.1
▁privately	-11.1012
word	-11.1012
▁midwest	-11.1018
▁lip	-11.1024
2013	-11.1028
corp	-11.103
▁cali	-11.103
▁banker	-11.1033
▁todd	-11.1034
leigh	-11.1034
▁baptist	-11.1036
posing	-11.104
izer	-11.1042
isse	-11.1051
▁compensation	-11.1052
▁luxembourg	-11.1052
▁registration	-11.1052
▁sustainable	-11.1052
▁mercedes	-11.1052
▁virtue	-11.1052
▁distance	-11.1052
▁hudson	-11.1052
▁beverly	-11.1052
▁strauss	-11.1053
▁seal	-11.1054
▁prayer	-11.1054
▁loose	-11.1054
▁plug	-11.1054
▁nonprofit	-11.1056
▁friendship	-11.1056
▁colin	-11.1058
▁1866	-11.1065
▁diagnosis	-11.1069
▁interim	-11.107
▁maxim	-11.1071
▁mx	-11.1072
love	-11.1073
physical	-11.1079
▁assert	-11.1079
pierre	-11.1079
▁1961)	-11.108
▁really	-11.1084
▁mild	-11.1085
▁phi	-11.1095
▁chronic	-11.1095
archived	-11.1101
will	-11.1102
marie	-11.1103
▁2000)	-11.1106
paul	-11.1118
2010	-11.1133
▁cloth	-11.1137
ʃ	-11.1148
▁cemetery	-11.1148
▁discrimination	-11.1148
▁jennifer	-11.1148
▁rockefeller	-11.1148
▁strasbourg	-11.1148
▁sketch	-11.1148
▁vocation	-11.1148
▁choose	-11.1148
▁comedian	-11.1148
▁oversaw	-11.1149
▁lyric	-11.1149
▁catalogue	-11.1149
▁nashville	-11.1149
▁patricia	-11.115
▁interactive	-11.115
▁integra	-11.1151
▁somewhat	-11.1152
▁construct	-11.1153
▁councillor	-11.1154
▁classification	-11.1155
▁pennant	-11.1156
▁coverage	-11.1159
standing	-11.1164
▁stability	-11.1169
▁weak	-11.117
▁tier	-11.1171
▁jurist	-11.1171
▁initiated	-11.1173
woman	-11.1173
▁1977)	-11.1176
science	-11.1176
▁(189	-11.1188
▁isabel	-11.1195
▁lung	-11.1209
▁slave	-11.121
▁elle	-11.1213
minent	-11.1219
▁pala	-11.122
▁turning	-11.1228
▁latest	-11.1229
▁fiber	-11.123
▁retain	-11.1235
▁fiction	-11.1237
▁hugh	-11.1241
▁hazard	-11.1244
▁constitute	-11.1245
▁dangerous	-11.1245
▁expedition	-11.1245
▁lloyd	-11.1245
▁practitioner	-11.1245
▁arrival	-11.1245
▁seventeen	-11.1245
▁remote	-11.1245
▁stepped	-11.1246
▁stylist	-11.1246
▁ethnic	-11.1246
▁pedro	-11.1247
▁philanthropist	-11.1247
▁colonial	-11.1248
▁1973)	-11.1251
▁habit	-11.1251
–16	-11.1253
▁harley	-11.1262
▁1874	-11.1264
▁operate	-11.1265
hawk	-11.1278
piece	-11.1279
▁leeds	-11.1282
▁snow	-11.1283
▁scheduled	-11.1285
▁graph	-11.1289
▁commander	-11.1291
▁historically	-11.1293
owitz	-11.1295
▁monthly	-11.1304
▁neil	-11.1307
▁wig	-11.1317
▁wider	-11.1317
lette	-11.1324
▁pool	-11.1335
▁speaking	-11.1337
▁sail	-11.1341
▁buddhism	-11.1343
▁celebration	-11.1343
▁concluded	-11.1343
▁infectious	-11.1343
▁qualification	-11.1343
▁saxophone	-11.1343
▁consumed	-11.1343
▁guilty	-11.1343
▁jaguar	-11.1343
▁nevada	-11.1343
▁vaccine	-11.1343
▁armed	-11.1343
▁palermo	-11.1343
▁tortilla	-11.1343
▁animated	-11.1343
▁jefferson	-11.1344
▁modification	-11.1344
▁jewelry	-11.1345
▁knock	-11.1345
▁kidney	-11.1345
▁outcome	-11.1346
▁siena	-11.1348
▁adrian	-11.1356
$1	-11.1358
witz	-11.1367
▁gram	-11.1371
produced	-11.1373
▁emerged	-11.1376
east	-11.1379
astro	-11.1388
▁pil	-11.1389
plica	-11.139
chet	-11.1402
section	-11.1405
▁directing	-11.1406
▁imported	-11.1409
▁define	-11.141
▁1953)	-11.1412
powered	-11.1422
ologie	-11.1422
̃	-11.1442
▁perspective	-11.1442
▁sufficient	-11.1442
▁supplier	-11.1442
▁treasury	-11.1442
▁worcester	-11.1442
▁anatomy	-11.1442
▁requiring	-11.1442
▁revival	-11.1442
▁shadow	-11.1442
▁utility	-11.1442
▁theologian	-11.1443
▁richmond	-11.1444
▁wrong	-11.1445
▁filip	-11.1445
▁apollo	-11.1445
▁prague	-11.1446
▁emission	-11.1448
media	-11.1452
▁cooperation	-11.1453
▁chester	-11.1455
▁faced	-11.1456
vey	-11.1458
football	-11.1465
▁yang	-11.1471
▁captured	-11.1474
▁setup	-11.1474
▁gö	-11.1478
▁mba	-11.1489
zione	-11.1493
wide	-11.1504
▁lund	-11.1507
▁charit	-11.1508
trip	-11.1508
▁rab	-11.1512
food	-11.1513
▁ruf	-11.1514
page	-11.1521
▁dating	-11.1522
▁sack	-11.1531
▁aluminium	-11.1542
▁consequence	-11.1542
▁derivative	-11.1542
▁immigrated	-11.1542
▁arranged	-11.1542
▁ال	-11.1542
▁supervised	-11.1542
▁mutual	-11.1542
▁overseas	-11.1542
▁rhine	-11.1542
▁(1968)	-11.1543
▁copies	-11.1543
▁geographic	-11.1543
▁malaria	-11.1544
▁pietro	-11.1545
▁minimal	-11.1546
▁criticized	-11.1546
▁distinctive	-11.1546
roughly	-11.155
▁europa	-11.155
▁instant	-11.155
▁@	-11.1552
▁begun	-11.1563
▁weigh	-11.1565
▁1883	-11.1567
change	-11.1567
▁1982)	-11.1572
although	-11.1574
girl	-11.1574
length	-11.1574
▁bacon	-11.1576
neur	-11.1588
▁explained	-11.1597
▁pasta	-11.1599
taining	-11.16
▁madison	-11.1602
▁enjoy	-11.1605
▁pascal	-11.1607
▁remove	-11.1609
cross	-11.1611
▁corona	-11.162
▁laid	-11.1637
ž	-11.1643
▁afghanistan	-11.1643
▁infrastructure	-11.1643
▁mercury	-11.1643
▁suspended	-11.1643
▁symptoms	-11.1643
▁pakistan	-11.1643
▁chaplain	-11.1643
▁utrecht	-11.1643
▁variable	-11.1643
▁biggest	-11.1643
▁silicon	-11.1643
▁confess	-11.1644
▁grammy	-11.1644
▁grammar	-11.1645
▁handbook	-11.1646
▁landmark	-11.1647
▁mich	-11.1648
▁montana	-11.1648
▁cuba	-11.1648
▁considerable	-11.165
▁bsa	-11.1658
▁1879	-11.1662
▁description	-11.1665
▁recovery	-11.1672
▁ridge	-11.1673
▁failing	-11.1674
▁seller	-11.1675
▁kant	-11.1677
▁alma	-11.1687
ided	-11.1688
▁rim	-11.17
▁grandson	-11.171
▁emerge	-11.1712
▁kenya	-11.1715
mounted	-11.1718
–7	-11.1724
▁tender	-11.1731
ɑ	-11.1745
▁circumstances	-11.1745
▁lamborghini	-11.1745
▁sovereign	-11.1745
▁syracuse	-11.1745
▁suppress	-11.1745
▁gasoline	-11.1745
▁impressed	-11.1745
▁venerable	-11.1745
▁worship	-11.1745
▁advent	-11.1745
▁resort	-11.1745
▁dresden	-11.1745
▁staple	-11.1746
▁dissent	-11.1747
▁vessel	-11.1747
▁croatia	-11.1748
▁combat	-11.1748
▁engagement	-11.1748
▁toledo	-11.1749
▁homepage	-11.175
▁durham	-11.1751
▁luther	-11.1752
▁dose	-11.1756
▁fuji	-11.1757
▁finalist	-11.1757
▁knew	-11.1759
▁reduc	-11.1761
▁1871	-11.1763
▁leaf	-11.1766
▁spann	-11.1766
▁demonstrated	-11.1768
▁knit	-11.1768
▁norton	-11.1768
▁(190	-11.1769
▁rarely	-11.177
▁victorian	-11.1773
▁morton	-11.1775
▁killing	-11.178
▁dre	-11.178
▁stella	-11.1791
mission	-11.1793
germain	-11.1799
▁observed	-11.1799
▁lover	-11.18
▁effectively	-11.181
▁affected	-11.1813
▁grey	-11.1826
▁thai	-11.1838
▁institut	-11.184
5%	-11.1848
ì	-11.1848
▁acknowledg	-11.1848
▁dialogue	-11.1848
▁dorothy	-11.1848
▁enthusiast	-11.1848
▁hyundai	-11.1848
▁presidency	-11.1848
▁societies	-11.1848
▁autumn	-11.1848
▁brigham	-11.1848
▁hungary	-11.1848
▁magnetic	-11.1848
▁nottingham	-11.1848
▁ritual	-11.1849
▁baroque	-11.1849
▁brescia	-11.1849
▁blind	-11.1849
▁commentator	-11.1851
▁protestant	-11.1854
▁prosecution	-11.1857
▁denver	-11.1858
▁springfield	-11.1858
▁trumpet	-11.1859
▁strange	-11.1868
▁1873	-11.1869
mur	-11.1871
150	-11.1877
hour	-11.1882
▁illustrated	-11.1896
▁lima	-11.1897
▁backup	-11.1899
▁marry	-11.1917
▁divorce	-11.1918
▁salon	-11.1919
▁strongly	-11.1936
▁immediate	-11.1936
▁hatch	-11.1947
unconstitutional	-11.1953
▁currency	-11.1953
▁impressive	-11.1953
▁seizure	-11.1953
▁sussex	-11.1953
▁vacated	-11.1953
▁stereo	-11.1953
▁(1988)	-11.1953
▁heinrich	-11.1953
▁seafood	-11.1953
▁copy	-11.1954
▁reign	-11.1954
▁mineral	-11.1955
▁travelled	-11.1957
▁kru	-11.1958
▁finland	-11.1959
▁poetry	-11.1959
▁biologist	-11.196
▁intent	-11.1961
▁lifestyle	-11.1964
▁1886	-11.1976
▁blake	-11.1981
▁fond	-11.1985
1100	-11.1986
spanish	-11.1988
craft	-11.1994
john	-11.1995
france	-11.2001
▁lisa	-11.2004
▁pipe	-11.2022
▁160	-11.2034
▁macro	-11.2034
2014	-11.2043
▁tomato	-11.2053
▁stoke	-11.2057
の	-11.2058
у	-11.2058
▁behaviour	-11.2058
▁excellent	-11.2058
▁laboratories	-11.2058
▁sebastian	-11.2058
▁territory	-11.2058
▁administer	-11.2058
▁shareholder	-11.2058
▁gruyter	-11.2058
▁wagner	-11.2058
▁carrot	-11.2059
▁literally	-11.206
▁settlement	-11.2061
▁buick	-11.2061
▁particle	-11.2061
▁drummer	-11.2061
▁assess	-11.2062
▁breath	-11.2063
▁possession	-11.2068
▁louisville	-11.2073
▁hague	-11.2073
350	-11.2077
amine	-11.2077
▁gaz	-11.209
▁affair	-11.2092
▁acclaimed	-11.2095
▁cannes	-11.21
court	-11.2103
▁adapted	-11.2105
flow	-11.2109
tribu	-11.2109
▁1,000	-11.2113
2015	-11.2114
▁porto	-11.2122
operative	-11.2129
▁arrive	-11.2131
▁lamp	-11.2144
▁fernand	-11.2145
▁treaty	-11.2163
́	-11.2164
▁biscuit	-11.2164
▁cognitive	-11.2164
▁podcast	-11.2164
▁snyder	-11.2164
▁upheld	-11.2164
woo	-11.2165
▁musique	-11.2166
▁audition	-11.2168
▁random	-11.2168
▁generic	-11.2168
▁dancing	-11.2168
▁xvi	-11.2169
▁outbreak	-11.217
▁revolutionary	-11.2172
▁borg	-11.2174
▁1869	-11.2181
▁baking	-11.2183
▁1878	-11.2185
▁sci	-11.2192
▁chop	-11.2193
writing	-11.2202
korean	-11.2202
mouth	-11.2204
▁ellen	-11.2206
▁rush	-11.2209
young	-11.2212
▁neuron	-11.2212
look	-11.2228
▁adopt	-11.2229
▁formally	-11.2236
space	-11.2245
hick	-11.2245
är	-11.2247
insky	-11.2252
▁3–1	-11.2262
▁stir	-11.227
▁compression	-11.2272
displaystyle	-11.2272
▁execution	-11.2272
▁indigenous	-11.2272
▁malcolm	-11.2272
▁microbiology	-11.2272
diagnosed	-11.2272
html	-11.2272
▁collapse	-11.2272
▁pursuing	-11.2272
▁3–0	-11.2272
▁dynamo	-11.2272
▁premium	-11.2272
▁terminated	-11.2272
▁voyage	-11.2272
▁ceased	-11.2272
▁stretch	-11.2272
▁warsaw	-11.2272
▁admission	-11.2272
▁jeffrey	-11.2273
▁syrup	-11.2274
▁legacy	-11.2275
▁accomplished	-11.2287
▁completion	-11.2287
▁1863	-11.2291
▁affirmed	-11.2291
на	-11.2297
▁else	-11.2299
▁electron	-11.2303
white	-11.2311
▁archived	-11.2312
▁singh	-11.2315
▁alien	-11.2327
▁losses	-11.2332
tune	-11.2332
▁capture	-11.2346
▁heidelberg	-11.238
▁introducing	-11.238
▁monastery	-11.238
▁relevant	-11.238
▁deputies	-11.2381
▁gardner	-11.2381
▁gospel	-11.2381
▁bayern	-11.2381
▁islamic	-11.2381
▁geely	-11.2381
▁anything	-11.2381
▁imposed	-11.2381
▁soundtrack	-11.2382
▁mainstream	-11.2382
▁instance	-11.2383
▁advertisement	-11.2383
▁besides	-11.2384
▁weekend	-11.2386
conscious	-11.2389
▁almond	-11.2392
▁brighton	-11.2393
▁hail	-11.2402
▁laurent	-11.2413
▁succeed	-11.2417
tō	-11.2417
▁shooting	-11.2432
▁efficient	-11.2436
▁grim	-11.2444
▁urbana	-11.2444
▁someone	-11.2445
▁cable	-11.2446
▁polit	-11.2447
▁acclaim	-11.2452
▁vow	-11.2459
jun	-11.2465
・	-11.249
د	-11.249
ع	-11.249
▁armstrong	-11.249
▁gradually	-11.249
▁orchestre	-11.249
س	-11.249
▁finnish	-11.249
▁recital	-11.249
▁cartoon	-11.2491
▁preferred	-11.2491
▁zurich	-11.2492
▁atomic	-11.2492
▁persian	-11.2492
▁governance	-11.2493
▁personnel	-11.2494
▁sportswear	-11.2499
▁monster	-11.2505
▁1864	-11.2506
▁commit	-11.2507
▁911	-11.2507
▁proof	-11.2508
▁rubin	-11.2509
▁hammer	-11.2511
▁busch	-11.2514
▁1881	-11.2514
▁methodist	-11.2514
▁oven	-11.2521
▁bullet	-11.2532
school	-11.2533
▁rocket	-11.2534
▁normally	-11.2537
▁laser	-11.2537
▁variation	-11.2538
course	-11.2539
▁hunting	-11.2541
▁robertson	-11.2549
engined	-11.2552
▁poem	-11.2554
ographic	-11.257
▁harmon	-11.258
pack	-11.2584
▁nice	-11.2586
eaux	-11.2591
▁arca	-11.26
▁neighbor	-11.2601
п	-11.2601
▁achieving	-11.2601
▁américa	-11.2601
▁collegiate	-11.2601
▁commonwealth	-11.2601
▁copenhagen	-11.2601
▁guarantee	-11.2601
▁possibly	-11.2601
▁prolific	-11.2601
▁westminster	-11.2601
▁€1	-11.2601
▁valencia	-11.2602
▁awareness	-11.2602
▁fischer	-11.2602
▁(1986)	-11.2602
▁3.0	-11.2602
▁(1989)	-11.2602
▁maxwell	-11.2606
▁interstate	-11.2606
▁polymer	-11.2606
▁usac	-11.2607
▁tampa	-11.2608
▁reduction	-11.2615
▁terra	-11.2615
▁masa	-11.2617
▁modena	-11.2618
▁nishi	-11.262
▁finger	-11.2623
▁1868	-11.2624
firm	-11.2628
▁generated	-11.263
attribut	-11.263
▁oval	-11.2634
50,000	-11.2639
second	-11.2645
▁hydro	-11.265
starred	-11.2652
▁pronounced	-11.2652
▁angelo	-11.2654
▁homo	-11.2665
shima	-11.2672
dress	-11.2685
▁shak	-11.2688
▁seminar	-11.27
▁1.8	-11.2705
ο	-11.2714
▁1949–2002	-11.2714
▁bangladesh	-11.2714
▁efficiency	-11.2714
▁evaluation	-11.2714
▁uppsala	-11.2714
▁browser	-11.2714
▁newcastle	-11.2714
▁sworn	-11.2714
▁jamaica	-11.2714
▁assassin	-11.2714
▁nominee	-11.2714
▁essex	-11.2714
azza	-11.2715
▁providence	-11.2718
▁corset	-11.2719
▁bradley	-11.272
▁enlist	-11.272
▁kenny	-11.2722
▁margin	-11.2722
▁gianni	-11.2723
▁sonata	-11.2724
▁humanities	-11.2725
▁moss	-11.2728
▁primera	-11.274
▁thu	-11.274
▁upgraded	-11.2741
▁roland	-11.2744
quality	-11.2747
hurst	-11.2747
bourne	-11.2752
▁collecting	-11.2756
▁highway	-11.2757
written	-11.2758
health	-11.2761
▁pete	-11.2761
coat	-11.2772
▁flori	-11.2775
▁musicology	-11.2775
9)	-11.2776
▁mechanic	-11.278
▁exhibit	-11.278
▁closer	-11.28
▁solar	-11.2803
gawa	-11.2816
י	-11.2827
▁incumbent	-11.2827
▁lorenzo	-11.2827
▁edmund	-11.2828
▁jeremy	-11.2828
▁confused	-11.2828
▁inspector	-11.2828
▁madame	-11.2828
▁inhibit	-11.2828
▁(1976)	-11.2828
▁(1985)	-11.2828
▁rafael	-11.2828
▁internship	-11.2829
▁wesley	-11.2829
▁cellular	-11.283
▁closing	-11.283
▁racial	-11.2831
▁showcase	-11.2833
▁regulatory	-11.2834
▁mala	-11.2836
▁reasonable	-11.2838
▁flag	-11.2839
▁popp	-11.2841
▁moderate	-11.2843
▁gibb	-11.2845
assembl	-11.2846
▁brent	-11.2848
▁badge	-11.2849
▁monitoring	-11.2855
▁mina	-11.2856
▁renewed	-11.2863
what	-11.2869
▁fix	-11.2873
fund	-11.2879
▁implemented	-11.288
▁approaches	-11.2886
▁retro	-11.2894
▁introduce	-11.2908
▁clay	-11.2908
▁gem	-11.2929
寺	-11.2942
▁conversation	-11.2942
▁flavour	-11.2942
▁giorgio	-11.2942
▁grandparents	-11.2942
▁nephew	-11.2942
▁solicitor	-11.2942
▁toulouse	-11.2942
▁lunatic	-11.2942
▁pontiac	-11.2942
▁nikola	-11.2943
▁bronx	-11.2943
▁funeral	-11.2943
▁withdraw	-11.2943
▁nationwide	-11.2943
▁orlando	-11.2943
▁diesel	-11.2943
▁sloan	-11.2944
▁dealership	-11.2944
▁sherman	-11.2945
suit	-11.2945
▁descendant	-11.2947
▁banana	-11.2951
▁thorn	-11.2951
▁transportation	-11.2955
▁fighters	-11.2957
▁sacramento	-11.2957
▁1861	-11.2959
▁1867	-11.2963
▁1855	-11.2963
store	-11.2977
▁cuban	-11.2977
▁daytime	-11.2981
characterized	-11.2981
citing	-11.2985
government	-11.2989
▁vital	-11.2995
▁trent	-11.2996
quite	-11.2998
selling	-11.3004
▁kol	-11.3005
▁destin	-11.3007
▁requirement	-11.3015
leading	-11.3016
▁evan	-11.3019
▁decline	-11.303
ан	-11.3034
▁suv	-11.3038
▁settle	-11.3039
▁huge	-11.304
▁julian	-11.3043
▁fourteen	-11.3047
▁ost	-11.305
listener	-11.3052
▁conserva	-11.3056
champaign	-11.3059
~	-11.3059
▁caribbean	-11.3059
▁emphasiz	-11.3059
▁vancouver	-11.3059
▁fangraphs	-11.3059
▁improvis	-11.3059
▁trunk	-11.3059
▁closure	-11.3059
▁imaging	-11.3059
▁(1979)	-11.3059
▁observatory	-11.3059
▁summit	-11.3061
▁civic	-11.3061
▁auction	-11.3062
▁detective	-11.3062
▁ecology	-11.3063
2017	-11.3065
edited	-11.3068
▁classified	-11.307
▁tyler	-11.307
▁jorge	-11.3071
▁joel	-11.3074
▁convinced	-11.3076
▁turbocharged	-11.3081
▁1876	-11.3082
▁defunct	-11.3084
▁contribut	-11.3093
▁indonesian	-11.3098
▁exhibited	-11.3098
▁venezuelan	-11.3103
madison	-11.3106
economic	-11.3107
▁recalled	-11.3108
group	-11.3114
▁gala	-11.3119
▁melt	-11.3119
fight	-11.3131
enthal	-11.3131
▁crab	-11.3137
▁johan	-11.3138
▁linear	-11.3146
▁quar	-11.3154
electric	-11.3155
wyn	-11.3155
▁venezuela	-11.3158
plane	-11.3166
▁catalog	-11.3175
park	-11.3176
ν	-11.3176
й	-11.3176
▁furniture	-11.3176
▁orthodox	-11.3176
▁rehabilitation	-11.3176
▁supposed	-11.3176
▁widespread	-11.3176
▁appellate	-11.3176
▁lebanon	-11.3176
▁quebec	-11.3176
▁pixel	-11.3176
▁botany	-11.3176
▁laureate	-11.3176
▁sausage	-11.3176
▁seoul	-11.3177
▁bueno	-11.3177
▁extract	-11.3183
▁solve	-11.3185
▁evil	-11.319
▁raid	-11.319
▁transformation	-11.3191
▁advised	-11.3193
▁destroyed	-11.3198
▁fernando	-11.3198
▁xu	-11.3198
▁clara	-11.3199
▁1856	-11.3199
▁1848	-11.3199
▁alain	-11.3203
▁frost	-11.3211
baum	-11.3214
▁succeeding	-11.3215
axon	-11.3217
▁jail	-11.3219
performance	-11.3226
▁bib	-11.323
▁usage	-11.3236
▁fest	-11.3248
termination	-11.325
▁recall	-11.3262
▁fail	-11.3266
▁sort	-11.3274
▁advertise	-11.3292
▁comparison	-11.3295
▁dartmouth	-11.3295
▁fukuoka	-11.3295
▁inclusion	-11.3295
▁opponent	-11.3295
▁pregnant	-11.3295
▁salzburg	-11.3295
▁supplied	-11.3295
▁supérieur	-11.3295
▁yugoslavia	-11.3295
▁aerodynamic	-11.3295
▁anthropology	-11.3295
▁clergy	-11.3295
▁nielsen	-11.3295
▁poverty	-11.3295
▁cluster	-11.3295
▁coconut	-11.3295
▁lombard	-11.3295
▁radiation	-11.3295
▁redesigned	-11.3295
▁(1977)	-11.3296
▁screenwriter	-11.3296
▁windsor	-11.3296
▁(1980)	-11.3296
▁rescue	-11.3296
▁(2018)	-11.3296
▁gerald	-11.3297
▁bullpen	-11.3297
▁surrey	-11.3297
▁(1):	-11.33
▁lumia	-11.3304
▁monica	-11.3305
pdf	-11.3313
▁romania	-11.3314
▁spice	-11.3321
▁journalism	-11.3322
azzo	-11.3335
▁vicar	-11.3336
english	-11.3346
▁albania	-11.3367
▁christoph	-11.3383
communica	-11.3415
▁academia	-11.3416
▁accurate	-11.3416
▁diagnostic	-11.3416
▁fiorentina	-11.3416
▁immunology	-11.3416
▁synthesis	-11.3416
г	-11.3416
▁technological	-11.3416
▁undertook	-11.3416
▁automated	-11.3416
▁enduro	-11.3416
▁(1984)	-11.3416
▁paulista	-11.3416
▁sergio	-11.3417
▁(1987)	-11.3418
▁banned	-11.342
▁simultaneously	-11.342
▁businesswoman	-11.3421
▁50%	-11.3425
▁potter	-11.3428
▁endorse	-11.343
▁danny	-11.3431
short	-11.3433
▁1872	-11.3437
▁longest	-11.3444
▁mull	-11.3456
▁nash	-11.3467
following	-11.347
▁exit	-11.3478
▁cerv	-11.348
▁kiss	-11.3484
▁kell	-11.3495
▁vast	-11.3517
▁violate	-11.3518
close	-11.3522
▁renew	-11.3538
▁2007–08	-11.3538
▁bordeaux	-11.3538
▁explanation	-11.3538
▁freiburg	-11.3538
▁hypothesis	-11.3538
▁maserati	-11.3538
▁strategies	-11.3538
▁delaware	-11.3538
▁fussball	-11.3538
▁arsenal	-11.3538
▁chorus	-11.3538
▁(1974)	-11.3538
▁theodore	-11.3539
▁combinator	-11.3539
▁vertical	-11.354
▁comprise	-11.3541
▁curtis	-11.3542
▁leslie	-11.3542
▁automaker	-11.3543
▁vermont	-11.3544
▁iranian	-11.3544
▁armenian	-11.3546
▁piston	-11.3547
▁onwards	-11.3547
▁anime	-11.3553
▁1843	-11.3557
▁cheap	-11.3558
▁rockies	-11.3559
▁facilitate	-11.3559
▁pickle	-11.3569
▁clock	-11.3575
amide	-11.3583
serve	-11.3583
official	-11.3592
christ	-11.3596
▁distinguish	-11.3623
▁recognize	-11.3627
▁wealth	-11.3642
heart	-11.3645
▁reverse	-11.3645
▁deutsch	-11.3655
▁#1	-11.3658
:10.10	-11.3661
gymnasium	-11.3661
▁borussia	-11.3661
▁distributor	-11.3661
▁impossible	-11.3661
▁montpellier	-11.3661
▁phenomenon	-11.3661
▁identification	-11.3661
▁resumed	-11.3661
▁surname	-11.3661
▁ghost	-11.3661
▁shield	-11.3661
▁simmons	-11.3661
▁linguistics	-11.3661
▁sliced	-11.3661
▁statue	-11.3663
dependent	-11.3663
▁nepal	-11.3664
▁permission	-11.3664
▁bennett	-11.3664
▁boost	-11.3665
▁mellon	-11.3665
▁municipality	-11.3668
▁tablet	-11.3669
▁corpus	-11.367
▁bodywork	-11.367
▁latvia	-11.367
▁axle	-11.3675
▁promoter	-11.3679
ritz	-11.3681
▁donated	-11.3687
▁$7	-11.3688
▁$6	-11.3691
▁consideration	-11.3705
green	-11.3711
language	-11.3717
chemical	-11.3717
black	-11.3725
kow	-11.3728
▁chronicle	-11.373
walk	-11.3732
▁levant	-11.3735
good	-11.374
runner	-11.3744
week	-11.3756
▁liv	-11.3762
▁zan	-11.3768
▁2.5	-11.377
▁ancestry	-11.3786
▁astronomer	-11.3786
▁describing	-11.3786
▁elaborate	-11.3786
▁montenegro	-11.3786
▁neighbour	-11.3786
▁polytechnic	-11.3786
▁recognised	-11.3786
▁thriller	-11.3786
▁2010–11	-11.3786
▁landscape	-11.3786
▁territori	-11.3786
▁delegation	-11.3786
▁memoir	-11.3786
▁bronze	-11.3786
▁cancelled	-11.3786
▁bailey	-11.3786
▁qatar	-11.3787
▁plasma	-11.3787
▁psychologist	-11.3787
▁derives	-11.3787
▁betty	-11.3787
▁emilia	-11.3788
▁collaborative	-11.379
▁rachel	-11.3791
▁analog	-11.3791
▁liberty	-11.3791
▁egyptian	-11.3792
▁dairy	-11.3793
▁edwin	-11.3794
▁coined	-11.3794
▁worldfootball	-11.3796
▁fritz	-11.3797
▁concern	-11.3805
▁1858	-11.3806
▁outdoor	-11.3814
▁lotte	-11.3827
▁unless	-11.3827
ether	-11.3831
▁clam	-11.3833
▁barber	-11.384
therapy	-11.3844
minute	-11.3846
weight	-11.3848
super	-11.3858
▁fries	-11.3874
foot	-11.3875
▁engage	-11.3876
rique	-11.3881
▁léo	-11.3897
▁contribute	-11.3907
1.1	-11.3913
▁repertoire	-11.3913
▁saturday	-11.3913
▁cosmetic	-11.3913
▁patterson	-11.3913
▁manifest	-11.3913
▁minimum	-11.3913
▁schwarz	-11.3913
▁gloria	-11.3913
▁sheriff	-11.3913
▁blessed	-11.3913
▁(1969)	-11.3913
▁genome	-11.3914
▁resides	-11.3915
▁theorem	-11.392
▁passage	-11.3921
▁caroline	-11.3921
▁iceland	-11.3921
▁eduardo	-11.3922
▁patriot	-11.3923
▁geology	-11.3924
▁coleman	-11.3928
▁stiff	-11.3938
▁pub	-11.395
▁christianity	-11.3951
▁brick	-11.3956
▁josef	-11.398
▁petitioner	-11.3989
great	-11.4
▁pants	-11.4002
▁survive	-11.4007
▁acquire	-11.4007
▁liz	-11.401
brien	-11.4018
ń	-11.4041
▁napoleon	-11.4041
ة	-11.4041
▁2008–09	-11.4041
▁disappear	-11.4041
▁fracture	-11.4041
▁reservation	-11.4041
▁slugging	-11.4041
▁anglican	-11.4041
▁ignition	-11.4041
▁resolve	-11.4041
▁preparing	-11.4041
▁einstein	-11.4041
▁invasion	-11.4041
▁kappa	-11.4041
▁editing	-11.4041
▁(1973)	-11.4042
▁sweat	-11.4042
▁drake	-11.4042
▁jews	-11.4042
▁excessive	-11.4043
▁everyday	-11.4047
▁abram	-11.4047
▁doug	-11.4052
▁motorola	-11.4053
▁garage	-11.4055
▁mandate	-11.4057
▁ginger	-11.406
▁informal	-11.4061
▁1845	-11.4067
through	-11.4101
▁faction	-11.4107
▁diana	-11.4114
▁aspect	-11.4147
▁pill	-11.415
1⁄2	-11.4171
б	-11.4171
▁2006–07	-11.4171
▁2009–10	-11.4171
▁absolute	-11.4171
▁conclusion	-11.4171
▁maintenance	-11.4171
▁memphis	-11.4171
▁minneapolis	-11.4171
▁phenomena	-11.4171
▁presbyterian	-11.4171
▁renaissance	-11.4171
▁exploit	-11.4171
▁yzf	-11.4171
▁wrapped	-11.4171
▁(2019)	-11.4171
étienne	-11.4171
▁ghz	-11.4172
▁breakthrough	-11.4172
▁alternat	-11.4174
▁microsd	-11.4177
▁neural	-11.4182
▁unclear	-11.4184
▁massive	-11.4188
▁swan	-11.4193
▁collaborator	-11.4194
▁mtv	-11.4197
▁loop	-11.4203
▁mott	-11.4207
▁civilian	-11.4208
litz	-11.4216
▁brun	-11.4217
disc	-11.4227
royce	-11.4231
mobile	-11.4232
▁ranch	-11.4253
2018	-11.4272
▁reich	-11.4284
▁reject	-11.4285
▁tiger	-11.4298
▁enforce	-11.4299
▁acceleration	-11.4303
▁brasileiro	-11.4303
▁calendar	-11.4303
▁persuade	-11.4303
▁qualcomm	-11.4303
▁senegal	-11.4303
▁sustained	-11.4303
▁consciousness	-11.4303
▁embark	-11.4303
▁removal	-11.4303
▁cruiser	-11.4303
▁delegate	-11.4303
▁disabled	-11.4303
▁mvp	-11.4303
▁duchess	-11.4303
▁folded	-11.4303
▁entity	-11.4303
▁softbank	-11.4303
▁telephone	-11.4303
▁digest	-11.4304
▁pearl	-11.4305
▁footwear	-11.4305
▁placing	-11.4305
▁tribal	-11.4305
▁midget	-11.4307
▁liability	-11.4309
▁protective	-11.4314
▁lazio	-11.4314
▁sushi	-11.4318
▁diverse	-11.432
▁barney	-11.4323
wire	-11.4327
▁harmony	-11.4328
▁edgar	-11.4333
evich	-11.4351
▁abba	-11.4368
three	-11.437
▁clan	-11.4377
▁slip	-11.4388
gold	-11.44
▁pisa	-11.4413
ignon	-11.4422
▁dash	-11.4426
▁consolidat	-11.4436
▁gérard	-11.4436
▁intelligent	-11.4436
▁lebanese	-11.4436
▁licensing	-11.4436
▁montgomery	-11.4436
▁twentieth	-11.4436
▁indicator	-11.4436
▁navigation	-11.4436
▁nevertheless	-11.4436
▁kyoto	-11.4436
▁analyze	-11.4436
▁elsewhere	-11.4436
▁dfb	-11.4436
▁(1982)	-11.4436
▁marlins	-11.4437
▁massimo	-11.4437
▁clarence	-11.4438
▁consent	-11.4438
spiring	-11.4439
▁osaka	-11.4441
▁calvin	-11.4442
▁chrome	-11.4442
▁serial	-11.4445
▁breach	-11.4446
▁napoli	-11.4446
▁clement	-11.4447
▁mask	-11.4466
▁humor	-11.4471
finity	-11.4481
chemistry	-11.4501
▁polar	-11.4505
dimensional	-11.4519
▁immuno	-11.4537
angelo	-11.4539
▁ensu	-11.4543
▁hind	-11.4553
argent	-11.4559
▁publish	-11.4563
ح	-11.4571
▁lancashire	-11.4571
▁münchen	-11.4571
▁nacional	-11.4571
▁sampdoria	-11.4571
▁snapdragon	-11.4571
▁société	-11.4571
▁symphonic	-11.4571
▁enzyme	-11.4571
▁prominence	-11.4571
▁proponent	-11.4571
▁ordinary	-11.4571
▁nausea	-11.4571
▁oclc	-11.4571
▁hidden	-11.4571
▁archaeolog	-11.4571
▁diversity	-11.4571
▁thunder	-11.4571
▁email	-11.4571
▁(1978)	-11.4572
▁inquiry	-11.4572
▁negotiations	-11.4572
▁regiment	-11.4573
▁nerve	-11.4574
▁deacon	-11.4575
▁monarch	-11.4576
▁indycar	-11.4576
▁assault	-11.4576
shot	-11.4578
▁978	-11.458
▁dill	-11.458
▁lunch	-11.4581
▁moses	-11.4583
▁scala	-11.4586
▁sandwiches	-11.4588
▁collector	-11.4588
▁getty	-11.459
▁1854	-11.4591
▁insight	-11.4597
▁spoon	-11.46
▁irr	-11.4606
▁psych	-11.4618
pokal	-11.4629
efficient	-11.4638
logic	-11.4654
drama	-11.4664
rrington	-11.4672
posed	-11.4673
▁celebrate	-11.4674
▁prussia	-11.468
▁prefer	-11.4704
ン	-11.4708
я	-11.4708
▁advocacy	-11.4708
▁baptized	-11.4708
▁français	-11.4708
▁mushroom	-11.4708
▁survivor	-11.4708
▁vegetarian	-11.4708
▁watkins	-11.4708
▁2011–12	-11.4708
▁tropical	-11.4708
▁reliability	-11.4708
▁clarinet	-11.4708
▁rwanda	-11.4708
▁doubt	-11.4708
▁dawn	-11.4708
▁carrera	-11.4708
▁(1971)	-11.4708
▁(1981)	-11.4709
▁trauma	-11.4709
▁vietnamese	-11.471
▁automatically	-11.4712
▁organised	-11.4712
▁underlying	-11.4712
▁southampton	-11.4713
construct	-11.4723
-1990	-11.4725
▁exile	-11.4726
▁banner	-11.4726
▁hindu	-11.4728
▁realized	-11.473
▁yomi	-11.4731
miya	-11.4735
▁entertain	-11.4739
▁airline	-11.4742
▁guru	-11.4749
▁rash	-11.4759
▁gregor	-11.4769
▁toast	-11.4774
biographical	-11.4777
published	-11.4777
wrote	-11.4777
▁swap	-11.4783
▁hypo	-11.4819
▁teenage	-11.4828
▁integral	-11.4845
▁clip	-11.4846
ğ	-11.4847
megapixel	-11.4847
▁cinnamon	-11.4847
▁deploy	-11.4847
▁fulfill	-11.4847
▁göttingen	-11.4847
▁pneumonia	-11.4847
▁punishment	-11.4847
▁semiconductor	-11.4847
▁swimsuit	-11.4847
▁botanist	-11.4847
▁emmanuel	-11.4847
▁purdue	-11.4847
▁leopold	-11.4847
▁julius	-11.4847
▁exeter	-11.4847
▁compiler	-11.4847
▁guidelines	-11.4847
▁relating	-11.4847
▁aviation	-11.4849
▁cyril	-11.4849
▁allegations	-11.4849
▁conservation	-11.4849
▁mistake	-11.4849
▁fraser	-11.485
▁thé	-11.4851
▁clayton	-11.4853
▁simulation	-11.4853
▁braking	-11.4854
▁barrett	-11.4854
▁bravo	-11.4859
▁installation	-11.486
▁apparently	-11.4861
▁everyone	-11.4863
▁suitable	-11.4863
▁vocalist	-11.4867
▁offence	-11.4868
▁1857	-11.4873
▁sanders	-11.4882
▁saab	-11.4884
▁pride	-11.4885
▁fever	-11.4897
▁spir	-11.4899
grave	-11.4904
tide	-11.4926
provence	-11.4949
▁upgrade	-11.4954
▁generate	-11.4955
▁relate	-11.4956
model	-11.4964
deemed	-11.4966
▁usual	-11.4971
ström	-11.4988
▁ophthalm	-11.4988
▁satellite	-11.4988
▁sullivan	-11.4988
▁tuberculosis	-11.4988
▁nichols	-11.4988
▁exempt	-11.4988
▁meditation	-11.4988
▁striking	-11.4988
▁immune	-11.4988
▁peanut	-11.4988
▁vintage	-11.4988
▁welsh	-11.4988
▁withdrew	-11.4988
▁noodle	-11.4988
▁meanwhile	-11.4988
disclosed	-11.4988
▁concord	-11.4988
▁robbery	-11.4989
▁headache	-11.4989
▁spear	-11.4989
▁dvd	-11.4989
▁communicate	-11.4989
▁rubber	-11.4991
▁mystic	-11.4992
▁convey	-11.4993
▁ongoing	-11.4994
▁evolutionary	-11.4994
▁georgetown	-11.4995
▁dominated	-11.4995
frame	-11.4995
▁array	-11.4996
▁offense	-11.4996
▁brasil	-11.4997
▁martha	-11.4997
▁liberation	-11.5
▁volvo	-11.5002
ghi	-11.5002
▁terror	-11.5006
▁robot	-11.5007
▁ariel	-11.5007
▁cameron	-11.5009
▁athens	-11.5009
▁tourism	-11.501
▁theorist	-11.5013
▁whip	-11.5014
▁christine	-11.5014
▁devote	-11.5097
▁brace	-11.5104
▁eventual	-11.5114
▁friar	-11.5122
▁vladimir	-11.5131
▁accelerate	-11.5131
▁aggressive	-11.5131
▁botanical	-11.5131
▁calcium	-11.5131
▁ecuador	-11.5131
▁ferdinand	-11.5131
▁frequency	-11.5131
▁releasing	-11.5131
▁sacrifice	-11.5131
▁synthetic	-11.5131
▁vanderbilt	-11.5131
▁separation	-11.5131
▁underground	-11.5131
▁violent	-11.5131
▁bubble	-11.5131
▁tribune	-11.5131
▁animation	-11.5131
▁newark	-11.5131
▁bicycle	-11.5133
▁teatro	-11.5134
▁milliner	-11.5135
stylize	-11.5136
▁pierce	-11.5137
▁herald	-11.514
▁heinz	-11.5145
▁randy	-11.5148
▁belarus	-11.5149
▁£2	-11.5149
▁kō	-11.5157
international	-11.5161
▁giulia	-11.5177
little	-11.5206
▁roche	-11.521
upcoming	-11.5228
▁recruit	-11.5237
▁lambert	-11.524
▁monitor	-11.524
accio	-11.5269
ɪ	-11.5275
▁conspiracy	-11.5276
▁corruption	-11.5276
▁perception	-11.5276
▁timothy	-11.5276
▁atalanta	-11.5276
▁jessica	-11.5276
▁bazaar	-11.5276
▁benfica	-11.5276
▁olivier	-11.5276
▁ancestor	-11.5276
▁disaster	-11.5276
▁sierra	-11.5276
▁poison	-11.5276
locator	-11.5276
▁(1972)	-11.5276
▁binding	-11.5276
▁helmet	-11.5276
▁meteor	-11.5276
▁perfume	-11.5276
▁postgraduate	-11.5277
▁naked	-11.5277
▁missionaries	-11.5277
▁hanshin	-11.5277
▁dominique	-11.5278
▁blank	-11.5278
▁expertise	-11.528
anthrop	-11.528
▁cattle	-11.5281
▁accessible	-11.5281
▁barrier	-11.5282
▁solomon	-11.5282
▁klaus	-11.5285
1987	-11.5286
azzi	-11.529
▁jules	-11.5293
▁raven	-11.5296
▁burden	-11.5296
sphere	-11.53
1200	-11.5322
archive	-11.533
0–0	-11.5336
profile	-11.5353
▁rip	-11.536
▁install	-11.5374
▁chant	-11.5383
▁kerr	-11.5401
ו	-11.5423
σ	-11.5423
ι	-11.5423
▁ethiopia	-11.5423
▁allergic	-11.5423
▁camshaft	-11.5423
▁conceived	-11.5423
▁dortmund	-11.5423
▁fantasy	-11.5423
▁fraternity	-11.5423
▁possibility	-11.5423
▁probability	-11.5423
▁rodríguez	-11.5423
▁seymour	-11.5423
▁yokohama	-11.5423
simplified	-11.5423
▁saxony	-11.5423
sensitive	-11.5423
▁attained	-11.5423
▁coordinate	-11.5423
▁horizontal	-11.5423
▁shri	-11.5424
ов	-11.5424
▁billionaire	-11.5424
▁bradford	-11.5426
▁legendary	-11.5428
▁confront	-11.5428
▁treatise	-11.543
▁sudan	-11.543
▁adoption	-11.5431
▁fowl	-11.5433
▁hoover	-11.5442
▁romanized	-11.5443
▁initiat	-11.545
chrom	-11.5464
werk	-11.548
according	-11.5502
focus	-11.5504
▁southwest	-11.5512
▁deposit	-11.5529
▁prosecut	-11.5548
fold	-11.5551
▁pall	-11.5553
▁bugatti	-11.5572
▁eintracht	-11.5572
▁encompass	-11.5572
▁molecule	-11.5572
▁norfolk	-11.5572
▁silhouette	-11.5572
▁yogurt	-11.5572
▁accompany	-11.5572
▁mixtape	-11.5572
▁recreation	-11.5572
▁vomiting	-11.5572
▁devotion	-11.5572
▁fifty	-11.5572
▁henderson	-11.5572
▁veneto	-11.5572
▁climb	-11.5572
▁dkw	-11.5572
▁disrupt	-11.5572
▁composing	-11.5573
▁submitt	-11.5573
▁insulin	-11.5573
▁counterpart	-11.5574
▁whitney	-11.5575
▁harbor	-11.5575
▁pathway	-11.5576
▁somali	-11.5576
▁intense	-11.5577
▁jensen	-11.5577
▁pathology	-11.5577
▁difficulties	-11.558
▁ashley	-11.5583
▁sparta	-11.5588
▁combin	-11.5592
specific	-11.56
cardiac	-11.56
jö	-11.5607
▁erik	-11.561
1961	-11.5617
▁flip	-11.5618
speaking	-11.5653
▁prescribe	-11.5698
▁sacrament	-11.5704
▁acoustic	-11.5723
▁complications	-11.5723
▁giacomo	-11.5723
▁privilege	-11.5723
▁restaurateur	-11.5723
▁commemorat	-11.5723
▁communion	-11.5723
▁messaging	-11.5723
▁offensive	-11.5723
▁wembley	-11.5723
▁expelled	-11.5723
▁garrett	-11.5723
▁compilation	-11.5723
▁quoted	-11.5723
▁revenge	-11.5723
▁instagram	-11.5723
▁oyez	-11.5723
▁freelance	-11.5723
▁extent	-11.5723
▁sodium	-11.5724
▁teresa	-11.5724
▁isolated	-11.5724
▁steak	-11.5724
▁kaiser	-11.5724
▁mineiro	-11.5724
▁apprenticeship	-11.5725
▁russo	-11.5726
▁anglo	-11.5726
▁shipped	-11.5726
▁invested	-11.5727
▁duncan	-11.5727
▁limitations	-11.5728
▁furthermore	-11.5729
▁hubert	-11.5738
▁webster	-11.5738
▁derek	-11.5739
histoire	-11.5741
▁hook	-11.5751
▁contestant	-11.5753
text	-11.5797
▁northeast	-11.5805
pronounced	-11.5807
location	-11.5807
dynamic	-11.5807
#	-11.5807
hitter	-11.5808
claim	-11.5813
▁kidnap	-11.5814
▁pathogen	-11.5832
▁giuli	-11.5835
▁demonstrate	-11.5843
reviewed	-11.5852
▁categor	-11.5855
recht	-11.5857
ス	-11.5877
▁accommodate	-11.5877
▁bdfutbol	-11.5877
▁citroën	-11.5877
▁césar	-11.5877
▁dissolved	-11.5877
▁empirical	-11.5877
▁epistemology	-11.5877
▁federico	-11.5877
▁humanitarian	-11.5877
▁jerusalem	-11.5877
▁manuscript	-11.5877
▁measuring	-11.5877
▁motorcyclist	-11.5877
▁swimwear	-11.5877
▁zürich	-11.5877
▁2012–13	-11.5877
▁arriving	-11.5877
▁situated	-11.5877
▁uncertain	-11.5877
▁disbanded	-11.5877
▁translator	-11.5877
вич	-11.5877
▁easier	-11.5877
▁expired	-11.5877
▁yahoo	-11.5877
▁slogan	-11.5877
▁inspection	-11.5877
▁1851	-11.5877
▁departed	-11.5878
▁werder	-11.5878
▁uganda	-11.5878
▁visible	-11.5878
▁abdul	-11.5878
▁plural	-11.5879
▁alaska	-11.5879
▁basque	-11.5879
▁concurrent	-11.588
▁blackberry	-11.5883
▁kraft	-11.5883
▁feast	-11.5884
▁quiet	-11.5888
▁bitter	-11.5889
▁mahler	-11.589
ibus	-11.5927
pillar	-11.5955
establish	-11.5964
service	-11.5964
▁snap	-11.5988
▁distribute	-11.5999
‐	-11.6033
▁circulat	-11.6033
▁consortium	-11.6033
▁crawford	-11.6033
▁flamengo	-11.6033
▁grenoble	-11.6033
▁informatics	-11.6033
▁paramount	-11.6033
▁salvador	-11.6033
▁surviving	-11.6033
▁disagree	-11.6033
▁istanbul	-11.6033
▁lunacy	-11.6033
▁dialect	-11.6033
▁hannah	-11.6033
▁café	-11.6034
▁hormone	-11.6034
▁bumper	-11.6034
▁troops	-11.6034
▁(1967)	-11.6034
▁dohc	-11.6034
▁(1975)	-11.6034
▁perkins	-11.6034
▁bedford	-11.6035
▁pilgrimage	-11.6035
▁hoffman	-11.6036
▁merkel	-11.6037
▁charging	-11.6037
▁joão	-11.6037
▁corneli	-11.6038
▁acres	-11.6038
covered	-11.6039
▁rotten	-11.6041
▁tension	-11.6041
▁downtown	-11.6042
▁denim	-11.6046
▁lanka	-11.6055
▁agnes	-11.6057
usually	-11.606
bourg	-11.6067
▁burns	-11.6083
aël	-11.6094
▁9780	-11.6097
writer	-11.6121
appointed	-11.6123
▁identifi	-11.6154
▁hint	-11.6163
▁biochemist	-11.6189
ă	-11.6192
▁antibiotic	-11.6192
▁astronomical	-11.6192
▁biomedical	-11.6192
▁challenging	-11.6192
▁confirmation	-11.6192
▁declaration	-11.6192
▁diarrhea	-11.6192
▁explicit	-11.6192
▁imprisoned	-11.6192
▁luggage	-11.6192
▁percussion	-11.6192
▁purchasing	-11.6192
▁tribunal	-11.6192
▁alexandre	-11.6192
▁certification	-11.6192
▁culminat	-11.6192
▁eggplant	-11.6192
▁carpenter	-11.6192
▁liszt	-11.6192
▁joyce	-11.6192
▁idaho	-11.6192
▁preacher	-11.6192
universität	-11.6192
inflammat	-11.6192
▁stomach	-11.6193
▁pursuit	-11.6193
▁drunk	-11.6194
▁trigger	-11.6194
▁conversion	-11.6195
▁affordable	-11.6195
▁cliff	-11.6195
▁ahmed	-11.6196
▁lodge	-11.6196
▁packard	-11.6197
▁shopping	-11.62
▁wander	-11.6201
▁gsx	-11.6201
schule	-11.6211
▁crush	-11.6215
▁altman	-11.6217
▁phillip	-11.6228
keeper	-11.6263
cultural	-11.6284
meister	-11.6297
▁assume	-11.6322
μ	-11.6353
ș	-11.6353
▁affiliation	-11.6353
▁brilliance	-11.6353
▁collège	-11.6353
▁crankshaft	-11.6353
▁fulbright	-11.6353
▁numerical	-11.6353
▁predominantly	-11.6353
▁proprietary	-11.6353
▁vittorio	-11.6353
▁2004–05	-11.6353
▁arranger	-11.6353
▁dumpling	-11.6353
▁exploring	-11.6353
▁coincid	-11.6353
▁reynolds	-11.6353
▁sesame	-11.6353
▁sidney	-11.6354
▁census	-11.6354
▁lgbt	-11.6354
▁omaha	-11.6354
▁rigid	-11.6354
▁abstract	-11.6354
▁entries	-11.6354
▁adolf	-11.6354
▁defect	-11.6355
▁specified	-11.6356
▁smoke	-11.6358
▁originating	-11.636
▁falcon	-11.6361
▁transferring	-11.6361
▁dominant	-11.6363
▁raising	-11.6364
fitting	-11.6415
doctoral	-11.6445
process	-11.6448
sometimes	-11.6448
210	-11.6464
▁apparent	-11.6501
▁afford	-11.6517
ʒ	-11.6517
ت	-11.6517
▁accumulat	-11.6517
▁antitrust	-11.6517
▁belgrade	-11.6517
▁chunichi	-11.6517
▁encrypt	-11.6517
▁groningen	-11.6517
▁practicing	-11.6517
▁inherited	-11.6517
▁nagoya	-11.6517
▁nameplate	-11.6517
▁winchester	-11.6517
′′	-11.6517
▁mandatory	-11.6517
▁threatened	-11.6517
▁lingerie	-11.6518
▁lymph	-11.6518
}}	-11.6518
▁flint	-11.6518
▁applies	-11.6518
▁touchscreen	-11.6518
▁varied	-11.6518
▁twist	-11.6518
▁fiscal	-11.6519
▁multimedia	-11.6519
▁adverse	-11.6519
▁shrimp	-11.652
▁geography	-11.652
▁hazardous	-11.652
▁schumann	-11.6521
▁versus	-11.6521
▁heaven	-11.6521
▁arbor	-11.6526
▁suffer	-11.6611
function	-11.6614
released	-11.6614
together	-11.6615
▁estimate	-11.665
▁divide	-11.665
▁acquaint	-11.6684
ś	-11.6684
ɐ	-11.6684
▁acquiring	-11.6684
▁azerbaijan	-11.6684
▁cannabis	-11.6684
▁chevalier	-11.6684
▁exploration	-11.6684
▁gloucester	-11.6684
▁hochschule	-11.6684
▁köln	-11.6684
▁obituary	-11.6684
▁rutgers	-11.6684
▁shepherd	-11.6684
▁unlimited	-11.6684
ь	-11.6684
▁2019–20	-11.6684
▁allmovie	-11.6684
▁paraguay	-11.6684
▁trousers	-11.6684
▁xiaomi	-11.6684
▁vitamin	-11.6684
opoulos	-11.6684
▁decorated	-11.6684
▁sophie	-11.6684
▁semantic	-11.6684
▁diamondbacks	-11.6684
▁surprise	-11.6684
▁kaufman	-11.6684
▁slices	-11.6685
▁routine	-11.6685
▁wreck	-11.6686
▁allison	-11.6686
▁panther	-11.6686
▁hydrogen	-11.6687
▁cecilia	-11.6687
▁irene	-11.6687
▁accent	-11.6688
yuki	-11.6688
▁quaker	-11.6688
▁.300	-11.6689
▁permitted	-11.6689
▁sitting	-11.669
▁sinai	-11.669
230	-11.6699
aça	-11.6704
▁quota	-11.6716
america	-11.6717
▁renat	-11.6718
▁jesse	-11.6767
michael	-11.6784
spring	-11.6802
▁refuse	-11.682
▁praise	-11.6826
▁computation	-11.6833
▁capabilities	-11.6854
▁financing	-11.6854
▁immigration	-11.6854
▁judiciary	-11.6854
▁statutory	-11.6854
▁supplies	-11.6854
▁temporarily	-11.6854
▁mediterranean	-11.6854
▁oriental	-11.6854
▁resurrect	-11.6854
▁transplant	-11.6854
▁cricket	-11.6854
▁irvine	-11.6854
▁miguel	-11.6854
▁fought	-11.6854
▁resonance	-11.6854
▁lopez	-11.6854
▁settling	-11.6854
▁sakura	-11.6854
▁enacted	-11.6854
▁corolla	-11.6854
▁monroe	-11.6854
▁presided	-11.6854
▁werner	-11.6854
▁robbins	-11.6855
stimulat	-11.6856
▁prosper	-11.6856
▁yeast	-11.6856
▁midnight	-11.6859
south	-11.686
lusive	-11.6863
croft	-11.6863
▁panama	-11.6871
▁avant	-11.6878
▁wrap	-11.6882
▁mamma	-11.6895
university	-11.6956
▁descend	-11.7019
▁___	-11.7026
▁bluetooth	-11.7026
▁guatemala	-11.7026
▁optimization	-11.7026
▁participating	-11.7026
▁polytechnique	-11.7026
▁reception	-11.7026
▁riccardo	-11.7026
▁symbian	-11.7026
▁tobacco	-11.7026
▁carmelite	-11.7026
▁silvio	-11.7026
lecommunications	-11.7026
▁peninsula	-11.7026
▁skipper	-11.7026
▁swift	-11.7026
▁leisure	-11.7026
▁revived	-11.7026
▁nixon	-11.7026
▁practis	-11.7026
▁cnrs	-11.7026
▁entities	-11.7026
▁cesena	-11.7026
▁queensland	-11.7027
▁shortened	-11.7027
▁filipino	-11.7028
▁shutout	-11.7029
▁gambia	-11.703
▁adjustable	-11.7031
steroid	-11.7037
injected	-11.7067
third	-11.7134
▁monograph	-11.7145
uncredited	-11.7201
▁adjacent	-11.7201
▁authentic	-11.7201
▁familiar	-11.7201
▁hokkaido	-11.7201
▁intermediate	-11.7201
▁internacional	-11.7201
▁rejoined	-11.7201
▁spectrum	-11.7201
▁superintendent	-11.7201
▁symposium	-11.7201
▁amherst	-11.7201
▁emanuel	-11.7201
▁pancake	-11.7201
▁reconstruction	-11.7201
▁hannover	-11.7201
▁xavier	-11.7201
▁skull	-11.7201
▁treason	-11.7201
▁enrico	-11.7201
▁tribute	-11.7201
▁decoration	-11.7201
▁namesake	-11.7201
▁pamela	-11.7202
▁dashboard	-11.7202
▁schalke	-11.7202
▁critique	-11.7202
▁atelier	-11.7202
▁barrister	-11.7202
▁citation	-11.7203
▁oncology	-11.7203
▁marquis	-11.7203
▁purple	-11.7203
▁announcement	-11.7204
▁caltech	-11.7205
▁friday	-11.7205
▁capability	-11.7206
▁correspondent	-11.7209
▁sachs	-11.722
▁reyn	-11.7234
reilly	-11.7243
1992	-11.727
▁auditor	-11.728
current	-11.7307
originally	-11.731
collect	-11.7324
▁(2002	-11.7345
▁continent	-11.7367
▁combustion	-11.738
▁creativity	-11.738
▁cyprus	-11.738
▁demonstration	-11.738
▁entrance	-11.738
▁guggenheim	-11.738
▁potassium	-11.738
▁saxophonist	-11.738
▁2013–14	-11.738
▁umpire	-11.738
▁verdict	-11.738
▁peasant	-11.738
▁gibson	-11.738
▁felix	-11.738
▁helmut	-11.738
▁precise	-11.738
▁hendrick	-11.738
▁laguna	-11.738
▁kuwait	-11.738
▁analyse	-11.738
▁supra	-11.738
▁edith	-11.7381
▁invalid	-11.7381
▁janeiro	-11.7381
▁depth	-11.7382
▁gamble	-11.7385
▁emerson	-11.7385
scribed	-11.7485
▁complement	-11.7491
fashion	-11.7493
1300	-11.7518
▁translate	-11.7528
terrorism	-11.7538
▁excess	-11.7561
▁fragrance	-11.7562
▁hernández	-11.7562
▁hiroshima	-11.7562
▁lancaster	-11.7562
▁libraries	-11.7562
▁mortgage	-11.7562
▁precursor	-11.7562
▁preliminary	-11.7562
▁rebecca	-11.7562
▁atmosphere	-11.7562
▁default	-11.7562
▁dickinson	-11.7562
▁dupont	-11.7562
▁handbuch	-11.7562
▁restoration	-11.7562
▁4–0	-11.7562
▁matrix	-11.7562
▁joshua	-11.7562
▁circa	-11.7562
▁burgess	-11.7562
resistant	-11.7562
▁floyd	-11.7562
▁ncaa	-11.7562
▁(1966)	-11.7562
▁sterling	-11.7562
▁width	-11.7562
▁promising	-11.7562
▁lfp	-11.7563
▁loyal	-11.7563
▁resided	-11.7563
▁wholesale	-11.7563
▁granada	-11.7563
▁lumpia	-11.7563
▁admire	-11.7564
▁bavaria	-11.7569
▁adhere	-11.7576
ozzi	-11.7582
emgrand	-11.7669
institut	-11.7677
brother	-11.7678
modern	-11.7678
▁adolescent	-11.7747
▁antwerp	-11.7747
▁bespoke	-11.7747
▁compartment	-11.7747
▁elisabeth	-11.7747
▁episcopal	-11.7747
▁lycée	-11.7747
▁narrative	-11.7747
▁nightclub	-11.7747
▁pulmonary	-11.7747
▁scandinavia	-11.7747
▁shakespeare	-11.7747
▁tübingen	-11.7747
▁unexpected	-11.7747
▁tubular	-11.7747
▁beaumont	-11.7747
▁exclude	-11.7747
▁shirley	-11.7747
▁deluxe	-11.7747
▁lindsay	-11.7747
▁madonna	-11.7747
▁zhang	-11.7747
▁homosexual	-11.7747
westphalia	-11.7747
▁brahms	-11.7747
▁singular	-11.7747
▁spicy	-11.7747
▁metaphysics	-11.7748
▁moped	-11.7749
▁tennis	-11.7749
▁maggie	-11.7749
▁fiddle	-11.7749
mberto	-11.775
▁decree	-11.7752
▁repris	-11.7758
chloro	-11.7766
1.0	-11.7804
naviga	-11.786
between	-11.7866
connect	-11.787
▁membrane	-11.7936
responsibilities	-11.7936
▁aggregate	-11.7936
▁condemn	-11.7936
▁consequently	-11.7936
▁deficiency	-11.7936
▁incorporating	-11.7936
▁kazakhstan	-11.7936
▁maternity	-11.7936
▁mysterious	-11.7936
▁vitória	-11.7936
▁wardrobe	-11.7936
▁kosovo	-11.7936
▁baldwin	-11.7936
▁goalscorer	-11.7936
▁mandarin	-11.7936
▁gmbh	-11.7936
▁sundance	-11.7936
▁bentley	-11.7936
▁(1963)	-11.7936
▁shelby	-11.7936
▁ulster	-11.7936
▁zambia	-11.7936
▁density	-11.7937
▁beetle	-11.7937
▁caesar	-11.7937
▁merely	-11.7937
▁sofia	-11.7937
▁hackney	-11.7937
▁discography	-11.7938
▁ascoli	-11.794
induced	-11.7966
songwriter	-11.8058
traditional	-11.8058
professional	-11.8058
street	-11.8059
▁complain	-11.808
▁surround	-11.8094
3.1	-11.8094
▁bankrupt	-11.8126
kyrgyz	-11.8128
▁autonomous	-11.8128
▁carburettor	-11.8128
▁circum	-11.8128
▁czechoslovakia	-11.8128
▁darmstadt	-11.8128
▁juvenile	-11.8128
▁magdeburg	-11.8128
▁merchandise	-11.8128
▁morocco	-11.8128
▁santiago	-11.8128
▁symphonie	-11.8128
▁understood	-11.8128
▁watanabe	-11.8128
▁biblical	-11.8128
▁consistency	-11.8128
▁criteria	-11.8128
▁davenport	-11.8128
▁hawkins	-11.8128
▁rebadg	-11.8128
▁syndicat	-11.8128
▁vacuum	-11.8128
▁aerospace	-11.8128
▁calabria	-11.8128
▁confection	-11.8128
▁diffusion	-11.8128
▁duisburg	-11.8128
▁grocery	-11.8128
▁spokesperson	-11.8128
▁ordinance	-11.8128
▁deciding	-11.8128
▁loyola	-11.8128
▁monument	-11.8128
▁sophia	-11.8128
▁infiniti	-11.8128
▁beirut	-11.8128
▁licence	-11.8128
▁carriage	-11.8128
▁reliable	-11.8128
▁alumni	-11.8128
▁defining	-11.8128
▁fingerprint	-11.8128
▁mannheim	-11.8129
▁boundaries	-11.8129
▁shannon	-11.8129
▁lionel	-11.813
▁countess	-11.813
▁regain	-11.8132
▁0–1	-11.8133
▁laurie	-11.815
▁consultati	-11.8151
▁£3	-11.8154
version	-11.8159
people	-11.8254
before	-11.8255
▁inspire	-11.829
▁tchaikovsky	-11.8324
gesellschaft	-11.8324
▁2005–06	-11.8324
▁assumption	-11.8324
▁humboldt	-11.8324
▁immunity	-11.8324
▁imprisonment	-11.8324
▁infringement	-11.8324
▁katherine	-11.8324
▁leverkusen	-11.8324
▁netflix	-11.8324
▁orientation	-11.8324
▁pseudonym	-11.8324
▁respiratory	-11.8324
▁takahashi	-11.8324
▁brewster	-11.8324
▁namibia	-11.8324
▁sylvia	-11.8324
▁griffin	-11.8324
▁condiment	-11.8324
▁disciple	-11.8324
▁discrete	-11.8324
▁piedmont	-11.8324
▁vatican	-11.8324
▁gravity	-11.8324
▁mystery	-11.8324
▁somerset	-11.8324
▁vicenza	-11.8324
▁fascinat	-11.8324
▁kinetic	-11.8324
▁sicily	-11.8324
▁subaru	-11.8324
▁linguist	-11.8324
▁arturo	-11.8324
▁warrior	-11.8324
▁978-1-	-11.8324
▁craftsman	-11.8325
▁chievo	-11.8325
▁(1931)	-11.8325
▁worst	-11.8325
thorpe	-11.8326
▁bernhard	-11.8326
▁oliveira	-11.8326
orchester	-11.8327
▁condense	-11.8327
▁newcomer	-11.8327
▁terminal	-11.8328
broadway	-11.8454
executive	-11.8454
daughter	-11.8486
▁apostolic	-11.8524
▁biographische	-11.8524
▁chemotherapy	-11.8524
▁commodore	-11.8524
▁concrete	-11.8524
▁constituent	-11.8524
▁elegant	-11.8524
▁embedded	-11.8524
▁extraordinary	-11.8524
▁grêmio	-11.8524
▁libertadores	-11.8524
▁martínez	-11.8524
▁sculpture	-11.8524
▁vincenzo	-11.8524
württemberg	-11.8524
▁cambodia	-11.8524
▁divinity	-11.8524
▁feminist	-11.8524
▁franchising	-11.8524
▁hepatitis	-11.8524
▁livorno	-11.8524
▁lorraine	-11.8524
▁radiator	-11.8524
▁semester	-11.8524
apartheid	-11.8524
▁neurology	-11.8524
▁portsmouth	-11.8524
▁welcome	-11.8524
▁tulsa	-11.8524
▁tucson	-11.8524
▁parkinson	-11.8524
▁testament	-11.8524
▁weaver	-11.8524
symmetric	-11.8524
▁thread	-11.8524
▁ninja	-11.8524
▁capitol	-11.8524
▁confined	-11.8525
▁retreat	-11.8525
▁belonged	-11.8525
▁doyle	-11.8525
▁(1956)	-11.8525
▁brink	-11.8526
▁carpet	-11.8526
▁pension	-11.8528
▁weld	-11.8561
▁$8	-11.8574
▁imitat	-11.8592
mashed	-11.8632
stream	-11.8658
“	-11.8658
npb	-11.8661
▁siege	-11.8681
▁propose	-11.8697
frédéric	-11.8728
▁appetizer	-11.8728
▁availability	-11.8728
▁confidence	-11.8728
▁cruzeiro	-11.8728
▁córdoba	-11.8728
▁earthquake	-11.8728
▁explosion	-11.8728
▁hildebrand	-11.8728
▁jewellery	-11.8728
▁karlsruhe	-11.8728
▁lafayette	-11.8728
▁pasadena	-11.8728
▁perceived	-11.8728
▁prostitute	-11.8728
▁scramble	-11.8728
▁sculptor	-11.8728
▁telescope	-11.8728
▁inception	-11.8728
▁ottawa	-11.8728
▁playwright	-11.8728
▁felipe	-11.8728
▁neurological	-11.8728
▁chambre	-11.8728
▁guzzi	-11.8728
▁ribbon	-11.8728
synchron	-11.8728
▁elastic	-11.8728
▁cardiology	-11.8728
▁cottage	-11.8728
▁streak	-11.8728
▁mickey	-11.8728
▁hispanic	-11.8728
▁wendy	-11.8728
▁cristian	-11.8728
▁module	-11.8728
▁cowboy	-11.8729
▁insanity	-11.8729
▁alpine	-11.8729
▁lecce	-11.8729
▁parsley	-11.8729
▁conceptual	-11.8729
▁pledge	-11.873
▁spike	-11.8734
▁stamp	-11.8734
▁omni	-11.8736
▁crypt	-11.881
journal	-11.8867
previously	-11.8867
volume	-11.8867
degree	-11.8867
http	-11.8867
article	-11.8894
▁destroy	-11.8898
▁affirm	-11.8899
▁stabil	-11.8934
ч	-11.8936
jürgen	-11.8936
▁accelerator	-11.8936
▁bielefeld	-11.8936
▁disabilities	-11.8936
▁düsseldorf	-11.8936
▁ecclesiastical	-11.8936
▁jacqueline	-11.8936
▁lópez	-11.8936
▁matriculat	-11.8936
▁muhammad	-11.8936
▁necessarily	-11.8936
▁persecution	-11.8936
▁preparatory	-11.8936
▁skeptic	-11.8936
▁sophomore	-11.8936
▁soprano	-11.8936
▁struggling	-11.8936
▁surveillance	-11.8936
▁2014–15	-11.8936
▁capacities	-11.8936
▁fletcher	-11.8936
▁desktop	-11.8936
▁ricardo	-11.8936
▁venezia	-11.8936
▁arlington	-11.8936
▁contrary	-11.8936
▁nanjing	-11.8937
▁powertrain	-11.8937
▁innovator	-11.8937
▁obsess	-11.8937
▁davies	-11.8937
▁cantata	-11.8937
▁forensic	-11.8937
▁ebay	-11.8937
▁(1916)	-11.8937
▁(1962)	-11.8937
▁oboe	-11.8937
▁anaheim	-11.8937
▁aurora	-11.894
1-1.	-11.8949
▁lithuania	-11.8959
assuming	-11.898
▁anonymous	-11.8986
▁$9	-11.9008
complete	-11.908
▁recommend	-11.9092
▁retire	-11.9113
▁declare	-11.9115
▁accolades	-11.9149
▁domenico	-11.9149
▁epidemic	-11.9149
▁glucose	-11.9149
▁pescara	-11.9149
▁pontifical	-11.9149
▁pseudo	-11.9149
▁zhejiang	-11.9149
▁decorative	-11.9149
▁ministries	-11.9149
▁primavera	-11.9149
▁sociologist	-11.9149
▁huawei	-11.9149
▁memories	-11.9149
▁mitglied	-11.9149
▁unchanged	-11.9149
▁wyoming	-11.9149
▁wiesmann	-11.9149
▁scatter	-11.9149
▁smoking	-11.9149
▁dubai	-11.9149
▁warehouse	-11.9149
▁compiling	-11.9149
▁remake	-11.9149
▁martial	-11.915
▁madeleine	-11.915
▁(1939)	-11.915
▁catalan	-11.9151
▁worse	-11.9159
▁relocat	-11.9186
oogie	-11.9218
▁rhein	-11.9243
▁dispos	-11.9256
3.0	-11.9284
effective	-11.9297
william	-11.9297
security	-11.9297
leader	-11.9298
▁enabl	-11.9307
▁announce	-11.9329
▁breastfeeding	-11.9367
▁certiorari	-11.9367
▁chestnut	-11.9367
▁château	-11.9367
▁convenience	-11.9367
▁flemish	-11.9367
▁implications	-11.9367
▁ludolf	-11.9367
▁paranaense	-11.9367
▁removable	-11.9367
▁reproductive	-11.9367
▁testimony	-11.9367
▁unlawful	-11.9367
▁compliance	-11.9367
▁hydraulic	-11.9367
▁pérez	-11.9367
▁feather	-11.9367
▁thierry	-11.9367
▁hiatus	-11.9367
▁elbow	-11.9367
▁lobby	-11.9367
▁ambition	-11.9367
▁pablo	-11.9367
▁choreograph	-11.9367
▁enemy	-11.9367
▁supercharge	-11.9367
▁mohamed	-11.9367
▁dudley	-11.9367
▁versace	-11.9367
▁lisbon	-11.9367
sorption	-11.9367
▁prophet	-11.9367
▁(1964)	-11.9367
▁bianca	-11.9368
▁4–1	-11.9368
▁shelter	-11.937
▁guinea	-11.937
3-11-	-11.9397
agged	-11.9517
especially	-11.9519
jewish	-11.9519
famous	-11.9519
social	-11.9521
pér	-11.9551
▁harpsichord	-11.9589
▁custody	-11.9589
▁futebol	-11.9589
▁hélène	-11.9589
▁inheritance	-11.9589
▁integrity	-11.9589
▁legitimate	-11.9589
▁middlesbrough	-11.9589
▁motivation	-11.9589
▁outsourcing	-11.9589
▁oxygen	-11.9589
▁palestine	-11.9589
▁rectangular	-11.9589
▁rotterdam	-11.9589
▁salvatore	-11.9589
▁schwartz	-11.9589
▁shredded	-11.9589
▁spaghetti	-11.9589
▁———	-11.9589
▁baptism	-11.9589
▁deborah	-11.9589
▁gothenburg	-11.9589
▁scratch	-11.9589
▁canterbury	-11.9589
▁gambling	-11.9589
▁incarnation	-11.9589
▁petroleum	-11.9589
brück	-11.9589
▁xerox	-11.9589
▁conquest	-11.9589
▁artisan	-11.9589
▁(2020)	-11.9589
▁revelation	-11.9589
▁implied	-11.9589
▁harlem	-11.9589
▁feldman	-11.9589
▁robotics	-11.9589
▁reagan	-11.9589
▁bridal	-11.959
▁folding	-11.959
▁minced	-11.959
arrizo	-11.9592
▁procur	-11.9595
baptiste	-11.9626
▁scrap	-11.9627
correct	-11.9746
structure	-11.9746
database	-11.9746
despite	-11.9747
central	-11.9747
record	-11.9747
▁philippine	-11.9759
▁frederic	-11.9807
18451	-11.9816
▁adelaide	-11.9816
▁archdeacon	-11.9816
▁autobiography	-11.9816
▁candidacy	-11.9816
▁contemporaries	-11.9816
▁corinthians	-11.9816
▁econometric	-11.9816
▁embroidery	-11.9816
▁holocaust	-11.9816
▁jurisprudence	-11.9816
▁júnior	-11.9816
▁mönchengladbach	-11.9816
▁münster	-11.9816
▁nonetheless	-11.9816
▁penalties	-11.9816
▁pininfarina	-11.9816
▁platinum	-11.9816
▁premises	-11.9816
▁retrieval	-11.9816
▁sanskrit	-11.9816
▁swimming	-11.9816
▁unemployment	-11.9816
′	-12.1037
ã	-12.3347
‘	-12.6793
@	-13.1445
§	-13.3957
ć	-13.4835
ï	-13.8813
å	-13.8814
⁄	-13.8815
€	-13.8816
