<unk>	0
<s>	0
</s>	0
▁de	-3.12932
s	-3.28107
'	-3.43055
,	-3.43637
.	-3.47583
▁la	-3.73524
▁e	-3.9264
▁d	-4.1606
▁lo	-4.16251
▁l	-4.16912
▁	-4.21655
▁a	-4.39616
▁en	-4.4583
▁per	-4.74619
t	-4.93738
▁que	-4.95471
a	-4.9718
▁es	-5.03081
▁un	-5.09141
▁(	-5.14496
▁lei	-5.19072
▁una	-5.21172
▁"	-5.23856
▁dins	-5.2693
▁son	-5.30698
▁del	-5.40525
▁dau	-5.45811
▁#	-5.45836
#	-5.45957
▁se	-5.54326
)	-5.54493
"	-5.5822
r	-5.58364
-	-5.65043
n	-5.8286
▁dei	-5.86512
▁qu	-5.87549
▁mai	-5.911
▁foguèt	-5.92279
o	-5.9437
i	-5.98383
e	-5.98701
▁las	-5.99034
▁au	-6.00372
▁s	-6.03649
es	-6.13778
▁amb	-6.14936
▁sa	-6.16742
▁los	-6.18217
▁o	-6.20104
▁coma	-6.20171
un	-6.21691
▁al	-6.24481
c	-6.28685
as	-6.34768
▁pas	-6.37645
▁entre	-6.3789
en	-6.38683
▁leis	-6.3991
’	-6.452
▁tanben	-6.47809
).	-6.51633
",	-6.52619
;	-6.53045
da	-6.53176
▁i	-6.53977
▁sus	-6.56789
ar	-6.58456
an	-6.59719
▁sègle	-6.6084
▁pus	-6.64867
l	-6.68986
▁region	-6.69357
u	-6.69583
:	-6.7004
una	-6.73802
▁fòrça	-6.75749
▁èra	-6.7812
▁pasmens	-6.78927
▁país	-6.79361
),	-6.79972
▁•	-6.84014
d	-6.8474
▁deis	-6.85855
▁nòrd	-6.89007
▁:	-6.89008
ment	-6.89864
at	-6.90469
▁sud	-6.92333
la	-6.94386
èt	-6.95121
▁après	-6.96918
m	-7.01645
▁francés	-7.01964
▁nom	-7.06159
▁aquò	-7.06703
us	-7.08641
h	-7.09057
▁an	-7.09395
y	-7.09678
in	-7.10048
▁guèrra	-7.12641
on	-7.13986
al	-7.14218
&	-7.14592
▁ò	-7.15852
de	-7.16589
au	-7.17395
ei	-7.18021
▁vila	-7.19665
▁fin	-7.19991
ron	-7.20744
▁re	-7.21996
ta	-7.24501
g	-7.2478
va	-7.24838
▁cap	-7.25287
▁part	-7.26719
▁foguèron	-7.27577
▁aquela	-7.2794
is	-7.28154
p	-7.29273
▁comuna	-7.30299
èron	-7.31385
ament	-7.31922
▁deu	-7.31966
▁li	-7.32436
▁("	-7.33528
▁-	-7.35015
▁«	-7.35124
▁pauc	-7.35657
lt	-7.35671
▁periòde	-7.36015
▁durant	-7.3749
ada	-7.38977
br	-7.39145
▁estats	-7.40039
▁ans	-7.40505
▁m	-7.40858
]]	-7.41303
▁departament	-7.41863
nt	-7.42241
lo	-7.42493
estat	-7.42955
▁lenga	-7.4317
▁fins	-7.43237
▁dos	-7.43344
re	-7.43385
na	-7.43871
gt	-7.44129
▁sei	-7.44307
it	-7.44357
▁populacion	-7.44468
▁mar	-7.44594
▁situada	-7.45838
ia	-7.4629
▁mas	-7.47331
ca	-7.48472
er	-7.48953
▁qui	-7.49915
▁partir	-7.50107
▁n	-7.50486
▁[[	-7.51028
".	-7.5159
▁ne	-7.52158
▁car	-7.52458
▁partida	-7.52844
ir	-7.52864
▁frança	-7.53083
▁causa	-7.53668
▁ansin	-7.53923
")	-7.54147
b	-7.55548
▁ambé	-7.55883
▁le	-7.56356
▁important	-7.56572
▁│	-7.56624
▁ai	-7.5703
èst	-7.57076
▁con	-7.57433
▁poder	-7.58448
le	-7.60136
▁»	-7.6025
ts	-7.60638
cion	-7.61141
▁politica	-7.61266
k	-7.61831
z	-7.63694
ma	-7.65245
▁ua	-7.66053
▁venguèt	-7.66788
ra	-7.669
▁importanta	-7.67273
▁sant	-7.68024
▁regions	-7.68458
or	-7.68619
▁govèrn	-7.69092
èra	-7.69344
▁capitala	-7.70438
te	-7.70826
to	-7.71134
▁in	-7.71455
è	-7.71749
▁aqueu	-7.71764
▁segon	-7.74077
▁còntra	-7.74301
▁màger	-7.75
ga	-7.75126
ri	-7.75439
ci	-7.75965
▁fa	-7.76068
di	-7.78334
▁lengas	-7.78799
ò	-7.79482
▁tres	-7.7959
das	-7.7977
▁annadas	-7.80129
que	-7.8025
f	-7.8043
▁1	-7.80552
empèri	-7.80641
▁aquelei	-7.80682
▁donc	-7.80769
èr	-7.8123
▁15	-7.81494
v	-7.81556
ch	-7.81794
oèst	-7.81986
▁territòri	-7.8318
és	-7.83925
et	-7.84905
x	-7.85434
origina	-7.85812
▁estat	-7.87189
▁èran	-7.87335
▁com	-7.87728
▁puei	-7.87911
▁grop	-7.88496
vi	-7.88681
▁pòt	-7.89385
▁abitants	-7.89847
ro	-7.89931
ic	-7.90129
▁17	-7.9021
guèron	-7.90814
▁cas	-7.91443
é	-7.92029
▁po	-7.92175
ent	-7.92376
ís	-7.92421
▁16	-7.92696
▁vèrs	-7.9277
▁sistèma	-7.92797
isme	-7.93357
▁sos	-7.93482
▁exemple	-7.93493
▁tot	-7.93651
▁corrent	-7.93801
▁plan	-7.94096
▁çò	-7.94628
▁francesa	-7.94687
▁non	-7.95642
▁segonda	-7.96066
▁doas	-7.9639
▁dens	-7.97213
ac	-7.97333
▁desvolopament	-7.97751
ul	-7.98056
ne	-7.98235
▁president	-7.99084
ats	-7.99454
▁premier	-8.00188
▁permetèt	-8.00476
um	-8.00953
acion	-8.0097
ala	-8.01064
▁importantas	-8.01521
▁co	-8.01584
▁nombre	-8.01904
co	-8.0351
▁pel	-8.03758
▁pro	-8.0391
▁gràcias	-8.03924
▁12	-8.03999
ant	-8.04136
▁forma	-8.05011
▁ciutat	-8.05162
▁temps	-8.05394
el	-8.05999
▁b	-8.06493
▁units	-8.07433
▁republica	-8.0744
▁començament	-8.07472
ut	-8.07524
ba	-8.07821
▁geografia	-8.08025
▁istòria	-8.08435
▁mòrt	-8.08441
▁2	-8.08512
▁centre	-8.08726
me	-8.08906
▁formacion	-8.0893
à	-8.08944
▁si	-8.09081
aiga	-8.0937
▁3	-8.09892
▁km	-8.09994
illa	-8.1
▁permet	-8.10041
▁entraïnèt	-8.10409
▁occitan	-8.10423
▁generalament	-8.10487
▁vida	-8.1091
itat	-8.11227
▁dempuei	-8.11924
ter	-8.12053
▁reiaume	-8.12073
▁ben	-8.12114
do	-8.12304
▁familha	-8.12786
▁vi	-8.12918
j	-8.13194
il	-8.13215
ur	-8.13232
▁quand	-8.13873
li	-8.13918
▁èsser	-8.1413
-19	-8.14359
▁sovent	-8.14585
▁g	-8.14671
▁(19	-8.15722
▁dab	-8.15911
▁certanei	-8.16291
adas	-8.16871
▁&	-8.17064
▁granda	-8.17228
▁còp	-8.17313
▁grand	-8.17671
/	-8.17795
ti	-8.18016
mo	-8.18029
▁tre	-8.19325
w	-8.19407
ista	-8.19458
▁siá	-8.19778
ara	-8.19865
▁sen	-8.1998
ha	-8.20197
id	-8.20655
▁ja	-8.20908
▁premiera	-8.21032
▁mens	-8.21347
▁enfin	-8.21572
▁par	-8.21707
per	-8.22059
▁era	-8.22556
▁mes	-8.22746
ge	-8.23116
ire	-8.2324
▁aquel	-8.23416
▁14	-8.23423
▁val	-8.23454
▁encara	-8.23659
▁18	-8.23758
▁ho	-8.23847
ce	-8.23868
▁p	-8.2409
▁di	-8.24101
▁milions	-8.24374
í	-8.24707
▁c	-8.24871
▁(18	-8.2506
ton	-8.25138
▁avc	-8.252
▁especialament	-8.25371
ica	-8.25561
pa	-8.25695
2	-8.27117
▁pòdon	-8.27319
▁rapidament	-8.27339
▁ais	-8.28134
▁ont	-8.28273
▁pre	-8.28488
▁lor	-8.28684
no	-8.28773
▁4	-8.29
im	-8.29029
ina	-8.29148
▁mau	-8.29175
▁13	-8.29542
▁man	-8.29646
▁mei	-8.30175
van	-8.30214
son	-8.30325
▁particular	-8.30732
ari	-8.30749
ian	-8.30762
▁xix	-8.30787
▁cultura	-8.31053
mar	-8.31085
▁du	-8.31331
▁mejana	-8.31405
▁primièr	-8.31558
▁va	-8.31695
▁bo	-8.31781
▁pendent	-8.31832
ja	-8.31921
▁divèrsei	-8.31958
▁10	-8.32081
▁dempuèi	-8.32186
▁11	-8.32292
▁eth	-8.32643
▁roman	-8.32799
▁movement	-8.32819
ida	-8.33051
3	-8.3317
▁v	-8.33424
▁mondiala	-8.33841
qui	-8.33846
▁7	-8.3454
ni	-8.34763
▁produccion	-8.35724
▁ròtle	-8.35939
▁plaça	-8.35961
▁sens	-8.35997
▁latin	-8.36144
▁[	-8.36146
▁sota	-8.36649
▁partit	-8.37118
á	-8.37221
tic	-8.37324
man	-8.37359
▁pr	-8.37506
▁plusors	-8.3781
▁aquesta	-8.38549
ó	-8.38776
▁r	-8.39202
th	-8.39807
po	-8.3993
▁5	-8.40106
qu	-8.40729
▁situat	-8.40814
▁mont	-8.40903
fa	-8.41251
▁importants	-8.4127
▁capitèt	-8.41521
▁k	-8.41785
▁calais	-8.41856
▁mond	-8.42039
▁ven	-8.42209
▁6	-8.42591
▁còps	-8.42823
armada	-8.42879
am	-8.4294
▁be	-8.43018
▁trabalh	-8.43291
1	-8.43462
car	-8.44035
▁aviá	-8.44616
america	-8.44776
tor	-8.44815
▁les	-8.44899
ec	-8.4516
em	-8.45523
ana	-8.45755
▁novèla	-8.46274
▁ii	-8.46619
▁rèi	-8.46644
▁comunas	-8.46865
efèct	-8.47256
be	-8.47779
go	-8.4803
▁f	-8.48304
ve	-8.48614
▁sent	-8.48959
▁ra	-8.48985
▁musica	-8.49102
▁ma	-8.49211
mi	-8.49399
gi	-8.49471
pi	-8.49629
▁dich	-8.50193
▁;	-8.50259
aur	-8.5037
▁glèisa	-8.50451
▁├─	-8.50525
os	-8.50531
con	-8.5079
▁xx	-8.50807
▁situacion	-8.50849
▁cada	-8.50912
▁occitana	-8.51024
▁ro	-8.51104
▁tèrra	-8.51124
bi	-8.51222
independéncia	-8.51517
▁biais	-8.51545
ion	-8.51564
aquela	-8.51581
▁deus	-8.51583
▁aguèt	-8.51895
guèt	-8.51919
se	-8.51982
▁cal	-8.52591
▁dinastia	-8.5269
▁8	-8.52984
▁t	-8.53015
ig	-8.53364
▁societat	-8.53451
ard	-8.53464
les	-8.53468
▁principalament	-8.53496
ós	-8.53556
▁ni	-8.53589
aus	-8.53702
▁clima	-8.53801
entorn	-8.54237
union	-8.54411
lu	-8.5504
...)	-8.55079
ex	-8.55141
▁9	-8.55204
var	-8.55831
cha	-8.55846
▁pels	-8.55848
▁à	-8.56492
▁quatre	-8.56648
▁generau	-8.56741
ora	-8.568
ol	-8.5687
▁pi	-8.57257
▁ex	-8.57455
|	-8.57655
▁seis	-8.57734
atge	-8.57852
▁segond	-8.58033
▁ba	-8.58186
▁basa	-8.58458
...	-8.58509
▁cha	-8.58876
▁aqueste	-8.59037
▁ce	-8.59111
ava	-8.59431
ag	-8.59643
▁totjorn	-8.59797
▁luòc	-8.6007
aire	-8.60083
▁far	-8.60303
tz	-8.60451
▁literatura	-8.60736
èu	-8.60987
esa	-8.61214
op	-8.61628
▁pòu	-8.6174
▁mitat	-8.61822
par	-8.61871
ita	-8.62203
las	-8.6245
▁conegut	-8.6258
▁espècias	-8.62773
▁tra	-8.62924
ad	-8.63116
ing	-8.63178
▁economica	-8.63182
▁—	-8.63262
nd	-8.63332
èl	-8.63493
▁crisi	-8.63561
▁preséncia	-8.63955
▁sul	-8.64213
▁contra	-8.64398
euròpa	-8.64629
▁abans	-8.64777
ka	-8.64782
autrei	-8.65027
istas	-8.65262
▁ga	-8.65365
▁relativament	-8.65443
iá	-8.65748
▁soa	-8.66211
ç	-8.66856
▁z	-8.67098
▁~	-8.6711
▁comencèt	-8.67209
▁canton	-8.67577
▁contraròtle	-8.67777
si	-8.67955
▁puèi	-8.67984
economia	-8.68025
▁rei	-8.68099
▁vilas	-8.68131
ocean	-8.68632
▁tolosa	-8.68865
bla	-8.68923
edat	-8.68956
▁ar	-8.69031
▁autrei	-8.69229
aparicion	-8.69235
▁h	-8.69338
istòria	-8.69764
▁tard	-8.69856
▁bi	-8.69918
▁av	-8.69993
▁te	-8.70029
com	-8.70044
tar	-8.70177
don	-8.70383
▁regime	-8.70575
▁mo	-8.70809
▁me	-8.71037
▁rèsta	-8.71406
▁etc	-8.7157
che	-8.71622
-18	-8.71646
▁demorèt	-8.71806
ver	-8.71904
om	-8.71927
ls	-8.72018
▁so	-8.72122
▁deguèt	-8.72277
sse	-8.72297
òme	-8.7242
▁província	-8.72426
▁└─	-8.72465
▁euròpa	-8.72617
▁març	-8.73171
tu	-8.7332
mes	-8.73345
▁onte	-8.73441
▁conquista	-8.73548
▁principalas	-8.73911
▁junh	-8.73921
tra	-8.73966
▁ha	-8.74068
▁solament	-8.74183
efiech	-8.7425
▁mi	-8.74373
▁presenta	-8.74472
val	-8.74684
▁bas	-8.7486
▁j	-8.74963
▁succès	-8.74986
art	-8.75165
▁pa	-8.75193
▁lòng	-8.75299
▁pòble	-8.75527
▁maugrat	-8.75534
influéncia	-8.75734
ie	-8.75829
▁joan	-8.75909
▁camp	-8.75926
▁vesinas	-8.75935
est	-8.75974
osa	-8.76104
ua	-8.76501
▁sieu	-8.76737
▁principala	-8.77181
▁politic	-8.77257
▁procès	-8.78142
▁temperatura	-8.78241
ièr	-8.78345
pas	-8.7852
bo	-8.78695
▁or	-8.78705
aqueu	-8.78763
▁relacions	-8.78797
io	-8.78882
ud	-8.79104
▁fe	-8.79145
africa	-8.7922
ine	-8.79263
tes	-8.79321
▁constitucion	-8.79451
cas	-8.79469
▁economia	-8.79757
izacion	-8.79861
▁fòrças	-8.7995
▁china	-8.80087
oc	-8.80189
tica	-8.80261
der	-8.80318
ça	-8.80358
occitan	-8.80464
▁ten	-8.80581
▁comèrci	-8.8061
▁illas	-8.80614
òr	-8.80717
▁revolucion	-8.8083
▁cre	-8.80924
▁personas	-8.81063
▁drech	-8.81069
▁probablament	-8.81232
ologia	-8.81235
ed	-8.81272
ry	-8.81295
▁avans	-8.81328
▁gas	-8.8143
èsser	-8.81578
fi	-8.81579
▁fo	-8.81672
▁sol	-8.81807
▁tota	-8.81905
mon	-8.82197
▁ju	-8.82199
▁prenguè	-8.82319
▁principaus	-8.82352
▁nauta	-8.82555
▁faguè	-8.82831
▁religion	-8.82836
▁na	-8.82856
▁creacion	-8.82987
aquelei	-8.83126
▁sal	-8.83676
▁als	-8.83702
▁victòria	-8.83745
▁cort	-8.83867
0	-8.84028
▁superfícia	-8.84544
▁can	-8.84709
▁fi	-8.84904
pe	-8.85258
▁totei	-8.85747
▁el	-8.85877
éncia	-8.85951
▁on	-8.86041
▁oficiala	-8.86155
alas	-8.86191
▁riu	-8.86241
▁cu	-8.86295
ab	-8.86416
issa	-8.86848
du	-8.86856
▁qualques	-8.87008
▁fach	-8.8702
...).	-8.87189
▁formula	-8.87393
▁continent	-8.87789
▁cor	-8.88039
▁ca	-8.88071
▁alora	-8.88087
▁lucha	-8.88208
▁veire	-8.88217
eta	-8.88316
▁nivèu	-8.88639
▁revènge	-8.88639
mont	-8.88739
èn	-8.88857
▁conflicte	-8.88948
nom	-8.89008
▁ver	-8.89276
organizacion	-8.89301
tge	-8.89373
▁rus	-8.89386
▁europèa	-8.8983
▁direccion	-8.89909
gen	-8.9004
▁anglés	-8.90173
▁aprèp	-8.90417
▁jc	-8.9055
existéncia	-8.9057
ier	-8.90678
▁venir	-8.90692
▁meteis	-8.90718
▁conoguè	-8.9087
▁populacions	-8.90922
min	-8.91237
▁tri	-8.91261
▁unit	-8.9133
▁païses	-8.91421
▁prèmi	-8.91608
▁nòva	-8.91611
òl	-8.91656
tas	-8.91719
mor	-8.91803
ten	-8.91987
00	-8.92184
▁to	-8.92185
▁mot	-8.92321
tre	-8.92373
òbra	-8.92427
4	-8.92781
▁aperaquí	-8.92798
▁mor	-8.92888
▁vau	-8.9291
▁iii	-8.92944
ena	-8.93678
za	-8.9368
mer	-8.9377
▁formar	-8.93827
▁classificacion	-8.94005
▁sembla	-8.94033
▁brasil	-8.94411
▁su	-8.94455
ric	-8.94945
aceae	-8.94973
ius	-8.95065
▁parís	-8.95193
òrdre	-8.95235
▁mejan	-8.95388
▁economic	-8.95555
▁dire	-8.95564
▁tornarmai	-8.95566
▁autre	-8.95853
▁"-	-8.95917
▁fisica	-8.95934
▁tractat	-8.95965
▁xviii	-8.96148
lh	-8.96182
▁ministre	-8.96186
▁pòbles	-8.96249
▁centrala	-8.96275
▁territòris	-8.96292
ck	-8.96298
lin	-8.96336
can	-8.96356
▁gran	-8.9641
▁ta	-8.96458
▁anciana	-8.96665
isson	-8.96839
▁setembre	-8.96913
▁militara	-8.96971
▁cinc	-8.96985
ven	-8.97141
▁paire	-8.97248
▁movements	-8.97297
▁influéncia	-8.97351
ho	-8.97738
▁militar	-8.9781
▁declin	-8.97981
uda	-8.98282
▁|	-8.98377
ph	-8.9839
▁san	-8.98562
▁primièra	-8.98586
ré	-8.986
▁ancian	-8.98978
▁julhet	-8.98986
men	-8.98996
▁deth	-8.99014
8	-8.99034
ï	-8.99091
ali	-8.99104
20	-8.9926
▁y	-8.99261
▁sensa	-8.99359
▁nacionala	-8.99444
▁men	-8.99655
▁foncion	-8.99959
▁tu	-9.00186
▁est	-9.00307
▁tròba	-9.00325
sta	-9.0035
▁res	-9.00377
▁òbra	-9.00631
▁decembre	-9.00653
era	-9.0067
▁poissança	-9.00718
▁sovietica	-9.00795
▁vengut	-9.00863
▁novembre	-9.01085
annada	-9.01308
▁russia	-9.01327
▁tipe	-9.01415
▁posicion	-9.01426
ng	-9.01545
ics	-9.01553
▁tal	-9.0161
▁general	-9.0169
del	-9.01819
▁mentre	-9.01859
▁membres	-9.0199
ix	-9.02054
▁the	-9.02224
▁superficia	-9.02276
▁gra	-9.023
gar	-9.02365
occitània	-9.025
▁fu	-9.0251
fe	-9.02586
bre	-9.02662
▁comunautat	-9.02711
▁civila	-9.02753
▁totala	-9.0282
des	-9.02867
▁gentilici	-9.02997
▁peninsula	-9.02997
fin	-9.03004
▁quasi	-9.03031
iguèt	-9.03035
ko	-9.03045
▁ab	-9.0309
ze	-9.03126
▁fan	-9.03155
▁còsta	-9.03174
amor	-9.03181
▁20	-9.03197
▁jo	-9.03608
▁for	-9.03748
ot	-9.03758
▁ri	-9.03777
▁quauquei	-9.0398
▁».	-9.04033
port	-9.04173
autres	-9.04195
▁massa	-9.04362
19	-9.04409
▁sostèn	-9.04455
▁situa	-9.04518
▁grèc	-9.0466
▁aquitània	-9.04812
dor	-9.04835
50	-9.05197
▁tèrme	-9.05232
iv	-9.05397
▁coneguda	-9.05478
▁hu	-9.05519
▁existís	-9.05727
tan	-9.05825
▁compren	-9.05878
▁evolucion	-9.05926
▁mon	-9.06137
hi	-9.06178
enta	-9.06259
▁domeni	-9.06332
▁pe	-9.06493
▁roma	-9.06504
▁subretot	-9.06506
estudi	-9.06746
▁cors	-9.06801
sion	-9.06818
▁mal	-9.06842
▁totes	-9.06908
cl	-9.06948
▁entà	-9.06962
▁franc	-9.07061
land	-9.07094
ap	-9.07233
acabèt	-9.07487
▁no	-9.0758
▁definicion	-9.07943
▁jos	-9.08015
▁lista	-9.08053
▁gal	-9.08081
▁occidentala	-9.08265
cor	-9.08289
ob	-9.08328
▁uèi	-9.08741
▁sègles	-9.08852
avan	-9.08926
tiu	-9.08943
èc	-9.09093
▁iv	-9.0913
▁aver	-9.09175
chi	-9.09229
▁tensions	-9.094
▁ara	-9.09403
▁catalan	-9.09645
eg	-9.09696
ang	-9.09916
12	-9.10049
energia	-9.10087
▁diferents	-9.10471
▁vilatge	-9.10565
10	-9.10571
▁cau	-9.10683
espanha	-9.10881
ans	-9.10984
▁eleccions	-9.10994
▁mediterranèa	-9.11032
▁desfacha	-9.11178
▁venguèron	-9.11368
▁bar	-9.1145
▁tant	-9.1201
30	-9.1203
▁guèrras	-9.12034
idae	-9.12121
islam	-9.12176
▁sas	-9.1221
▁parallèl	-9.12347
▁element	-9.12438
▁utilizat	-9.12447
agricultura	-9.12479
]	-9.12491
▁he	-9.12776
▁sector	-9.12835
▁disparicion	-9.12879
▁xvi	-9.1293
▁elements	-9.12952
▁min	-9.13254
enc	-9.13311
▁practica	-9.13339
▁considerat	-9.13385
▁gu	-9.13411
ist	-9.13455
▁tropas	-9.13479
▁elegit	-9.13497
tri	-9.13626
tat	-9.1386
▁batalha	-9.14062
▁pu	-9.14085
▁cent	-9.14311
aquesta	-9.14389
ura	-9.14503
▁orientala	-9.1451
▁ban	-9.14565
arribada	-9.14589
°	-9.14658
▁fòrma	-9.14659
▁planeta	-9.14667
▁genièr	-9.1477
tiva	-9.14863
gas	-9.14871
cions	-9.1488
ès	-9.15104
òut	-9.15246
▁vejatz	-9.15247
nha	-9.15368
tion	-9.15415
fon	-9.15456
▁ka	-9.15609
▁pau	-9.15675
▁reialme	-9.15685
▁dificultats	-9.15799
ques	-9.15821
▁italian	-9.16094
amp	-9.16095
▁provença	-9.16139
fer	-9.16303
▁fòra	-9.16428
▁sonque	-9.16468
uc	-9.16478
▁uei	-9.16531
▁ren	-9.16542
jo	-9.16562
▁van	-9.16632
▁administrativa	-9.16682
eu	-9.16686
▁auta	-9.17046
▁finalament	-9.17075
▁òbras	-9.17121
▁dicha	-9.17142
▁toponimia	-9.17244
▁recebèt	-9.17255
▁american	-9.17381
▁modèrna	-9.17529
▁autres	-9.17773
èran	-9.17957
▁alemand	-9.17958
mat	-9.18015
gu	-9.18126
▁grops	-9.18156
òs	-9.18376
▁col	-9.18381
cal	-9.18404
ins	-9.18409
▁construccion	-9.18411
").	-9.18476
ux	-9.18603
▁mès	-9.18819
▁costat	-9.19064
industria	-9.19107
▁(17	-9.19187
▁x	-9.19414
antiquitat	-9.19483
▁teoria	-9.19516
ke	-9.196
▁tèrras	-9.1965
▁ancianas	-9.19819
iana	-9.1982
▁gaire	-9.19869
ble	-9.19888
ai	-9.19979
▁polonha	-9.20056
▁pont	-9.20098
▁britanics	-9.20109
ou	-9.20177
▁londres	-9.20341
ban	-9.20348
ú	-9.20362
▁novèlas	-9.20387
▁data	-9.20548
▁il	-9.20597
▁famós	-9.20635
▁format	-9.20637
ren	-9.2068
aris	-9.20781
▁dera	-9.20975
amb	-9.21029
▁creat	-9.2106
he	-9.21104
▁ges	-9.21115
rà	-9.21155
▁colonia	-9.21171
nas	-9.21186
▁estada	-9.21227
▁xvii	-9.21242
▁major	-9.21345
universitat	-9.21493
bol	-9.21494
har	-9.2181
▁diferentas	-9.21838
▁riba	-9.21874
bu	-9.21924
ber	-9.22074
▁descubèrta	-9.2214
▁bu	-9.22173
▁sub	-9.22331
▁vol	-9.22357
▁pes	-9.22437
autor	-9.22495
▁modèl	-9.22527
ença	-9.2258
tin	-9.22593
▁vin	-9.22671
▁25	-9.22733
▁30	-9.22762
ria	-9.22836
ya	-9.22859
▁províncias	-9.22865
▁public	-9.22896
▁go	-9.22988
▁wa	-9.23005
▁talha	-9.23126
▁ac	-9.23144
▁question	-9.23149
vo	-9.23204
▁santa	-9.2336
▁condicions	-9.2348
▁zònas	-9.23564
met	-9.23645
▁permetent	-9.23666
▁division	-9.24044
▁monde	-9.24198
ira	-9.242
▁facia	-9.24274
▁institucions	-9.24437
ensemble	-9.24476
▁chi	-9.2455
▁torn	-9.24612
9	-9.24812
▁mena	-9.24827
▁2000	-9.24932
▁of	-9.25004
▁decèsses	-9.25041
▁britanic	-9.25421
▁romana	-9.25441
▁espanha	-9.25516
▁punt	-9.2559
▁long	-9.25627
▁obtenguèt	-9.25644
ger	-9.25761
▁rep	-9.25823
▁ret	-9.25904
cu	-9.25962
▁natura	-9.26033
▁subre	-9.2607
▁èst	-9.26216
▁carcinòla	-9.26253
ure	-9.26289
▁còrs	-9.26371
▁pòrta	-9.26393
▁bassa	-9.26422
▁xv	-9.2647
▁zòna	-9.26664
▁xiii	-9.26791
▁presa	-9.26902
2.	-9.27039
▁peu	-9.27089
▁atlantic	-9.27132
tura	-9.27322
]].	-9.2745
▁títol	-9.27537
▁europèus	-9.27672
gon	-9.27802
ires	-9.27863
ions	-9.27941
▁musulmans	-9.27949
len	-9.28048
dia	-9.28198
han	-9.28248
▁comtat	-9.28459
lon	-9.28521
▁ci	-9.28639
▁cinèma	-9.28717
▁tornar	-9.28751
▁trobar	-9.28804
▁tor	-9.29023
▁estimada	-9.2903
cia	-9.29035
▁novèu	-9.29118
▁fònt	-9.2915
ner	-9.2917
▁religiós	-9.29342
up	-9.29374
iers	-9.29404
▁patz	-9.29407
ru	-9.2957
"&	-9.29752
cul	-9.29786
(	-9.3017
▁har	-9.30246
_	-9.30326
▁bat	-9.3033
ue	-9.30425
▁camin	-9.30462
▁favorizè	-9.30478
ju	-9.30574
60	-9.30602
▁internacionala	-9.30699
altitud	-9.30739
▁ve	-9.30776
los	-9.30886
▁combats	-9.30903
▁ap	-9.30948
ish	-9.31051
;/	-9.31058
▁via	-9.31405
ns	-9.3148
gue	-9.31632
▁epòca	-9.31706
▁itàlia	-9.3173
▁britanica	-9.3181
▁pirenèus	-9.31843
▁acomencèt	-9.31886
▁parlament	-9.31916
rac	-9.32032
itàlia	-9.32043
▁grands	-9.32065
▁classica	-9.32109
aquel	-9.32344
assegurar	-9.3266
▁rèine	-9.32668
vent	-9.32813
ib	-9.32904
▁jorn	-9.32938
▁espanhòla	-9.33071
▁ru	-9.33136
▁armadas	-9.33142
its	-9.33173
▁alemanha	-9.3319
q	-9.33259
nat	-9.33287
gan	-9.33478
▁formas	-9.33591
▁bastida	-9.33628
epòca	-9.33693
▁nobel	-9.33844
▁1970	-9.33849
▁catalonha	-9.33903
6	-9.33946
wa	-9.33982
▁vo	-9.34008
abitants	-9.34008
▁còr	-9.34087
▁=	-9.34105
cre	-9.34283
kh	-9.34284
▁totas	-9.34289
rat	-9.34292
▁montanhas	-9.34368
▁projècte	-9.34456
▁eissit	-9.34498
elle	-9.34534
tro	-9.34549
ili	-9.34561
ians	-9.34598
òc	-9.34628
ais	-9.34655
▁premierei	-9.348
▁defensa	-9.34827
▁comença	-9.3493
▁fondada	-9.34931
let	-9.34952
▁é	-9.34972
assa	-9.34984
vèrs	-9.35072
▁menaça	-9.35118
▁fenomèn	-9.35143
▁1960	-9.35165
▁resisténcia	-9.3517
▁populara	-9.35219
ff	-9.35227
▁bal	-9.35242
▁pan	-9.35251
▁mer	-9.35278
bat	-9.35379
iva	-9.3543
col	-9.35467
▁ponch	-9.35509
mb	-9.35586
▁pression	-9.35687
▁art	-9.35742
▁formèt	-9.35828
25	-9.35901
▁contrari	-9.35942
dre	-9.35997
▁enter	-9.36114
▁egipte	-9.36136
entraïnèron	-9.36163
▁principau	-9.36179
▁u	-9.36222
▁mantun	-9.36235
▁autra	-9.3637
▁w	-9.36374
▁nu	-9.36424
▁ensemble	-9.36431
▁bon	-9.36456
▁finala	-9.36458
vis	-9.3649
emergéncia	-9.365
▁meteissa	-9.36557
ges	-9.36566
pro	-9.36602
▁cambi	-9.3666
▁donèt	-9.36855
▁occitània	-9.36859
40	-9.36876
ll	-9.37101
bar	-9.37117
48	-9.37146
às	-9.3716
▁majoritat	-9.37212
▁filh	-9.37229
ves	-9.37275
evolucion	-9.37387
zi	-9.37394
▁1990	-9.37468
▁capitèron	-9.37517
▁mesura	-9.37642
▁pòrt	-9.38011
ub	-9.38088
▁afaires	-9.38213
▁avián	-9.38273
▁nacionau	-9.38276
▁cant	-9.3838
ària	-9.38392
▁quimia	-9.38463
▁fòrt	-9.38591
gr	-9.38593
ille	-9.38672
▁montanha	-9.38814
▁/	-9.38929
iu	-9.38956
ific	-9.38967
▁manca	-9.39017
▁1980	-9.39033
oposicion	-9.39253
▁–	-9.39419
▁pen	-9.39425
bert	-9.39446
▁tan	-9.39479
adopcion	-9.39582
bra	-9.39607
din	-9.39624
▁representa	-9.3975
▁nòrma	-9.39775
ccion	-9.39782
aquò	-9.39872
▁novela	-9.39934
ser	-9.39998
▁sur	-9.40049
asia	-9.40127
▁doncas	-9.40224
oli	-9.4025
▁fèrre	-9.40291
▁gi	-9.40442
nic	-9.40537
▁centrau	-9.40637
▁assaiè	-9.40671
▁ataca	-9.40877
▁inter	-9.40925
od	-9.40966
▁generala	-9.41087
▁damb	-9.41214
ón	-9.41263
▁gascon	-9.413
bas	-9.41314
nc	-9.41548
▁venguda	-9.41571
tors	-9.41738
mai	-9.41743
▁basada	-9.41846
▁òmes	-9.4185
▁tèn	-9.41886
▁maire	-9.41957
▁sin	-9.41983
7	-9.42012
▁drechs	-9.42027
pon	-9.42073
▁poguèt	-9.42136
▁alemanda	-9.42235
escòla	-9.42266
▁politics	-9.42289
pre	-9.42315
▁marcat	-9.42389
▁nivèl	-9.42404
▁john	-9.42404
den	-9.42493
▁febla	-9.42511
hu	-9.42621
11	-9.42677
ança	-9.42733
▁tecnicas	-9.42767
▁conselh	-9.42858
▁mandat	-9.42893
▁existisson	-9.42976
▁trabalhs	-9.42977
37	-9.42987
▁papa	-9.43013
▁escrivan	-9.43056
ü	-9.43154
▁matèria	-9.43424
aqueste	-9.43472
▁teatre	-9.43484
▁pèire	-9.43555
▁crosada	-9.43562
▁dieu	-9.43723
agost	-9.43776
75	-9.43778
▁oèst	-9.43809
▁regardant	-9.43873
▁seguida	-9.43892
òm	-9.43913
mas	-9.43946
fr	-9.44033
▁limit	-9.44066
▁gard	-9.44124
emp	-9.44135
emperaire	-9.44172
ville	-9.44229
pin	-9.44258
▁dura	-9.44303
▁caracteristicas	-9.44332
òt	-9.4435
▁conflictes	-9.44401
▁autor	-9.44442
▁actuau	-9.44675
▁ras	-9.4469
26	-9.4474
utilizacion	-9.44982
▁popular	-9.45002
▁comunista	-9.45068
▁linha	-9.45155
▁creissença	-9.45308
▁fau	-9.45447
autras	-9.4546
▁fis	-9.45637
duc	-9.45667
▁benlèu	-9.45694
ajuda	-9.45703
▁lèi	-9.4571
▁independent	-9.45782
▁varia	-9.45835
▁forman	-9.45981
▁moriguèt	-9.46068
▁genre	-9.4613
▁mat	-9.46229
▁oficialament	-9.46258
nh	-9.46356
▁bacin	-9.4642
òn	-9.46446
ors	-9.46477
▁classa	-9.46614
riá	-9.46727
▁aital	-9.46855
▁met	-9.4687
gal	-9.46897
▁comun	-9.46916
▁reforma	-9.47103
▁japon	-9.47132
▁membre	-9.4724
▁solar	-9.47321
▁xii	-9.47561
▁fusion	-9.47562
▁fondacion	-9.47583
of	-9.47634
▁considerada	-9.47676
▁demanda	-9.47741
pl	-9.47743
via	-9.47754
▁aqueth	-9.47839
▁gaireben	-9.47927
lia	-9.48006
ret	-9.48024
▁naut	-9.4803
▁2006	-9.48141
▁vent	-9.48177
▁grafia	-9.48181
70	-9.48213
ki	-9.48255
▁entraïnant	-9.48341
▁do	-9.4846
ima	-9.48566
vin	-9.48648
▁proprietats	-9.48715
▁desvolopèt	-9.48719
importància	-9.48747
▁xiv	-9.48785
▁seriá	-9.48792
▁pròche	-9.49061
▁sufixe	-9.49064
▁produ	-9.49126
cer	-9.49145
nu	-9.49187
▁jorns	-9.49194
ère	-9.49342
sol	-9.49444
▁figura	-9.49445
▁militars	-9.49456
▁lors	-9.4946
▁estructura	-9.49472
entre	-9.49489
▁trans	-9.49591
▁lengadòc	-9.49617
▁autoritats	-9.49787
07	-9.50071
èus	-9.50114
▁nuclèu	-9.50215
▁vinhana	-9.50239
▁portugués	-9.50286
activitat	-9.50303
▁tròp	-9.50604
▁dirigida	-9.50622
38	-9.50634
▁(1	-9.50646
▁acòrd	-9.50693
▁pè	-9.50794
▁bearn	-9.50803
izar	-9.5092
▁maria	-9.50923
▁mos	-9.50938
afondrament	-9.50991
▁destruccion	-9.50997
ão	-9.51004
▁ber	-9.51017
▁lutz	-9.51017
▁mitan	-9.51089
▁moment	-9.51248
▁ei	-9.51498
▁armada	-9.51534
▁regim	-9.5154
▁tro	-9.51559
34	-9.51624
stra	-9.51626
alitat	-9.51629
▁tèxtes	-9.51702
nes	-9.51723
sson	-9.51757
▁reg	-9.518
▁rason	-9.51807
▁designa	-9.5184
▁òme	-9.51997
▁america	-9.52063
if	-9.52117
▁fil	-9.52118
cr	-9.52216
▁mexic	-9.52241
ly	-9.52356
▁ensems	-9.5239
▁mort	-9.52431
▁vii	-9.52557
▁progrès	-9.52563
gut	-9.52584
ces	-9.52656
▁valor	-9.52748
ay	-9.52821
▁formada	-9.52841
lan	-9.52878
▁cam	-9.52955
▁serv	-9.52969
idas	-9.52998
▁fondèt	-9.53003
▁plus	-9.53014
mand	-9.53037
27	-9.53097
43	-9.53248
▁che	-9.53342
▁prince	-9.53363
▁alara	-9.53377
▁independéncia	-9.53395
òta	-9.5343
▁grècia	-9.53453
cho	-9.53485
▁caps	-9.53514
▁fòrta	-9.53625
bal	-9.53632
▁romans	-9.53674
▁terrèstra	-9.53758
saint	-9.53778
ola	-9.53802
estructura	-9.53859
ador	-9.5391
▁sciéncias	-9.53916
▁segur	-9.53976
▁empèri	-9.53997
▁hi	-9.54065
▁nacional	-9.5409
ée	-9.54119
▁xi	-9.54125
▁(15	-9.54244
▁italiana	-9.54331
ef	-9.54414
▁pib	-9.54437
▁novèus	-9.54465
▁chinés	-9.54564
▁ti	-9.54565
▁cr	-9.54612
▁divèrsas	-9.54643
18	-9.54818
▁pren	-9.54945
▁ancians	-9.54951
▁flor	-9.54961
dr	-9.54989
▁dominacion	-9.54989
09	-9.5504
▁sab	-9.55098
▁une	-9.55113
39	-9.55119
44	-9.55189
▁proteccion	-9.55375
▁tradicion	-9.55375
▁malgrat	-9.55375
▁carrièra	-9.55389
▁índia	-9.55389
▁militaras	-9.55394
▁version	-9.55439
izat	-9.556
▁organizacion	-9.55641
▁passa	-9.55692
▁nauts	-9.55746
ula	-9.55758
ris	-9.55764
▁24	-9.55784
èa	-9.55785
▁debanèt	-9.55789
▁espanhòl	-9.55852
▁parla	-9.56045
lar	-9.56079
▁bri	-9.56116
▁significa	-9.56188
▁washington	-9.56193
▁biografia	-9.56203
▁politicas	-9.56238
ler	-9.56243
▁annada	-9.56286
tant	-9.56293
▁dé	-9.56319
icas	-9.56368
▁pal	-9.56438
eleccion	-9.56445
dit	-9.56552
▁combat	-9.56616
▁bra	-9.56725
▁jaç	-9.56735
▁color	-9.56766
autoritat	-9.56835
▁apareguèt	-9.56856
▁2010	-9.57037
ièrs	-9.57042
▁som	-9.57073
▁jol	-9.57137
65	-9.57212
▁despiech	-9.57432
▁litorau	-9.57433
▁pichon	-9.57474
▁lingüistica	-9.57501
▁parlar	-9.57507
▁corona	-9.57519
▁22	-9.57534
ster	-9.57548
▁poderós	-9.57582
▁africa	-9.57626
aperaquí	-9.57643
▁anti	-9.57651
fic	-9.57726
estend	-9.57733
▁darrier	-9.57737
▁font	-9.57842
rre	-9.57854
▁temple	-9.57923
▁marcada	-9.58014
▁aires	-9.58026
29	-9.58133
nça	-9.58138
urèt	-9.58218
mina	-9.58228
▁possible	-9.58267
▁renaissença	-9.58267
▁basat	-9.58286
ip	-9.58348
ologic	-9.58357
▁dirigit	-9.58382
▁fiu	-9.58444
▁sh	-9.58498
òu	-9.5853
▁lu	-9.58547
▁grana	-9.58549
iment	-9.58655
▁ajuda	-9.58669
35	-9.58683
▁castèl	-9.58689
-17	-9.58695
▁marquè	-9.58776
▁sèti	-9.58792
▁cab	-9.59065
▁1945	-9.59114
▁nomenat	-9.59135
▁dis	-9.59143
ple	-9.59192
vel	-9.59211
▁russa	-9.59263
▁2002	-9.59293
ici	-9.59426
izada	-9.59471
aviá	-9.59519
ld	-9.59556
tur	-9.59578
▁egalament	-9.59591
usatge	-9.59684
ostal	-9.59759
▁cri	-9.59773
▁majora	-9.59854
ieu	-9.5988
né	-9.59905
orient	-9.59948
▁activitat	-9.59957
▁amassa	-9.6001
eish	-9.6008
mic	-9.60157
ariá	-9.60193
essa	-9.60314
▁ressorsas	-9.60344
▁professor	-9.60386
▁nasquèt	-9.60389
▁poèta	-9.60396
ents	-9.60476
▁locala	-9.6053
▁consequéncia	-9.60566
administracion	-9.60668
14	-9.60693
▁scientifica	-9.6081
▁formèron	-9.60816
▁actuala	-9.60819
▁pichona	-9.60828
13	-9.60877
▁dirèctament	-9.60879
the	-9.6092
▁actualament	-9.60962
▁òrdre	-9.61038
▁sola	-9.61079
▁colonias	-9.61127
▁and	-9.61201
ak	-9.61223
▁negra	-9.61304
▁près	-9.61338
▁estatsunidenca	-9.61386
mba	-9.61444
▁relacion	-9.6146
vol	-9.61608
▁pèira	-9.61672
▁revirada	-9.61679
▁precipitacions	-9.61681
▁2008	-9.61696
▁sustot	-9.61807
▁economicas	-9.61858
iz	-9.6194
pen	-9.62024
omys	-9.62105
▁contunièt	-9.62114
▁fàcia	-9.62121
▁composicion	-9.62125
▁glaç	-9.62139
▁mil	-9.62158
abril	-9.62165
▁alemands	-9.62202
▁demòra	-9.62261
▁mu	-9.62295
▁favoriza	-9.62305
hon	-9.6233
▁27	-9.62361
▁religiosa	-9.62364
▁intèrna	-9.62365
rit	-9.62504
▁conten	-9.62521
▁constru	-9.62544
▁febrièr	-9.62551
▁poesia	-9.62552
▁retorn	-9.62552
ny	-9.62573
anta	-9.62605
▁leon	-9.62757
accion	-9.62816
aragon	-9.62849
tres	-9.62865
▁sciéncia	-9.62888
24	-9.62902
▁23	-9.62903
▁ros	-9.62914
▁necessari	-9.62989
41	-9.63056
▁passatge	-9.63099
gra	-9.63135
▁mescla	-9.63166
53	-9.63187
▁persona	-9.63264
▁darrièr	-9.63295
▁crear	-9.63311
▁carga	-9.63354
tal	-9.6342
▁transpòrt	-9.63432
59	-9.63432
▁libertat	-9.63435
▁inicialament	-9.63453
▁jean	-9.6351
cant	-9.63538
cat	-9.63605
autra	-9.63645
33	-9.63646
dura	-9.637
▁(16	-9.63755
▁loís	-9.63863
▁buenos	-9.63872
▁governador	-9.63882
blas	-9.63908
▁remplaçat	-9.64095
sh	-9.64115
▁gen	-9.64382
jar	-9.64398
15	-9.64399
▁poli	-9.6446
▁caire	-9.6449
▁superior	-9.64518
▁lemosina	-9.64626
▁dona	-9.64634
ient	-9.64642
anglés	-9.64649
▁super	-9.64692
▁filosofia	-9.64763
ois	-9.64794
estatut	-9.64987
▁21	-9.65002
ocupacion	-9.65062
enca	-9.65128
invasion	-9.65159
▁dans	-9.65166
58	-9.6519
▁valencian	-9.65212
▁sièis	-9.65213
▁realitat	-9.65309
42	-9.65406
ini	-9.65426
▁superiora	-9.65428
▁blanc	-9.6544
non	-9.65443
and	-9.65475
ino	-9.65509
▁ko	-9.65585
rd	-9.65593
▁unei	-9.65615
▁partisans	-9.65635
▁bel	-9.65651
ö	-9.65662
▁1950	-9.65672
▁jamai	-9.65705
argent	-9.65776
ero	-9.65792
22	-9.65847
ov	-9.65862
68	-9.65939
▁mesuras	-9.65973
ons	-9.66036
▁1920	-9.66125
▁comunistas	-9.66149
ez	-9.6615
▁natural	-9.66155
stan	-9.6623
òla	-9.66274
ras	-9.6645
85	-9.66512
ros	-9.66512
▁comp	-9.66582
▁2003	-9.66593
pel	-9.66612
▁char	-9.66657
▁constitu	-9.66703
▁atau	-9.66714
pr	-9.66756
88	-9.66772
96	-9.66825
99	-9.66878
21	-9.66951
04	-9.66951
▁antica	-9.66991
▁revòuta	-9.67005
▁independenta	-9.67006
▁monarquia	-9.67026
cur	-9.67028
▁comte	-9.6706
54	-9.67061
47	-9.6712
ement	-9.67191
▁ix	-9.67236
▁passè	-9.67278
▁!	-9.67312
té	-9.67389
gui	-9.67437
▁difusion	-9.67484
▁prendre	-9.67504
-15	-9.67548
▁sala	-9.67549
▁disc	-9.676
▁otoman	-9.67603
mè	-9.6763
▁menèt	-9.67677
▁dia	-9.67767
arquitectura	-9.67871
▁respèct	-9.67929
▁creada	-9.67985
lat	-9.68132
▁mesa	-9.68157
▁lac	-9.6823
▁mart	-9.68236
▁uman	-9.6826
▁asia	-9.68315
fu	-9.68375
▁remarca	-9.68411
▁japonés	-9.68459
je	-9.68511
▁compausat	-9.68543
pp	-9.68578
▁adoptèt	-9.68613
ssi	-9.68629
▁present	-9.68631
▁partits	-9.68701
▁lemosin	-9.68885
▁colons	-9.68892
▁veguèt	-9.68903
▁simbòl	-9.68923
▁tièra	-9.68965
guda	-9.69032
▁donat	-9.6914
▁pat	-9.69217
▁central	-9.69247
form	-9.69361
5%	-9.6946
ow	-9.69469
▁comunautats	-9.6947
▁seguent	-9.69493
76	-9.6959
organizar	-9.69607
],	-9.69621
▁activitats	-9.69706
expansion	-9.69731
octobre	-9.6981
cap	-9.69817
▁protegir	-9.69821
▁ag	-9.69832
▁istorica	-9.69921
ev	-9.69958
▁2005	-9.69989
▁pacific	-9.70088
eja	-9.70253
▁naissença	-9.70282
▁fluvi	-9.70282
▁conseu	-9.70289
▁frontièra	-9.70304
▁davant	-9.70308
▁quantitat	-9.70387
▁limitat	-9.70418
▁marc	-9.70462
▁emb	-9.70487
▁viu	-9.70545
▁grèga	-9.70756
▁vir	-9.70771
esp	-9.70797
fo	-9.70877
▁reaccion	-9.7096
▁fondat	-9.71124
▁localas	-9.71204
▁interès	-9.71234
▁camps	-9.71266
▁limitada	-9.71275
▁umana	-9.71288
observacion	-9.71367
▁liura	-9.71423
▁pla	-9.7149
36	-9.71518
▁estil	-9.71526
▁%	-9.71584
ilh	-9.716
▁nèu	-9.71643
▁carbòni	-9.7171
▁nombrosas	-9.7171
idèa	-9.71719
▁autras	-9.71732
▁tar	-9.71829
ku	-9.71853
▁grèva	-9.71871
▁ditz	-9.71883
05	-9.72004
▁viii	-9.72029
autre	-9.72031
▁hèra	-9.72065
▁mag	-9.72135
alemanha	-9.7218
▁plana	-9.72272
pec	-9.7229
▁libre	-9.72301
ilha	-9.7244
unes	-9.72448
▁br	-9.72456
▁york	-9.72674
▁chinesa	-9.72675
▁leg	-9.7274
▁frontiera	-9.72876
▁companhiá	-9.72881
▁rius	-9.72994
▁qualitat	-9.73047
rich	-9.73071
▁internacionau	-9.7316
▁capacitat	-9.7316
▁28	-9.73173
▁nòu	-9.73232
▁barcelona	-9.73264
annadas	-9.73292
▁occitans	-9.73305
▁colonizacion	-9.73336
▁coloniau	-9.7336
diguèt	-9.73361
▁culturala	-9.73361
16	-9.73429
▁mol	-9.73432
▁viatge	-9.73491
lé	-9.73495
▁gre	-9.73516
▁coneguts	-9.73532
èla	-9.7362
▁alavetz	-9.73648
usa	-9.73662
▁arre	-9.73687
mé	-9.7374
▁servicis	-9.73754
▁cat	-9.73866
▁"*	-9.73888
▁ad	-9.73908
ificacion	-9.74093
estanh	-9.7423
ah	-9.74242
▁parçan	-9.74287
acions	-9.74326
unitat	-9.74433
▁passar	-9.7444
▁lòc	-9.74456
arma	-9.7447
objècte	-9.74472
arn	-9.74546
▁freja	-9.74667
90	-9.74741
▁prima	-9.74819
▁am	-9.74819
▁her	-9.74865
▁europèu	-9.74908
▁recèrca	-9.74909
▁aliats	-9.74988
28	-9.75075
▁culte	-9.75131
▁publica	-9.75137
?	-9.75156
dent	-9.7516
nascut	-9.75167
ièra	-9.7523
49	-9.75247
▁produchs	-9.75315
cle	-9.75415
▁campanha	-9.75428
98	-9.75461
▁pensa	-9.75493
▁lèu	-9.75535
estil	-9.7556
▁argentina	-9.75565
'[[	-9.7559
▁pol	-9.75632
egipte	-9.75663
establiment	-9.7567
▁nocion	-9.7581
▁unic	-9.75846
▁autonòma	-9.75908
▁locaus	-9.75915
▁tipes	-9.75918
▁produch	-9.75954
▁sason	-9.76022
ancian	-9.76045
bor	-9.76078
▁canadà	-9.76123
▁bèth	-9.76124
court	-9.76173
▁tròban	-9.76244
▁origina	-9.76254
ano	-9.76264
▁nacions	-9.76312
46	-9.76314
▁causè	-9.76339
sent	-9.76449
▁confronta	-9.76528
▁utilizada	-9.76576
▁crestians	-9.7659
▁restauracion	-9.76625
▁2012	-9.76649
▁bastit	-9.76677
ori	-9.76715
▁feble	-9.76734
78	-9.76819
▁grandas	-9.76918
▁senhor	-9.76992
lic	-9.77109
▁quartièr	-9.77155
▁mantenir	-9.7716
▁cesar	-9.7716
▁50	-9.77167
▁eu	-9.77182
▁2004	-9.77194
▁repression	-9.77196
55	-9.77196
▁fla	-9.77238
▁reiaumes	-9.77397
▁saint	-9.77479
▁programa	-9.77527
▁obligat	-9.77538
▁proclamè	-9.77638
▁profiech	-9.77638
▁distància	-9.77638
▁ganhè	-9.77644
▁adoptat	-9.77663
▁conquistar	-9.77674
▁enfants	-9.77743
▁longor	-9.77768
tru	-9.77896
▁sèt	-9.77905
▁carles	-9.77964
able	-9.77972
rin	-9.77995
▁domenis	-9.78016
▁umid	-9.78021
89	-9.78047
▁concèpte	-9.78148
▁petròli	-9.78148
▁mondiau	-9.78151
▁industriala	-9.78162
▁26	-9.78173
ell	-9.78214
tim	-9.78377
▁negre	-9.78623
▁sociala	-9.78637
institut	-9.78661
èstre	-9.78672
32	-9.78673
ran	-9.78674
▁corèa	-9.7868
31	-9.78757
vers	-9.78774
mest	-9.78809
▁moneda	-9.7883
cel	-9.78938
▁mamifèrs	-9.79005
▁taus	-9.79074
▁reformas	-9.79081
▁sieus	-9.7909
▁tornèt	-9.79094
ància	-9.79107
▁referéncia	-9.79111
▁corrents	-9.79131
▁modèrne	-9.79148
▁compositor	-9.79177
▁conquistè	-9.79177
77	-9.79195
▁estudis	-9.79196
▁ves	-9.79215
,5	-9.79237
=	-9.79267
▁devesida	-9.79294
▁quan	-9.79296
▁senhors	-9.79325
apelan	-9.79356
▁metal	-9.79373
her	-9.79422
▁ki	-9.79437
▁favor	-9.79546
my	-9.79611
trò	-9.79613
▁liga	-9.79619
▁sòn	-9.79636
▁proprietat	-9.79645
▁pres	-9.79664
▁sodan	-9.79692
▁1930	-9.79705
▁2014	-9.7971
▁adoptada	-9.7972
comencèron	-9.79729
ill	-9.79741
èri	-9.79753
▁participèt	-9.79761
▁devesit	-9.7984
▁ger	-9.79901
84	-9.79949
▁sovietic	-9.79971
▁totalament	-9.7998
informacion	-9.80219
▁mantenement	-9.80219
▁garona	-9.80224
61	-9.80225
▁massís	-9.8023
az	-9.80308
▁istoric	-9.80314
▁liure	-9.80349
▁port	-9.80386
▁espècia	-9.80474
nta	-9.80603
▁compausada	-9.80635
▁compta	-9.80671
α	-9.80739
▁congrès	-9.80739
▁famosa	-9.80776
▁fer	-9.80863
▁proto	-9.80866
ique	-9.80867
▁castelhan	-9.80998
ianas	-9.81022
45	-9.81118
gne	-9.8112
▁aigas	-9.81133
▁travèrs	-9.81133
tot	-9.81171
▁ath	-9.81226
▁000	-9.81228
▁genier	-9.81285
▁fixa	-9.8132
▁largament	-9.81375
▁pin	-9.81422
▁creèt	-9.81526
▁martin	-9.81543
estudis	-9.81629
▁permetiá	-9.81655
cada	-9.81658
▁importància	-9.817
▁pichons	-9.81712
▁(2	-9.81714
▁passat	-9.81741
auta	-9.81763
ɔ	-9.81794
▁possibilitat	-9.81794
ˈ	-9.81795
▁permetre	-9.81805
▁mercat	-9.81808
▁1991	-9.81869
▁socialista	-9.81888
▁100	-9.81947
jan	-9.81979
aut	-9.81984
▁quilomètres	-9.82131
000	-9.82216
mu	-9.82336
ants	-9.82402
▁frequent	-9.8248
▁ram	-9.82541
ey	-9.82583
esca	-9.82667
▁vòl	-9.82679
▁soudats	-9.82861
▁permèton	-9.82861
▁2001	-9.82887
zo	-9.83041
▁diu	-9.83053
▁roja	-9.83108
ián	-9.83305
▁apareguèron	-9.83399
▁succession	-9.83401
▁designar	-9.83453
og	-9.83469
ela	-9.83522
▁destinat	-9.83526
▁dinc	-9.83582
▁coire	-9.83589
▁pò	-9.83614
▁crist	-9.83627
▁rota	-9.83638
▁mur	-9.83652
51	-9.83654
estats	-9.83713
56	-9.83722
vre	-9.83763
▁dialèctes	-9.83937
▁patrimòni	-9.83939
▁charles	-9.83966
▁compausats	-9.83973
▁tomba	-9.83994
ostau	-9.84002
▁foncionament	-9.84094
69	-9.84116
obtenir	-9.84129
pan	-9.8415
72	-9.84243
▁vita	-9.84279
66	-9.84319
▁estatut	-9.84377
archipèla	-9.84483
▁cristianisme	-9.84491
87	-9.84495
tier	-9.8464
uf	-9.84673
pè	-9.84675
▁filha	-9.84772
hen	-9.84817
ids	-9.84863
03	-9.84899
▁nascut	-9.84998
▁destru	-9.8505
52	-9.85082
cra	-9.85108
espècias	-9.85256
▁desvolopar	-9.85277
▁var	-9.85346
atges	-9.85535
▁subjècte	-9.85579
▁poblada	-9.85579
▁soleu	-9.85624
▁protectorat	-9.85631
gin	-9.8567
";	-9.85676
▁cost	-9.857
▁puish	-9.85743
67	-9.85768
inas	-9.85779
▁serà	-9.85816
▁tèxte	-9.85848
▁cèrt	-9.85939
▁rica	-9.85997
gat	-9.8609
ona	-9.86102
▁marselha	-9.86134
tòri	-9.86153
▁orbita	-9.86165
▁vista	-9.8617
▁fuguèt	-9.86177
▁problemas	-9.86218
ji	-9.86247
▁indian	-9.8632
!	-9.86339
cession	-9.86343
esclaus	-9.86345
▁tresen	-9.86482
94	-9.86542
pu	-9.86559
▁limits	-9.86666
▁polonés	-9.86687
▁negociacions	-9.8669
▁sostengut	-9.86692
▁municipalitat	-9.867
▁nòtas	-9.86761
▁josé	-9.86771
▁unicament	-9.86853
ben	-9.86875
▁varietat	-9.8691
aumentacion	-9.86919
▁similar	-9.86944
▁31	-9.87024
▁entraïna	-9.87027
gna	-9.87051
eur	-9.87068
▁aumentacion	-9.87079
▁expedicion	-9.87097
-20	-9.87116
▁mesopotamia	-9.87245
▁anglesa	-9.87255
èira	-9.87257
▁fabricacion	-9.87276
23	-9.87348
▁divèrses	-9.8737
▁peró	-9.87481
▁longa	-9.87485
▁classic	-9.87614
08	-9.87691
▁tradicionala	-9.87803
urss	-9.87804
▁léger	-9.87808
▁favorable	-9.87839
▁relèu	-9.87871
pression	-9.87878
▁gardèt	-9.87957
79	-9.8797
▁totun	-9.88085
osas	-9.88221
▁transicion	-9.88379
án	-9.88385
abséncia	-9.88387
estiu	-9.88394
▁1999	-9.88399
-16	-9.88405
▁gròssa	-9.88408
▁ciutats	-9.88433
▁nau	-9.88438
olo	-9.88494
▁lònga	-9.88539
grad	-9.8856
5	-9.88566
graf	-9.88621
▁principi	-9.88668
onne	-9.88725
▁donar	-9.88743
17	-9.88818
avi	-9.88857
▁associat	-9.88907
▁oficiau	-9.88945
▁anglatèrra	-9.89103
▁rai	-9.89126
▁caracterizat	-9.89163
▁torre	-9.8919
escritura	-9.89194
ensems	-9.89199
57	-9.89222
▁correspond	-9.89308
▁19	-9.89326
83	-9.894
▁utilizats	-9.895
▁periòdes	-9.89515
▁2009	-9.89536
alament	-9.89607
▁sultanat	-9.89641
lha	-9.89718
▁crestiana	-9.89741
▁vivent	-9.89908
▁miliards	-9.89919
▁zona	-9.89928
▁revendica	-9.90074
▁im	-9.90082
а	-9.90084
▁demorèron	-9.9011
▁mètres	-9.90126
▁flume	-9.90133
▁prononciacion	-9.90176
▁autors	-9.9022
▁pair	-9.90317
çon	-9.90367
excepcion	-9.90406
▁diplomatic	-9.90555
▁presentan	-9.90569
bus	-9.90614
installacion	-9.90625
▁progressiva	-9.90667
▁estrangiers	-9.90675
▁federacion	-9.90681
▁1940	-9.90693
aires	-9.90741
▁regularament	-9.90744
iguèron	-9.9079
ski	-9.90809
▁economics	-9.90855
sur	-9.90914
▁orient	-9.90975
▁fre	-9.9101
▁compausa	-9.9105
▁jove	-9.91059
espaci	-9.91143
▁2007	-9.91157
▁monuments	-9.91199
▁aqueles	-9.91228
▁endavant	-9.91246
▁colomb	-9.91247
elli	-9.91319
▁29	-9.91348
rie	-9.91432
interès	-9.91504
assemblada	-9.91541
dan	-9.9157
▁agricòlas	-9.91623
▁ambe	-9.91649
62	-9.9175
▁anar	-9.91752
▁malaisada	-9.91831
▁solucion	-9.91831
indica	-9.91833
▁comunicacion	-9.91876
▁ge	-9.91902
▁marchands	-9.91919
sac	-9.91929
▁cicle	-9.91976
cy	-9.92017
▁novèl	-9.92034
74	-9.92034
ation	-9.92057
nia	-9.92063
▁mejans	-9.92068
bel	-9.92175
▁gar	-9.92199
gèn	-9.922
▁gui	-9.92206
aver	-9.9221
▁cla	-9.92233
ky	-9.923
▁egipciana	-9.92304
▁durada	-9.9233
▁principal	-9.92411
▁pintura	-9.9243
▁trapa	-9.9247
▁ch	-9.92475
▁partiment	-9.92524
▁cantaire	-9.92588
▁representacion	-9.92712
▁hè	-9.92725
▁bre	-9.92734
age	-9.92805
▁(14	-9.92832
gli	-9.92869
ette	-9.92885
▁servici	-9.92892
▁problema	-9.92918
▁objectiu	-9.92933
ocupèt	-9.92966
▁catolica	-9.93001
▁medecina	-9.93011
▁pròcha	-9.93011
▁faraon	-9.93015
▁elei	-9.93035
82	-9.93051
▁caça	-9.93063
▁fusta	-9.93066
tiera	-9.93074
bil	-9.93128
ep	-9.93224
▁melhorar	-9.93308
▁grèvas	-9.93407
▁resultat	-9.93458
▁aumenta	-9.93472
▁prepaus	-9.93472
abandon	-9.93473
ug	-9.93494
òra	-9.93531
▁primièrs	-9.93542
▁2013	-9.93623
pri	-9.93666
▁dus	-9.93669
▁lèis	-9.93737
▁conta	-9.93756
gent	-9.93785
▁actor	-9.93901
octòbre	-9.93942
▁paul	-9.93962
▁just	-9.93969
aplicacion	-9.94033
▁caracteristica	-9.94061
▁scientific	-9.94096
▁branca	-9.94122
▁aràbia	-9.94205
▁contacte	-9.94209
▁crotz	-9.94215
lle	-9.9424
observa	-9.94274
▁fr	-9.94344
ctor	-9.94488
01	-9.94509
▁drecha	-9.94531
97	-9.94575
▁pron	-9.94661
pat	-9.94701
▁critica	-9.94811
▁1989	-9.94813
iaceae	-9.94836
▁sou	-9.94859
▁sovietics	-9.94863
camp	-9.94888
ticas	-9.94942
▁naturau	-9.94958
▁vièlh	-9.95057
▁culturau	-9.95074
▁(3	-9.95074
▁pic	-9.95137
aliança	-9.9519
gues	-9.95203
86	-9.95212
95	-9.95346
▁civilizacion	-9.9538
▁purmèr	-9.954
▁navarra	-9.9556
▁cos	-9.95678
▁particulas	-9.95755
1%	-9.95868
plan	-9.95929
▁pur	-9.95981
▁reng	-9.96007
▁presidéncia	-9.96023
▁fondèron	-9.96069
▁diferentei	-9.96073
▁carbon	-9.96077
▁torisme	-9.96096
▁revista	-9.96117
▁mager	-9.9616
▁ou	-9.9617
▁marca	-9.96188
▁principis	-9.9632
wiki	-9.9642
▁gat	-9.9642
dis	-9.96523
▁conegudas	-9.96541
▁coalicion	-9.96636
▁nombroses	-9.96636
lit	-9.96642
▁caractèr	-9.96642
▁definir	-9.96647
▁fraire	-9.96682
▁sucre	-9.96686
▁culturas	-9.96689
▁blancs	-9.96779
gre	-9.96859
ern	-9.96863
▁fons	-9.96882
acòrd	-9.96895
▁siria	-9.97077
▁august	-9.97138
▁mm	-9.97175
▁genres	-9.97201
▁demenicion	-9.97254
▁cançon	-9.973
installar	-9.97365
elements	-9.974
▁blanca	-9.97475
▁religiosas	-9.97519
▁nos	-9.97532
▁haut	-9.97625
òrt	-9.97628
»	-9.97668
▁catalana	-9.97684
isa	-9.9773
quista	-9.97749
▁internacional	-9.97774
▁pl	-9.978
▁organizè	-9.97843
▁decenni	-9.97875
▁vòte	-9.97876
▁golf	-9.97877
▁peisses	-9.97886
omonimia	-9.97889
quèt	-9.97901
univèrs	-9.97905
▁generacion	-9.97927
▁familhas	-9.97978
▁film	-9.98032
ante	-9.9806
06	-9.98071
▁religions	-9.9824
▁rapida	-9.98296
▁barri	-9.98356
▁nov	-9.98362
pres	-9.98382
etat	-9.98445
▁montpelhièr	-9.985
▁concentracion	-9.98561
issèt	-9.98563
▁debuta	-9.98578
▁cambiament	-9.98701
▁canal	-9.98778
▁realizar	-9.98802
▁sia	-9.98826
for	-9.98827
▁local	-9.98911
▁actual	-9.9892
▁tòca	-9.99132
▁1998	-9.99158
berg	-9.99224
▁ton	-9.99231
ments	-9.99339
▁franco	-9.99358
▁ròse	-9.99368
▁risc	-9.99428
▁eissida	-9.9944
▁fort	-9.99475
▁garda	-9.99508
atmosfèra	-9.99566
▁règlas	-9.996
▁unidas	-9.99636
▁freg	-9.997
▁ph	-9.9975
ο	-9.99762
▁1946	-9.99768
▁2015	-9.99779
▁eveniments	-9.99799
▁musèu	-9.99815
▁aprofichè	-9.99851
▁bur	-9.99874
aba	-9.9993
▁indiana	-9.99934
dri	-9.99946
▁gardar	-9.99982
▁pri	-9.99994
▁indi	-10.0003
èva	-10.0003
ofici	-10.0005
anglatèrra	-10.0022
▁manifestacions	-10.0026
pic	-10.0028
▁george	-10.0029
▁cançons	-10.0037
▁copa	-10.0037
iza	-10.0039
▁1944	-10.0041
òli	-10.0045
▁democratica	-10.0046
▁sau	-10.0047
èrs	-10.0051
▁aups	-10.0054
▁troba	-10.0067
▁mala	-10.0075
▁letras	-10.0075
arc	-10.0076
▁tracta	-10.0079
abriu	-10.0088
inae	-10.0096
▁bastir	-10.0097
▁definit	-10.0102
▁carlesmanhe	-10.0104
▁1948	-10.0105
ley	-10.0109
tius	-10.0109
▁palais	-10.011
7%	-10.0117
▁bor	-10.0119
▁roge	-10.0119
mir	-10.0122
▁planta	-10.0123
▁amor	-10.0126
▁ric	-10.0129
forma	-10.0137
one	-10.0144
▁han	-10.0146
▁organ	-10.015
glo	-10.0153
▁auriá	-10.016
▁espanhòu	-10.0162
▁mac	-10.0174
▁ligams	-10.0175
itària	-10.0175
encòp	-10.0175
▁totalitat	-10.0176
▁referéncias	-10.0177
én	-10.0177
uri	-10.0188
esplecha	-10.0189
▁turtè	-10.0189
acum	-10.0191
▁turcs	-10.0195
▁recèrcas	-10.0197
▁frontieras	-10.0207
▁pròpria	-10.021
▁clar	-10.0215
▁ocupat	-10.0221
▁arabi	-10.0222
▁mari	-10.0223
xi	-10.0226
issent	-10.023
dors	-10.0231
▁autoritari	-10.0232
▁probable	-10.0233
▁1997	-10.0235
▁ter	-10.0238
equilibri	-10.0239
▁tarn	-10.024
▁estar	-10.024
▁sistèmas	-10.0248
▁moleculas	-10.0251
acid	-10.0256
▁vist	-10.0256
estench	-10.0256
▁agricòla	-10.0257
▁duc	-10.0259
mal	-10.0261
iera	-10.0262
net	-10.0268
pet	-10.0269
ont	-10.0271
▁1994	-10.0289
▁maritima	-10.0289
▁plantas	-10.029
icion	-10.0293
▁para	-10.0294
▁compres	-10.0297
▁clergat	-10.0299
▁preïstòria	-10.0299
ndra	-10.0301
▁gasconha	-10.0304
▁vesins	-10.0308
wi	-10.0308
ològ	-10.0311
ular	-10.0312
cord	-10.0317
efècte	-10.0317
▁europèas	-10.0321
indi	-10.0328
▁milion	-10.0328
▁(20	-10.0335
▁consequéncias	-10.0337
▁cargat	-10.0339
▁realizat	-10.0343
▁dirigiguè	-10.0343
-3	-10.0344
▁(4	-10.0347
pol	-10.0348
-1	-10.0356
lès	-10.0361
▁desvolopat	-10.0362
occident	-10.0364
▁boca	-10.0364
▁soïssa	-10.0365
▁velocitat	-10.0365
esclavatge	-10.0365
▁domestic	-10.0365
▁premiers	-10.0366
▁tresena	-10.0368
electron	-10.0368
▁mus	-10.0374
▁necessita	-10.0379
uts	-10.0384
▁matematicas	-10.0386
▁asiatic	-10.039
quin	-10.0395
cus	-10.0403
▁seguenta	-10.0421
▁inclu	-10.0425
▁cò	-10.0427
▁turc	-10.0428
▁jaciments	-10.0431
enne	-10.0431
▁desèrt	-10.0432
▁sostenir	-10.0435
▁quitament	-10.0436
%)	-10.0439
▁vath	-10.0446
▁mòstra	-10.0447
9%	-10.0448
rra	-10.0454
▁diferéncia	-10.0462
udas	-10.0462
▁òr	-10.0465
bia	-10.0476
alh	-10.0478
article	-10.0485
rou	-10.0491
▁qual	-10.0493
alista	-10.0494
▁viva	-10.0496
▁demografia	-10.0498
▁liberacion	-10.05
guet	-10.0501
aost	-10.0501
▁gau	-10.0503
▁quauques	-10.0509
fòr	-10.0511
aï	-10.0513
▁mèstre	-10.0519
▁aliança	-10.0525
cut	-10.0527
▁site	-10.053
▁occitanas	-10.0534
lèu	-10.0548
▁terren	-10.056
▁calendièr	-10.0565
▁financier	-10.0565
▁productor	-10.0565
▁1918	-10.0565
▁mission	-10.0568
▁nil	-10.0574
ost	-10.0576
utiliza	-10.0585
itas	-10.0589
gla	-10.0595
▁personatge	-10.0603
▁hilh	-10.0606
▁representava	-10.0617
▁kar	-10.0618
▁insureccion	-10.0618
educacion	-10.0621
▁idèas	-10.0625
▁chile	-10.0628
▁trèbols	-10.0632
▁1996	-10.0633
▁1995	-10.0635
▁fenomèns	-10.0636
ram	-10.0637
2%	-10.0642
bl	-10.0643
ias	-10.0653
▁teniá	-10.0662
ús	-10.0664
▁malautiá	-10.0673
▁cadena	-10.0673
▁àustria	-10.0674
ore	-10.0679
▁rec	-10.0679
tacion	-10.0684
▁territòriala	-10.0694
▁lengadocian	-10.0699
▁virüs	-10.07
▁poblat	-10.07
lhac	-10.0701
▁prèp	-10.0701
▁urban	-10.0703
▁sòl	-10.0704
▁concepcion	-10.0705
▁unica	-10.0707
▁atal	-10.0711
trach	-10.0716
▁assaièron	-10.0718
reg	-10.0719
▁rar	-10.0736
erau	-10.0739
▁caracterizada	-10.0743
dic	-10.0746
▁regla	-10.0755
ek	-10.0764
▁limitar	-10.0766
▁40	-10.0766
▁lingüista	-10.0769
▁descobèrta	-10.0769
irlanda	-10.0769
▁legenda	-10.0769
int	-10.0771
▁1992	-10.0772
▁peus	-10.0795
▁acomencèron	-10.0796
▁socialas	-10.0797
▁suu	-10.08
▁ocupada	-10.0808
▁borg	-10.0812
▁musician	-10.0814
▁larg	-10.0815
atòm	-10.0819
ā	-10.0824
american	-10.0825
▁prestigi	-10.0827
ach	-10.0828
▁simple	-10.0838
▁sua	-10.084
▁fisician	-10.0842
▁rock	-10.0844
▁volum	-10.0846
▁rend	-10.0849
egalitat	-10.0849
▁por	-10.0851
▁st	-10.0853
hem	-10.0855
mil	-10.086
ison	-10.0875
▁deputats	-10.0879
tran	-10.088
▁femna	-10.0885
als	-10.0889
ensenhament	-10.0902
▁umans	-10.0903
▁luna	-10.0903
▁filosòf	-10.0907
▁suècia	-10.0907
▁literària	-10.0907
auvèrnhe	-10.0907
▁capabla	-10.0908
▁ocupa	-10.0909
▁robert	-10.0911
ícia	-10.0912
▁(12	-10.0914
tien	-10.0915
▁pèrda	-10.0919
▁tenir	-10.0927
ium	-10.093
escrivan	-10.0935
▁dètz	-10.0936
▁dur	-10.094
eria	-10.0949
otan	-10.0953
oman	-10.0966
▁industria	-10.0972
ong	-10.0972
▁nor	-10.0973
▁1975	-10.0978
▁dauzat	-10.0978
▁louis	-10.0981
▁desplaçament	-10.0982
yo	-10.0983
▁chan	-10.0985
▁còs	-10.0995
▁densitat	-10.1003
▁commune	-10.1005
▁pour	-10.1005
èm	-10.1008
bon	-10.101
▁coneis	-10.1021
dé	-10.1022
▁besonh	-10.1031
gy	-10.104
pul	-10.1042
▁nomadas	-10.1042
we	-10.1044
▁(13	-10.1045
▁material	-10.1047
▁pagina	-10.1048
utilizar	-10.1048
emb	-10.105
qua	-10.1051
▁acid	-10.1053
▁acceptèt	-10.1055
▁valéncia	-10.1057
▁umanas	-10.1058
▁xxi	-10.106
dís	-10.1066
▁gl	-10.1068
▁reiala	-10.1077
ham	-10.1083
▁publicacion	-10.1084
av	-10.1086
▁pensada	-10.1091
ty	-10.1095
encia	-10.1096
ale	-10.11
cio	-10.1101
uta	-10.1102
▁club	-10.1105
▁metòde	-10.1106
▁organizat	-10.1109
91	-10.1109
▁jan	-10.1112
▁clo	-10.1114
и	-10.1118
▁tengut	-10.1121
▁categoria	-10.1122
▁comarca	-10.1123
hor	-10.1127
▁dispausa	-10.113
▁hor	-10.1135
▁objèctes	-10.1135
ker	-10.1136
▁temperaturas	-10.115
eri	-10.1153
▁ku	-10.1159
▁americana	-10.1167
▁carcin	-10.1174
▁successor	-10.1179
▁balha	-10.1186
▁activa	-10.1188
▁bodisme	-10.119
▁fruch	-10.119
▁1947	-10.1191
▁futur	-10.1198
ella	-10.1199
ièras	-10.1207
▁naturalas	-10.1215
▁ser	-10.1221
ata	-10.123
▁pèças	-10.1244
▁citar	-10.1251
▁estatsunidencs	-10.1257
▁grècs	-10.1259
índia	-10.126
▁fotbòl	-10.1262
▁terrèstre	-10.1262
issiá	-10.1264
ín	-10.1267
▁fasa	-10.1279
arri	-10.1282
▁fondator	-10.1285
▁executiu	-10.1288
▁entraïnar	-10.129
▁comerciala	-10.1293
lhas	-10.1295
▁assegura	-10.1303
▁inca	-10.131
▁estudi	-10.1314
▁cellulas	-10.1315
▁semblan	-10.1317
▁descubèrtas	-10.1321
▁aquestes	-10.1322
▁plen	-10.1322
ocupar	-10.1323
▁representant	-10.1331
categoria	-10.1331
▁necessària	-10.1334
▁senat	-10.1335
▁violéncia	-10.1335
▁mad	-10.1336
▁maridatge	-10.1336
idrogèn	-10.1338
elèit	-10.134
▁canta	-10.1342
▁poders	-10.1345
▁james	-10.1347
▁melhor	-10.1348
▁finança	-10.135
▁principals	-10.1352
▁espaci	-10.1353
▁conf	-10.1354
ivèrn	-10.1365
▁poissanças	-10.1375
lla	-10.1375
bles	-10.1376
etas	-10.1381
anti	-10.1389
eva	-10.1397
▁environ	-10.1398
▁organizada	-10.1405
▁ur	-10.1407
mul	-10.1413
▁britanicas	-10.1413
▁latina	-10.1414
intrada	-10.1416
▁vilatges	-10.1416
▁brancas	-10.1418
▁assassinat	-10.1422
▁arab	-10.1431
▁calcul	-10.1435
▁ke	-10.145
gua	-10.1451
▁intr	-10.1456
▁espanhòus	-10.146
▁front	-10.1467
eurs	-10.1469
▁seguents	-10.1469
unei	-10.1469
intrèt	-10.1471
ê	-10.1477
▁darrièra	-10.1478
oxid	-10.148
ν	-10.1481
▁legislatiu	-10.1481
▁restaurar	-10.1481
▁vestigis	-10.1481
▁1914	-10.1482
▁nacionalista	-10.1486
▁minas	-10.1487
▁dont	-10.1487
▁lengadociana	-10.1496
▁anna	-10.1496
▁za	-10.15
4%	-10.1503
▁dialècte	-10.1508
èx	-10.1511
▁descripcion	-10.1512
inter	-10.1513
▁mots	-10.1519
▁pausa	-10.1532
▁verd	-10.1543
▁aspècte	-10.1545
▁variacions	-10.1549
▁sufragi	-10.1555
▁1993	-10.1556
▁viena	-10.1557
▁sobeiran	-10.1557
tanben	-10.156
▁sobre	-10.156
▁emperaire	-10.1562
ritz	-10.1574
▁rio	-10.1577
▁aproficha	-10.1585
borg	-10.1587
adn	-10.1588
▁usatge	-10.1589
▁bona	-10.1592
▁assemblada	-10.1592
▁tira	-10.1596
rid	-10.1603
▁fònts	-10.1605
oph	-10.161
▁orientalas	-10.1612
▁arabis	-10.1618
individú	-10.1624
▁estatsunidenc	-10.1628
▁signat	-10.1628
▁apareguda	-10.1629
▁glacièr	-10.163
encastre	-10.1635
▁temptativa	-10.1635
▁monument	-10.1636
▁]	-10.1639
▁jòc	-10.1639
aja	-10.1646
ostilitat	-10.1647
▁»)	-10.1648
▁germanic	-10.1648
▁suber	-10.1651
vila	-10.1652
▁menada	-10.1659
▁administracion	-10.1659
▁cer	-10.1665
estó	-10.1668
▁calor	-10.1675
ence	-10.1683
▁classas	-10.1684
fort	-10.1686
ér	-10.169
▁term	-10.1693
▁febrier	-10.1705
▁guinèa	-10.1705
▁frònt	-10.1705
▁juli	-10.1708
▁aiga	-10.1709
▁naturala	-10.1711
▁africans	-10.1716
▁transformacion	-10.1717
roman	-10.1719
▁metòdes	-10.1719
guer	-10.172
▁oposicion	-10.1729
▁planetas	-10.175
▁dessenh	-10.175
▁precisa	-10.177
▁?	-10.1776
â	-10.178
▁carcassona	-10.178
▁william	-10.178
installèron	-10.1781
▁1939	-10.1781
▁purmèra	-10.1782
▁1919	-10.1782
▁2016	-10.1782
▁convencion	-10.1787
ografia	-10.1793
▁minoritat	-10.1794
utat	-10.1796
▁luòcs	-10.18
anda	-10.1812
ches	-10.1817
cula	-10.1822
ets	-10.1823
▁utiliza	-10.1826
coma	-10.1827
▁fai	-10.183
roma	-10.1832
oï	-10.1837
▁documents	-10.1842
▁autonòmia	-10.185
▁deviá	-10.1851
▁jòcs	-10.1851
▁2011	-10.1852
sant	-10.1857
▁afluent	-10.1857
▁produrre	-10.1858
▁cur	-10.1859
▁indica	-10.1862
interior	-10.1864
▁ré	-10.1877
▁casuda	-10.1877
jat	-10.1878
▁austràlia	-10.1881
iniciativa	-10.1886
▁turca	-10.1887
▁felip	-10.1889
▁proteïnas	-10.189
lada	-10.1891
▁dança	-10.1891
▁ostal	-10.19
fre	-10.1907
▁arribè	-10.191
èli	-10.1918
▁minoritats	-10.1922
▁inferiora	-10.1924
rau	-10.193
▁hon	-10.1933
aristocracia	-10.1934
▁mediterranèu	-10.1934
▁millenari	-10.1934
▁leugier	-10.1934
▁desvolopèron	-10.1934
▁egala	-10.1941
▁cad	-10.1953
▁quimic	-10.1959
▁amic	-10.196
▁enric	-10.1963
▁participar	-10.1977
ràn	-10.1983
òsi	-10.1987
part	-10.1993
▁tà	-10.1994
▁partidas	-10.1994
af	-10.1997
▁2005.	-10.1999
▁cambiaments	-10.2002
▁essent	-10.2003
▁simbòls	-10.2003
èi	-10.201
▁tendància	-10.2011
▁eficaç	-10.2011
▁tèrç	-10.2011
operacion	-10.2013
▁respècte	-10.2014
▁revòutas	-10.2015
▁carta	-10.2015
▁0,	-10.2016
installèt	-10.2019
▁bòn	-10.2019
▁sch	-10.2021
ongria	-10.2022
eire	-10.2022
▁bio	-10.2023
què	-10.2023
▁capita	-10.2023
all	-10.2026
endrech	-10.2031
▁notar	-10.2032
▁climatic	-10.2033
▁nas	-10.2041
ocupèron	-10.2046
vic	-10.2049
▁brasilièr	-10.206
▁africana	-10.2065
▁cellula	-10.2067
▁fachs	-10.2077
▁diversitat	-10.2089
▁rugbi	-10.2089
▁candidat	-10.2089
▁raionament	-10.2089
introduccion	-10.209
▁serbia	-10.209
▁reconegut	-10.2091
▁tradicions	-10.2091
▁gestion	-10.2092
▁nacionalistas	-10.2092
▁exportacions	-10.2093
▁we	-10.2095
aran	-10.2097
èls	-10.2099
autonòmia	-10.21
objectiu	-10.21
instrument	-10.2102
▁publiquèt	-10.2103
▁tractament	-10.2106
òts	-10.2107
▁juan	-10.2107
expression	-10.2107
▁tecnica	-10.2126
▁romania	-10.2129
▁(«	-10.213
▁tecnic	-10.2131
▁revolucionari	-10.2143
gn	-10.2144
▁quimics	-10.215
dy	-10.2151
▁vien	-10.2152
gada	-10.2155
▁post	-10.2155
▁romanica	-10.2157
▁internacionalas	-10.2158
ovi	-10.216
▁dominat	-10.2161
▁fam	-10.2162
ô	-10.2168
▁capluòc	-10.2168
▁gregorian	-10.2168
▁1959	-10.2169
pau	-10.2185
▁+	-10.2193
▁malautiás	-10.2201
estar	-10.2205
rio	-10.2206
enh	-10.222
establir	-10.2231
▁animal	-10.2233
▁regionala	-10.2237
▁bot	-10.2243
▁hitler	-10.2247
▁signatura	-10.2249
iformes	-10.225
▁contèxte	-10.2255
fra	-10.2259
expedicion	-10.2259
▁revenguts	-10.2264
▁dom	-10.2267
▁[[19	-10.2267
cé	-10.2267
mètre	-10.2268
▁cambièt	-10.227
▁caud	-10.2271
▁rasons	-10.2279
▁cerv	-10.2285
▁pré	-10.2289
poli	-10.229
▁similara	-10.2292
▁provesi	-10.2293
▁caracteriza	-10.2294
ani	-10.2301
▁reco	-10.2311
▁radi	-10.2315
lis	-10.2315
ej	-10.232
sèt	-10.2321
avantatge	-10.2323
▁belgica	-10.2327
▁1958	-10.2328
▁1941	-10.2328
▁estrangiera	-10.2328
▁noms	-10.233
integracion	-10.2342
sida	-10.2343
▁dèu	-10.2344
associacion	-10.2346
▁tren	-10.2348
▁parlat	-10.2357
▁orientau	-10.2357
▁ferr	-10.2364
pter	-10.2371
▁sigue	-10.2372
ual	-10.2374
▁presidenciala	-10.2375
extrèm	-10.2379
▁atomic	-10.2382
eb	-10.2395
▁pierre	-10.2401
adoptar	-10.2407
▁escricha	-10.2407
▁catedrala	-10.2408
▁poblament	-10.2408
▁1962	-10.2409
▁díser	-10.2409
àn	-10.2409
▁decidiguèt	-10.2409
▁proximitat	-10.241
aliment	-10.241
▁200	-10.2411
▁vision	-10.2419
▁puslèu	-10.2424
insureccion	-10.2424
▁mut	-10.2425
▁vai	-10.2426
aute	-10.2429
▁derivat	-10.244
▁questions	-10.2444
▁blòt	-10.2446
▁emp	-10.2452
▁nan	-10.2457
▁fasiá	-10.2461
▁60	-10.2462
tir	-10.2462
anciana	-10.2464
▁materiaus	-10.2468
unic	-10.2471
▁cultural	-10.2472
▁bèl	-10.2475
▁unitat	-10.2476
iti	-10.248
▁servir	-10.2486
▁napoleon	-10.2489
▁refusèt	-10.2489
▁gallés	-10.2489
▁debanèron	-10.249
tria	-10.2491
▁definida	-10.2491
▁refusa	-10.2492
onda	-10.2493
▁defendre	-10.2493
▁electric	-10.2495
▁1956	-10.2495
▁participacion	-10.2496
pus	-10.2499
▁parteja	-10.25
▁còrdas	-10.2501
▁fois	-10.2504
alfabet	-10.2506
carcin	-10.2507
aqueth	-10.2508
fis	-10.2513
exploracion	-10.2514
▁valent	-10.2524
ord	-10.2525
ling	-10.2529
cès	-10.2529
▁semi	-10.253
▁travers	-10.254
quèron	-10.2541
gol	-10.2543
hy	-10.2561
▁auto	-10.2562
▁petit	-10.2563
▁regarda	-10.2568
▁bizantin	-10.2569
▁moscòu	-10.2571
instaura	-10.2571
▁païsans	-10.2572
▁revendicacions	-10.2573
▁sostenguda	-10.2573
▁definitivament	-10.2577
▁aquestas	-10.2584
kar	-10.2584
▁ligat	-10.2588
lei	-10.2592
▁geografica	-10.2592
▁govern	-10.2604
obli	-10.2608
èuro	-10.261
▁corre	-10.2611
▁castelha	-10.2616
▁proven	-10.2617
escriv	-10.2618
▁publicat	-10.2619
tte	-10.262
ngel	-10.2621
▁fremas	-10.2627
▁milan	-10.2646
oxigèn	-10.2651
▁descubèrt	-10.2651
▁seguentas	-10.2653
▁otomans	-10.2653
▁encausa	-10.2654
▁sèrra	-10.2654
inspiracion	-10.2657
▁constituís	-10.2661
▁cavau	-10.2663
▁organica	-10.2665
strat	-10.2667
▁arquitectura	-10.2669
▁taula	-10.2671
▁urbana	-10.2673
cher	-10.2673
▁resultats	-10.2674
mens	-10.2678
▁pereu	-10.2682
dica	-10.2684
▁mod	-10.2686
▁antic	-10.2689
aga	-10.2703
chas	-10.2704
▁indians	-10.2709
▁arriba	-10.2711
▁menar	-10.2711
rada	-10.2715
tis	-10.2715
▁sang	-10.2737
▁wikipèdia	-10.2737
▁linux	-10.2738
▁vadó	-10.2739
▁levat	-10.2743
▁sta	-10.2748
▁gascona	-10.2749
àrias	-10.2761
gur	-10.2762
arrestar	-10.2764
▁majoras	-10.2765
▁je	-10.2768
dau	-10.2771
▁arma	-10.2772
onu	-10.2773
▁mòrts	-10.279
▁demission	-10.2791
une	-10.2797
▁80	-10.2802
▁tradu	-10.2805
▁menat	-10.2807
char	-10.281
▁cònsol	-10.2821
▁danemarc	-10.2821
▁democracia	-10.2821
edifici	-10.2822
▁inspirat	-10.2822
▁1917	-10.2822
▁1929	-10.2822
▁multiplicacion	-10.2823
mia	-10.2826
elha	-10.2826
▁besonhs	-10.284
▁mondial	-10.2841
▁aparegut	-10.2843
emplega	-10.2845
▁intèrnas	-10.2857
▁sosten	-10.2866
▁medish	-10.2879
quia	-10.2881
far	-10.2886
org	-10.2889
bèrt	-10.2895
▁bl	-10.2897
▁500	-10.29
òbras	-10.2901
о	-10.2906
▁conversion	-10.2906
▁dialect	-10.2906
▁concern	-10.2906
▁realizèt	-10.2906
▁turquia	-10.2906
▁quadre	-10.2907
▁1979	-10.2908
▁originas	-10.2913
▁1972	-10.2913
▁fondamentala	-10.2913
▁explica	-10.2914
▁federala	-10.2916
animau	-10.2917
▁mascle	-10.2917
exili	-10.2918
▁scientifics	-10.2922
eses	-10.2925
▁òm	-10.2928
unificacion	-10.2928
▁nomenada	-10.2938
nada	-10.2942
▁barra	-10.2946
▁quimica	-10.2951
▁arn	-10.2959
▁datan	-10.2962
italian	-10.2966
▁basc	-10.2969
▁german	-10.2971
esti	-10.2978
▁faguèron	-10.2986
homo	-10.2987
▁liames	-10.299
▁saber	-10.2991
ا	-10.2991
▁proporcion	-10.2991
▁paquistan	-10.2992
▁polonesa	-10.2992
▁corrupcion	-10.2992
▁1968	-10.2992
▁1964	-10.2993
cidèt	-10.2994
▁meridionala	-10.2996
eleccions	-10.2996
▁platon	-10.2996
▁administratiu	-10.2997
chin	-10.2999
▁peir	-10.3002
▁projèctes	-10.3002
▁catalans	-10.3013
▁vins	-10.3019
estaca	-10.3021
▁°	-10.3024
dèl	-10.3025
▁social	-10.3025
▁nucleara	-10.3027
▁2006.	-10.3036
▁seguir	-10.3036
▁molecula	-10.3043
▁faire	-10.3044
exprim	-10.3044
▁energia	-10.3046
▁electrica	-10.305
ataca	-10.3054
▁manjar	-10.3064
▁apareis	-10.3068
esta	-10.307
izats	-10.3075
aude	-10.3076
▁1974	-10.3081
▁agantè	-10.3082
▁vertadiera	-10.3085
▁(6	-10.3088
▁utilizacion	-10.3092
▁opausat	-10.3092
▁maritim	-10.3098
acaba	-10.3099
▁dominada	-10.3101
▁chap	-10.3102
▁fra	-10.3108
▁zo	-10.3108
▁raimon	-10.3109
▁mand	-10.3111
▁equipa	-10.3114
uèlh	-10.3115
▁union	-10.3116
▁dirècta	-10.3117
▁wi	-10.3117
▁neo	-10.3122
annexion	-10.3123
tus	-10.3128
▁ganha	-10.3132
por	-10.3133
▁esclaus	-10.3134
▁centralas	-10.3136
▁causas	-10.314
sin	-10.3143
ico	-10.3144
▁guerilha	-10.3144
▁vice	-10.3145
our	-10.3145
▁societats	-10.3147
▁entièr	-10.3149
▁signes	-10.3149
▁capable	-10.3157
▁bèla	-10.3159
▁contunièron	-10.3165
▁judaïsme	-10.3165
▁bronze	-10.3165
▁cit	-10.3165
▁prigond	-10.3165
▁quimista	-10.3165
▁justícia	-10.3165
mica	-10.3168
ance	-10.3169
▁naviris	-10.317
▁catolics	-10.3172
uelh	-10.3173
ivas	-10.3174
▁1955	-10.3175
▁1870	-10.3176
▁remonta	-10.3179
▁precedent	-10.318
▁participa	-10.318
▁sec	-10.3187
▁capables	-10.3191
▁recenta	-10.3192
▁francs	-10.3193
▁emplegat	-10.3196
▁zonas	-10.3202
-"	-10.3204
▁depend	-10.3206
istic	-10.3208
udi	-10.3215
▁mé	-10.3217
▁entraïnat	-10.322
▁particularament	-10.3224
▁marina	-10.3225
▁bell	-10.3225
segu	-10.3226
▁nomat	-10.3228
▁reina	-10.3239
▁tribüs	-10.3247
▁liats	-10.3249
▁nombrós	-10.3252
▁literari	-10.3252
▁mistralenca	-10.3253
▁berlin	-10.3255
▁solelh	-10.3256
▁competicion	-10.3256
▁especial	-10.3256
▁river	-10.3259
▁sètge	-10.3263
ere	-10.3266
▁dal	-10.3267
ami	-10.3268
▁parlada	-10.327
grand	-10.327
cte	-10.3271
mos	-10.3274
▁plata	-10.3279
▁carn	-10.3281
▁divisions	-10.3282
▁joseph	-10.3282
chy	-10.3288
▁1900	-10.3289
▁decid	-10.329
▁crisis	-10.3292
▁debana	-10.3294
2)	-10.3299
lisme	-10.33
▁viol	-10.3309
mur	-10.331
eròi	-10.3316
▁ali	-10.332
▁animals	-10.332
▁reiau	-10.3325
anc	-10.3326
ange	-10.3327
edicion	-10.333
▁tir	-10.3332
nau	-10.3335
▁sociau	-10.3337
е	-10.3341
▁magnetic	-10.3341
▁autas	-10.3341
▁marchand	-10.3342
▁apelat	-10.3342
▁1973	-10.3343
▁mainatge	-10.3343
▁pichonas	-10.3344
▁nacion	-10.3346
yn	-10.3349
▁intèrnes	-10.3363
igny	-10.3375
▁utilizadas	-10.3376
▁despart	-10.3376
mpa	-10.3378
▁fond	-10.3378
▁elegits	-10.3403
▁israèl	-10.3408
ible	-10.3408
▁vend	-10.3414
bot	-10.3415
▁comerciaus	-10.3418
ɛ	-10.343
▁reconeguda	-10.343
▁maquina	-10.343
got	-10.3431
▁consistís	-10.3432
▁lentament	-10.3432
▁not	-10.3437
gia	-10.3437
▁1790	-10.3438
▁declara	-10.3452
▁inf	-10.3453
▁actiu	-10.3455
hé	-10.3456
vida	-10.3456
▁fotografia	-10.3461
àustria	-10.3464
intensitat	-10.3464
▁vietnam	-10.3471
▁foncions	-10.3471
▁|-	-10.3481
▁lacs	-10.3486
▁expansion	-10.3489
▁fuòc	-10.349
▁resèrvas	-10.349
irac	-10.3492
riu	-10.35
▁bou	-10.35
▁sultan	-10.3507
bit	-10.3508
mn	-10.3512
▁occidentau	-10.3513
▁decision	-10.3513
▁gròs	-10.3515
eveniment	-10.3517
▁perilh	-10.3517
▁tai	-10.3517
▁mira	-10.3517
ech	-10.3517
▁destria	-10.3518
▁regular	-10.3518
bos	-10.3519
▁armas	-10.352
▁numèro	-10.352
▁portuguesa	-10.352
▁possibla	-10.352
▁reduccion	-10.352
▁maxim	-10.3521
▁village	-10.3523
▁cara	-10.3523
▁nord	-10.3525
▁invasions	-10.3531
▁estudiè	-10.3531
hau	-10.3533
▁rotacion	-10.3533
▁tur	-10.3534
ía	-10.3536
dins	-10.3538
vé	-10.3539
lier	-10.3546
▁conserva	-10.3547
pra	-10.3551
▁rom	-10.3554
▁completa	-10.3554
explica	-10.3556
cip	-10.3558
▁mecanica	-10.3561
▁perque	-10.3566
lè	-10.3569
▁companhiás	-10.3574
eli	-10.3575
▁tornat	-10.3576
guè	-10.3583
▁cadun	-10.3585
▁basas	-10.359
-13	-10.3594
▁sim	-10.3602
▁compl	-10.3607
▁disciplina	-10.3607
▁còngo	-10.3611
▁rompedura	-10.3611
▁flòta	-10.3611
▁bodista	-10.3611
▁cariba	-10.3612
dom	-10.3614
▁sostenguèt	-10.3616
▁seria	-10.362
▁renfòrçar	-10.3621
▁barròc	-10.3624
▁respectivament	-10.3627
von	-10.3629
bilitat	-10.3637
▁bordèu	-10.3639
iste	-10.3642
▁larga	-10.3644
espècia	-10.365
▁oficial	-10.3655
▁georgia	-10.3657
▁industriau	-10.3658
astre	-10.3662
ças	-10.3666
alha	-10.3668
▁pilh	-10.3674
▁instrument	-10.3677
nos	-10.3688
▁vint	-10.3689
▁0	-10.3689
òp	-10.3693
▁resta	-10.3694
▁vertadier	-10.3695
▁bretanha	-10.3703
▁desconeguda	-10.3703
olimpic	-10.3703
▁favorabla	-10.3703
▁sistematica	-10.3704
▁bloca	-10.3704
▁1985	-10.3704
▁1907	-10.3704
▁1926	-10.3704
▁franceses	-10.3705
▁recampa	-10.3706
▁separacion	-10.3707
▁nazi	-10.3712
imne	-10.3718
▁quau	-10.372
▁red	-10.3725
▁frequenta	-10.3725
engatja	-10.3729
▁trobat	-10.3731
▁volcans	-10.3733
▁cli	-10.3733
ussa	-10.3737
leu	-10.3739
▁bòsc	-10.374
▁african	-10.3744
▁solid	-10.3745
escala	-10.3749
pren	-10.3756
zin	-10.3756
oses	-10.3757
▁basco	-10.3763
ps	-10.3763
dio	-10.3764
▁bastiments	-10.3772
▁multi	-10.3779
izèt	-10.3783
▁diferenta	-10.3785
lou	-10.3794
▁cou	-10.3795
▁mètge	-10.3796
analisi	-10.3796
▁sahara	-10.3798
▁principat	-10.3799
▁dirigir	-10.3799
▁director	-10.3801
▁1982	-10.3803
▁basses	-10.3806
▁negociar	-10.3806
▁vers	-10.381
▁adoptèron	-10.3815
▁representan	-10.3817
ome	-10.3823
▁blat	-10.3825
▁dirècte	-10.3833
▁cav	-10.3837
2,	-10.384
iran	-10.3842
▁indigènas	-10.3851
▁volcanica	-10.3853
estamp	-10.3857
-2	-10.3857
▁egipcian	-10.3858
aups	-10.3859
▁cambis	-10.3864
▁tru	-10.3868
▁fen	-10.387
eus	-10.3873
▁vei	-10.3874
▁basti	-10.3876
▁parlars	-10.3878
mus	-10.3881
▁emplega	-10.3883
▁colors	-10.3884
▁concentra	-10.3884
▁felibritge	-10.3889
▁sicília	-10.3889
▁diferencia	-10.3889
▁darrèr	-10.3889
vir	-10.389
azòt	-10.3892
osfèra	-10.3893
▁mans	-10.3896
eth	-10.3899
▁republican	-10.39
▁avançada	-10.3901
▁cop	-10.3903
▁estrech	-10.3903
▁tau	-10.3906
▁lengatge	-10.3914
▁seu	-10.3921
▁ongrés	-10.3922
accent	-10.3927
▁ducat	-10.3932
▁personatges	-10.3932
▁representat	-10.3932
▁ilh	-10.3936
▁croat	-10.3936
▁altitud	-10.3944
estadi	-10.3951
▁medievala	-10.3952
▁libres	-10.3952
▁sit	-10.3956
▁manten	-10.3956
opausa	-10.3957
lenga	-10.3966
agantar	-10.3967
▁presents	-10.3973
▁sieuna	-10.3976
▁donadas	-10.3976
▁collègi	-10.3983
▁volontat	-10.3983
escòcia	-10.3983
▁piemont	-10.3983
▁provisòri	-10.3983
▁femèla	-10.3983
▁frederic	-10.3983
▁judieus	-10.3983
▁setmana	-10.3983
▁david	-10.3985
▁tèsta	-10.3985
▁crestian	-10.3985
...(	-10.399
▁inferior	-10.3996
▁santat	-10.3999
ik	-10.4003
▁vòu	-10.4006
▁pena	-10.4008
▁fabrica	-10.401
▁madrid	-10.4013
▁facilita	-10.4015
▁segondari	-10.4017
gio	-10.4019
▁dieus	-10.402
tivas	-10.4026
–	-10.4028
▁plans	-10.403
azur	-10.4035
ité	-10.4036
gü	-10.4038
▁deriva	-10.4044
dir	-10.4046
mann	-10.4051
cit	-10.4052
▁demorar	-10.4053
gò	-10.4055
▁cuba	-10.4059
▁canau	-10.4066
▁permanenta	-10.4068
▁accept	-10.407
-14	-10.4076
▁objècte	-10.4078
р	-10.4078
▁resistir	-10.4079
▁tecnologia	-10.4079
▁territoriala	-10.4079
▁judiciari	-10.4079
▁diferent	-10.4079
▁podriá	-10.4079
▁fri	-10.4089
pal	-10.4089
▁complèxa	-10.409
▁causada	-10.4094
▁pintor	-10.4097
òde	-10.4098
▁carl	-10.4103
electricitat	-10.4103
▁constituit	-10.4104
ok	-10.4107
▁pesca	-10.4109
qué	-10.4114
▁-2	-10.4114
uba	-10.4116
▁comitat	-10.4117
▁abita	-10.412
leg	-10.4122
organisme	-10.4127
▁vèn	-10.4128
ado	-10.4131
▁ròca	-10.4133
▁marx	-10.4133
▁arron	-10.4137
▁industrial	-10.4137
▁obtenir	-10.4145
▁vit	-10.4145
hat	-10.4145
▁musulmana	-10.4155
nder	-10.4161
acte	-10.4164
èir	-10.4164
interessa	-10.4166
òmi	-10.4167
▁provençau	-10.4169
aud	-10.4172
▁bens	-10.4172
arquitècte	-10.4175
▁berbèr	-10.4175
▁1954	-10.4176
▁traças	-10.4177
▁supòrt	-10.4178
▁civilizacions	-10.4181
▁normalament	-10.4182
▁document	-10.4182
▁vira	-10.4182
▁rarament	-10.4184
▁prom	-10.4186
▁dificultat	-10.4193
▁parc	-10.4194
▁austrian	-10.42
▁particularitat	-10.42
▁liquid	-10.42
▁monta	-10.4202
▁seuva	-10.4203
▁lexic	-10.421
▁metaus	-10.4211
▁modifica	-10.4211
▁domina	-10.4222
aglomeracion	-10.4222
▁exterior	-10.4224
▁glèisas	-10.4225
▁coloniala	-10.4225
▁donada	-10.4229
ime	-10.4233
▁liada	-10.4245
▁reaccions	-10.4247
onci	-10.4256
]])	-10.4261
▁temptativas	-10.4264
mbi	-10.4264
▁bulgar	-10.4266
▁vinha	-10.427
▁mistral	-10.4271
▁estandard	-10.4271
acadèmia	-10.4272
▁monastèri	-10.4272
▁dictatura	-10.4272
eqüator	-10.4272
▁mars	-10.4273
▁1984	-10.4273
▁antòni	-10.4273
▁chèc	-10.4274
▁elèits	-10.4279
▁nacionalisme	-10.4281
▁bearnés	-10.4282
▁occidental	-10.4284
ieo	-10.4284
intrar	-10.4287
▁contunha	-10.4291
▁condicion	-10.4294
acabar	-10.4299
▁diccionari	-10.4301
▁jun	-10.4302
▁poderosa	-10.4306
▁cima	-10.4316
vor	-10.4318
▁aplicacion	-10.4322
eissida	-10.4322
▁diferéncias	-10.4324
▁separat	-10.4324
▁particulara	-10.433
esco	-10.433
escriu	-10.4332
omat	-10.4335
▁podiá	-10.4342
▁autoritat	-10.4344
▁tè	-10.4355
rum	-10.4365
▁entraïnada	-10.4366
ània	-10.4367
fil	-10.4367
▁soas	-10.437
▁imperiala	-10.437
▁mercuri	-10.437
▁nòstra	-10.437
▁obtenguèron	-10.437
▁gramatica	-10.437
▁prumèr	-10.437
▁fraires	-10.4371
but	-10.4371
▁micro	-10.4372
▁1986	-10.4372
▁niça	-10.4378
blan	-10.4383
▁ucraïnian	-10.4394
ière	-10.4398
▁parladas	-10.4399
▁bastiment	-10.4406
▁edat	-10.4407
▁manuel	-10.4412
▁conven	-10.4414
òsa	-10.4446
▁sectors	-10.4451
jon	-10.4452
▁regional	-10.4458
▁pòl	-10.4464
▁tom	-10.4465
▁prat	-10.4468
▁utilizan	-10.4468
▁dimension	-10.4469
▁çaquelà	-10.4469
▁gironda	-10.4469
invencion	-10.4469
▁distint	-10.447
▁restablir	-10.4472
▁cru	-10.4475
arquet	-10.4475
▁perdut	-10.4476
▁generalitat	-10.4482
▁ipotèsi	-10.4482
hard	-10.4483
▁fondamentau	-10.4486
▁beau	-10.4489
impausar	-10.4491
▁ordonè	-10.4493
▁solet	-10.4495
lie	-10.4496
▁brut	-10.4497
ite	-10.4497
▁etapa	-10.45
vita	-10.45
▁darrièrs	-10.4503
evesque	-10.4508
▁originari	-10.4511
aquitània	-10.4523
▁plo	-10.4525
▁cantons	-10.4527
▁fossils	-10.4528
▁facha	-10.4528
▁sonat	-10.4533
▁casa	-10.4535
ocupa	-10.4549
▁arts	-10.4554
etica	-10.4556
▁rotas	-10.4566
▁colómbia	-10.4569
▁guilhèm	-10.4569
▁malaisat	-10.4569
▁dolars	-10.4569
▁arrestat	-10.4569
▁aguent	-10.457
▁1949	-10.457
▁demenir	-10.457
▁1933	-10.457
▁reproduccion	-10.457
acabèron	-10.4571
▁compara	-10.4572
▁1963	-10.4572
▁(10	-10.4574
▁chambra	-10.4575
▁banca	-10.4575
ave	-10.4576
▁trachs	-10.4577
▁barb	-10.4583
▁prepausèt	-10.4585
▁trop	-10.4586
▁converti	-10.4595
▁meses	-10.4596
iel	-10.4597
uk	-10.4597
▁marcha	-10.4603
▁ple	-10.4603
▁parlan	-10.4609
▁desvolopada	-10.4614
▁centres	-10.4614
iè	-10.4622
▁armenia	-10.4624
exemple	-10.4625
ifòrmes	-10.4627
▁quimicas	-10.4628
▁vièlha	-10.4628
▁sup	-10.4633
▁presentar	-10.4635
▁fal	-10.4636
ejada	-10.464
▁associacion	-10.4653
pap	-10.4653
▁transforma	-10.4656
▁continentala	-10.4665
erupcion	-10.4667
▁iberica	-10.467
▁locutors	-10.467
▁traduccion	-10.4671
▁modernizacion	-10.4671
▁universitat	-10.4672
▁vencut	-10.4674
▁suscitè	-10.4674
fl	-10.4675
▁300	-10.4676
franc	-10.4676
element	-10.4676
▁trabalhar	-10.4676
▁mòde	-10.4677
▁ensembles	-10.4679
▁1936	-10.4679
adaptacion	-10.468
vier	-10.4687
eau	-10.4688
ther	-10.4689
mel	-10.4697
▁cana	-10.4697
,6	-10.4702
▁grande	-10.4702
artista	-10.4708
aira	-10.4708
▁raça	-10.4722
esperit	-10.4722
▁tribús	-10.4723
▁gel	-10.4727
▁divèrs	-10.4731
▁entitat	-10.4737
▁ostau	-10.4744
▁certana	-10.475
▁tradicionaus	-10.4753
▁albi	-10.4758
ides	-10.4765
▁piramida	-10.4772
▁trobèt	-10.4772
▁jaume	-10.4772
▁refús	-10.4772
▁rapòrt	-10.4774
▁consul	-10.4775
▁kh	-10.4778
▁khan	-10.478
oise	-10.478
▁biologia	-10.4781
▁declaracion	-10.4783
kin	-10.479
▁lion	-10.4792
rèc	-10.4793
odon	-10.4795
▁viure	-10.4796
arabi	-10.4798
▁representar	-10.4803
▁assaia	-10.4807
▁etiopia	-10.4814
▁mou	-10.4822
▁daissa	-10.4829
,5%	-10.4829
▁recent	-10.4834
frança	-10.4836
uch	-10.4836
wan	-10.4838
gus	-10.4843
escultura	-10.4849
▁ville	-10.4856
▁ela	-10.486
▁respect	-10.4862
mm	-10.4867
▁cèl	-10.4869
▁pot	-10.4871
cent	-10.4873
н	-10.4874
_1	-10.4875
▁contemporanèu	-10.4875
▁filosofic	-10.4875
▁portugal	-10.4875
▁kenya	-10.4875
▁croàcia	-10.4875
▁1977	-10.4876
▁participèron	-10.4876
▁establit	-10.4876
▁rivau	-10.4877
▁marrida	-10.4877
▁constituisson	-10.4878
▁interpret	-10.488
▁utilizar	-10.4881
uas	-10.4882
▁joga	-10.4883
▁conservador	-10.4884
▁manièra	-10.4885
▁constantin	-10.4887
▁modern	-10.4891
administra	-10.4892
▁modèrnes	-10.4896
empachèt	-10.4896
fè	-10.4901
▁violenta	-10.4901
estabilitat	-10.4902
▁ièr	-10.4903
▁integrat	-10.4909
▁autonòm	-10.4913
çò	-10.4928
▁albert	-10.4938
▁occidentalas	-10.4939
mapa	-10.4939
▁musulman	-10.4942
▁locau	-10.4948
▁considèra	-10.495
▁quantitats	-10.4956
encs	-10.4965
rod	-10.4966
▁caracteristic	-10.4969
▁simpla	-10.4969
▁borges	-10.4969
▁teoric	-10.4973
▁conferéncia	-10.4979
▁picchu	-10.4979
▁tèrratrem	-10.4979
▁besièrs	-10.4979
▁aumentèt	-10.498
▁1961	-10.498
▁1928	-10.498
▁1921	-10.498
▁renforcèt	-10.4982
▁catolicisme	-10.4982
▁vapor	-10.4982
pod	-10.4984
▁new	-10.4984
zan	-10.4987
▁1830	-10.4989
▁proprietaris	-10.4993
▁total	-10.5001
▁gàllia	-10.5002
ole	-10.5002
▁nomena	-10.5003
elh	-10.5003
▁(5	-10.5004
▁onor	-10.5008
rai	-10.5008
fla	-10.5009
▁terra	-10.5009
▁organizacions	-10.5009
▁demografica	-10.501
▁unitats	-10.5014
▁obratge	-10.5016
▁comunitat	-10.502
▁comanda	-10.502
▁campanhas	-10.5021
▁escòla	-10.5024
umanitat	-10.5026
▁problèmas	-10.5029
▁mono	-10.5032
parent	-10.5034
rem	-10.5036
▁majors	-10.5049
▁canon	-10.5051
▁tomb	-10.5052
airal	-10.5057
▁liberala	-10.507
▁reüni	-10.5073
▁cm	-10.5076
astronomia	-10.5084
paréisser	-10.5084
▁miquèu	-10.5084
▁ortodòx	-10.5084
▁jèsus	-10.5084
bis	-10.5084
arrondiment	-10.5085
▁definís	-10.5085
▁1923	-10.5085
▁diamètre	-10.5085
▁1932	-10.5085
▁fèsta	-10.5086
▁1922	-10.5086
▁1943	-10.5086
▁sòci	-10.5087
▁1905	-10.5088
▁1971	-10.5089
▁kan	-10.509
▁sentiment	-10.509
▁pagan	-10.5091
estèla	-10.5097
▁parents	-10.5098
▁sociaus	-10.5103
▁modèrnas	-10.5106
albi	-10.511
▁aganta	-10.5117
▁chu	-10.5118
▁ol	-10.5122
▁chau	-10.513
ice	-10.5132
cop	-10.5141
▁contunh	-10.5142
cla	-10.5144
organizèron	-10.5149
ofensiva	-10.5151
▁70	-10.5157
flu	-10.5159
▁autes	-10.5161
èlas	-10.5166
odor	-10.5168
▁mantuna	-10.5171
▁seuvas	-10.5171
clav	-10.5171
▁litoral	-10.5171
▁pala	-10.5176
armas	-10.5179
▁chic	-10.5183
▁acceptar	-10.5187
▁lach	-10.5187
▁legitim	-10.5188
▁vriulon	-10.5191
▁paraguai	-10.5191
▁1880	-10.5191
▁succediguèt	-10.5191
▁dispareguèt	-10.5191
gres	-10.5192
eux	-10.5192
▁1942	-10.5192
▁1988	-10.5192
▁1953	-10.5192
▁1911	-10.5192
▁contengut	-10.5193
▁1912	-10.5193
partit	-10.5194
kan	-10.5198
▁individús	-10.5198
▁clara	-10.5201
ordinator	-10.5205
▁gaston	-10.5207
▁organismes	-10.5209
ïsme	-10.521
▁artistica	-10.5212
▁gro	-10.5212
▁ya	-10.5216
terre	-10.5217
▁intervencion	-10.5219
▁may	-10.5222
▁pareu	-10.5226
▁cros	-10.5228
▁lituània	-10.5233
▁simon	-10.5234
▁tonas	-10.5235
▁pèrdas	-10.5237
▁actritz	-10.524
▁coneish	-10.5242
▁sarra	-10.5243
▁temp	-10.5244
▁possession	-10.5251
mbo	-10.526
sègle	-10.526
avián	-10.5266
▁tha	-10.5268
▁otomana	-10.5271
▁arc	-10.5274
▁pròpri	-10.5286
▁protestants	-10.5288
uga	-10.5288
▁jogar	-10.5291
▁paris	-10.5296
▁norvègia	-10.5298
▁sempre	-10.5298
▁transformè	-10.5299
▁1976	-10.53
▁tribut	-10.53
▁valadas	-10.5301
▁1981	-10.5302
▁1978	-10.5304
fòn	-10.5306
▁permés	-10.5307
▁darriera	-10.5307
▁oras	-10.531
▁1890	-10.5313
gèt	-10.532
▁modificacion	-10.5325
▁necessitat	-10.5326
▁màgers	-10.5326
psi	-10.5328
▁mineral	-10.533
ller	-10.5339
ibn	-10.5339
▁tractats	-10.5341
▁demora	-10.5343
▁depinta	-10.5352
▁ramon	-10.5353
▁espe	-10.5353
▁començar	-10.5355
▁vu	-10.5357
èsse	-10.5359
dou	-10.5364
▁turin	-10.5368
còr	-10.5368
▁lingüistic	-10.5371
tina	-10.5373
èrna	-10.5377
▁solara	-10.5382
▁nigèr	-10.5401
cos	-10.5403
▁norma	-10.5405
▁1969	-10.5406
indústria	-10.5407
▁conclu	-10.5407
▁descendent	-10.5407
▁neptun	-10.5407
▁television	-10.5407
▁comportament	-10.5407
abadiá	-10.5407
▁tanzania	-10.5407
▁difusè	-10.5407
▁difusa	-10.5407
▁1987	-10.5408
▁1913	-10.5408
▁francisco	-10.5409
▁charanta	-10.5409
▁mit	-10.541
▁senhoriá	-10.5411
▁aperat	-10.5413
▁votz	-10.5413
▁filme	-10.5416
▁apond	-10.5416
▁realizacion	-10.5421
*	-10.5426
▁escrich	-10.544
lor	-10.5441
▁cho	-10.5441
▁menciona	-10.5449
▁iran	-10.5451
▁imagin	-10.5457
▁vocala	-10.5458
▁prov	-10.5458
isla	-10.5469
▁peis	-10.547
aquí	-10.5471
▁poèmas	-10.5472
ioxid	-10.5479
alemand	-10.5489
▁(7	-10.5491
,7	-10.5494
bur	-10.5508
irós	-10.5508
▁principats	-10.5513
afebliment	-10.5517
▁contemporanèa	-10.5517
▁prosperitat	-10.5517
▁jacme	-10.5517
▁marròc	-10.5517
▁papier	-10.5517
▁borbon	-10.5518
▁1965	-10.5518
emplec	-10.5522
alimentacion	-10.5522
▁baron	-10.5523
med	-10.5523
interessèt	-10.5525
artesan	-10.5533
▁150	-10.5534
[[	-10.5541
▁negres	-10.5541
▁arras	-10.5543
arre	-10.5545
vert	-10.5551
▁integr	-10.5557
▁volcan	-10.5562
mandèt	-10.5562
▁octòbre	-10.5565
▁bord	-10.5567
▁siás	-10.5568
▁missions	-10.5572
▁argentin	-10.5574
▁luis	-10.5577
▁solida	-10.5577
lim	-10.558
▁tel	-10.5585
▁monge	-10.5586
▁dichas	-10.5588
▁liber	-10.559
+	-10.5593
austràlia	-10.5593
▁explicar	-10.5606
lem	-10.5606
pé	-10.5607
▁illa	-10.5607
▁joana	-10.5608
▁nada	-10.5613
▁luc	-10.5613
▁ongria	-10.5614
▁metau	-10.5616
▁comencè	-10.5616
▁lombard	-10.5622
lica	-10.5623
▁sobeirans	-10.5624
▁francesas	-10.5624
▁paulo	-10.5625
agravèt	-10.5628
azerbaitjan	-10.5628
▁influenciat	-10.5628
▁venècia	-10.5628
▁perseguida	-10.5628
▁universau	-10.5628
▁disney	-10.5629
▁mir	-10.5629
▁1951	-10.5629
▁adaptat	-10.5629
▁brèva	-10.5629
▁satellits	-10.5629
▁ambicions	-10.563
▁foncionaris	-10.5633
▁variadas	-10.5642
▁successors	-10.5645
«	-10.5648
▁oceanic	-10.5648
▁còla	-10.5651
istori	-10.5652
▁escrivans	-10.566
▁destinadas	-10.5661
▁valors	-10.5669
clar	-10.5674
burg	-10.5674
▁fòrtament	-10.5678
▁implica	-10.5679
▁pèl	-10.5683
▁album	-10.5684
▁wo	-10.5688
igne	-10.5689
venir	-10.569
▁petro	-10.569
▁manja	-10.5691
mita	-10.5695
3%	-10.5702
avó	-10.5703
▁escòlas	-10.5703
▁demòran	-10.5703
▁tuat	-10.571
▁installats	-10.5712
num	-10.5712
▁destinada	-10.5712
▁constanta	-10.5713
estacion	-10.5713
▁baish	-10.5717
▁limita	-10.5718
▁intellectuau	-10.5722
tenguèt	-10.5725
pend	-10.5725
▁transferi	-10.5727
▁teorias	-10.5727
▁guer	-10.5734
▁porta	-10.5736
après	-10.5739
▁autoctòn	-10.574
▁carolingian	-10.574
▁longtemps	-10.574
▁prefectura	-10.574
▁continua	-10.574
▁senèstra	-10.574
▁retirada	-10.574
▁neolitic	-10.574
opausèt	-10.5741
▁sobeiranetat	-10.5741
▁1967	-10.5741
▁1952	-10.5741
▁confederacion	-10.5742
▁1935	-10.5742
▁signè	-10.5742
▁recebut	-10.5743
▁arbre	-10.5745
▁organizadas	-10.5745
para	-10.5746
▁japonesa	-10.5747
▁instruments	-10.5754
gor	-10.5755
▁2004.	-10.5759
▁villa	-10.576
empl	-10.5764
▁carlos	-10.5769
▁imatge	-10.5771
▁cro	-10.5779
▁egau	-10.5781
endre	-10.5783
▁fait	-10.5787
urg	-10.5789
▁marie	-10.5793
▁pròpris	-10.5795
▁metropolitana	-10.5795
tel	-10.5797
▁plaçat	-10.5798
▁escriguèt	-10.58
▁axe	-10.5805
ii	-10.5808
▁ham	-10.5811
▁imp	-10.5817
eira	-10.5818
trop	-10.5819
▁depaus	-10.582
▁estructuras	-10.5821
unica	-10.5823
▁oriental	-10.5824
opausar	-10.5828
shi	-10.5828
▁onda	-10.5829
▁juss	-10.5835
▁actualas	-10.5842
▁factors	-10.585
▁caractèrs	-10.5853
▁règne	-10.5854
▁coneissença	-10.5854
▁precís	-10.5854
▁iraquian	-10.5854
▁puèg	-10.5854
▁divinitat	-10.5856
▁shen	-10.5856
▁secretari	-10.5856
▁vivon	-10.5858
▁tocat	-10.5858
▁istorics	-10.5859
inhac	-10.586
▁costum	-10.5862
▁causse	-10.5863
▁occidentaus	-10.5864
▁centrat	-10.5868
▁nimes	-10.5868
▁melhorament	-10.5876
▁dobla	-10.5878
▁variabla	-10.5883
▁revolucionària	-10.5883
▁nais	-10.5889
▁crè	-10.589
▁captura	-10.589
▁capitada	-10.589
▁musicians	-10.5893
▁von	-10.5898
ivitat	-10.5902
▁real	-10.5903
▁venceires	-10.5904
▁sap	-10.5907
▁reis	-10.5911
dos	-10.5915
▁jornal	-10.5915
antas	-10.5916
▁conservat	-10.5918
▁aperten	-10.592
▁feli	-10.5929
dieu	-10.5931
cf	-10.5931
▁tradicionalas	-10.5935
▁voliá	-10.5936
intervencion	-10.5938
entraïnèt	-10.5939
▁considera	-10.5941
puish	-10.5941
▁elle	-10.5942
▁districte	-10.5945
idrocarburs	-10.5969
▁latitud	-10.5969
▁avocat	-10.5969
▁coneguèt	-10.5969
▁pèrsia	-10.5969
▁etnica	-10.597
▁bòrd	-10.597
▁1924	-10.597
▁1934	-10.597
▁cafè	-10.5971
▁demandèt	-10.5972
▁parlamentària	-10.5974
▁aumentar	-10.5975
▁bulgaria	-10.5976
objèctes	-10.598
▁artistas	-10.5982
gle	-10.5983
▁peter	-10.5987
▁estudiar	-10.5988
bèl	-10.5993
▁còde	-10.5994
▁despend	-10.5998
axi	-10.5999
aisament	-10.6001
▁abriu	-10.6003
▁considerar	-10.6006
▁lhi	-10.6006
▁dreit	-10.6013
▁primièras	-10.603
▁mel	-10.603
▁castel	-10.6034
▁dominanta	-10.6036
▁paraulas	-10.6047
▁aran	-10.6047
▁nat	-10.6047
rom	-10.605
eliminar	-10.6055
▁aragonés	-10.6058
zac	-10.6065
long	-10.6069
▁democratic	-10.6074
▁article	-10.6083
espandi	-10.6083
▁combustible	-10.6085
▁sardenha	-10.6085
▁navèra	-10.6085
▁jazz	-10.6085
▁cratèr	-10.6085
▁pasteur	-10.6086
avairon	-10.6086
▁dotze	-10.6086
▁renovela	-10.6086
▁polícia	-10.6086
▁1908	-10.6086
▁miliers	-10.6088
▁donèron	-10.6089
▁operacions	-10.6093
archi	-10.6097
▁permanent	-10.6099
▁interior	-10.6103
▁comtes	-10.6104
organ	-10.6106
▁variats	-10.611
▁substàncias	-10.6114
▁espaciala	-10.6116
▁nòtar	-10.6122
▁emplec	-10.6123
▁estudiant	-10.6124
▁act	-10.6131
▁modèls	-10.6145
▁regionalas	-10.6146
▁liadas	-10.6153
ota	-10.6154
mport	-10.6154
▁aquera	-10.6154
▁endrech	-10.6167
▁nòta	-10.6168
essor	-10.6169
grama	-10.6171
▁escriure	-10.6171
▁considerats	-10.6175
▁tele	-10.618
▁roges	-10.618
▁quin	-10.6182
▁fonda	-10.6182
▁migracions	-10.6187
estrech	-10.6188
issant	-10.6195
].	-10.6196
▁similaras	-10.6201
▁portar	-10.6202
▁companh	-10.6203
▁budget	-10.6203
▁conoissença	-10.6203
▁finlàndia	-10.6203
▁metallurgia	-10.6203
▁plueja	-10.6203
▁resòuvre	-10.6203
▁taxon	-10.6203
▁femenin	-10.6203
▁quebèc	-10.6203
▁1910	-10.6205
téner	-10.6206
▁molin	-10.6206
▁logica	-10.6206
▁responsable	-10.6207
▁1983	-10.6207
▁vigor	-10.6208
▁edicions	-10.6211
▁1848	-10.6212
▁1860	-10.6213
▁bernat	-10.6214
▁federau	-10.6216
▁laissar	-10.6216
▁departaments	-10.6217
▁massas	-10.6218
otís	-10.6219
ables	-10.6227
avesque	-10.6232
guèsse	-10.6234
▁visita	-10.6236
estima	-10.6239
▁femnas	-10.624
integrar	-10.6244
▁facto	-10.6245
rèi	-10.6249
▁extèrnes	-10.6255
▁rib	-10.6255
▁libia	-10.6259
▁califat	-10.626
▁remplaçar	-10.6262
▁botan	-10.6263
▁arribar	-10.6269
▁karl	-10.6272
▁sòu	-10.6272
▁pèiras	-10.6273
▁estable	-10.6276
’"	-10.6279
ensis	-10.6281
▁liberaus	-10.6284
gé	-10.6285
avo	-10.6286
▁bru	-10.6291
jorn	-10.6294
▁seguit	-10.6297
model	-10.6302
▁tèrmes	-10.6303
iac	-10.6303
▁estre	-10.6304
▁vesin	-10.6305
▁complèxe	-10.6306
▁linhas	-10.6313
▁cin	-10.6314
dur	-10.6315
tig	-10.6316
exportacion	-10.6317
unitats	-10.6319
▁independents	-10.6319
▁castèth	-10.6322
▁nívol	-10.6322
▁pollucion	-10.6322
▁trompeta	-10.6322
espandís	-10.6322
▁financièr	-10.6322
reference	-10.6322
▁cèrca	-10.6322
▁racònte	-10.6323
issián	-10.6323
▁seguretat	-10.6323
▁1925	-10.6324
▁circulacion	-10.6325
▁gor	-10.6326
▁aranés	-10.6327
▁atòms	-10.6331
▁entra	-10.6332
▁vic	-10.6332
180	-10.6334
▁transferiment	-10.6337
ath	-10.6338
▁pòste	-10.6341
▁1990.	-10.6342
▁recentament	-10.6344
▁catolic	-10.6347
▁integrada	-10.635
pid	-10.635
prov	-10.6352
,3%	-10.6362
gos	-10.6362
▁localament	-10.6364
▁bour	-10.6368
by	-10.6376
▁establiguè	-10.6384
▁chad	-10.6394
▁esplecha	-10.6396
establi	-10.6402
▁comercial	-10.6412
▁independentista	-10.6416
▁enregistr	-10.6416
▁gri	-10.6423
▁negoci	-10.6428
investiment	-10.6428
▁sort	-10.6433
▁extension	-10.6439
▁melhora	-10.6441
incursions	-10.6442
▁garnison	-10.6442
▁jerusalèm	-10.6442
▁medievau	-10.6442
▁neerlandés	-10.6442
▁savòia	-10.6442
▁paleolitic	-10.6442
abbaye	-10.6442
▁mostrè	-10.6443
▁desenant	-10.6443
alumini	-10.6443
▁ritme	-10.6444
▁cauda	-10.6444
▁exteriora	-10.6445
▁pluma	-10.6445
▁danés	-10.6446
▁cobèrt	-10.6447
▁sortida	-10.6448
▁curie	-10.6448
adors	-10.6452
▁simplament	-10.6454
▁navala	-10.6459
▁caval	-10.6462
▁revela	-10.6462
tradicionalament	-10.6467
▁blau	-10.6471
▁ça	-10.6474
ait	-10.6475
cou	-10.6475
▁jaune	-10.6479
▁fidèus	-10.6482
▁gris	-10.6488
▁milh	-10.6491
▁vivents	-10.6492
unificar	-10.6495
▁crosta	-10.6501
▁90	-10.6504
nay	-10.6505
old	-10.6507
▁pòde	-10.6507
▁popularas	-10.6512
sens	-10.6515
ossa	-10.6518
fect	-10.6519
mol	-10.6531
▁descriure	-10.6534
▁receb	-10.6542
mac	-10.6543
environament	-10.6546
▁interioras	-10.6552
▁collabora	-10.6556
▁(8	-10.6556
bro	-10.6556
uja	-10.6557
ford	-10.6558
▁fondar	-10.6563
▁satellit	-10.6563
▁coloniz	-10.6564
▁mièg	-10.6564
▁tecnologic	-10.6564
▁veïcul	-10.6564
▁habsborg	-10.6564
▁salvador	-10.6564
democrata	-10.6564
▁maomet	-10.6564
▁1966	-10.6566
impòst	-10.6568
▁cambra	-10.6569
▁germanica	-10.6569
▁mantenguèt	-10.657
▁escrit	-10.657
▁païsatge	-10.6571
èren	-10.6572
▁tam	-10.6573
▁kg	-10.6573
▁ròcas	-10.6574
▁35	-10.6576
▁island	-10.6577
interpretacion	-10.6577
▁1850	-10.6577
▁protestanta	-10.6578
▁françois	-10.6584
puèi	-10.6584
▁trenta	-10.6585
▁dreches	-10.6586
ejar	-10.6587
òlt	-10.6589
dò	-10.6589
afi	-10.6601
▁gener	-10.6601
▁minor	-10.6603
▁noblesa	-10.6605
nier	-10.6606
▁romanés	-10.6607
▁cultiva	-10.6611
uòus	-10.6616
▁airal	-10.6619
▁somalia	-10.6625
gó	-10.6626
▁cargada	-10.6627
fòrt	-10.6629
▁hèit	-10.6631
rats	-10.6636
▁nuclear	-10.6636
parti	-10.6641
izadas	-10.6645
▁secession	-10.6653
▁especiala	-10.6657
▁religa	-10.6659
hou	-10.666
òri	-10.6662
provença	-10.6667
▁vel	-10.6671
bé	-10.6671
scot	-10.6672
ssaiar	-10.6673
isses	-10.6678
ente	-10.6682
▁restaca	-10.6682
▁australian	-10.6688
▁contraròtla	-10.6688
▁radioactivitat	-10.6688
▁sintèsi	-10.6688
▁retirar	-10.6688
▁johann	-10.6688
▁confirma	-10.6688
▁pròva	-10.6688
▁installada	-10.6688
▁saunosa	-10.6689
empacha	-10.669
▁isolat	-10.669
▁fried	-10.669
▁1789	-10.6697
▁ucraïna	-10.6697
dier	-10.6698
▁1898	-10.6699
opèra	-10.67
▁remplaçada	-10.6708
▁[[18	-10.6709
lles	-10.6709
tendre	-10.6712
▁mitans	-10.672
▁baisha	-10.6723
▁contunia	-10.6724
eracion	-10.6731
▁pé	-10.6732
▁fonetica	-10.6735
▁quite	-10.6743
▁separada	-10.6748
▁mongòls	-10.675
uei	-10.6757
▁fò	-10.6764
imp	-10.6765
▁institucion	-10.6768
▁placa	-10.6769
▁q	-10.6771
▁geo	-10.6775
▁pòrts	-10.6776
▁flors	-10.6783
▁factor	-10.6784
avion	-10.6785
▁hen	-10.6785
▁qualifica	-10.6787
▁gla	-10.6788
assassinat	-10.6792
departament	-10.6793
manda	-10.6795
angle	-10.6795
hè	-10.6796
▁iraq	-10.6797
▁tala	-10.68
anne	-10.6804
▁(9	-10.6806
▁posterior	-10.6806
▁recuper	-10.6808
▁monts	-10.681
actor	-10.6812
▁boèmia	-10.6813
▁concurréncia	-10.6813
▁municipi	-10.6813
▁possedís	-10.6813
▁varsòvia	-10.6813
▁ràdio	-10.6813
autonomia	-10.6813
▁olandés	-10.6813
▁radicau	-10.6813
▁establida	-10.6813
▁resulta	-10.6814
▁cantaira	-10.6816
▁distribucion	-10.6818
ito	-10.6819
▁cooperacion	-10.6819
▁designat	-10.6819
erosion	-10.6822
senaus	-10.6823
▁rites	-10.6824
▁còdi	-10.6825
▁environament	-10.6827
▁tròn	-10.6831
vièr	-10.6839
km	-10.6861
▁vikings	-10.6863
▁italians	-10.6863
▁pacifica	-10.6867
▁800	-10.687
▁dit	-10.6885
illy	-10.6886
zy	-10.6888
etz	-10.689
▁defend	-10.6894
▁ostil	-10.69
ataquèron	-10.6901
▁desvolopa	-10.6903
▁venent	-10.6905
▁mali	-10.6912
existís	-10.6921
lina	-10.6923
escri	-10.6923
▁france	-10.6925
▁refugi	-10.6936
▁debit	-10.6937
emigracion	-10.6939
▁dubertura	-10.6939
▁montanhós	-10.6939
opausèron	-10.6939
▁concili	-10.6939
▁fauna	-10.694
▁vassau	-10.694
▁dessús	-10.6941
euse	-10.6942
▁doctor	-10.6942
▁plantacions	-10.6942
▁defòra	-10.6945
▁centenaus	-10.6952
▁constituida	-10.6953
▁dotat	-10.6954
▁1840	-10.6955
▁doble	-10.6956
▁supausa	-10.6963
exclu	-10.6965
isti	-10.6965
▁clarament	-10.6965
▁mercés	-10.6966
isha	-10.6969
▁guerilhas	-10.697
▁senta	-10.6979
▁prepausa	-10.6979
ped	-10.698
▁tab	-10.7001
%	-10.7002
▁aglomeracion	-10.7004
african	-10.7004
imi	-10.7009
▁prim	-10.7012
organiza	-10.7013
▁junta	-10.7013
▁compte	-10.702
imatge	-10.7023
▁400	-10.7029
awa	-10.703
▁formats	-10.7031
dal	-10.7034
▁tour	-10.7039
▁delà	-10.7043
ipotèsi	-10.705
guèrra	-10.7051
machu	-10.7054
▁pastor	-10.7056
▁demorava	-10.7061
▁municipal	-10.7065
▁benda	-10.7067
▁experiment	-10.7068
▁referendum	-10.7068
▁1902	-10.7068
▁fortificacions	-10.7068
▁toxic	-10.7068
▁laurenç	-10.7069
▁represa	-10.7069
▁poténcia	-10.707
▁2017	-10.707
▁seguí	-10.7071
▁numer	-10.7071
▁generalizacion	-10.7076
impacte	-10.7076
▁guiana	-10.7078
influ	-10.7079
▁comunisme	-10.708
auto	-10.7084
▁bois	-10.7087
▁metre	-10.7087
▁matèrias	-10.7089
▁reglament	-10.709
▁constitucionala	-10.7091
▁medi	-10.7091
mau	-10.7091
▁mandad	-10.7092
▁istoricas	-10.7093
latin	-10.7099
▁partença	-10.7099
▁enterin	-10.7101
▁atestat	-10.7102
put	-10.7106
▁tou	-10.7109
▁pargue	-10.711
▁parelh	-10.7114
8%	-10.7116
▁fut	-10.7122
▁idro	-10.7123
hel	-10.7143
▁tipic	-10.7143
▁devisa	-10.7143
oste	-10.7146
▁exerc	-10.7149
linha	-10.7155
▁quate	-10.7155
▁crompa	-10.716
▁militarament	-10.7163
▁ancianament	-10.7163
anava	-10.7163
equipa	-10.717
▁establir	-10.7177
▁tropical	-10.7179
efièch	-10.7182
còsta	-10.7182
▁1991.	-10.7182
▁legislativas	-10.7185
ifèr	-10.7186
▁relativa	-10.7187
▁antoni	-10.7191
▁egipcians	-10.7192
▁vegè	-10.7194
aumentar	-10.7195
apartheid	-10.7197
▁celèbre	-10.7197
▁encoratja	-10.7197
▁reconóisser	-10.7197
▁roergue	-10.7197
abolicion	-10.7198
▁1937	-10.7199
▁majoritària	-10.7199
▁compòrta	-10.72
▁gabon	-10.7201
▁barbar	-10.7201
▁geologia	-10.7201
identitat	-10.7204
▁venda	-10.7205
estre	-10.7206
▁jornalista	-10.7207
▁quartier	-10.7211
format	-10.7215
cultura	-10.7218
▁sauv	-10.7219
alta	-10.722
uèi	-10.7222
illo	-10.7224
▁pod	-10.7224
▁critèris	-10.7225
▁preda	-10.7227
▁antonio	-10.7229
▁otís	-10.7231
▁deute	-10.7232
▁agut	-10.7232
▁podián	-10.7237
▁seccion	-10.724
tell	-10.724
▁but	-10.7244
▁uruguai	-10.7251
▁braç	-10.7256
dó	-10.7263
▁blòts	-10.7269
animals	-10.7287
▁mexican	-10.7287
▁ball	-10.729
▁prop	-10.7292
▁dirigits	-10.7299
interess	-10.7304
▁critic	-10.7306
avec	-10.7307
ché	-10.7312
argentina	-10.7324
▁placas	-10.7328
▁concèrt	-10.7329
▁drapèu	-10.7329
▁portugau	-10.7329
▁suedés	-10.7329
▁consonanta	-10.7329
▁retirament	-10.7329
▁negatiu	-10.7329
implant	-10.7329
▁bolets	-10.7329
▁paramètre	-10.733
▁josèp	-10.733
▁carriera	-10.733
▁trobadors	-10.7332
▁ved	-10.7333
▁devath	-10.7333
▁hòrt	-10.7333
avançada	-10.7335
▁aiçò	-10.7336
▁motor	-10.734
▁decisions	-10.734
▁aquelas	-10.7347
▁parasit	-10.7347
▁idèa	-10.735
▁ref	-10.735
▁ministres	-10.7357
▁mecanisme	-10.7358
▁muralha	-10.7358
▁ordena	-10.7363
née	-10.7366
▁ste	-10.737
▁aragon	-10.7372
este	-10.7372
▁contre	-10.7375
▁editor	-10.7376
▁cèrtas	-10.7378
▁inicia	-10.7381
▁agricultura	-10.7396
-10	-10.7397
▁aspèct	-10.7398
▁nautor	-10.7398
contra	-10.7399
▁aquest	-10.74
parar	-10.7401
▁universala	-10.7407
imper	-10.7412
aria	-10.7416
▁quart	-10.7418
▁aux	-10.742
▁especific	-10.7422
▁tradicionau	-10.7423
▁etapas	-10.7424
▁reconquista	-10.7425
▁premi	-10.7426
▁matematic	-10.7427
aplica	-10.7436
▁artistic	-10.7438
▁cava	-10.7438
▁max	-10.7442
▁originala	-10.7443
▁recep	-10.7445
▁([[	-10.7448
▁transformacions	-10.7449
enfant	-10.745
iques	-10.7452
escola	-10.7459
▁califòrnia	-10.7462
▁diplomacia	-10.7462
▁israelian	-10.7462
▁raprochament	-10.7462
▁redurre	-10.7462
▁especiau	-10.7462
▁dordonha	-10.7462
inspirè	-10.7462
▁balcans	-10.7463
▁cinquen	-10.7463
▁administrada	-10.7463
▁util	-10.7463
▁1901	-10.7464
▁gaulle	-10.7464
▁1938	-10.7464
zon	-10.7467
▁renfòrçament	-10.7469
▁tempora	-10.7469
▁efiech	-10.7469
▁visigòts	-10.747
▁1000	-10.7474
▁pilhatge	-10.7474
▁arribèron	-10.7476
▁reünion	-10.7477
▁parlamentari	-10.7479
▁fonts	-10.748
▁baia	-10.7482
essencial	-10.7483
▁normala	-10.7488
chen	-10.7489
▁districtes	-10.749
left	-10.7492
▁romp	-10.7493
▁dòna	-10.7497
▁materiau	-10.7497
▁installat	-10.7498
▁criticas	-10.7499
afar	-10.7503
▁separa	-10.7506
ung	-10.7507
▁mobil	-10.7514
▁escrichs	-10.7517
àcia	-10.7522
ozoa	-10.7531
▁crei	-10.7533
▁regularas	-10.7533
▁mia	-10.7534
▁artic	-10.7535
▁tradicional	-10.7537
▁mongòla	-10.754
▁champ	-10.7541
mato	-10.7542
▁privilègis	-10.7548
▁anatolia	-10.7552
▁previst	-10.7557
▁viviá	-10.7558
▁renfòrç	-10.7559
▁septentrionala	-10.7559
▁avant	-10.7563
▁afganistan	-10.7564
0%	-10.7565
▁islamica	-10.7565
▁(11	-10.7567
▁rapid	-10.7569
▁reli	-10.7573
▁interiora	-10.7578
epi	-10.7582
ucraïna	-10.7587
▁empèris	-10.7588
▁montenegro	-10.7598
▁privilegi	-10.7598
▁estatjants	-10.7598
▁neutre	-10.7598
▁apogèu	-10.7598
▁sometre	-10.7599
▁vendriá	-10.7599
▁1903	-10.7599
▁gaudí	-10.7599
▁dessepara	-10.76
▁identificat	-10.76
esperança	-10.76
▁construccions	-10.7601
▁liason	-10.7601
amassa	-10.7602
▁transport	-10.7602
▁etiopian	-10.7603
▁disciplinas	-10.7604
▁animaus	-10.7606
opera	-10.7613
▁doça	-10.7613
erie	-10.7615
▁corr	-10.7615
▁redus	-10.7616
▁metallic	-10.7618
▁creissent	-10.7619
▁descurbiguèt	-10.762
▁acceptada	-10.762
▁marin	-10.7623
estela	-10.7625
▁conquistas	-10.7628
▁gara	-10.7629
▁liban	-10.7634
▁istoricament	-10.7644
▁polar	-10.7654
auds	-10.7655
▁posicions	-10.7656
▁possessions	-10.7657
estra	-10.7661
▁entier	-10.7664
▁45	-10.7668
gran	-10.7671
▁victor	-10.7674
roll	-10.7679
▁varietats	-10.768
avèva	-10.768
▁nava	-10.7685
▁"(	-10.7694
▁originaris	-10.7696
▁soci	-10.7703
▁paur	-10.7709
▁tèmas	-10.7722
ello	-10.7726
orbita	-10.7728
▁diversifica	-10.7729
accès	-10.7732
▁conjuga	-10.7732
▁suplementari	-10.7734
▁imperiau	-10.7734
▁moçambic	-10.7734
▁revòlta	-10.7734
▁telescòpi	-10.7734
▁pedro	-10.7735
▁saudita	-10.7735
▁visibla	-10.7735
▁textil	-10.7735
▁miègjorn	-10.7735
▁eiretier	-10.7735
alcoran	-10.7736
▁mitologia	-10.7737
▁civil	-10.7737
▁rivalitat	-10.7737
▁2018	-10.7739
▁perdèt	-10.7739
▁contes	-10.7739
▁1895	-10.774
▁pagar	-10.7744
▁normand	-10.7745
exil	-10.7752
▁completament	-10.7756
▁perigòrd	-10.7756
arras	-10.7756
▁baltica	-10.7756
▁clubs	-10.7761
▁tito	-10.7761
region	-10.7761
▁2007.	-10.7761
▁força	-10.7763
▁endrechs	-10.7763
▁reich	-10.7768
espital	-10.7769
vèrb	-10.7778
▁paraula	-10.7782
▁raras	-10.7785
▁liberau	-10.779
▁chaple	-10.7791
▁frema	-10.7793
▁aliat	-10.7794
▁aparicion	-10.7799
▁torres	-10.7799
▁gil	-10.7804
▁aguest	-10.7821
▁tornè	-10.7822
obten	-10.7823
▁dou	-10.7823
▁alexandre	-10.7824
americana	-10.7827
ibla	-10.783
lav	-10.783
▁bail	-10.7836
▁pòst	-10.7836
▁privat	-10.784
▁mecanismes	-10.7843
pes	-10.7844
▁moldàvia	-10.7873
▁pluèja	-10.7873
▁reflexion	-10.7873
▁defugir	-10.7873
▁guitarra	-10.7873
▁decisiu	-10.7874
▁black	-10.7874
▁angl	-10.7874
▁aicí	-10.7874
▁richard	-10.7874
▁dintre	-10.7875
▁cubèrt	-10.7876
▁ribièra	-10.7877
▁crosats	-10.7879
▁redigi	-10.7881
error	-10.7886
ür	-10.7888
▁brèu	-10.7889
▁magma	-10.789
▁efièch	-10.789
▁devesits	-10.7891
▁luci	-10.7895
azar	-10.7899
▁programas	-10.7908
▁fisic	-10.7909
▁direct	-10.7911
ço	-10.7914
irà	-10.7927
▁cran	-10.7939
▁emplegada	-10.7939
▁vents	-10.7941
▁henri	-10.7962
▁personala	-10.7965
▁cauds	-10.7968
mini	-10.7974
pti	-10.7978
▁ligada	-10.7978
kov	-10.7979
blo	-10.7981
▁acomença	-10.7987
ordon	-10.7988
▁argeria	-10.7993
▁existéncia	-10.7993
▁claus	-10.7995
▁periodica	-10.8
▁rat	-10.8005
pausat	-10.8011
▁ponchs	-10.8012
epidemia	-10.8014
▁constantinòple	-10.8014
▁dissolucion	-10.8014
▁montanhosa	-10.8014
▁panamà	-10.8014
▁reparticion	-10.8014
▁veneçuèla	-10.8014
▁zanzibar	-10.8014
▁pagament	-10.8014
▁demeniguèt	-10.8015
▁premsa	-10.8015
avinhon	-10.8016
▁experiéncia	-10.8017
▁tocada	-10.8019
▁aperada	-10.8019
▁complet	-10.8021
▁vertat	-10.8023
▁rival	-10.8024
▁2011,	-10.8028
esfèra	-10.803
▁escais	-10.8033
▁més	-10.8033
▁favorizèron	-10.8049
▁articles	-10.8052
▁carri	-10.8055
jas	-10.8057
▁mila	-10.8061
▁assosta	-10.8062
▁pais	-10.8065
▁ofensiva	-10.8067
▁cadenas	-10.8074
▁poèma	-10.8075
▁etiopiana	-10.8083
▁classat	-10.8085
institucions	-10.8085
levat	-10.8087
▁tematicas	-10.8088
yer	-10.8102
aranha	-10.8102
▁vegeta	-10.8105
▁alfabet	-10.8107
▁musicau	-10.8121
gene	-10.813
▁esquèrra	-10.8136
▁frontalier	-10.8137
▁colonialas	-10.814
▁vielh	-10.8143
▁violent	-10.8145
experiéncia	-10.8155
nòva	-10.8157
▁teissut	-10.8157
▁ulterior	-10.8157
emisfèri	-10.8157
▁grosclaude	-10.8157
▁metropòli	-10.8157
▁narbona	-10.8157
▁originària	-10.8157
▁susceptible	-10.8157
▁negativa	-10.8157
▁complement	-10.8158
▁1957	-10.8158
agitacion	-10.8159
èbre	-10.8159
▁establa	-10.8159
pseud	-10.8162
▁crestianisme	-10.8163
▁sòrre	-10.8163
▁estacion	-10.8163
▁breton	-10.8165
▁bearnesa	-10.8165
▁collaboracion	-10.8167
▁popularitat	-10.8169
▁mèi	-10.8173
▁electro	-10.8175
escut	-10.8176
▁federal	-10.8177
▁chausiguè	-10.8177
▁patron	-10.8181
▁primier	-10.8184
▁iogoslavia	-10.8184
▁extra	-10.8185
▁organizats	-10.8185
▁recensament	-10.8186
▁campionat	-10.8189
▁intermediari	-10.819
▁medisha	-10.8205
▁professional	-10.8209
▁plaçada	-10.8214
▁sense	-10.8214
▁sauva	-10.8219
▁cambiar	-10.8223
▁existiá	-10.8228
çac	-10.8229
▁obrier	-10.8231
▁personalitats	-10.8232
,8%	-10.8237
▁còst	-10.8238
▁tin	-10.8245
▁desvolopats	-10.8252
▁musical	-10.8253
▁vos	-10.8257
itz	-10.8258
▁portada	-10.826
vau	-10.8261
identificar	-10.8266
▁autoriza	-10.827
▁gigant	-10.8272
▁provençal	-10.8276
▁espòrt	-10.8279
▁letra	-10.8283
▁cicl	-10.8285
▁rap	-10.829
azi	-10.8295
▁toponim	-10.8296
vèn	-10.8296
thy	-10.8301
apogèu	-10.8302
▁babilònia	-10.8302
▁carnivòr	-10.8302
▁radioactiu	-10.8302
▁vescomte	-10.8302
arièja	-10.8302
▁reversat	-10.8302
ident	-10.8302
▁collectivitat	-10.8302
▁visible	-10.8302
▁poiriá	-10.8303
▁thomas	-10.8303
▁adaptada	-10.8303
▁sèrva	-10.8303
▁michel	-10.8303
ateïsme	-10.8303
▁abandonat	-10.8303
▁1916	-10.8304
▁1904	-10.8304
▁delegada	-10.8304
▁localizacion	-10.8306
▁étai	-10.8307
▁corta	-10.8307
vivarés	-10.8308
▁tèsi	-10.831
▁clear	-10.8315
▁còmpte	-10.8317
istorian	-10.8318
▁termica	-10.832
▁maridèt	-10.8321
▁bèc	-10.8322
▁my	-10.8328
▁obligatòri	-10.8331
lius	-10.8339
▁retro	-10.8345
▁especifica	-10.8347
▁travèrsa	-10.8347
▁malaut	-10.8348
urus	-10.8352
▁quauqu	-10.8353
▁accion	-10.8353
lhet	-10.8355
inhan	-10.8355
▁extrèma	-10.8355
▁adversaris	-10.8361
▁rapide	-10.8364
hal	-10.8364
▁ebrieu	-10.8371
▁ganhar	-10.8372
▁tematica	-10.8373
▁bizantins	-10.8373
▁personalitat	-10.8375
alizacion	-10.8376
informatica	-10.8376
▁observat	-10.8385
▁apc	-10.8387
▁fred	-10.839
▁brun	-10.8391
▁basca	-10.8392
axe	-10.8397
explicacion	-10.8405
nam	-10.8405
▁aparten	-10.8408
▁austriana	-10.8411
▁aisada	-10.8414
▁filmes	-10.8417
▁prene	-10.8418
▁restaurè	-10.8419
▁ciutadans	-10.8423
▁aplicacions	-10.8434
▁divina	-10.8437
▁mongòl	-10.8438
▁sèrbes	-10.8441
insècte	-10.8444
05)	-10.8445
▁dominè	-10.8445
▁mill	-10.8446
andre	-10.8447
▁luxemborg	-10.8449
▁afeblit	-10.8449
▁janeiro	-10.8449
▁estricta	-10.8449
▁militant	-10.8449
▁faissista	-10.8449
▁corsega	-10.8449
▁rodés	-10.8449
eiretatge	-10.845
▁susvelha	-10.845
evòri	-10.8451
▁foguèsse	-10.8451
▁oct	-10.8456
▁definitiu	-10.8456
▁1867	-10.8456
▁pacte	-10.8456
▁vegetaus	-10.8458
▁maría	-10.846
▁abitat	-10.8461
▁empachar	-10.8462
▁mesurar	-10.8462
▁doç	-10.8464
▁1820	-10.8466
▁iranian	-10.8472
▁vesti	-10.8473
▁genetica	-10.8473
uèch	-10.8474
eliminacion	-10.8474
▁clan	-10.8481
nac	-10.8487
,6%	-10.8488
▁tendéncia	-10.8492
▁joves	-10.8493
iala	-10.8494
▁gardat	-10.85
▁distribu	-10.8506
▁considerabla	-10.8507
diguèron	-10.8508
alfred	-10.8512
▁complèx	-10.8522
▁representavan	-10.8525
▁problèma	-10.8527
▁volcanic	-10.8547
interaccion	-10.8552
pac	-10.8554
▁raja	-10.8555
▁comptava	-10.8557
prés	-10.8563
▁permeton	-10.8578
▁shi	-10.8588
atacar	-10.8588
▁pèr	-10.8594
▁miniera	-10.8598
estabilizar	-10.8598
▁absoluda	-10.8598
▁bangladèsh	-10.8598
▁bigòrra	-10.8598
▁parròquia	-10.8598
▁pronóncia	-10.8598
▁prússia	-10.8598
eritrèa	-10.8598
▁fermentacion	-10.8598
▁ongresa	-10.8598
impausèt	-10.8598
▁electorala	-10.8598
▁alimentària	-10.8599
▁moderat	-10.8599
▁1915	-10.86
▁bernard	-10.86
▁dependéncia	-10.8601
extension	-10.8603
enjòc	-10.8605
▁nigèria	-10.8606
▁1885	-10.8607
▁conservacion	-10.8607
6%	-10.8608
univers	-10.8612
cian	-10.8617
▁inde	-10.8621
▁realizadas	-10.8623
▁darrierei	-10.8627
ndustrializacion	-10.8637
▁bé	-10.8642
▁tetra	-10.8643
rique	-10.8644
▁cosin	-10.8644
▁oceans	-10.8646
▁revis	-10.8647
▁feder	-10.8656
▁provençala	-10.8658
landes	-10.8661
▁conquistada	-10.8663
▁liberat	-10.8673
sser	-10.8674
▁banda	-10.8681
cepcion	-10.8682
▁venceire	-10.8683
ència	-10.8686
estudiar	-10.8687
▁politician	-10.8696
▁musicala	-10.8702
▁desvolopadas	-10.8704
isma	-10.8705
atenas	-10.8706
issen	-10.8707
▁esfòrç	-10.8707
text	-10.8709
▁brica	-10.8711
▁mòstran	-10.8713
▁circ	-10.8715
fri	-10.8716
▁considerava	-10.8724
gard	-10.8742
▁aur	-10.8749
▁discussion	-10.875
▁mongolia	-10.875
▁precursor	-10.875
▁zelanda	-10.875
▁julh	-10.875
▁obtengut	-10.875
▁flòra	-10.875
estúdia	-10.875
▁pòrc	-10.875
▁abandonèt	-10.875
▁1793	-10.875
▁progressiu	-10.8751
▁dispers	-10.8753
albania	-10.8753
▁divid	-10.8754
▁musulmanas	-10.8754
▁marit	-10.8754
▁personau	-10.8757
▁marins	-10.8757
▁rompre	-10.8758
▁especializat	-10.8761
▁catal	-10.8767
▁latinizacion	-10.8769
▁ruralas	-10.877
▁desertic	-10.8771
▁sòus	-10.8771
▁annexat	-10.8771
▁grèus	-10.8776
▁mineraus	-10.8782
legat	-10.8784
arabia	-10.8787
▁gras	-10.8792
▁almens	-10.8792
▁atmosfèra	-10.8797
▁aquí	-10.8801
▁estrategica	-10.8803
▁indonesia	-10.8805
▁segle	-10.8807
centri	-10.8809
▁durament	-10.881
vista	-10.8819
▁tuats	-10.8819
▁conservators	-10.882
mbra	-10.8822
ieras	-10.8823
▁califa	-10.883
òria	-10.8832
gòr	-10.8836
òste	-10.884
▁tèxt	-10.8857
aluncha	-10.8865
▁pensar	-10.8867
▁finau	-10.8868
▁prepara	-10.8869
bau	-10.887
▁geografic	-10.8874
▁cita	-10.8879
▁accions	-10.888
▁250	-10.8882
▁variantas	-10.8884
▁definitiva	-10.8896
▁altern	-10.8897
islàndia	-10.8904
▁doctrina	-10.8904
▁jupitèr	-10.8904
▁swahili	-10.8904
fénié	-10.8904
▁caucàs	-10.8904
▁fortalesa	-10.8904
▁jesuista	-10.8904
▁assirian	-10.8904
▁soldats	-10.8904
▁tribalh	-10.8904
▁sillaba	-10.8904
▁1931	-10.8905
▁pauretat	-10.8905
estèpa	-10.8905
▁protestantisme	-10.8907
environ	-10.8907
▁discors	-10.8907
▁forn	-10.891
▁toristica	-10.8914
▁accès	-10.8916
▁comunica	-10.8916
▁1800	-10.8921
antartic	-10.8922
▁precisament	-10.8924
ngue	-10.8925
roy	-10.8926
▁partejat	-10.8933
articula	-10.8934
ières	-10.8939
▁albèrt	-10.894
▁islamic	-10.8942
▁batut	-10.8946
py	-10.895
petr	-10.8951
▁dintra	-10.8953
▁reconeis	-10.8958
onia	-10.8959
lòc	-10.896
▁fabricar	-10.8966
▁devesir	-10.8968
▁menaçadas	-10.8968
95)	-10.8971
▁frequentas	-10.8976
▁recon	-10.8978
win	-10.8979
▁realiza	-10.898
▁etimologia	-10.8984
▁complèxs	-10.8986
▁entau	-10.8989
▁escritura	-10.8993
dich	-10.8995
▁ligadas	-10.9016
clau	-10.902
way	-10.902
vu	-10.9023
icti	-10.9029
accus	-10.903
agís	-10.9033
▁genetic	-10.9035
▁portat	-10.9042
▁noir	-10.9043
▁embe	-10.9046
▁rural	-10.9051
bacteri	-10.9058
estrategia	-10.906
▁formigas	-10.906
▁lituanian	-10.906
▁lòngtemps	-10.906
▁memòria	-10.906
▁pellicula	-10.906
▁residéncia	-10.906
▁suplementària	-10.906
▁tribunau	-10.906
▁saturne	-10.906
▁escambi	-10.906
▁inspirada	-10.9061
elevatge	-10.9061
▁ferrand	-10.9061
▁1906	-10.9063
omèr	-10.9064
explorator	-10.9064
▁argent	-10.9064
▁2019	-10.9068
▁civius	-10.9069
▁protegit	-10.9071
etiopia	-10.9071
▁atenh	-10.9074
▁ivèrn	-10.9076
-11	-10.9091
chat	-10.9091
inus	-10.9093
▁arch	-10.9099
afaire	-10.9102
)|	-10.9109
▁octavius	-10.911
mond	-10.9111
oïde	-10.9114
▁totau	-10.9119
zer	-10.9122
guen	-10.9122
arbre	-10.9122
país	-10.9124
▁recula	-10.9157
▁reduch	-10.9158
▁juridic	-10.9159
aument	-10.9162
escu	-10.9169
nik	-10.917
▁muralhas	-10.9185
▁amai	-10.9189
▁fran	-10.9192
▁dents	-10.9207
eaux	-10.9213
▁occitanista	-10.9215
▁dirig	-10.9217
▁bòsnia	-10.9219
▁testimòni	-10.9219
expulsion	-10.9219
▁colleccion	-10.9219
▁anfós	-10.9219
▁raprochè	-10.9219
ologista	-10.9219
▁cronica	-10.9219
caucasenc	-10.9219
▁abc	-10.922
▁blason	-10.922
explicar	-10.9221
▁jacques	-10.9221
▁atestacions	-10.9222
▁siam	-10.9223
▁vegetacion	-10.9225
▁parcialament	-10.9226
▁caplòc	-10.9226
aventura	-10.9226
▁1861	-10.9227
▁1889	-10.9227
ilhac	-10.9228
▁complica	-10.9228
▁preparacion	-10.9228
▁1865	-10.9229
ight	-10.9231
▁32	-10.9233
inclu	-10.9234
▁delimita	-10.9234
adesion	-10.9236
pierre	-10.9236
▁debanament	-10.9239
▁preson	-10.9239
▁pav	-10.9242
roch	-10.9242
▁assegurada	-10.9253
ando	-10.9255
▁anteriora	-10.9257
stein	-10.9261
bou	-10.9271
▁xviiiau	-10.9274
▁citat	-10.9277
▁regulara	-10.9278
▁modificar	-10.928
▁paures	-10.928
▁suc	-10.9282
▁bien	-10.9287
▁vè	-10.93
▁seleccion	-10.9302
triment	-10.9302
fal	-10.931
comuna	-10.9314
zu	-10.9318
ecologia	-10.9327
uli	-10.9327
inte	-10.9333
electr	-10.9336
ïda	-10.9337
▁liquida	-10.9338
▁anterior	-10.9341
▁jogaires	-10.9347
▁precedenta	-10.9352
▁victimas	-10.9352
▁carrat	-10.9356
constitu	-10.9358
dob	-10.9364
▁cristal	-10.9365
noncièt	-10.9368
arriu	-10.9375
▁multiplic	-10.9376
reserva	-10.9377
▁temperat	-10.9379
▁bombard	-10.938
▁bíblia	-10.938
▁bòsques	-10.938
▁frequéncia	-10.938
▁gilgamesh	-10.938
▁palestina	-10.938
▁concentrè	-10.938
▁seigneur	-10.938
▁tropicau	-10.938
▁tibet	-10.938
elefant	-10.9381
▁capitalisme	-10.9381
ortografia	-10.9381
▁fertil	-10.9381
▁reclam	-10.9382
▁conclusion	-10.9382
▁pirata	-10.9384
jou	-10.9385
▁centrada	-10.9385
▁contentar	-10.9387
▁localitat	-10.9389
▁vassal	-10.9393
▁discut	-10.9397
▁city	-10.9398
200	-10.9402
▁menaçada	-10.9404
▁xavi	-10.9406
sembla	-10.9409
▁ensenhament	-10.9411
▁seré	-10.9412
▁portèt	-10.9412
▁estelas	-10.9415
▁vegetala	-10.9422
luc	-10.9425
99)	-10.9433
abandonar	-10.9434
escrich	-10.9436
vèrn	-10.9436
▁intrada	-10.9443
▁verge	-10.9444
▁ensenha	-10.9446
▁compr	-10.9467
▁certans	-10.9476
▁ataquè	-10.9477
▁vast	-10.948
▁estudiat	-10.9498
▁substància	-10.9503
▁sé	-10.9505
▁assai	-10.9507
identifica	-10.9522
▁palma	-10.9523
▁arqueologic	-10.9524
▁jura	-10.9525
doira	-10.9536
▁42	-10.954
eslovaquia	-10.9544
execucion	-10.9544
▁accident	-10.9544
▁bolívia	-10.9544
▁cambòtja	-10.9544
▁contrària	-10.9544
▁indoeuropèa	-10.9544
▁logicial	-10.9544
▁membrana	-10.9544
▁refusèron	-10.9544
▁dròga	-10.9544
▁leugièr	-10.9544
arriba	-10.9544
▁essencialament	-10.9544
▁vatican	-10.9544
▁sèina	-10.9544
▁fragil	-10.9544
▁estendut	-10.9544
▁apelada	-10.9545
▁privada	-10.9545
▁henry	-10.9546
▁scena	-10.9547
abilitat	-10.9549
▁enemics	-10.9549
▁desconegut	-10.955
▁afect	-10.9551
aubre	-10.9559
▁aost	-10.9561
atlantic	-10.9563
▁ligur	-10.9564
▁pet	-10.9568
▁1878	-10.9573
▁quilha	-10.9573
▁luec	-10.9582
evitar	-10.9584
▁geologica	-10.9595
▁capèla	-10.9601
])	-10.9607
aurelha	-10.9613
▁quatrena	-10.9616
▁château	-10.9622
idor	-10.9624
500	-10.9627
▁justifica	-10.9628
arab	-10.9629
plat	-10.9634
▁nou	-10.964
▁regi	-10.964
line	-10.9658
▁demandar	-10.9658
▁euro	-10.9659
▁anglo	-10.9673
▁mercé	-10.9677
aqueles	-10.9682
▁cour	-10.9689
▁abandonar	-10.9694
▁mencion	-10.9694
▁destrucha	-10.9695
▁bala	-10.9699
▁francis	-10.9702
▁capturat	-10.9703
▁josep	-10.9706
pita	-10.9706
iraq	-10.9706
▁fle	-10.9709
▁contrarotla	-10.9711
▁determinar	-10.9711
▁influenciada	-10.9711
▁legislacion	-10.9711
▁logiciau	-10.9711
▁navèth	-10.9711
▁nàpols	-10.9711
▁tailàndia	-10.9711
▁universitari	-10.9711
▁precision	-10.9711
▁rostaing	-10.9711
spiritu	-10.9711
▁tròç	-10.9711
▁1909	-10.9713
▁montfòrt	-10.9714
implantacion	-10.9717
▁collectiu	-10.972
▁protegida	-10.972
prim	-10.9725
▁sufisenta	-10.9728
▁pati	-10.9732
▁1899	-10.9733
pirenèus	-10.9733
▁cuban	-10.9741
▁bèlga	-10.9742
▁cle	-10.9745
▁enclava	-10.9746
▁nave	-10.9751
capital	-10.9752
▁maine	-10.9758
▁considèran	-10.9758
estimacion	-10.9761
▁coton	-10.9763
▁pop	-10.9768
▁campion	-10.9768
acòrdi	-10.9774
▁bin	-10.9777
posicion	-10.9779
▁eliminar	-10.9781
▁cy	-10.9783
▁aparenta	-10.9783
▁motiu	-10.9788
emission	-10.9801
infrastructuras	-10.9807
unesco	-10.9811
▁sabon	-10.9821
cristòl	-10.9826
▁desplaça	-10.9829
terra	-10.9839
▁paure	-10.9849
hèit	-10.985
▁grèu	-10.9851
gnac	-10.9855
▁700	-10.9858
eishen	-10.9858
▁enfant	-10.9863
villa	-10.9867
▁certa	-10.9867
▁estela	-10.9867
▁fragment	-10.9877
adjectiu	-10.988
▁vertebrat	-10.988
▁gènoa	-10.988
constellacion	-10.988
▁montreal	-10.988
▁mestreja	-10.988
▁sexual	-10.988
▁consacra	-10.988
▁conoís	-10.988
▁dificil	-10.988
▁platèu	-10.988
▁situé	-10.9881
▁isolada	-10.9881
▁ecologic	-10.9882
▁desbarca	-10.9882
▁borgesiá	-10.9883
▁cèltas	-10.9883
▁exactament	-10.9884
ideologia	-10.9885
▁mandar	-10.9885
▁andré	-10.9886
▁succe	-10.9888
▁inventa	-10.9889
▁patric	-10.9889
▁sòrt	-10.9892
▁associada	-10.9894
ring	-10.9894
escau	-10.9895
ugh	-10.9896
▁vènus	-10.9896
▁passant	-10.9901
▁detect	-10.9902
fixe	-10.9902
esquèrra	-10.9905
principalament	-10.9906
nòrd	-10.9906
▁educacion	-10.9908
▁vé	-10.9911
qa	-10.9935
▁enzim	-10.9948
▁destriar	-10.9952
▁declinèt	-10.9952
osament	-10.9958
segon	-10.9963
▁sui	-10.9983
▁emission	-10.9989
ònia	-10.9993
ofòns	-10.9999
3/	-11
ense	-11.0002
▁empach	-11.0007
▁supausat	-11.002
▁grava	-11.0027
▁hauta	-11.0031
▁bern	-11.0033
illon	-11.0037
▁flum	-11.0042
▁evolu	-11.0042
▁quora	-11.0043
ician	-11.0044
▁realizada	-11.0047
▁distingu	-11.0047
▁legal	-11.0048
▁christ	-11.0049
▁despensas	-11.0052
▁irregular	-11.0052
epopèia	-11.0052
▁namibia	-11.0052
▁caumatge	-11.0052
▁dempús	-11.0052
▁indigèns	-11.0053
instabilitat	-11.0053
▁sediments	-11.0053
▁contestada	-11.0053
▁jòga	-11.0053
▁daufinat	-11.0053
inflacion	-11.0053
▁capitalista	-11.0053
▁transmission	-11.0053
▁restanca	-11.0054
▁praga	-11.0058
▁reconoguè	-11.0059
▁numerica	-11.006
▁10%	-11.0062
▁balhè	-11.0065
▁media	-11.0066
▁kong	-11.0067
amerind	-11.0068
▁galas	-11.0071
▁original	-11.0071
▁jonh	-11.0072
▁bordat	-11.0072
llus	-11.0072
pur	-11.0073
▁radiacion	-11.0073
argeria	-11.0081
espòrt	-11.0082
▁cartage	-11.0084
▁preocupa	-11.0085
web	-11.0085
▁sòr	-11.0087
intervenir	-11.0089
front	-11.0093
▁jornada	-11.01
▁tamb	-11.0102
▁segui	-11.0105
▁irlandés	-11.0106
gropant	-11.011
enauça	-11.011
▁cai	-11.0111
▁cabra	-11.0118
ika	-11.0119
▁organisme	-11.0124
▁punta	-11.0132
▁orala	-11.0135
umiditat	-11.0145
▁vertadièra	-11.0152
▁ligam	-11.0162
▁dinamica	-11.0174
hier	-11.0176
▁gotic	-11.018
grop	-11.0183
▁mòt	-11.0183
▁transmet	-11.0184
▁cercar	-11.0185
▁600	-11.0187
▁païs	-11.0195
ausèl	-11.0199
▁teologia	-11.0201
copa	-11.0207
drà	-11.022
▁responsa	-11.0222
▁comptar	-11.0225
▁reprodu	-11.0228
aristocràcia	-11.0228
hollywood	-11.0228
▁macedònia	-11.0228
▁norrigatge	-11.0228
▁predecessor	-11.0228
▁tostemps	-11.0228
▁concurren	-11.0228
▁michael	-11.0228
▁comenge	-11.0228
▁jusieu	-11.0228
▁contèn	-11.0228
▁consòla	-11.0229
▁ròc	-11.0229
▁enebit	-11.0229
▁comission	-11.023
▁consumacion	-11.0231
▁considerable	-11.0232
▁niçard	-11.0232
▁refugiats	-11.0233
▁radical	-11.0234
▁insèctes	-11.0234
▁istorians	-11.0235
▁trabalhaires	-11.0236
▁miei	-11.0236
insee	-11.0237
▁oscar	-11.0239
▁guerre	-11.024
extraccion	-11.0241
▁publicada	-11.0244
▁electrons	-11.0245
▁capitani	-11.0245
▁1897	-11.0245
▁64	-11.0247
entraïna	-11.0251
▁by	-11.0255
espanhòl	-11.0258
eslovènia	-11.0263
▁segondària	-11.0275
▁reconquistar	-11.0278
escart	-11.0281
▁comme	-11.029
▁java	-11.0294
adolf	-11.0295
▁evolucionèt	-11.0297
78)	-11.0303
92)	-11.0305
▁cerca	-11.0307
▁marcant	-11.0307
èrba	-11.0314
▁escriu	-11.0314
pont	-11.0314
mpi	-11.0317
scripcion	-11.0328
▁represent	-11.0331
▁cir	-11.0335
▁hab	-11.0336
esperanto	-11.0339
pòdes	-11.0341
gni	-11.0342
abitat	-11.035
▁vietnamian	-11.035
▁morala	-11.0363
èma	-11.0368
▁1500	-11.0372
▁clau	-11.0382
▁infrastructuras	-11.0383
▁mite	-11.0397
▁pèrd	-11.0398
adapta	-11.0403
aeropòrt	-11.0406
▁catastròfa	-11.0406
▁commonwealth	-11.0406
▁madagascar	-11.0406
▁norvegian	-11.0406
erà	-11.0407
incendi	-11.0407
▁letònia	-11.0407
▁decisiva	-11.0407
optèrs	-11.0407
▁azèri	-11.0407
▁santuari	-11.0407
▁declarèt	-11.0407
▁somission	-11.0408
▁sortiguèt	-11.0408
▁genèva	-11.0408
assegurè	-11.0409
entrepresa	-11.0409
▁capitau	-11.0409
▁estimat	-11.041
oidea	-11.041
▁gerais	-11.041
▁trauca	-11.0415
▁quita	-11.0419
▁paleo	-11.0422
▁executat	-11.0422
apelacion	-11.0423
▁messa	-11.0424
abans	-11.0424
▁marcar	-11.0425
▁band	-11.043
▁bay	-11.0435
▁test	-11.0437
actiu	-11.0441
president	-11.0442
èp	-11.0442
▁daissè	-11.0444
▁curd	-11.0446
▁desplaçar	-11.0446
acceptar	-11.0452
onor	-11.0452
▁tout	-11.0453
aplicar	-11.0458
▁partiguèt	-11.0459
labor	-11.0466
▁petita	-11.0468
▁*	-11.0468
▁terri	-11.0474
ción	-11.0474
▁anant	-11.0478
▁alps	-11.048
estònia	-11.0484
▁produches	-11.0491
▁complèt	-11.0503
quadr	-11.0504
▁suprèm	-11.0519
aspècte	-11.0523
▁geologic	-11.0534
▁republicana	-11.0535
apera	-11.0536
▁serián	-11.0549
▁maj	-11.0555
▁creissenta	-11.0563
▁tunisia	-11.0568
71)	-11.0572
hil	-11.0575
▁tracha	-11.0577
▁toristic	-11.0578
▁francesc	-11.0579
ecosistèma	-11.0583
anglosaxon	-11.0588
escrutinh	-11.0588
oligarquia	-11.0588
▁bibliotèca	-11.0588
▁distincion	-11.0588
▁magrèb	-11.0588
▁pàmias	-11.0588
▁successius	-11.0588
▁reputacion	-11.0588
▁eslovac	-11.0588
▁majoritari	-11.0588
▁liszt	-11.0588
▁roïna	-11.0588
▁trobador	-11.0588
▁milleni	-11.0588
▁canadenc	-11.0588
▁pichòt	-11.0589
▁aucèus	-11.0589
▁eslavas	-11.0589
▁galloroman	-11.0589
boyrie	-11.0589
▁especializadas	-11.0589
▁comptadors	-11.059
▁papautat	-11.059
▁combinason	-11.0591
▁khmer	-11.0591
espessor	-11.0592
▁rigor	-11.0593
▁causida	-11.0593
▁viatja	-11.0595
▁terralha	-11.0595
▁normandia	-11.0596
angòla	-11.0596
isolament	-11.0598
ajudè	-11.0602
▁illustra	-11.0603
▁proposicion	-11.0604
▁normaliza	-11.0605
▁fasent	-11.0609
▁remplacèt	-11.0613
empedi	-11.0616
▁king	-11.0619
▁narra	-11.0619
▁representada	-11.0626
vejatz	-11.0627
august	-11.0628
arribè	-11.0633
exposicion	-11.0633
▁contunhè	-11.0635
▁gir	-11.0638
▁acceptat	-11.0641
▁balon	-11.0647
enemic	-11.0652
còp	-11.0654
▁concentrar	-11.0664
veire	-11.0668
inici	-11.0669
▁mobiliza	-11.067
▁iso	-11.0671
▁abd	-11.0673
▁dominant	-11.0679
▁metropolitan	-11.0683
▁patas	-11.0687
▁bizantina	-11.0689
▁debats	-11.0691
organizè	-11.0693
internet	-11.0701
▁tenguda	-11.0701
zza	-11.0706
ït	-11.0714
▁impr	-11.0715
▁nascuda	-11.0722
▁verifica	-11.0724
▁aeriana	-11.0727
prene	-11.0739
▁intens	-11.0742
▁compausan	-11.0745
▁(0,	-11.0747
introdu	-11.0751
entrada	-11.0753
▁perqué	-11.0758
tive	-11.0762
72)	-11.0763
▁rue	-11.0773
▁keynes	-11.0773
─	-11.0773
▁abbassida	-11.0773
▁checoslovaquia	-11.0773
▁episòdi	-11.0773
▁malhòrca	-11.0773
▁amerindians	-11.0773
▁singular	-11.0773
▁trobèron	-11.0773
antartida	-11.0774
▁efectiva	-11.0774
▁simbolic	-11.0774
▁neutron	-11.0774
▁electronica	-11.0774
▁traçat	-11.0774
▁afgan	-11.0774
▁cassini	-11.0774
▁partenari	-11.0775
▁parlava	-11.0775
énher	-11.0776
▁mantua	-11.0776
▁desbarquè	-11.0776
▁1927	-11.0776
▁culminant	-11.0776
▁selva	-11.0776
utilizan	-11.0777
▁chipre	-11.0779
▁birmania	-11.0779
▁liame	-11.0781
▁1884	-11.0783
▁dominèron	-11.0783
▁frasa	-11.0785
▁còl	-11.0786
▁maximala	-11.079
▁notacion	-11.0792
▁plaja	-11.0795
▁matematician	-11.0795
estuari	-11.0797
▁ferm	-11.08
▁litoralas	-11.0809
olin	-11.081
▁significacion	-11.0811
▁1882	-11.0814
—	-11.0816
estalin	-11.0822
francés	-11.0823
ciéncia	-11.0823
▁formavan	-11.0825
▁climaticas	-11.0829
▁guan	-11.0831
▁decret	-11.0831
▁dehens	-11.0832
ñ	-11.0832
▁polo	-11.0833
▁equivalent	-11.0836
▁geno	-11.084
▁supausada	-11.0844
▁felibre	-11.0844
▁suprèma	-11.0845
-4	-11.0845
▁arg	-11.0848
▁dedicat	-11.0851
seguir	-11.0851
començament	-11.0853
ròba	-11.0858
▁mah	-11.0865
▁prepausat	-11.0879
enberg	-11.088
gué	-11.088
▁complèta	-11.0881
cques	-11.0882
ortès	-11.0892
▁parat	-11.0895
signar	-11.0905
▁kha	-11.0907
▁aparelh	-11.0907
▁marna	-11.092
enric	-11.0929
table	-11.0932
▁georgian	-11.0945
abitacion	-11.0948
▁morí	-11.095
▁fèr	-11.0951
inspira	-11.0954
▁birman	-11.0956
▁rèina	-11.0959
▁trè	-11.0961
immigracion	-11.0962
▁bagdad	-11.0962
▁conéisser	-11.0962
▁filipinas	-11.0962
▁giovanni	-11.0962
▁guatemala	-11.0962
▁marselhés	-11.0962
▁neutralitat	-11.0962
▁eissuch	-11.0962
▁dakota	-11.0962
▁naviga	-11.0962
▁simplifica	-11.0962
▁brilhant	-11.0962
▁làmia	-11.0962
▁papièr	-11.0962
▁lectura	-11.0962
▁secrèt	-11.0962
▁estenduda	-11.0962
▁cresença	-11.0963
provincia	-11.0963
▁maurici	-11.0963
▁acòrdi	-11.0963
▁abandonada	-11.0963
▁ailà	-11.0964
▁devesiguèt	-11.0964
intencion	-11.0965
▁consomacion	-11.0965
▁iraniana	-11.0965
▁codificacion	-11.0966
▁vèrbe	-11.0967
▁armènis	-11.0967
▁50%	-11.0968
▁entrepresas	-11.0968
▁termièra	-11.0971
▁sèrbe	-11.0973
▁1859	-11.0973
▁1814	-11.0974
▁annexada	-11.0977
▁professionau	-11.0979
▁trufa	-11.0979
▁politicament	-11.0979
▁proclama	-11.0981
▁comandament	-11.0984
visquèt	-11.0987
▁respectar	-11.0988
▁iniciala	-11.0991
▁tropicalas	-11.0992
▁acte	-11.0994
▁sèrba	-11.0996
▁tango	-11.1003
▁hawaii	-11.1004
acièr	-11.1007
▁1886	-11.1009
▁truca	-11.101
▁preparar	-11.1012
▁fum	-11.1013
86)	-11.1017
▁classament	-11.1018
▁rosselhon	-11.1018
extremitat	-11.1021
▁alimentari	-11.1026
▁creèron	-11.1028
▁verda	-11.1035
▁rebut	-11.1035
55)	-11.1039
ilhon	-11.104
tèrra	-11.1041
▁palun	-11.1057
▁hont	-11.1062
91)	-11.1064
▁pèir	-11.1066
▁poden	-11.1074
▁commun	-11.1083
▁demografic	-11.1098
▁araba	-11.1099
▁lui	-11.1101
▁vikinga	-11.1114
▁march	-11.1115
ño	-11.1117
vián	-11.1122
▁estatua	-11.1123
▁compausant	-11.1123
camba	-11.1124
▁muda	-11.1129
▁fili	-11.1131
ney	-11.1134
▁recurrent	-11.1134
▁hum	-11.1136
▁libe	-11.1143
▁protestant	-11.1149
▁arquitecturau	-11.1149
56)	-11.1151
aproximativament	-11.1154
avitalhament	-11.1154
▁descubrir	-11.1154
▁ieroglifs	-11.1154
▁individual	-11.1154
▁insurgents	-11.1154
▁lincoln	-11.1154
▁primordiau	-11.1154
▁prioritat	-11.1154
▁scèna	-11.1154
▁domingo	-11.1154
▁martegue	-11.1154
▁sapiens	-11.1154
▁cameron	-11.1155
▁nominacion	-11.1155
▁instaurè	-11.1155
▁sosmarin	-11.1155
▁véder	-11.1156
▁pequin	-11.1158
▁été	-11.1159
▁reprenguè	-11.1159
▁oncle	-11.1161
▁1881	-11.1163
▁tolon	-11.1164
▁1894	-11.1164
▁tigre	-11.1165
▁1821	-11.1166
▁islas	-11.1174
▁1883	-11.1174
▁qualqu	-11.1178
uruk	-11.118
▁senhal	-11.1184
▁tèma	-11.1186
▁escriches	-11.1195
▁migra	-11.1199
▁realizator	-11.1199
▁variacion	-11.1201
martin	-11.1201
▁gallo	-11.1202
afganistan	-11.1203
israèl	-11.1203
emirat	-11.1231
▁vertadièr	-11.1239
tipe	-11.124
dissa	-11.1261
▁hèr	-11.1262
▁devesi	-11.1274
▁tuc	-11.1284
▁ocasion	-11.1284
▁consist	-11.1292
▁demorat	-11.1296
▁geta	-11.1305
▁corba	-11.1323
ña	-11.1326
ció	-11.133
▁virada	-11.1335
nonciar	-11.1346
diu	-11.1349
innovacion	-11.1351
▁absolut	-11.1351
▁celèbra	-11.1351
▁fortificada	-11.1351
▁gabriel	-11.1351
▁gàrdia	-11.1351
▁maxwell	-11.1351
▁metabolisme	-11.1351
▁resistiguèt	-11.1351
▁sosfamilha	-11.1351
orquèstra	-11.1351
église	-11.1351
▁pirenenc	-11.1351
esmogudas	-11.1351
▁prètz	-11.1351
▁divessa	-11.1351
panthera	-11.1351
▁plural	-11.1351
▁tenements	-11.1351
▁tempèsta	-11.1351
▁siberia	-11.1351
▁registre	-11.1351
▁masculin	-11.1351
▁influent	-11.1351
▁recerca	-11.1351
▁lengua	-11.1351
▁balear	-11.1352
▁vegada	-11.1353
▁quinze	-11.1354
▁abelhas	-11.1354
▁tex	-11.1356
▁animat	-11.1357
▁futura	-11.1358
▁labrit	-11.1358
▁primària	-11.1359
▁80%	-11.136
▁varian	-11.1361
igor	-11.1364
strada	-11.1367
▁ocupan	-11.1371
▁arqueologicas	-11.1375
90)	-11.1375
▁existent	-11.1377
▁combatre	-11.1378
▁claudi	-11.1379
▁comerciau	-11.1381
▁migracion	-11.1383
▁explor	-11.1384
▁compresa	-11.1385
urbanizacion	-11.1386
▁varianta	-11.1388
▁presentèt	-11.1392
▁losera	-11.1397
pendant	-11.14
▁enregistrat	-11.1417
aragonés	-11.1422
▁fasián	-11.1423
▁transformar	-11.1424
▁reducha	-11.1427
apareis	-11.1436
hydr	-11.1441
▁reial	-11.1441
▁fol	-11.1455
▁necessitan	-11.1455
guièr	-11.1475
▁hall	-11.1481
▁aculh	-11.1483
▁contuniar	-11.1492
▁gram	-11.1494
▁parièr	-11.1494
quièr	-11.1498
▁buta	-11.1508
▁atomica	-11.151
▁meme	-11.1522
▁cometa	-11.1526
vira	-11.1529
sanct	-11.1536
armèni	-11.1546
tour	-11.1549
espectacle	-11.1551
explosion	-11.1551
insurreccion	-11.1551
▁constantinòble	-11.1551
▁facultat	-11.1551
▁judieva	-11.1551
▁mónegue	-11.1551
▁preïstoric	-11.1551
▁ptolemèu	-11.1551
▁redreiçament	-11.1551
▁redreiçar	-11.1551
▁termodinamic	-11.1551
▁crimèa	-11.1551
▁carnaval	-11.1551
▁bielorussia	-11.1551
▁tauleta	-11.1551
▁prospèr	-11.1551
▁biologica	-11.1551
▁preferiguè	-11.1551
▁castanh	-11.1551
▁colònia	-11.1552
▁nuech	-11.1553
amplor	-11.1553
▁sorna	-11.1553
▁consum	-11.1553
arrestacion	-11.1553
▁fragmentacion	-11.1554
▁acabat	-11.1555
▁robèrt	-11.1556
▁andes	-11.1558
alcòl	-11.1558
▁perduda	-11.156
▁significativa	-11.1561
▁establiguèron	-11.1563
▁vidanta	-11.1564
▁estèlas	-11.1565
▁somés	-11.1571
▁cellulara	-11.1574
▁vendut	-11.1574
allà	-11.1584
lyn	-11.1585
▁victima	-11.1585
▁ciutadan	-11.1586
▁vasta	-11.1588
▁adulte	-11.159
▁dusau	-11.1591
eve	-11.1594
euil	-11.1597
quitèt	-11.1605
avança	-11.1606
nascuda	-11.1607
esfòrç	-11.1607
lemosin	-11.1608
▁crompar	-11.1609
apondre	-11.1613
▁ming	-11.1616
▁gents	-11.1622
pareguèt	-11.1631
▁obliguè	-11.1631
utilizava	-11.1639
zoaris	-11.165
▁signe	-11.1655
animal	-11.1657
70)	-11.1663
▁cantal	-11.1665
▁carter	-11.1665
▁afirma	-11.1665
▁suicid	-11.1672
had	-11.1672
aissada	-11.1677
▁intellectuala	-11.1678
▁baissa	-11.1678
▁piet	-11.1684
98)	-11.1696
flor	-11.1701
çant	-11.1701
elegi	-11.1708
indici	-11.1716
▁roca	-11.1717
classifica	-11.1729
▁julian	-11.1737
illus	-11.1741
vetz	-11.1752
ornith	-11.1754
▁descobèrt	-11.1754
afondrèt	-11.1755
football	-11.1755
▁edward	-11.1755
▁fernando	-11.1755
▁laboratòri	-11.1755
▁remembra	-11.1755
▁successivas	-11.1755
▁vaccin	-11.1755
▁videojòc	-11.1755
▁profèta	-11.1755
▁poblacion	-11.1755
▁nòstre	-11.1755
▁resistent	-11.1755
▁atestada	-11.1755
▁chicago	-11.1755
▁vuege	-11.1755
▁mosqueta	-11.1755
▁coronèu	-11.1755
▁nòble	-11.1755
▁pertocant	-11.1755
▁prèire	-11.1755
http	-11.1755
▁detalhs	-11.1755
orizont	-11.1756
albigés	-11.1756
▁aténher	-11.1756
▁concert	-11.1756
▁velai	-11.1757
▁chifra	-11.1758
▁bauma	-11.1758
▁combatents	-11.1759
▁abitualament	-11.1759
opinion	-11.1759
▁comparason	-11.1761
▁uech	-11.1762
▁cook	-11.1762
▁prefondor	-11.1764
▁1887	-11.1765
▁erupcions	-11.1766
▁remplaçament	-11.1767
▁somesa	-11.1767
▁teoricament	-11.1768
▁quitar	-11.1769
▁indonesian	-11.177
aucèl	-11.1775
▁pònt	-11.1779
▁mexicana	-11.1782
▁alfabetic	-11.1783
guier	-11.1785
▁vielha	-11.1788
encenta	-11.1788
oïl	-11.179
▁peth	-11.1791
▁marxista	-11.1798
▁jogaire	-11.1803
▁manifestacion	-11.1804
▁teologian	-11.1805
associa	-11.1809
▁gost	-11.1812
aparelh	-11.1815
▁lingüisticament	-11.1818
▁caracterizan	-11.1821
▁primari	-11.1828
apèla	-11.1829
sosdialècte	-11.1833
▁vern	-11.1847
▁passan	-11.1851
▁continentau	-11.1853
82)	-11.1853
▁informatic	-11.1857
indus	-11.1876
izèron	-11.188
escriure	-11.1881
▁estrategic	-11.1889
▁bab	-11.1891
▁quint	-11.1904
▁contribu	-11.1915
▁georg	-11.1917
actual	-11.1918
▁grandei	-11.1919
▁soi	-11.1924
▁identica	-11.1928
dièr	-11.1943
buc	-11.1946
▁passada	-11.1948
afebliguèt	-11.1963
▁auvernhat	-11.1963
▁diocèsi	-11.1963
▁encoratjè	-11.1963
▁frejús	-11.1963
▁procediment	-11.1963
▁renforça	-11.1963
▁saragossa	-11.1963
▁tectonica	-11.1963
▁calandreta	-11.1963
▁eqüatoriala	-11.1963
▁reprimir	-11.1963
▁iemèn	-11.1963
▁dominica	-11.1963
▁digestiu	-11.1963
://	-11.1963
▁vadut	-11.1963
▁cencha	-11.1963
▁refreja	-11.1963
▁disparegut	-11.1963
▁espandida	-11.1964
▁elegir	-11.1964
▁aplicada	-11.1964
▁periodicitat	-11.1965
▁mestièr	-11.1965
▁chausit	-11.1965
▁jovença	-11.1965
▁bandièra	-11.1966
▁licèu	-11.1966
▁reconstruccion	-11.1966
▁desliur	-11.1966
▁introduch	-11.1966
▁conceb	-11.1966
▁durença	-11.1967
▁corean	-11.1967
▁terror	-11.1968
▁isotòps	-11.1968
▁ecosistèmas	-11.1969
▁destinacion	-11.1969
orge	-11.197
▁regéncia	-11.197
identificacion	-11.1972
▁1877	-11.1974
▁2020	-11.1974
▁whi	-11.1975
▁nepal	-11.1976
▁pretend	-11.1978
esplechar	-11.1979
▁martín	-11.1989
▁campana	-11.2016
▁war	-11.2017
▁règla	-11.2017
▁tang	-11.2023
▁pèça	-11.2025
[	-11.2026
▁atmosferica	-11.2027
▁menacè	-11.203
▁khanat	-11.2034
quimia	-11.2035
▁juridica	-11.2042
super	-11.2044
▁arribat	-11.2044
lèi	-11.2047
tenon	-11.2066
▁vocal	-11.2092
vait	-11.2092
logia	-11.2093
▁filogenetica	-11.2102
grafia	-11.2105
▁donava	-11.2105
actuala	-11.2127
▁completada	-11.2127
pliquèt	-11.2141
▁partie	-11.2141
▁veniá	-11.2147
▁valada	-11.2149
▁celebra	-11.2154
▁sufisent	-11.2154
▁plate	-11.2155
central	-11.2162
astronòm	-11.2176
imigracion	-11.2176
▁mestritge	-11.2176
▁peitieus	-11.2176
▁vauclusa	-11.2176
▁democratizacion	-11.2176
▁sassanida	-11.2176
▁estricte	-11.2176
▁retirèt	-11.2176
▁còmte	-11.2176
▁avesnes	-11.2176
▁negrier	-11.2176
▁pluvi	-11.2176
▁vallée	-11.2176
thumb	-11.2176
▁vencuda	-11.2176
▁victoriosa	-11.2176
▁national	-11.2176
▁jardin	-11.2177
▁faccions	-11.2177
▁liberalizacion	-11.2177
▁redaccion	-11.2177
▁divergéncia	-11.2178
urgéncia	-11.2178
argument	-11.2178
▁caçaires	-11.218
▁mesoamerica	-11.218
▁mairala	-11.2182
▁top	-11.2182
▁dotada	-11.2182
▁dubèrt	-11.2183
▁nuèch	-11.2184
▁piano	-11.2185
▁caors	-11.2187
▁jonhèt	-11.2188
▁1854	-11.2188
▁toristas	-11.2189
▁prefonda	-11.219
▁ostila	-11.2191
abond	-11.2195
▁mendre	-11.2196
valent	-11.2203
▁melhorèt	-11.2204
▁20%	-11.2205
idats	-11.2209
▁vendre	-11.221
▁pretz	-11.2215
▁1795	-11.2221
▁dama	-11.2222
40)	-11.2222
erb	-11.2224
▁120	-11.2227
aviacion	-11.223
▁ierarquia	-11.2235
▁trobava	-11.2244
▁tension	-11.2253
▁pensava	-11.2258
▁demorada	-11.2295
▁fonetic	-11.2311
▁natal	-11.2312
wana	-11.2315
▁personal	-11.2316
▁venon	-11.2318
▁facil	-11.2327
▁fondament	-11.2327
▁macro	-11.233
▁globala	-11.234
▁proclamat	-11.2348
ajust	-11.2353
▁hèn	-11.2355
arle	-11.2361
heim	-11.2365
▁protector	-11.2372
right	-11.2384
metre	-11.2385
▁bug	-11.2386
▁regent	-11.2388
▁utiliz	-11.2391
▁combina	-11.2391
▁dirèct	-11.2392
embrancament	-11.2393
estabilizacion	-11.2393
▁bibliografia	-11.2393
▁jusieva	-11.2393
baptiste	-11.2393
▁demostrè	-11.2393
▁rebellion	-11.2393
▁transcripcion	-11.2393
▁borgonha	-11.2393
▁cerealas	-11.2393
▁rogièr	-11.2393
▁jutjat	-11.2393
▁nicolas	-11.2393
▁primitiu	-11.2393
▁temperada	-11.2393
▁raconte	-11.2393
▁engendra	-11.2393
▁riquesa	-11.2393
▁punk	-11.2393
▁ernest	-11.2393
envolopa	-11.2394
▁sèrp	-11.2394
▁tretze	-11.2394
▁condamnat	-11.2394
▁demenís	-11.2395
▁immens	-11.2395
▁serviguè	-11.2395
▁impausat	-11.2395
▁missionaris	-11.2397
▁estrangièrs	-11.2397
▁medical	-11.2398
▁pròsa	-11.2399
▁sofre	-11.24
▁repeti	-11.2402
▁1846	-11.2405
▁posteriorament	-11.2405
▁1876	-11.2406
▁1896	-11.2406
▁1815	-11.2406
▁fèu	-11.2407
▁romaine	-11.2408
▁legir	-11.242
cossí	-11.242
▁1792	-11.242
▁frontalieras	-11.2424
atencion	-11.2425
▁polaras	-11.2427
▁pacha	-11.2428
bell	-11.2429
▁divin	-11.243
▁tap	-11.2432
▁famina	-11.2432
▁1879	-11.2433
▁cèu	-11.2434
06)	-11.2435
▁compausè	-11.2437
▁estent	-11.2452
avè	-11.2455
▁galina	-11.2463
mòni	-11.2464
▁resèrva	-11.2466
▁mamifèr	-11.2467
ocasion	-11.2468
anatolia	-11.2468
▁iniciau	-11.2479
centre	-11.2479
▁calvin	-11.2479
▁electromagnetic	-11.2481
▁identifi	-11.2489
74)	-11.2491
dja	-11.2493
▁originau	-11.2493
▁nadau	-11.25
mala	-11.2509
▁refer	-11.2519
atritz	-11.2526
nacional	-11.2536
ardena	-11.2553
▁rèire	-11.2554
lhèu	-11.2561
▁remplaça	-11.2567
▁intensa	-11.2572
▁conca	-11.2584
mund	-11.259
▁periferic	-11.2595
rota	-11.2607
contro	-11.2608
tele	-11.261
▁thi	-11.2614
▁cleopatra	-11.2615
▁presidenciau	-11.2615
▁raprochar	-11.2615
▁wilhelm	-11.2615
▁comèdia	-11.2615
▁lisbona	-11.2615
▁longitud	-11.2615
▁obligada	-11.2615
▁glaciari	-11.2615
▁basalgas	-11.2615
]]-[[	-11.2615
▁acarnada	-11.2615
▁senegal	-11.2615
▁sumerian	-11.2615
▁relatiu	-11.2616
▁consciéncia	-11.2616
field	-11.2616
▁efectiu	-11.2616
▁cavalariá	-11.2617
fichièr	-11.2617
▁cercle	-11.2617
afrontament	-11.2618
▁confondre	-11.2618
▁dobèrt	-11.2619
▁despassa	-11.2619
▁senators	-11.2619
▁descobri	-11.262
▁newton	-11.2621
▁contestat	-11.2621
▁galile	-11.2621
▁freud	-11.2622
▁blòc	-11.2623
▁god	-11.2623
▁tocant	-11.2623
▁recebre	-11.2626
▁1852	-11.2626
▁eslaus	-11.2627
▁comprés	-11.2627
▁anuala	-11.2627
▁renov	-11.2628
▁1868	-11.2628
▁1858	-11.2628
voir	-11.2634
▁menora	-11.2636
▁recurrentas	-11.2639
▁cavalièr	-11.2639
▁dicta	-11.2647
▁identic	-11.2654
▁participan	-11.2655
isola	-11.2662
▁confl	-11.2662
▁morir	-11.2697
▁demoran	-11.2697
▁gou	-11.2699
79)	-11.2699
▁umanista	-11.2705
jean	-11.2706
esclat	-11.2706
▁presidi	-11.2709
bús	-11.2713
97)	-11.2727
▁grat	-11.2731
▁oceania	-11.2734
▁porto	-11.2738
alexandre	-11.2742
83)	-11.275
▁calci	-11.2752
contributor	-11.2756
poem	-11.2758
▁chamb	-11.2781
36)	-11.2794
mpausèron	-11.28
crist	-11.2803
arran	-11.2805
espandiguè	-11.2811
▁sosespècia	-11.2824
urban	-11.2824
ordo	-11.2826
▁mòl	-11.2827
òrdi	-11.2831
▁celtica	-11.2832
▁parciala	-11.2833
isotòp	-11.2837
wald	-11.2839
peiregòrd	-11.2843
▁bénédict	-11.2843
▁copenaga	-11.2843
▁impossible	-11.2843
▁meridionau	-11.2843
▁segregacion	-11.2843
▁viticòla	-11.2843
▁estève	-11.2843
▁fuèlhas	-11.2843
jónher	-11.2843
▁champanha	-11.2843
▁luènh	-11.2843
obligacion	-11.2843
▁arcaïc	-11.2843
▁reconeissença	-11.2843
▁suggeri	-11.2843
▁encargat	-11.2843
▁kyiv	-11.2843
▁mantèu	-11.2843
▁saunós	-11.2843
▁respond	-11.2843
▁hemna	-11.2844
▁dessota	-11.2844
▁observada	-11.2846
▁causit	-11.2846
▁galícia	-11.2846
▁defunt	-11.2847
▁organics	-11.2848
▁bastiguèt	-11.2848
▁fraccion	-11.2848
▁advèrs	-11.2848
▁comprendre	-11.2851
occitanisme	-11.2851
oganda	-11.2859
▁will	-11.2861
▁1492	-11.2861
▁afars	-11.2865
▁principalei	-11.2874
▁fugue	-11.2884
▁exist	-11.2892
òsca	-11.2893
▁caufa	-11.2897
▁dieta	-11.2897
cré	-11.29
▁circula	-11.29
▁rebat	-11.2904
imitèt	-11.2927
exerc	-11.2929
fuòc	-11.2932
▁destruch	-11.2933
▁indigèna	-11.2937
▁fossil	-11.2937
▁deputat	-11.2939
bearn	-11.294
▁joguè	-11.2959
▁proteg	-11.2964
èssa	-11.2983
▁cub	-11.2983
▁cristian	-11.2996
escais	-11.3004
equipament	-11.3032
▁from	-11.3032
▁indican	-11.3048
qüa	-11.3054
cidiguèron	-11.3054
▁marcel	-11.3055
▁certan	-11.3057
pausar	-11.3057
▁you	-11.307
galh	-11.307
▁sistema	-11.3073
apròchi	-11.3075
▁dispositiu	-11.3075
▁gavaudan	-11.3075
▁ieroglific	-11.3075
▁religioses	-11.3075
▁vescomtat	-11.3075
▁vocabulari	-11.3075
▁potenciau	-11.3075
▁saxònia	-11.3075
▁botswana	-11.3075
▁simboliza	-11.3075
▁potencial	-11.3075
▁sintetiz	-11.3075
▁santiago	-11.3075
▁medalha	-11.3075
▁roqueta	-11.3075
▁opausant	-11.3075
▁peroviana	-11.3075
▁balcanic	-11.3075
▁astèc	-11.3076
▁olandesa	-11.3076
▁dumort	-11.3076
▁tablèu	-11.3076
▁mestís	-11.3076
▁constituït	-11.3076
▁polinesia	-11.3076
▁acabada	-11.3076
▁criminal	-11.3076
▁fraudas	-11.3077
▁presoniers	-11.3077
inscripcion	-11.3077
▁flandra	-11.3077
▁opausada	-11.3078
▁espandit	-11.3078
▁dependenta	-11.3079
▁enlà	-11.3079
urani	-11.308
▁massiva	-11.3082
▁soslinha	-11.3082
▁proclamacion	-11.3083
▁testament	-11.3084
▁indó	-11.3086
▁savana	-11.3089
▁brac	-11.3093
▁jogador	-11.3093
▁1871	-11.3094
▁maniera	-11.3098
▁activament	-11.3109
auriá	-11.3111
rhin	-11.3113
▁dirigent	-11.3114
entraïnament	-11.3115
▁1874	-11.3117
liber	-11.3118
▁buf	-11.3119
▁gigantas	-11.3124
▁soís	-11.3127
▁particula	-11.3135
▁sortir	-11.3144
accept	-11.3152
aisse	-11.3161
espanhòu	-11.3166
venguda	-11.3174
▁deuriá	-11.3175
▁bach	-11.3177
tropic	-11.3178
jòu	-11.3179
imam	-11.3192
▁contracte	-11.3213
100	-11.3218
▁([[1	-11.3228
▁elimina	-11.3235
và	-11.3238
▁administrat	-11.3243
qual	-11.3246
ifiquèt	-11.3248
▁guida	-11.3264
institucion	-11.3282
▁collect	-11.3297
▁determinat	-11.3299
sisténcia	-11.3301
estructuracion	-11.3305
▁département	-11.3313
enciclopèdia	-11.3313
▁arqueològs	-11.3313
▁bactèris	-11.3313
▁discriminacion	-11.3313
▁guillaume	-11.3313
▁limòtges	-11.3313
▁malàisia	-11.3313
▁necessitè	-11.3313
▁ratapenada	-11.3313
▁resolucion	-11.3313
▁subdivision	-11.3313
▁tribunal	-11.3313
indoïsme	-11.3313
▁albigeses	-11.3313
▁corrècta	-11.3313
▁desempuish	-11.3313
▁dialòg	-11.3313
▁millenni	-11.3313
anatomia	-11.3313
▁faissisme	-11.3313
▁pluton	-11.3313
▁fugida	-11.3313
▁tutèla	-11.3313
▁miguel	-11.3313
▁moderada	-11.3313
▁anticomunista	-11.3314
entenduda	-11.3314
▁elegida	-11.3314
▁aqüatic	-11.3314
▁daniel	-11.3315
▁cercaires	-11.3315
▁liberal	-11.3315
escasença	-11.3315
▁pizza	-11.3316
▁decoracion	-11.3316
elaboracion	-11.3316
▁pond	-11.3319
▁referir	-11.3319
▁esposa	-11.332
▁annexèt	-11.3321
▁dissòu	-11.3321
▁dorsala	-11.3321
▁mobilizacion	-11.3324
▁pèsta	-11.3324
▁unificat	-11.3325
▁1851	-11.3325
▁comandant	-11.3328
▁1875	-11.3331
▁pèrsa	-11.3332
edicte	-11.3336
▁contribucion	-11.3338
▁castro	-11.3343
▁constant	-11.3348
▁1750	-11.335
▁1892	-11.3355
▁1891	-11.336
▁magia	-11.3363
▁davala	-11.3366
▁bloc	-11.3367
▁ajusta	-11.337
▁animalas	-11.3375
▁metèt	-11.3378
vaast	-11.338
▁tornèron	-11.3381
wil	-11.3385
integr	-11.3409
▁rebutar	-11.3411
▁definiguè	-11.3414
▁dessenhada	-11.3416
amaisa	-11.342
▁tribú	-11.343
ieux	-11.3441
▁contentè	-11.3445
▁somali	-11.3448
▁vou	-11.3448
▁liberar	-11.3457
orden	-11.3463
▁cultivada	-11.3464
▁assimil	-11.3466
▁regiment	-11.3476
▁nobles	-11.3482
sagèt	-11.3504
▁prefond	-11.3511
▁prepausada	-11.3516
▁adam	-11.3517
chil	-11.352
châtel	-11.3524
▁fresc	-11.3552
emplaçament	-11.3554
▁coïncid	-11.3557
academia	-11.3557
aristòtel	-11.3557
escandinàvia	-11.3557
▁confirmèt	-11.3557
▁càmbia	-11.3557
▁gravitacion	-11.3557
▁marsupial	-11.3557
▁neerlandesa	-11.3557
▁peitavin	-11.3557
▁predominan	-11.3557
▁susceptibla	-11.3557
▁volontaris	-11.3557
▁1893	-11.3557
▁feminisme	-11.3557
▁morfologia	-11.3557
▁reprimida	-11.3557
▁energetic	-11.3557
▁gravitat	-11.3557
▁primitiva	-11.3557
▁familiar	-11.3557
▁richessa	-11.3557
▁aisidament	-11.3557
▁confierm	-11.3557
▁flux	-11.3557
▁façada	-11.3557
▁mòda	-11.3557
▁topografia	-11.3558
▁barreja	-11.3558
▁licéncia	-11.3558
▁sulfur	-11.3558
▁alibèrt	-11.3558
▁larvas	-11.356
▁provòca	-11.356
▁interessant	-11.356
▁milièrs	-11.3562
amistat	-11.3562
▁taxa	-11.3564
▁franz	-11.3565
▁rabin	-11.3566
idrografia	-11.3567
▁impòsts	-11.3568
▁1862	-11.3568
▁rauba	-11.3569
▁produtz	-11.3569
▁celtic	-11.3569
▁broa	-11.3577
▁nacionalitat	-11.3578
▁contenent	-11.3579
▁servís	-11.3581
▁traversada	-11.3599
avançar	-11.3605
philippe	-11.3608
▁desintegracion	-11.3609
▁destin	-11.3616
▁bul	-11.3619
▁çai	-11.3625
▁fuelh	-11.3638
▁dominava	-11.3638
▁medieval	-11.364
libre	-11.3647
▁tenent	-11.3647
eslau	-11.3658
existisson	-11.366
▁artificiala	-11.3667
wood	-11.3669
idea	-11.3671
alsàcia	-11.369
ancien	-11.3701
près	-11.3707
▁west	-11.3709
annexar	-11.3719
onant	-11.373
▁jornau	-11.3744
▁ratifica	-11.3752
▁existi	-11.3754
fòrma	-11.3757
ername	-11.3763
cromat	-11.3765
impausa	-11.3787
alunha	-11.3796
aspèct	-11.3799
▁manifesta	-11.3801
oppidum	-11.3807
▁bonaparte	-11.3807
▁circonscripcion	-11.3807
▁glòbe	-11.3807
▁macedonian	-11.3807
▁ministèri	-11.3807
▁montserrat	-11.3807
▁morfologic	-11.3807
▁provoquèt	-11.3807
▁recompensa	-11.3807
▁suedesa	-11.3807
▁system	-11.3807
▁zimbabwe	-11.3807
▁cambajon	-11.3807
▁kepler	-11.3807
▁sosterranh	-11.3807
▁minoritari	-11.3807
▁surinam	-11.3807
▁antoine	-11.3807
▁economista	-11.3807
▁josieus	-11.3807
▁sòdi	-11.3808
▁telefòn	-11.3808
▁mostrar	-11.3808
▁lewis	-11.3808
▁subrevisquèt	-11.3808
▁recuèlh	-11.3809
▁castèu	-11.3809
▁muisha	-11.381
▁deceme	-11.381
▁sacrat	-11.3812
▁sensibla	-11.3812
▁maucontentament	-11.3812
▁conjugason	-11.3813
▁sensible	-11.3815
▁concebut	-11.3816
▁dioxigèn	-11.3817
▁inventè	-11.3818
town	-11.3819
▁recors	-11.3819
▁complòt	-11.382
▁1845	-11.382
▁utilizèt	-11.382
▁picard	-11.3822
▁proclamada	-11.3827
▁largor	-11.3827
▁enterrat	-11.3827
▁creish	-11.3828
▁decidit	-11.3829
▁progressista	-11.3831
▁bascoat	-11.3836
▁justament	-11.3836
acabament	-11.3837
▁jour	-11.3844
▁otto	-11.3844
optica	-11.3847
▁diplomat	-11.3855
▁marais	-11.3858
bourg	-11.3881
▁aerian	-11.3885
▁intellectual	-11.3902
script	-11.3903
▁maissa	-11.3929
vèm	-11.3935
▁concentrada	-11.3946
bitu	-11.3946
▁extèrne	-11.395
▁proteïna	-11.395
aquera	-11.3957
ideal	-11.3957
utilizè	-11.3957
escriba	-11.3967
▁conservator	-11.3968
▁addi	-11.4007
▁reconoiss	-11.4011
▁negligi	-11.4057
cellula	-11.4058
ophryne	-11.4064
▁astronomic	-11.4064
▁batalhier	-11.4064
▁combustion	-11.4064
▁compromés	-11.4064
▁condemna	-11.4064
▁defensiva	-11.4064
▁escocés	-11.4064
▁intermediària	-11.4064
▁jutjada	-11.4064
▁kowait	-11.4064
▁noiridura	-11.4064
▁patriarca	-11.4064
▁rutherford	-11.4064
▁singapor	-11.4064
▁1873	-11.4064
▁joventut	-11.4064
▁rwanda	-11.4064
▁positiva	-11.4064
▁région	-11.4064
▁basilica	-11.4064
▁belize	-11.4064
▁colomna	-11.4064
anarquisme	-11.4064
▁versalhas	-11.4064
▁arthur	-11.4064
▁positiu	-11.4064
▁promocion	-11.4064
extincion	-11.4064
▁reculh	-11.4064
▁manchó	-11.4064
▁restaurat	-11.4064
▁diamant	-11.4064
▁importat	-11.4064
▁conservatritz	-11.4065
▁contestacion	-11.4065
▁disposicion	-11.4065
▁chausida	-11.4065
▁faiçon	-11.4065
obertura	-11.4066
▁descobriguèt	-11.4066
▁chivau	-11.4066
▁subrevida	-11.4066
▁armaments	-11.4066
▁aragonesa	-11.4068
▁exclusivament	-11.4068
▁bastí	-11.4068
▁florença	-11.407
▁vargas	-11.407
▁febus	-11.4071
▁apareisson	-11.4072
▁regardè	-11.4072
▁maximum	-11.4073
▁socialisme	-11.4075
▁1872	-11.4076
▁lombardia	-11.4077
▁1385	-11.4078
▁1838	-11.4081
▁superioritat	-11.4081
▁degalhs	-11.4082
pòrta	-11.4084
▁vènon	-11.4087
tenguda	-11.409
▁celebracion	-11.409
aubrac	-11.4095
zzo	-11.4095
▁burèu	-11.4096
▁gallic	-11.4103
▁portant	-11.4115
▁conselhièr	-11.4118
jós	-11.412
ombra	-11.414
▁laïc	-11.4152
▁bosc	-11.4156
▁tho	-11.4158
existir	-11.4166
▁talent	-11.4168
▁fondamental	-11.417
▁existisse	-11.4178
republica	-11.418
ustra	-11.4186
▁tip	-11.4186
▁pisa	-11.4204
▁adversari	-11.4219
media	-11.4227
mission	-11.4231
▁menaire	-11.4236
evoca	-11.4242
etnia	-11.4247
nòrma	-11.4254
infra	-11.4254
▁mesclan	-11.4255
obrieras	-11.4273
▁eslovèn	-11.4273
▁votè	-11.4276
▁somme	-11.4277
▁viking	-11.4277
▁penja	-11.4282
new	-11.4293
▁taur	-11.4304
acompanha	-11.4324
▁afeblida	-11.4327
▁baptista	-11.4327
▁budapèst	-11.4327
▁complexitat	-11.4327
▁defensor	-11.4327
▁enqüèra	-11.4327
▁geometria	-11.4327
▁groenlàndia	-11.4327
▁portugueses	-11.4327
▁violoncèl	-11.4327
▁cementèri	-11.4327
▁fidelitat	-11.4327
▁montanhòl	-11.4327
▁negòci	-11.4327
▁quirguiz	-11.4327
▁replegar	-11.4327
asteroïdes	-11.4327
▁margarida	-11.4327
▁burundi	-11.4327
▁percentatge	-11.4327
▁operatiu	-11.4327
interprèt	-11.4327
▁silici	-11.4327
▁agrària	-11.4327
simetric	-11.4327
▁pesucs	-11.4327
▁monarca	-11.4327
▁gaelic	-11.4327
▁pionièr	-11.4327
▁recòrd	-11.4327
▁cinetica	-11.4327
▁contorn	-11.4328
▁captaus	-11.4328
ultima	-11.4329
▁sèxe	-11.4329
▁pendís	-11.433
▁importacions	-11.4331
▁90%	-11.4332
▁terrassa	-11.4332
▁cròc	-11.4333
▁ainsi	-11.4333
▁distinguir	-11.4335
▁pagat	-11.4338
▁aranhas	-11.4338
▁centralizat	-11.4338
▁jones	-11.4338
▁1857	-11.4339
▁1869	-11.434
▁predica	-11.434
▁pilar	-11.434
▁calòta	-11.4341
▁1791	-11.4341
▁1853	-11.4343
▁papoa	-11.4343
ignor	-11.4344
▁mòsa	-11.4344
▁nubia	-11.4346
▁defendut	-11.4347
alarga	-11.4347
elector	-11.4349
agenés	-11.4353
▁dreta	-11.4354
▁hasó	-11.4358
▁teula	-11.4358
▁1864	-11.436
▁laissat	-11.4361
▁noste	-11.4368
▁tardiva	-11.4381
▁absorbi	-11.4396
▁sembl	-11.4404
atestacion	-11.4408
▁mistic	-11.4411
house	-11.4423
four	-11.4443
enregistrament	-11.4447
armenia	-11.4454
▁cruz	-11.4455
▁tornada	-11.4457
▁900	-11.449
▁maz	-11.4498
▁aliada	-11.4503
alèir	-11.4509
▁mèste	-11.4512
▁jordania	-11.4512
place	-11.4527
▁meridional	-11.4582
chanta	-11.4595
alexàndria	-11.4597
córrer	-11.4597
indochina	-11.4597
▁bolchevics	-11.4597
▁circonstàncias	-11.4597
▁créisser	-11.4597
▁lópez	-11.4597
▁mauritània	-11.4597
▁muhammad	-11.4597
▁nintendo	-11.4597
▁vinhairons	-11.4597
artilhariá	-11.4597
▁denominacion	-11.4597
▁minimum	-11.4597
▁ceramica	-11.4597
▁ectaras	-11.4597
▁andrieu	-11.4597
▁caspiana	-11.4597
akkad	-11.4597
▁murèth	-11.4597
▁vandals	-11.4597
andòrra	-11.4597
▁ghana	-11.4597
▁electorau	-11.4597
▁venecian	-11.4597
▁aquitan	-11.4598
▁sebasti	-11.4598
▁terciari	-11.4598
▁eduard	-11.4598
▁parentat	-11.4598
▁desacòrdis	-11.4598
▁zinc	-11.4598
▁nucleotids	-11.4598
ornithidae	-11.4598
▁rodès	-11.4599
▁multipliquèron	-11.4599
▁modernizar	-11.4599
▁jòrdi	-11.4599
▁colorado	-11.4599
▁constata	-11.46
▁castras	-11.46
▁antilhas	-11.46
▁rescontra	-11.46
▁fluid	-11.46
▁prolonga	-11.4601
▁gojat	-11.4602
atraccion	-11.4602
▁obrièr	-11.4603
▁jonhent	-11.4604
▁cendre	-11.4604
aquis	-11.4605
▁prestigiós	-11.4605
▁volcanisme	-11.4606
63)	-11.4606
▁1200	-11.4607
être	-11.4609
▁adonc	-11.4611
▁1849	-11.4611
▁1794	-11.4616
▁prefondament	-11.4618
▁canche	-11.462
▁pintre	-11.462
▁perifericas	-11.4622
▁absent	-11.4623
▁crenh	-11.4624
▁bush	-11.4628
▁fondador	-11.463
▁terrenh	-11.4631
▁mercè	-11.4635
▁correspondon	-11.4636
ozòn	-11.4643
▁born	-11.4662
▁demorè	-11.4665
▁traversat	-11.4665
artois	-11.4667
▁termin	-11.4681
castel	-11.4687
espèr	-11.4695
ignan	-11.4708
exterior	-11.4727
escriguèt	-11.4732
ophyta	-11.4742
▁cens	-11.4747
addicion	-11.4747
empara	-11.4753
acuelh	-11.4767
escampa	-11.477
establiguè	-11.4771
▁lexicograf	-11.4778
▁creòl	-11.4779
▁fidèu	-11.4783
▁transit	-11.4785
▁adult	-11.4823
abord	-11.4834
especialitat	-11.4868
93)	-11.4872
incorpor	-11.4874
international	-11.4875
▁building	-11.4875
▁cambridge	-11.4875
▁disponible	-11.4875
▁nebulosa	-11.4875
▁persecucions	-11.4875
▁propaganda	-11.4875
▁quotidian	-11.4875
▁respiracion	-11.4875
▁tòquio	-11.4875
▁vanuatu	-11.4875
▁virgínia	-11.4875
amazonas	-11.4875
▁kelvin	-11.4875
▁pétain	-11.4875
▁safavida	-11.4875
▁hussein	-11.4875
▁petroliera	-11.4875
▁lactèa	-11.4875
▁hrair	-11.4875
▁cobrís	-11.4875
▁siècle	-11.4875
▁diminu	-11.4875
▁sequéncia	-11.4875
▁recruta	-11.4875
▁quaranta	-11.4875
▁gustav	-11.4875
▁limós	-11.4876
▁perfèct	-11.4876
▁desplega	-11.4876
▁connecta	-11.4877
▁dobte	-11.4877
▁progression	-11.4878
▁triangle	-11.4878
▁pays	-11.488
▁pampa	-11.4886
▁anuau	-11.4886
oxidacion	-11.4887
▁ficcion	-11.4888
▁recebèron	-11.489
▁notable	-11.4891
▁dedicada	-11.4891
▁secret	-11.4891
▁1822	-11.4891
▁stone	-11.4892
▁brunei	-11.4893
▁beure	-11.4897
▁substitu	-11.4901
eurasia	-11.4905
▁maridat	-11.4905
andro	-11.4906
▁tube	-11.4907
▁particion	-11.4909
▁correspondent	-11.4928
▁verdon	-11.4929
▁confrontacion	-11.493
podem	-11.4936
▁rebutat	-11.4959
▁marcial	-11.4965
▁minier	-11.4972
prenon	-11.4975
▁tardiu	-11.4985
infinit	-11.4989
▁rang	-11.499
anjau	-11.4992
80)	-11.4999
entitats	-11.5001
estandardizacion	-11.5001
▁forni	-11.5006
etimologia	-11.5013
generalament	-11.5019
expansionisme	-11.502
aperten	-11.5026
italia	-11.5068
▁alimentar	-11.5071
caduda	-11.5095
▁bill	-11.5097
missi	-11.5108
▁navarr	-11.5114
▁inquiet	-11.5124
▁progress	-11.5128
khar	-11.5131
▁dèv	-11.5131
▁martí	-11.5144
▁destruguè	-11.5157
aminoacids	-11.516
ozbèc	-11.516
▁ceremonia	-11.516
▁cinquanta	-11.516
▁corbièras	-11.516
▁ercegovina	-11.516
▁garibaldi	-11.516
▁medicaments	-11.516
▁nicaragua	-11.516
▁trajectòria	-11.516
▁windows	-11.516
▁determinada	-11.5161
▁glaciacion	-11.5161
▁monetària	-11.5161
▁rapidàment	-11.5161
▁beneficia	-11.5161
▁toledo	-11.5161
kavski	-11.5161
▁nicolau	-11.5161
▁circuit	-11.5161
▁extèrna	-11.5161
▁samuel	-11.5161
▁puerto	-11.5161
▁tèxas	-11.5161
▁cronologia	-11.5161
▁retirèron	-11.5161
▁sinonim	-11.5161
▁constren	-11.5161
▁monroe	-11.5161
▁conegó	-11.5161
▁dublin	-11.5161
▁perpinhan	-11.5161
▁baiona	-11.5161
▁sept	-11.5161
▁desirosa	-11.5161
▁viatgè	-11.5162
▁cavaments	-11.5163
establí	-11.5163
▁plasma	-11.5164
▁autentic	-11.5164
▁qing	-11.5165
▁vector	-11.5165
▁dèlta	-11.5165
▁chiitas	-11.5166
▁stalin	-11.5166
▁immediatament	-11.5167
▁clarmont	-11.5167
▁cedir	-11.5167
evescat	-11.5169
▁refòrma	-11.5169
▁interessat	-11.517
▁trèva	-11.5172
▁mantenguèron	-11.5172
▁sodanesa	-11.5173
▁1839	-11.5179
espandiment	-11.5187
▁expedicionari	-11.5194
abelha	-11.5195
▁prestigiosa	-11.5196
carp	-11.5213
proto	-11.5235
▁romantic	-11.5248
81)	-11.5252
▁maurice	-11.5253
airau	-11.5291
kw	-11.5302
▁estudiada	-11.5307
especialament	-11.5308
album	-11.5308
1,4	-11.5312
calais	-11.532
▁natiu	-11.5343
▁intèrne	-11.5381
escad	-11.5382
▁marcian	-11.5395
calava	-11.5425
condamna	-11.5454
▁limitròf	-11.5455
equivaléncia	-11.5455
▁atribuit	-11.5455
▁bordalesa	-11.5455
▁cineasta	-11.5455
▁cinematografica	-11.5455
▁cirillic	-11.5455
▁diplòma	-11.5455
▁dnièpre	-11.5455
▁dògma	-11.5455
▁feconditat	-11.5455
▁meteorologic	-11.5455
▁microsoft	-11.5455
▁nerviós	-11.5455
▁precòç	-11.5455
▁rabastens	-11.5455
▁rescontrè	-11.5455
▁resistiguèron	-11.5455
▁sacrifici	-11.5455
▁tennessee	-11.5455
▁1863	-11.5455
▁montalban	-11.5455
▁reçaup	-11.5455
▁vichèi	-11.5455
▁aperavans	-11.5455
▁montsegur	-11.5455
▁delamarre	-11.5455
▁obtenguda	-11.5455
▁perfeccion	-11.5455
▁cèrvi	-11.5455
▁moissal	-11.5455
▁preceltic	-11.5455
▁vilafranca	-11.5455
▁condamnacion	-11.5455
indoeuropèu	-11.5455
▁malgash	-11.5455
▁minutas	-11.5455
▁pigment	-11.5455
▁sunitas	-11.5455
▁consagr	-11.5455
▁bioquimia	-11.5455
▁vicepresident	-11.5455
▁marqués	-11.5455
▁angleses	-11.5456
▁tanhent	-11.5456
▁patriot	-11.5456
infeccion	-11.5456
▁carrèra	-11.5456
proxima	-11.5456
▁satisf	-11.5456
amoniac	-11.5456
▁censura	-11.5456
▁espessa	-11.5456
▁girona	-11.5456
castrum	-11.5456
▁jacob	-11.5456
▁retrobè	-11.5457
abreuja	-11.5457
▁nevada	-11.5457
▁luenh	-11.5459
▁dejà	-11.5459
▁alpenc	-11.5463
▁blava	-11.5464
obtencion	-11.5466
▁with	-11.5468
▁1801	-11.5468
efectua	-11.5468
▁localizada	-11.547
islamizacion	-11.5472
▁caòs	-11.5473
▁1856	-11.5475
▁plastic	-11.5479
▁dolor	-11.5481
▁installacions	-11.5483
▁correspònd	-11.5485
▁notada	-11.5493
▁brave	-11.5503
lanç	-11.5505
trée	-11.5519
▁garant	-11.5522
▁fòca	-11.5525
realisme	-11.5525
▁aliatge	-11.5528
amaga	-11.5538
apartenéncia	-11.5548
▁second	-11.5558
▁subiguè	-11.5583
▁desfach	-11.5587
atomic	-11.5628
obrir	-11.5628
▁extrem	-11.5664
▁convertiguè	-11.5679
▁regropa	-11.5682
▁compos	-11.5692
▁critèri	-11.5693
▁revengut	-11.5694
▁minerau	-11.5697
▁serge	-11.5698
onduras	-11.5711
▁contrast	-11.5734
▁claude	-11.5738
estrangier	-11.5748
▁immediat	-11.5751
amainatjament	-11.5758
immigrants	-11.5758
▁alexander	-11.5758
▁béthune	-11.5758
▁jutjament	-11.5758
▁manuscrit	-11.5758
▁montpelhierenc	-11.5758
▁multiplas	-11.5758
▁mussolini	-11.5758
▁pavarotti	-11.5758
▁pretzfach	-11.5758
▁septentrionau	-11.5758
▁socrates	-11.5758
evangelizacion	-11.5758
omorpha	-11.5758
▁demostrar	-11.5758
▁siègle	-11.5758
▁danubi	-11.5758
▁solidaritat	-11.5758
▁medòc	-11.5758
▁bavièra	-11.5758
▁ideologic	-11.5758
actitud	-11.5758
▁recòlta	-11.5758
▁pacient	-11.5758
▁flamenc	-11.5758
▁trionf	-11.5758
▁cazacstan	-11.5758
▁mestissa	-11.5759
escadença	-11.5759
estabilizè	-11.5759
oficiers	-11.5759
▁neutra	-11.5759
▁intervenguè	-11.576
afierma	-11.576
▁acompanhat	-11.576
▁monoïde	-11.576
percussion	-11.5761
▁estrangièra	-11.5761
ivern	-11.5761
▁cazac	-11.5762
▁boers	-11.5763
▁etnias	-11.5764
▁franja	-11.5765
▁correspondéncia	-11.5765
▁messatge	-11.5767
innocen	-11.5767
▁equipaments	-11.5768
▁levada	-11.5769
▁renonciar	-11.5769
▁recuperacion	-11.5769
▁1817	-11.5772
▁consoma	-11.5772
▁1866	-11.5773
▁1847	-11.5775
▁60%	-11.5777
▁sortit	-11.5781
▁pòsca	-11.579
▁mudè	-11.579
agéncia	-11.5798
▁renfòrçada	-11.5799
▁variable	-11.5804
auloron	-11.5809
▁environamentala	-11.5811
▁cresquè	-11.5825
▁portava	-11.5829
▁dinamic	-11.5853
ografica	-11.5872
diplo	-11.5891
▁15%	-11.59
statu	-11.5906
▁victoria	-11.5916
château	-11.5922
ebrieu	-11.5923
província	-11.5923
importanta	-11.5923
•	-11.5924
brasil	-11.5926
catalan	-11.5927
conselh	-11.5929
▁contract	-11.5934
▁annex	-11.5938
jectiva	-11.5946
▁banha	-11.597
liberalisme	-11.5971
installa	-11.6002
▁gràcia	-11.6017
64)	-11.6035
importacion	-11.6065
▁precipita	-11.6069
accelerèt	-11.607
engenhariá	-11.607
odissèa	-11.607
▁agravada	-11.607
▁bissextila	-11.607
▁disponibla	-11.607
▁enviroutat	-11.607
▁ferdinand	-11.607
▁guitarrista	-11.607
▁jiboti	-11.607
▁leopold	-11.607
▁magnitud	-11.607
▁manchoria	-11.607
▁múrcia	-11.607
▁penetracion	-11.607
▁possedeish	-11.607
▁prefigura	-11.607
▁proletariat	-11.607
▁quíchoa	-11.607
▁relativitat	-11.607
▁rescaufament	-11.607
▁rescòntre	-11.607
▁testimoniatge	-11.607
▁tymoshenko	-11.607
▁amundsen	-11.607
▁glucid	-11.607
▁kosova	-11.607
▁propietat	-11.607
▁prononciat	-11.607
espèctre	-11.607
▁incapable	-11.607
▁tògo	-11.607
▁fisiologia	-11.607
▁isabèl	-11.607
▁miquèl	-11.607
▁plurau	-11.607
▁prussian	-11.607
▁omenatge	-11.607
▁mièja	-11.607
▁biblic	-11.607
▁bèstia	-11.607
▁carolina	-11.607
▁prudent	-11.607
▁francobritanic	-11.607
▁erudit	-11.607
▁blues	-11.6071
▁omanés	-11.6071
▁zambia	-11.6071
enebiment	-11.6071
▁commuta	-11.6071
▁cartesian	-11.6071
▁capitol	-11.6071
otramar	-11.6071
▁cacau	-11.6071
▁condensa	-11.6071
▁gravadura	-11.6071
▁angeles	-11.6071
▁egèa	-11.6071
▁degradacion	-11.6071
▁omeia	-11.6072
▁royal	-11.6072
addam	-11.6072
▁concors	-11.6073
▁avançat	-11.6074
▁decrèt	-11.6074
▁kiev	-11.6074
▁reservat	-11.6074
▁monenh	-11.6075
▁dictator	-11.6075
animacion	-11.6076
▁dalfin	-11.6076
▁cruesa	-11.6077
▁expulsats	-11.6078
▁negligibla	-11.6078
issèron	-11.6082
▁corresa	-11.6085
▁1808	-11.6085
aussau	-11.6086
▁1828	-11.6087
▁habitants	-11.6088
▁1806	-11.6088
▁titan	-11.6088
▁1888	-11.6089
▁1841	-11.6089
atraire	-11.6091
▁pòcha	-11.6093
▁maridar	-11.6095
▁ricard	-11.6098
▁trafeg	-11.6099
▁~)"	-11.6106
▁investi	-11.6107
▁observè	-11.6107
▁frank	-11.6108
▁moleculara	-11.611
▁1855	-11.6118
▁linear	-11.6123
urbanisme	-11.6142
▁hica	-11.6174
ròca	-11.6211
▁agrada	-11.6228
ensenha	-11.6243
actritz	-11.6246
lengadòc	-11.6246
implica	-11.6247
importants	-11.6247
▁modèrn	-11.6259
agropa	-11.6259
aguest	-11.6312
▁autorizè	-11.6318
▁proprietari	-11.6349
observ	-11.6364
terminacion	-11.6377
estrangièr	-11.6384
▁maucontent	-11.6386
atemptat	-11.6387
phyll	-11.6388
austronesian	-11.6393
▁(+)...(	-11.6393
accèpta	-11.6393
amsterdam	-11.6393
ascension	-11.6393
intelligéncia	-11.6393
invertebrat	-11.6393
▁discípol	-11.6393
▁fotosintèsi	-11.6393
▁impossibla	-11.6393
▁irlandesa	-11.6393
▁lauragués	-11.6393
▁narbonesa	-11.6393
▁similitud	-11.6393
▁trencavel	-11.6393
▁viticultura	-11.6393
▁dinamisme	-11.6393
▁jersei	-11.6393
▁manifèst	-11.6393
▁revendiquè	-11.6393
▁toscana	-11.6393
histoire	-11.6393
itinerari	-11.6393
▁leopard	-11.6393
▁vulgar	-11.6393
▁senegau	-11.6393
▁periguers	-11.6393
▁idrografic	-11.6393
▁malhum	-11.6393
▁clorur	-11.6393
▁jutjar	-11.6393
▁etimologic	-11.6393
▁lhèida	-11.6393
▁taliban	-11.6393
▁pujada	-11.6393
▁protocòl	-11.6393
▁vençut	-11.6393
▁preciós	-11.6393
▁talvera	-11.6393
▁grosso	-11.6393
▁pròpi	-11.6393
▁praube	-11.6393
▁shaw	-11.6393
▁siegue	-11.6393
▁biologics	-11.6393
▁donjon	-11.6393
▁fugir	-11.6393
▁sumèr	-11.6393
▁responsabilitat	-11.6393
▁guaiana	-11.6393
▁sismica	-11.6393
▁farmacia	-11.6393
auvèrnha	-11.6393
▁bovins	-11.6394
▁diego	-11.6394
▁glòria	-11.6394
▁disiá	-11.6394
▁darfor	-11.6394
на	-11.6394
▁aumentèron	-11.6395
▁malawi	-11.6395
▁puretat	-11.6395
▁visitaires	-11.6396
▁mutacions	-11.6396
▁vincent	-11.6396
▁feudal	-11.6397
▁generalizèt	-11.6397
▁catars	-11.6397
▁acusat	-11.6398
inventor	-11.6399
▁maòri	-11.6399
vòca	-11.64
esquèma	-11.6402
▁colona	-11.6402
▁triple	-11.6405
▁diversificacion	-11.6405
▁1832	-11.641
▁70%	-11.6411
▁lanka	-11.6412
abraam	-11.6414
▁trabalhava	-11.6415
▁dividit	-11.6418
airbus	-11.6418
▁cram	-11.6421
lheires	-11.6422
▁classificat	-11.6434
espitau	-11.6438
▁suscita	-11.6447
▁medici	-11.6457
āco	-11.6457
▁elementària	-11.6471
carton	-11.6473
normal	-11.6475
▁30%	-11.6484
autorota	-11.6498
▁presonièr	-11.6499
escandi	-11.6532
estandard	-11.6578
egipcian	-11.6578
indonesia	-11.6579
aprèp	-11.6579
aquesi	-11.6639
entend	-11.6641
2002)	-11.6644
▁subsist	-11.666
apieja	-11.6663
escéncia	-11.6664
interpreta	-11.6675
clair	-11.6688
▁centenau	-11.6694
▁minièr	-11.6696
▁concep	-11.6715
▁expulsa	-11.6718
assaiè	-11.6722
▁abitual	-11.6724
accelerar	-11.6726
afeblir	-11.6726
ozbequistan	-11.6726
▁artificiau	-11.6726
▁babilonian	-11.6726
▁brussèlas	-11.6726
▁dinosaures	-11.6726
▁explicit	-11.6726
▁mameloc	-11.6726
▁marshall	-11.6726
▁menerbés	-11.6726
▁mentàver	-11.6726
▁productivitat	-11.6726
▁rodoreda	-11.6726
▁sospichat	-11.6726
acceleracion	-11.6726
eficacitat	-11.6726
engatjèt	-11.6726
inquisicion	-11.6726
▁banlèga	-11.6726
▁gandhi	-11.6726
▁glaciers	-11.6726
▁1763	-11.6726
▁conducha	-11.6726
▁restaurada	-11.6726
illinois	-11.6726
▁confusion	-11.6726
dactyl	-11.6726
▁polimèr	-11.6726
▁vocacion	-11.6726
▁jaguar	-11.6726
catalunya	-11.6726
▁notabla	-11.6726
▁ramsès	-11.6726
▁guerrier	-11.6726
▁metratge	-11.6726
▁succediguèron	-11.6726
▁fantastic	-11.6726
▁marginaliz	-11.6726
▁pianista	-11.6726
▁isaac	-11.6727
▁vulnerab	-11.6727
implicit	-11.6727
▁botiga	-11.6727
▁liberalizar	-11.6727
▁insular	-11.6727
▁famoses	-11.6727
ardecha	-11.6728
▁alunchada	-11.6729
▁coordena	-11.6729
▁belgrad	-11.673
▁mikha	-11.673
▁cuerb	-11.673
▁vailet	-11.673
assetja	-11.6731
▁desboca	-11.6732
▁trabalhadors	-11.6733
▁moriguèron	-11.6734
▁descricha	-11.6735
▁40%	-11.6735
▁zuric	-11.6736
▁legitimitat	-11.6736
▁concedi	-11.6737
▁causir	-11.6742
obacteria	-11.6743
exterminacion	-11.6745
aqüari	-11.6753
oregon	-11.6756
▁modernista	-11.6792
▁global	-11.6809
▁redond	-11.6818
▁septentrional	-11.6822
econom	-11.6823
cònte	-11.6827
nect	-11.6838
adoptèt	-11.6924
manuel	-11.6924
▁madur	-11.6945
considerablament	-11.6958
2004)	-11.7003
sound	-11.7024
▁decidí	-11.7026
▁visigòt	-11.7051
▁civiu	-11.7051
▁naviri	-11.7051
▁recensa	-11.7062
atrocitats	-11.7071
impossibilitat	-11.7071
infantariá	-11.7071
▁afrikaner	-11.7071
▁aquemenida	-11.7071
▁biodiversitat	-11.7071
▁calàbria	-11.7071
▁capitulacion	-11.7071
▁conóisser	-11.7071
▁emblematic	-11.7071
▁garcía	-11.7071
▁intervocalic	-11.7071
▁norridura	-11.7071
▁nucleïc	-11.7071
▁preponderant	-11.7071
▁processus	-11.7071
▁protagonista	-11.7071
▁radioactiva	-11.7071
▁singalés	-11.7071
▁successivament	-11.7071
▁système	-11.7071
▁sèrbocroat	-11.7071
▁vincenç	-11.7071
▁vladimir	-11.7071
▁crompè	-11.7071
▁ipotetic	-11.7071
argelièrs	-11.7071
▁fortificat	-11.7071
▁prevencion	-11.7071
▁repertòri	-11.7071
▁rosegaire	-11.7071
interfàcia	-11.7071
▁montreuil	-11.7071
▁revenge	-11.7071
▁finlandés	-11.7071
▁fonèma	-11.7071
▁senescauci	-11.7071
▁trafec	-11.7071
▁napoleonencas	-11.7071
▁enkidu	-11.7071
▁einstein	-11.7071
▁sierra	-11.7071
esqueleta	-11.7071
▁papir	-11.7071
▁seminari	-11.7071
▁creaturas	-11.7071
▁pergamin	-11.7072
literalament	-11.7072
abrial	-11.7072
époque	-11.7072
▁lipids	-11.7072
▁classificar	-11.7072
▁princi	-11.7072
▁taiwan	-11.7072
▁trouve	-11.7072
▁podèva	-11.7073
▁seguisson	-11.7073
▁unificada	-11.7073
▁gratacèls	-11.7074
▁partatja	-11.7074
osiris	-11.7075
▁bertran	-11.7076
▁restabliguè	-11.7076
▁collectiva	-11.7076
▁atemptats	-11.7077
neuve	-11.7078
▁blocatge	-11.708
competent	-11.7081
arreceb	-11.7082
entamenè	-11.7088
▁grassa	-11.709
▁brusc	-11.7094
▁decorat	-11.7129
▁aprenguè	-11.7153
▁joaqu	-11.7208
zòna	-11.7222
1994)	-11.7232
actualitat	-11.7239
nistr	-11.7277
uruguai	-11.7281
aproficha	-11.7281
colonia	-11.7284
batalha	-11.7285
venç	-11.7295
laurent	-11.7318
▁prevei	-11.7325
▁ierarqui	-11.7329
primièr	-11.7363
▁probabla	-11.7418
▁renforc	-11.7418
▁omonim	-11.7422
1980	-11.7425
biàrritz	-11.7428
félix	-11.7428
▁bangladeshi	-11.7428
▁ceremònia	-11.7428
▁chapluòc	-11.7428
▁divòrci	-11.7428
▁genocidi	-11.7428
▁geometrica	-11.7428
▁meteorit	-11.7428
▁michigan	-11.7428
▁restriccion	-11.7428
▁revoutèron	-11.7428
▁sanscrit	-11.7428
▁superfamilha	-11.7428
▁transsaharian	-11.7428
▁vivaroaupenc	-11.7428
▁briançon	-11.7428
▁considerè	-11.7428
▁descomposicion	-11.7428
▁khoisan	-11.7428
▁palèrme	-11.7428
▁dragons	-11.7428
▁dròlle	-11.7428
▁suèz	-11.7428
artropòdes	-11.7428
▁murtrier	-11.7428
▁tòrna	-11.7428
▁garriga	-11.7428
▁trebolat	-11.7428
▁feminista	-11.7428
▁malacca	-11.7428
▁vaissèl	-11.7428
▁high	-11.7428
▁dramatic	-11.7428
▁potassi	-11.7428
▁sarrasins	-11.7428
▁zèro	-11.7428
▁neoclassic	-11.7428
▁vibracion	-11.7428
▁multitud	-11.7428
▁ròda	-11.7429
▁caseriu	-11.7429
▁rift	-11.7429
migrèron	-11.7429
▁viscut	-11.7429
▁australa	-11.7429
▁canadian	-11.7429
▁acompanhada	-11.7429
pterygi	-11.7429
▁feblessa	-11.7429
▁damasc	-11.7429
▁podèm	-11.7429
▁brazza	-11.7429
avalanca	-11.743
▁bòrn	-11.743
▁sagrada	-11.7431
▁mantengut	-11.7431
▁magistr	-11.7431
british	-11.7432
▁luther	-11.7432
▁filològ	-11.7432
▁substrat	-11.7432
▁seguiguèt	-11.7432
▁tragic	-11.7433
"/"	-11.7433
▁pregond	-11.7433
uranus	-11.7435
enebir	-11.7443
aparéncia	-11.7445
hesdin	-11.7445
▁determinatiu	-11.7449
▁fixè	-11.7453
automobila	-11.7467
▁châ	-11.748
alternància	-11.749
▁aplicat	-11.7491
acabè	-11.7502
reconoissença	-11.7509
▁practic	-11.7528
▁jordan	-11.7542
▁vasco	-11.7542
home	-11.7583
▁hameau	-11.7584
lept	-11.7649
lituània	-11.7651
crestian	-11.7653
sovietic	-11.7655
▁noiriss	-11.7672
estabili	-11.7674
obriers	-11.7689
▁amad	-11.7689
▁patiguè	-11.7692
importantei	-11.7716
deutsch	-11.772
▁philip	-11.7721
aquil	-11.7752
▁geograf	-11.7773
▁proximit	-11.7788
apondon	-11.7794
afroasiatic	-11.7798
aprendissatge	-11.7798
onycteris	-11.7798
▁automatica	-11.7798
▁checoslovac	-11.7798
▁continuitat	-11.7798
▁giuseppe	-11.7798
▁individuau	-11.7798
▁lengües	-11.7798
▁messenger	-11.7798
▁mississipí	-11.7798
▁precolombian	-11.7798
▁propagacion	-11.7798
▁roergassa	-11.7798
▁sosprefectura	-11.7798
▁subreviure	-11.7798
▁territoire	-11.7798
▁tolerància	-11.7798
evaporacion	-11.7798
▁determinant	-11.7798
▁precoloniau	-11.7798
sociolingüistica	-11.7798
▁continú	-11.7798
▁heurèr	-11.7798
▁patogèn	-11.7798
▁scission	-11.7798
egemonia	-11.7798
escandòl	-11.7798
▁impressionant	-11.7798
assemblatge	-11.7798
▁zodiac	-11.7798
rhynch	-11.7798
▁massilia	-11.7798
▁microorganismes	-11.7798
accedir	-11.7798
▁polemica	-11.7798
▁domaine	-11.7798
▁eventualament	-11.7798
sentongés	-11.7798
▁replanat	-11.7799
▁manipula	-11.7799
▁pregària	-11.7799
▁provocar	-11.7799
▁consèrva	-11.7799
▁signada	-11.7799
▁company	-11.7799
▁destenduda	-11.7799
▁detalhada	-11.7799
▁cremona	-11.7799
▁bahia	-11.7799
▁enebida	-11.7799
empresona	-11.7799
▁fotografic	-11.7799
▁bleça	-11.7799
ologie	-11.7799
▁guerrièr	-11.7799
▁conqueri	-11.7799
▁centrafrica	-11.7799
▁component	-11.7799
▁rejonh	-11.7799
▁emplechs	-11.7799
▁bully	-11.78
▁abolit	-11.78
arbitre	-11.78
▁aminats	-11.78
▁votada	-11.7801
▁retròba	-11.7801
rivada	-11.7801
▁evolutiva	-11.7803
▁avancè	-11.7808
▁reversè	-11.7813
▁releva	-11.7814
▁silva	-11.782
abadia	-11.7823
engrais	-11.7827
▁produsí	-11.783
▁route	-11.784
north	-11.7892
ogale	-11.7908
▁vital	-11.7915
arnaut	-11.7942
existissiá	-11.8006
bòsc	-11.8036
ròse	-11.8039
tolosa	-11.8041
illustracion	-11.8042
dètz	-11.8106
73)	-11.8143
▁culmina	-11.8177
▁reconstru	-11.8182
egiptològ	-11.8183
▁armstrong	-11.8183
▁atribuida	-11.8183
▁cetacèus	-11.8183
▁cretacèu	-11.8183
▁espontanèa	-11.8183
▁gibartar	-11.8183
▁insufisen	-11.8183
▁meravilhas	-11.8183
▁monopòli	-11.8183
▁oblidats	-11.8183
▁omogenèa	-11.8183
▁pleïstocèn	-11.8183
▁pompèa	-11.8183
▁reciclatge	-11.8183
▁respònsa	-11.8183
▁revoutèt	-11.8183
▁suprimir	-11.8183
▁tanganyika	-11.8183
▁teutonic	-11.8183
▁thérouanne	-11.8183
▁trípol	-11.8183
▁usatgèr	-11.8183
atribucion	-11.8183
▁chevalier	-11.8183
▁collision	-11.8183
▁corupcion	-11.8183
▁esquichada	-11.8183
▁familiala	-11.8183
▁tanpauc	-11.8183
▁yahve	-11.8183
▁academic	-11.8183
▁castèlnòu	-11.8183
▁pampalona	-11.8183
▁simetria	-11.8183
escalfament	-11.8183
▁melodia	-11.8183
▁sumatra	-11.8183
▁funerari	-11.8183
▁mandolina	-11.8183
▁livònia	-11.8183
▁missils	-11.8183
▁mogòl	-11.8183
astrologia	-11.8183
▁beaurain	-11.8183
▁concrèt	-11.8183
▁continuè	-11.8183
▁rocosas	-11.8183
▁turcmèn	-11.8183
▁touquet	-11.8183
rugby	-11.8183
▁provocat	-11.8183
▁agardh	-11.8183
▁medicau	-11.8183
armanhac	-11.8183
▁eliminè	-11.8184
▁jamei	-11.8184
apropria	-11.8184
investigacion	-11.8184
▁relarg	-11.8184
▁suspresa	-11.8184
▁franklin	-11.8185
▁sanguin	-11.8185
▁mayenne	-11.8185
incident	-11.8185
▁fenicians	-11.8185
▁recuelh	-11.8185
▁marcellin	-11.8185
aligança	-11.8185
▁ribiera	-11.8186
▁pluri	-11.8187
estomac	-11.8187
▁annèxa	-11.8188
ariditat	-11.8188
▁segueish	-11.8188
autoritarisme	-11.819
▁lirica	-11.8194
▁enebiguè	-11.8202
▁coneissiá	-11.8203
▁usina	-11.8206
▁tribü	-11.8206
▁partisan	-11.8208
▁sèrv	-11.8214
▁modifiquè	-11.8246
amassè	-11.8275
dialècte	-11.8282
criol	-11.8308
▁fabri	-11.831
▁filogenetic	-11.8319
ensenhè	-11.8359
encontran	-11.8363
executiu	-11.8436
reialme	-11.8436
general	-11.8443
rèç	-11.8474
▁publiquè	-11.8511
entrè	-11.852
placèt	-11.8566
exigi	-11.8572
astúrias	-11.8583
dreyfus	-11.8583
embocadura	-11.8583
instruccion	-11.8583
irrigacion	-11.8583
▁1307-1317	-11.8583
▁biscaia	-11.8583
▁configuracion	-11.8583
▁cromosòma	-11.8583
▁decènni	-11.8583
▁festival	-11.8583
▁filogenia	-11.8583
▁glutèn	-11.8583
▁gorbachov	-11.8583
▁mahayana	-11.8583
▁montevideo	-11.8583
▁multipartisme	-11.8583
▁reconóissença	-11.8583
▁swaziland	-11.8583
▁tatgiquistan	-11.8583
▁triumvirat	-11.8583
▁atribuï	-11.8583
▁educatiu	-11.8583
▁fadaruna	-11.8583
▁kafka	-11.8583
▁manifestè	-11.8583
▁plasmà	-11.8583
▁sosclassa	-11.8583
▁suprimida	-11.8583
▁suprimit	-11.8583
▁carburant	-11.8583
▁francoprovençal	-11.8583
▁suspension	-11.8583
afranqui	-11.8583
▁ierarquizada	-11.8583
▁resonància	-11.8583
▁güell	-11.8583
▁josieva	-11.8583
▁catarina	-11.8583
▁portuària	-11.8583
▁conscient	-11.8583
▁batejat	-11.8583
▁quarks	-11.8583
▁bèrra	-11.8583
▁tasmania	-11.8583
▁arpitan	-11.8583
▁raciala	-11.8583
▁cancèr	-11.8583
▁vaduda	-11.8583
▁fosquè	-11.8583
▁sauvatèrra	-11.8583
▁modèsta	-11.8584
▁semiarid	-11.8584
▁instable	-11.8584
▁seriós	-11.8584
▁sofia	-11.8584
▁incorporat	-11.8584
▁inegala	-11.8584
▁pesuca	-11.8584
▁valdés	-11.8584
▁qatar	-11.8584
▁precedi	-11.8584
▁romantisme	-11.8584
▁isabel	-11.8584
ор	-11.8584
▁constituïda	-11.8585
▁fòssa	-11.8585
▁adige	-11.8585
▁yuan	-11.8585
▁paradís	-11.8586
auxiliar	-11.8586
▁emergi	-11.8586
▁miquel	-11.8589
acèas	-11.859
▁rudolf	-11.8593
▁ceilan	-11.86
afirmar	-11.8603
▁aqueri	-11.8604
eïsta	-11.8607
aspira	-11.8616
▁periodic	-11.8622
▁legislativa	-11.8622
▁ressorsa	-11.8624
▁1580	-11.8636
urbir	-11.8644
▁sagè	-11.8663
gramm	-11.8686
apollo	-11.8728
impulsion	-11.8738
esquina	-11.8748
coneishença	-11.8762
hawai	-11.8781
continent	-11.8852
fotografia	-11.8853
classic	-11.8853
obratge	-11.8854
assegura	-11.8858
ongrés	-11.8861
▁encontr	-11.8863
▁atmosferic	-11.8871
▁automobil	-11.8954
enquadra	-11.8992
▁codifica	-11.8992
vergéncia	-11.8997
absorpcion	-11.9
englòba	-11.9
estocòlme	-11.9
impuretats	-11.9
▁brunehaut	-11.9
▁champolion	-11.9
▁cracòvia	-11.9
▁dispareguèron	-11.9
▁djehoti	-11.9
▁episcopal	-11.9
▁expausada	-11.9
▁glaciària	-11.9
▁inclús	-11.9
▁inexistent	-11.9
▁inscrich	-11.9
▁khrushchov	-11.9
▁lawrence	-11.9
▁magdalena	-11.9
▁manhattan	-11.9
▁napolitan	-11.9
▁sedentarizacion	-11.9
▁theravada	-11.9
▁vidèo	-11.9
▁cangoró	-11.9
▁comerçant	-11.9
▁compostèla	-11.9
▁guaraní	-11.9
▁rocassós	-11.9
igièna	-11.9
▁bornèo	-11.9
▁immobiliari	-11.9
▁prètzfach	-11.9
archipèu	-11.9
▁college	-11.9
▁nsdap	-11.9
▁subtropical	-11.9
▁ciceron	-11.9
▁même	-11.9
▁project	-11.9
▁reversament	-11.9
austeritat	-11.9
▁barbados	-11.9
▁repòsta	-11.9
▁gustau	-11.9
▁cevenas	-11.9
▁noveme	-11.9
▁multiples	-11.9
▁viscó	-11.9
emblèma	-11.9
▁quicòm	-11.9
▁nuèit	-11.9
▁còrdoa	-11.9
▁sevilha	-11.9
▁ahmad	-11.9
▁ludwi	-11.9
▁agustin	-11.9
▁critiquè	-11.9
▁realizèron	-11.9
▁biòma	-11.9
apellacion	-11.9
▁darwin	-11.9
▁enrodada	-11.9
annèx	-11.9
armonia	-11.9
▁fiscala	-11.9001
▁disputa	-11.9001
assistent	-11.9001
intestin	-11.9001
▁abondant	-11.9001
▁vicente	-11.9001
▁calcari	-11.9001
▁sarthe	-11.9001
▁admira	-11.9002
▁impausada	-11.9002
aurenja	-11.9002
▁perturba	-11.9003
▁conquesta	-11.9004
uomo	-11.9005
aksum	-11.9006
aluenha	-11.9007
ossetia	-11.9007
▁evangeli	-11.9021
▁esfòrc	-11.9022
homme	-11.9031
▁equilibra	-11.9033
▁tunis	-11.9049
dèrma	-11.9055
▁empediguè	-11.907
empleguè	-11.9092
▁privatiza	-11.9105
independ	-11.9119
▁illustr	-11.9128
▁esperant	-11.9162
espasa	-11.918
▁universal	-11.9187
▁mobilizè	-11.9278
equivalent	-11.9287
montanha	-11.9287
colonizacion	-11.9288
domeni	-11.9288
assosta	-11.9289
▁descurbiguè	-11.9362
explorar	-11.9397
▁assassin	-11.9415
▁exacta	-11.9424
▁confond	-11.9433
armistici	-11.9434
enfugir	-11.9434
ortodoxia	-11.9434
ultraviolet	-11.9434
▁beethoven	-11.9434
▁bèucaire	-11.9434
▁cellulòsa	-11.9434
▁confucianisme	-11.9434
▁erbivòr	-11.9434
▁escorpion	-11.9434
▁formiguier	-11.9434
▁fujimori	-11.9434
▁massachusetts	-11.9434
▁metafòra	-11.9434
▁mickey	-11.9434
▁microtubul	-11.9434
▁nomenclatura	-11.9434
▁pavalhon	-11.9434
▁precèptes	-11.9434
▁ribosòma	-11.9434
▁sinagòga	-11.9434
▁sydney	-11.9434
▁apreciat	-11.9434
▁boulogne	-11.9434
▁cerdanha	-11.9434
▁marjarida	-11.9434
▁niquèl	-11.9434
▁baikal	-11.9434
▁cooperativa	-11.9434
▁catarisme	-11.9435
▁inondacion	-11.9435
▁manciet	-11.9435
▁panteon	-11.9435
▁flandre	-11.9435
▁maryland	-11.9435
▁tower	-11.9435
▁camelat	-11.9435
▁retorica	-11.9435
▁reversar	-11.9435
▁peitau	-11.9435
▁desaparegut	-11.9435
▁luench	-11.9435
▁virginia	-11.9435
▁desirança	-11.9435
idiòma	-11.9435
terapia	-11.9435
▁smith	-11.9435
▁reticul	-11.9435
▁elisab	-11.9435
▁luterian	-11.9435
▁admés	-11.9435
▁verticala	-11.9435
▁ernst	-11.9435
▁licencia	-11.9435
aquisgran	-11.9435
▁tactica	-11.9435
elevacion	-11.9435
▁bengala	-11.9435
▁nazisme	-11.9435
▁clerk	-11.9435
morfisme	-11.9435
▁glandas	-11.9436
endeman	-11.9436
émile	-11.9436
vocable	-11.9436
▁estimula	-11.9437
▁produseish	-11.9437
▁trentena	-11.9437
ogaden	-11.9437
▁invèrsa	-11.9439
▁introdusi	-11.944
▁alcalin	-11.944
campagne	-11.9441
afrontar	-11.9453
enfança	-11.9461
eqüacion	-11.9463
reiautat	-11.9527
editor	-11.9531
nyct	-11.9535
assegurança	-11.9536
esposè	-11.9537
▁jusqu	-11.9547
1969)	-11.9549
umanisme	-11.9608
▁presidencial	-11.9618
esparta	-11.9635
moneda	-11.9668
0.000	-11.9679
explorador	-11.9697
▁impuls	-11.9717
conegut	-11.9718
octavius	-11.9741
enzim	-11.9746
trobam	-11.98
▁coordina	-11.9827
referís	-11.9842
especificitat	-11.9888
▁microscopic	-11.9889
afirmèt	-11.9889
▁adriatica	-11.9889
▁aeronautic	-11.9889
▁benedictin	-11.9889
▁campairòl	-11.9889
▁citoplasma	-11.9889
▁consecutiva	-11.9889
▁hortalessa	-11.9889
▁liechtenstein	-11.9889
▁liturgia	-11.9889
▁magnèsi	-11.9889
▁missorí	-11.9889
▁possedissiá	-11.9889
▁projeccion	-11.9889
▁promòure	-11.9889
▁pueyrredon	-11.9889
▁rodríguez	-11.9889
▁trajècte	-11.9889
▁transilvània	-11.9889
▁tuberculòsi	-11.9889
▁verdelais	-11.9889
▁vernacular	-11.9889
voyager	-11.9889
▁baucita	-11.9889
▁clandestin	-11.9889
▁mèdias	-11.9889
▁perspectiva	-11.9889
▁rutèns	-11.9889
▁sarròt	-11.9889
▁taylor	-11.9889
▁traïson	-11.9889
▁vertadèr	-11.9889
agravèron	-11.9889
▁cauchó	-11.9889
▁marroquin	-11.9889
▁probabilitat	-11.9889
▁toltèc	-11.9889
▁vèstits	-11.9889
▁burkina	-11.9889
abdomèn	-11.9889
▁bolonha	-11.9889
▁guyana	-11.9889
eclipsi	-11.9889
▁prediccion	-11.9889
▁quocient	-11.9889
dafnís	-11.9889
arquevesque	-11.9889
▁capoeira	-11.9889
▁ceucle	-11.9889
▁dispareis	-11.9889
▁feodau	-11.9889
▁pavlov	-11.9889
▁dominion	-11.9889
▁potabla	-11.9889
▁solitari	-11.9889
▁nòsta	-11.9889
▁andrew	-11.9889
▁fruit	-11.9889
▁rhode	-11.9889
▁cardinau	-11.9889
▁captivitat	-11.9889
▁muscles	-11.9889
▁nigerian	-11.9889
arrevirada	-11.9889
▁wolf	-11.9889
▁jordi	-11.9889
argiela	-11.9889
▁gamma	-11.9889
▁repartida	-11.9889
▁designè	-11.989
▁tamols	-11.989
▁fonologia	-11.989
▁reprimiguè	-11.989
atlàs	-11.989
▁chasteu	-11.989
▁elvetic	-11.989
▁enrodat	-11.989
▁tròia	-11.989
▁abondosa	-11.989
▁convoca	-11.989
▁elaborat	-11.9891
▁satiric	-11.9891
▁reservada	-11.9892
importar	-11.9892
▁vèspa	-11.9892
abraham	-11.9893
work	-11.9893
governamentala	-11.9894
espeliguèt	-11.9894
expleita	-11.9896
▁silvi	-11.9897
▁italic	-11.9902
▁ibèr	-11.9903
espelida	-11.9907
guardia	-11.9911
osauria	-11.9914
▁dinastic	-11.9914
▁tripla	-11.9914
examen	-11.9927
▁cobriss	-11.9941
burgond	-11.9942
athies	-11.9942
▁bolega	-11.9943
▁introduguè	-11.9945
stituit	-11.9948
▁iniciè	-11.996
apiela	-11.9962
▁fenicia	-12
authie	-12.0008
conquistador	-12.0033
▁aculhiguè	-12.0048
assimilacion	-12.0063
imalaia	-12.0076
catolic	-12.01
imaginar	-12.0144
▁express	-12.0144
▁artificial	-12.0151
irlandés	-12.0217
britanic	-12.0218
diccionari	-12.0218
madrid	-12.0218
parçan	-12.0219
major	-12.0219
comunista	-12.0219
paregut	-12.0241
infligi	-12.0323
▁adopt	-12.0323
▁immobil	-12.0365
acompanhè	-12.0365
arbitratge	-12.0365
crocodil	-12.0365
excentricitat	-12.0365
helsinki	-12.0365
imigrants	-12.0365
lectromagnetisme	-12.0365
▁benasqués	-12.0365
▁bielorús	-12.0365
▁bismarck	-12.0365
▁bloquier	-12.0365
▁bolívar	-12.0365
▁cataracta	-12.0365
▁destitucion	-12.0365
▁fenèstras	-12.0365
▁glucòsa	-12.0365
▁impopular	-12.0365
▁inaugurat	-12.0365
▁linguistica	-12.0365
▁miegjorn	-12.0365
▁mohammed	-12.0365
▁montmorency	-12.0365
▁omnivòr	-12.0365
▁palestinians	-12.0365
▁possedisson	-12.0365
▁restituir	-12.0365
▁terapeutica	-12.0365
▁trencavèl	-12.0365
▁turcmenistan	-12.0365
▁vasadés	-12.0365
aucupacion	-12.0365
▁agravat	-12.0365
▁biomassa	-12.0365
▁burzum	-12.0365
▁estrasborg	-12.0365
▁luminosa	-12.0365
▁luminós	-12.0365
▁preferéncia	-12.0365
▁reconquistè	-12.0365
▁regulacion	-12.0365
▁sedimentari	-12.0365
▁tibèri	-12.0365
▁[...]	-12.0365
eufrates	-12.0365
obsèrva	-12.0365
▁capitular	-12.0365
▁chastèl	-12.0365
▁descopatge	-12.0365
▁ferrolh	-12.0365
▁hadith	-12.0365
▁tahiti	-12.0365
▁cantalausa	-12.0365
▁logiciel	-12.0365
▁rafael	-12.0365
▁museum	-12.0365
▁monetari	-12.0365
▁brown	-12.0365
▁logistica	-12.0365
▁saxons	-12.0365
▁valaquia	-12.0365
ontàrio	-12.0365
▁conjunt	-12.0365
▁ashanti	-12.0365
▁despuei	-12.0365
▁telluri	-12.0365
▁timòr	-12.0365
▁anientada	-12.0365
intègra	-12.0366
▁promulga	-12.0366
infiltra	-12.0366
esquelèt	-12.0366
▁comedian	-12.0366
▁produsiguèt	-12.0366
▁empiric	-12.0366
ananàs	-12.0366
▁chastel	-12.0366
▁esportiva	-12.0366
▁ortografic	-12.0367
esclairatge	-12.0367
▁fiscau	-12.0367
▁lièch	-12.0367
inversion	-12.0367
espécia	-12.0367
▁fogau	-12.0367
avenidor	-12.0367
absència	-12.0368
▁cardinal	-12.0368
▁rainal	-12.037
apartèn	-12.037
▁nectar	-12.037
afeccion	-12.037
▁cecil	-12.0374
▁caotic	-12.0375
embrion	-12.0376
▁saudian	-12.0376
▁preparè	-12.0377
joseon	-12.0383
iyya	-12.04
embarca	-12.0544
afirmacion	-12.0556
arrapa	-12.0648
▁associ	-12.0689
rosselhon	-12.0717
tendéncia	-12.0718
bordèu	-12.0718
joseph	-12.0718
social	-12.0745
alexandr	-12.0761
▁comerci	-12.0799
▁competi	-12.0851
elecomunicacions	-12.0865
frédéric	-12.0865
paréisher	-12.0865
▁accessible	-12.0865
▁boulonnais	-12.0865
▁brantòsme	-12.0865
▁carcassés	-12.0865
▁catedrau	-12.0865
▁celebritat	-12.0865
▁cloroplast	-12.0865
▁compensacion	-12.0865
▁controvèrsia	-12.0865
▁defensiu	-12.0865
▁demostracion	-12.0865
▁dramaturg	-12.0865
▁extraordinari	-12.0865
▁gaudenç	-12.0865
▁grenòble	-12.0865
▁idroelectrica	-12.0865
▁kiribati	-12.0865
▁maufisança	-12.0865
▁merovingian	-12.0865
▁minnesòta	-12.0865
▁neuròna	-12.0865
▁norriguiers	-12.0865
▁reünificacion	-12.0865
▁sunnitas	-12.0865
▁tarragona	-12.0865
▁taxonomia	-12.0865
▁triangular	-12.0865
▁vriolon	-12.0865
evangèli	-12.0865
▁confluéncia	-12.0865
▁folclori	-12.0865
▁gueisèr	-12.0865
▁liturgic	-12.0865
▁celsius	-12.0865
▁fracàs	-12.0865
▁gòrjas	-12.0865
▁cirurgia	-12.0865
▁processor	-12.0865
edimborg	-12.0865
▁cronologic	-12.0865
▁emprunt	-12.0865
emigrats	-12.0865
▁enemiga	-12.0865
▁provocada	-12.0865
▁polluent	-12.0865
occasion	-12.0865
estímul	-12.0865
▁arrestada	-12.0865
▁capitulè	-12.0865
▁tolosenc	-12.0865
▁conductor	-12.0865
▁terminason	-12.0865
keynesianisme	-12.0865
▁ragno	-12.0865
imperatiu	-12.0865
▁bauç	-12.0865
arbitrar	-12.0865
▁spider	-12.0865
▁exemplar	-12.0865
▁ancienne	-12.0866
▁aranesi	-12.0866
▁calcària	-12.0866
▁micronesia	-12.0866
▁salomon	-12.0866
▁nelson	-12.0866
▁mètro	-12.0866
▁río	-12.0866
arqueologia	-12.0866
confession	-12.0866
▁retirat	-12.0866
▁desgatja	-12.0867
▁perpetua	-12.0867
▁mauriac	-12.0867
▁teodò	-12.0868
escandal	-12.0869
anóncia	-12.0869
ofèrta	-12.087
gupta	-12.0874
▁cooper	-12.0874
robòt	-12.0876
enquèsta	-12.0876
avescat	-12.0877
▁vèrm	-12.0881
▁congrea	-12.0883
▁profession	-12.0919
migrar	-12.0985
rigida	-12.101
▁miliard	-12.1015
existiguèt	-12.1098
uòg	-12.1109
▁reinè	-12.1122
~	-12.5997
ã	-12.6117
└	-13.5507
├	-13.5508
│	-13.5509
